{
  "version": "1.0",
  "truncation": null,
  "padding": null,
  "added_tokens": [
    {
      "id": 0,
      "content": "<pad>",
      "single_word": false,
      "lstrip": false,
      "rstrip": false,
      "normalized": false,
      "special": true
    },
    {
      "id": 1,
      "content": "<bos>",
      "single_word": false,
      "lstrip": false,
      "rstrip": false,
      "normalized": false,
      "special": true
    },
    {
      "id": 2,
      "content": "<eos>",
      "single_word": false,
      "lstrip": false,
      "rstrip": false,
      "normalized": false,
      "special": true
    },
    {
      "id": 3,
      "content": "<unk>",
      "single_word": false,
      "lstrip": false,
      "rstrip": false,
      "normalized": false,
      "special": true
    }
  ],
  "normalizer": {
    "type": "Lowercase"
  },
  "pre_tokenizer": {
    "type": "ByteLevel",
    "add_prefix_space": true,
    "trim_offsets": true,
    "use_regex": true
  },
  "post_processor": null,
  "decoder": null,
  "model": {
    "type": "BPE",
    "dropout": null,
    "unk_token": "<unk>",
    "continuing_subword_prefix": null,
    "end_of_word_suffix": null,
    "fuse_unk": false,
    "byte_fallback": false,
    "ignore_merges": false,
    "vocab": {
      "<pad>": 0,
      "<bos>": 1,
      "<eos>": 2,
      "<unk>": 3,
      "!": 4,
      "\"": 5,
      "#": 6,
      "$": 7,
      "%": 8,
      "&": 9,
      "'": 10,
      "(": 11,
      ")": 12,
      "*": 13,
      "+": 14,
      ",": 15,
      "-": 16,
      ".": 17,
      "/": 18,
      "0": 19,
      "1": 20,
      "2": 21,
      "3": 22,
      "4": 23,
      "5": 24,
      "6": 25,
      "7": 26,
      "8": 27,
      "9": 28,
      ":": 29,
      ";": 30,
      "<": 31,
      "=": 32,
      ">": 33,
      "?": 34,
      "@": 35,
      "[": 36,
      "\\": 37,
      "]": 38,
      "^": 39,
      "_": 40,
      "`": 41,
      "a": 42,
      "b": 43,
      "c": 44,
      "d": 45,
      "e": 46,
      "f": 47,
      "g": 48,
      "h": 49,
      "i": 50,
      "j": 51,
      "k": 52,
      "l": 53,
      "m": 54,
      "n": 55,
      "o": 56,
      "p": 57,
      "q": 58,
      "r": 59,
      "s": 60,
      "t": 61,
      "u": 62,
      "v": 63,
      "w": 64,
      "x": 65,
      "y": 66,
      "z": 67,
      "{": 68,
      "|": 69,
      "}": 70,
      "~": 71,
      "¡": 72,
      "¢": 73,
      "£": 74,
      "¤": 75,
      "¥": 76,
      "¦": 77,
      "§": 78,
      "¨": 79,
      "©": 80,
      "ª": 81,
      "«": 82,
      "¬": 83,
      "®": 84,
      "¯": 85,
      "°": 86,
      "±": 87,
      "²": 88,
      "³": 89,
      "´": 90,
      "µ": 91,
      "¶": 92,
      "·": 93,
      "¸": 94,
      "¹": 95,
      "º": 96,
      "»": 97,
      "¼": 98,
      "½": 99,
      "¾": 100,
      "¿": 101,
      "Â": 102,
      "Ã": 103,
      "Ä": 104,
      "Å": 105,
      "Æ": 106,
      "Ç": 107,
      "È": 108,
      "É": 109,
      "Ê": 110,
      "Ë": 111,
      "Ì": 112,
      "Í": 113,
      "Î": 114,
      "Ï": 115,
      "Ð": 116,
      "Ñ": 117,
      "Ò": 118,
      "Ó": 119,
      "Ô": 120,
      "×": 121,
      "Ø": 122,
      "Ù": 123,
      "Ú": 124,
      "Û": 125,
      "Ü": 126,
      "à": 127,
      "á": 128,
      "â": 129,
      "ã": 130,
      "ä": 131,
      "å": 132,
      "æ": 133,
      "ç": 134,
      "è": 135,
      "é": 136,
      "ê": 137,
      "ë": 138,
      "ì": 139,
      "í": 140,
      "î": 141,
      "ï": 142,
      "ā": 143,
      "Ă": 144,
      "ă": 145,
      "Ą": 146,
      "ą": 147,
      "Ć": 148,
      "ć": 149,
      "Ĉ": 150,
      "ċ": 151,
      "Ď": 152,
      "ď": 153,
      "Đ": 154,
      "đ": 155,
      "Ē": 156,
      "ē": 157,
      "Ĕ": 158,
      "ĕ": 159,
      "Ė": 160,
      "ė": 161,
      "Ę": 162,
      "ę": 163,
      "Ě": 164,
      "ě": 165,
      "Ĝ": 166,
      "ĝ": 167,
      "Ğ": 168,
      "ğ": 169,
      "Ġ": 170,
      "ġ": 171,
      "Ģ": 172,
      "ģ": 173,
      "Ĥ": 174,
      "ĥ": 175,
      "Ħ": 176,
      "ħ": 177,
      "Ĩ": 178,
      "ĩ": 179,
      "Ī": 180,
      "ī": 181,
      "Ĭ": 182,
      "ĭ": 183,
      "Į": 184,
      "į": 185,
      "İ": 186,
      "ı": 187,
      "Ĳ": 188,
      "ĳ": 189,
      "Ĵ": 190,
      "ĵ": 191,
      "Ķ": 192,
      "ķ": 193,
      "ĸ": 194,
      "Ĺ": 195,
      "ĺ": 196,
      "Ļ": 197,
      "ļ": 198,
      "Ľ": 199,
      "ľ": 200,
      "Ŀ": 201,
      "ŀ": 202,
      "Ł": 203,
      "ł": 204,
      "Ń": 205,
      "es": 206,
      "Ġd": 207,
      "on": 208,
      "Ġa": 209,
      "en": 210,
      "Ġt": 211,
      "ti": 212,
      "Ġl": 213,
      "Ã©": 214,
      "Ġp": 215,
      "Ġc": 216,
      "in": 217,
      "er": 218,
      "Ġs": 219,
      "an": 220,
      "re": 221,
      "Ġth": 222,
      "Ġde": 223,
      "tion": 224,
      "or": 225,
      "is": 226,
      "ent": 227,
      "ou": 228,
      "it": 229,
      "Ġthe": 230,
      "al": 231,
      "Ġm": 232,
      "Ġe": 233,
      "ar": 234,
      "Ġf": 235,
      "Ġo": 236,
      "Ġin": 237,
      "ro": 238,
      "ation": 239,
      "qu": 240,
      "at": 241,
      "âĢ": 242,
      "le": 243,
      "Ġb": 244,
      "ic": 245,
      "ment": 246,
      "Ġan": 247,
      "Ġof": 248,
      "Ġn": 249,
      "ur": 250,
      "Ġla": 251,
      "un": 252,
      "Ġr": 253,
      "om": 254,
      "ed": 255,
      "Ġw": 256,
      "il": 257,
      "Ġre": 258,
      "Ġdes": 259,
      "Ġand": 260,
      "el": 261,
      "Ġet": 262,
      "Ġle": 263,
      "Ġpro": 264,
      "as": 265,
      "Ġcon": 266,
      "Ġto": 267,
      "âĢĻ": 268,
      "Ġles": 269,
      "ce": 270,
      "ec": 271,
      "ra": 272,
      "us": 273,
      "Ġh": 274,
      "ĠÃ": 275,
      "Ġg": 276,
      "ing": 277,
      "Ġqu": 278,
      "Ġen": 279,
      "ant": 280,
      "our": 281,
      "Ġcom": 282,
      "si": 283,
      "ri": 284,
      "ĠÃł": 285,
      "te": 286,
      "ad": 287,
      "ir": 288,
      "Ġun": 289,
      "Ġv": 290,
      "Ġau": 291,
      "Ġ(": 292,
      "ol": 293,
      "ch": 294,
      "et": 295,
      "Ġpar": 296,
      "00": 297,
      "Ġ1": 298,
      "Ġdu": 299,
      "ve": 300,
      "ul": 301,
      "Ġ2": 302,
      "ci": 303,
      "pp": 304,
      "Ã¨": 305,
      "Ã©s": 306,
      "ta": 307,
      "Ġfor": 308,
      "ter": 309,
      "im": 310,
      "ans": 311,
      "ĠÃ©": 312,
      "ement": 313,
      "tr": 314,
      "Ġon": 315,
      "ers": 316,
      "os": 317,
      "Ġcan": 318,
      "au": 319,
      "id": 320,
      "ig": 321,
      "ag": 322,
      "ac": 323,
      "th": 324,
      "ire": 325,
      "Ġpr": 326,
      "Ġsu": 327,
      "me": 328,
      "ess": 329,
      "est": 330,
      "Ġex": 331,
      "ĠdÃ©": 332,
      "Ġcanad": 333,
      "ab": 334,
      "ort": 335,
      "Ġac": 336,
      "Ġpour": 337,
      "ations": 338,
      "ff": 339,
      "tu": 340,
      "Ġas": 341,
      "Ġch": 342,
      "ver": 343,
      "bl": 344,
      "ion": 345,
      "ie": 346,
      "Ġor": 347,
      "que": 348,
      "em": 349,
      "Ġpl": 350,
      "Ġis": 351,
      "Ġcomm": 352,
      "Ġbe": 353,
      "Ġsur": 354,
      "Ġj": 355,
      "Ġdans": 356,
      "ate": 357,
      "and": 358,
      "di": 359,
      "ati": 360,
      "du": 361,
      "pl": 362,
      "tÃ©": 363,
      "Ġ200": 364,
      "ĠâĢ": 365,
      "ts": 366,
      "ĠrÃ©": 367,
      "Ġque": 368,
      "op": 369,
      "Ġno": 370,
      "tre": 371,
      "Ġthat": 372,
      "end": 373,
      "iv": 374,
      "itÃ©": 375,
      "Ġal": 376,
      "âĢ¨": 377,
      "Ġres": 378,
      "am": 379,
      "sion": 380,
      "Ġou": 381,
      "ont": 382,
      "se": 383,
      "Ġcomp": 384,
      "Ġmo": 385,
      "ill": 386,
      "tin": 387,
      "Ġcanada": 388,
      "ces": 389,
      "ith": 390,
      "for": 391,
      "ly": 392,
      "Ġapp": 393,
      "ay": 394,
      "erv": 395,
      "um": 396,
      "Ġwh": 397,
      "ance": 398,
      "Ã©r": 399,
      "tions": 400,
      "ity": 401,
      "onn": 402,
      "Ġune": 403,
      "Ġwith": 404,
      "fic": 405,
      "oc": 406,
      "iti": 407,
      "Ġne": 408,
      "Ã©e": 409,
      "Ġse": 410,
      "ous": 411,
      "Ġav": 412,
      "ence": 413,
      "vel": 414,
      "urs": 415,
      "de": 416,
      "res": 417,
      "Ġqui": 418,
      "Ġim": 419,
      "cl": 420,
      "ure": 421,
      "Ġad": 422,
      "form": 423,
      "ain": 424,
      "Ġtra": 425,
      "ow": 426,
      "port": 427,
      "st": 428,
      "Ã©es": 429,
      "__": 430,
      "Ġinter": 431,
      "Ġby": 432,
      "ist": 433,
      "tic": 434,
      "Ġit": 435,
      "ut": 436,
      "ne": 437,
      "oun": 438,
      "ques": 439,
      "Ġare": 440,
      "ĠâĢ¢": 441,
      "Ġtr": 442,
      "Ġy": 443,
      "Ġat": 444,
      "Ġ19": 445,
      "les": 446,
      "Ġserv": 447,
      "Ġaux": 448,
      "ap": 449,
      "ale": 450,
      "gra": 451,
      "ct": 452,
      "Ġ3": 453,
      "Ġest": 454,
      "Ġcons": 455,
      "ction": 456,
      "ue": 457,
      "Ġ-": 458,
      "Ġfa": 459,
      "ge": 460,
      "Ġper": 461,
      "Ġso": 462,
      "Ġdis": 463,
      "Ġservic": 464,
      "Ġst": 465,
      "age": 466,
      "able": 467,
      "ere": 468,
      "ten": 469,
      "ments": 470,
      "pr": 471,
      "ens": 472,
      "Ġpu": 473,
      "Ġco": 474,
      "der": 475,
      "aux": 476,
      "ign": 477,
      "pec": 478,
      "ting": 479,
      "ard": 480,
      "ies": 481,
      "Ġmar": 482,
      "ais": 483,
      "ble": 484,
      "ven": 485,
      "Ġsec": 486,
      "Ã¨re": 487,
      "ational": 488,
      "mes": 489,
      "pe": 490,
      "air": 491,
      "gram": 492,
      "ient": 493,
      "min": 494,
      "ique": 495,
      "Ġsh": 496,
      "Ġpas": 497,
      "Ġar": 498,
      "Ġce": 499,
      "Ġgr": 500,
      "tiv": 501,
      "Ġprogram": 502,
      "og": 503,
      "Ġcanadi": 504,
      "elle": 505,
      "Ġplus": 506,
      "Ġfin": 507,
      "rom": 508,
      "ber": 509,
      "ĠÂ": 510,
      "app": 511,
      "Ġmin": 512,
      "Ã©c": 513,
      "Ġag": 514,
      "Ġprov": 515,
      "Ġpe": 516,
      "ons": 517,
      "Ġthis": 518,
      "Ġcl": 519,
      "ants": 520,
      "Ġpubl": 521,
      "ord": 522,
      "aire": 523,
      "Ġacc": 524,
      "Ãª": 525,
      "Ġ:": 526,
      "entre": 527,
      "Ġprodu": 528,
      "Ġk": 529,
      "Ġrec": 530,
      "Ġpol": 531,
      "ang": 532,
      "ph": 533,
      "od": 534,
      "Ġass": 535,
      "ex": 536,
      "Ġcommun": 537,
      "Ġparti": 538,
      "Ġman": 539,
      "ux": 540,
      "Ġil": 541,
      "ite": 542,
      "plo": 543,
      "Ġreg": 544,
      "Ġhe": 545,
      "ated": 546,
      "ins": 547,
      "Ġam": 548,
      "per": 549,
      "Ġ4": 550,
      "if": 551,
      "..": 552,
      "ission": 553,
      "ond": 554,
      "par": 555,
      "tive": 556,
      "Ġnot": 557,
      "ision": 558,
      "tri": 559,
      "ld": 560,
      "pos": 561,
      "ich": 562,
      "its": 563,
      "Ġpo": 564,
      "ine": 565,
      "Ġpers": 566,
      "Ġdi": 567,
      "Ġfrom": 568,
      "Ġsont": 569,
      "vern": 570,
      "all": 571,
      "Ã©n": 572,
      "une": 573,
      "Ġont": 574,
      "ear": 575,
      "Ġpre": 576,
      "Ġeff": 577,
      "tif": 578,
      "ures": 579,
      "aires": 580,
      "ther": 581,
      "ise": 582,
      "out": 583,
      "ult": 584,
      "av": 585,
      "lement": 586,
      "Ġrel": 587,
      "Ġ5": 588,
      "Ġem": 589,
      "ud": 590,
      "Ġus": 591,
      "Ġtrans": 592,
      "formation": 593,
      "ari": 594,
      "gan": 595,
      "Ġeu": 596,
      "Ã©g": 597,
      "ip": 598,
      "ork": 599,
      "ary": 600,
      "ail": 601,
      "Ġwas": 602,
      "Ġservices": 603,
      "ors": 604,
      "Ġ199": 605,
      "jec": 606,
      "Ã©ri": 607,
      "igh": 608,
      "cial": 609,
      "Ġins": 610,
      "Ġu": 611,
      "Ġdire": 612,
      "Ġsub": 613,
      "Ġproc": 614,
      ").": 615,
      "cip": 616,
      "itÃ©s": 617,
      "li": 618,
      "Ġsy": 619,
      "bre": 620,
      "Ġstr": 621,
      "Ġter": 622,
      "ements": 623,
      "che": 624,
      "Ġconc": 625,
      "Ã¨s": 626,
      "ase": 627,
      "til": 628,
      "Ġgo": 629,
      "Ġcol": 630,
      "Ġintern": 631,
      "ĠprÃ©": 632,
      "Ġha": 633,
      "Ġpri": 634,
      "ould": 635,
      "Ġall": 636,
      "Ġob": 637,
      "ture": 638,
      "Ġme": 639,
      "iss": 640,
      "),": 641,
      "titu": 642,
      "Ġdo": 643,
      "Ã©d": 644,
      "ats": 645,
      "ves": 646,
      "____": 647,
      "Ġpublic": 648,
      "ell": 649,
      "ide": 650,
      "ier": 651,
      "Ġwill": 652,
      "oir": 653,
      "Ġinc": 654,
      "ities": 655,
      "Ġind": 656,
      "Ġab": 657,
      "Ġmem": 658,
      "ak": 659,
      "Ġ\"": 660,
      "iz": 661,
      "ents": 662,
      "Ġpos": 663,
      "Ġeuro": 664,
      "Ġ6": 665,
      "tres": 666,
      "hn": 667,
      "ted": 668,
      "jet": 669,
      "Ã©sent": 670,
      "olog": 671,
      "ĠÃ©tÃ©": 672,
      "Ġavec": 673,
      "Ġmon": 674,
      "Ġimp": 675,
      "Ġorgan": 676,
      "Ġhave": 677,
      "ace": 678,
      "Ġcet": 679,
      "mand": 680,
      "Ġsa": 681,
      "con": 682,
      "Ġwhich": 683,
      "Ġ0": 684,
      "val": 685,
      "Ġli": 686,
      "200": 687,
      "to": 688,
      "ish": 689,
      "vir": 690,
      "ait": 691,
      "iques": 692,
      "Ġform": 693,
      "Ġentre": 694,
      "Ġes": 695,
      "Ġcour": 696,
      "ob": 697,
      "velop": 698,
      "ploy": 699,
      "ern": 700,
      "lic": 701,
      "tain": 702,
      "ative": 703,
      "els": 704,
      "ore": 705,
      "Ã´": 706,
      "tes": 707,
      "Ġdevelop": 708,
      "tis": 709,
      "are": 710,
      "ass": 711,
      "isation": 712,
      "Ġi": 713,
      "Ġwe": 714,
      "Ġsou": 715,
      "ĠrÃ©g": 716,
      "Ġpersonn": 717,
      "Ġpay": 718,
      "Ġsupp": 719,
      "Ġrequ": 720,
      "ong": 721,
      "Ġwork": 722,
      "ues": 723,
      "tem": 724,
      "fer": 725,
      "Ġhas": 726,
      "rit": 727,
      "tabl": 728,
      "gh": 729,
      "ial": 730,
      "rÃ©": 731,
      "fin": 732,
      "Ġinformation": 733,
      "Ġ$": 734,
      "ates": 735,
      "Ġces": 736,
      "estion": 737,
      "Ġbo": 738,
      "ice": 739,
      "ĠrÃ©s": 740,
      "Ġbi": 741,
      "bil": 742,
      "ome": 743,
      "Ġren": 744,
      "Ġ9": 745,
      "Ġ7": 746,
      "Ġother": 747,
      "Ġcoun": 748,
      "ach": 749,
      "Ġpart": 750,
      "Ġcommission": 751,
      "bu": 752,
      "po": 753,
      "Ġ8": 754,
      "lec": 755,
      "'s": 756,
      "ĠÃª": 757,
      "Ġgrou": 758,
      "tra": 759,
      "Ġtrav": 760,
      "Ġactiv": 761,
      "Ġlo": 762,
      "echn": 763,
      "alth": 764,
      "Ġcar": 765,
      "ical": 766,
      "Ġann": 767,
      "Ġdiff": 768,
      "int": 769,
      "ps": 770,
      "Ġtheir": 771,
      "ĠÃªtre": 772,
      "elles": 773,
      "tor": 774,
      "Ġresp": 775,
      "pÃ©": 776,
      "Ġsi": 777,
      "ia": 778,
      "Ġcette": 779,
      "Ġcer": 780,
      "Ġappro": 781,
      "Ġnew": 782,
      "Ġnom": 783,
      "ĠâĢĵ": 784,
      "Ġnational": 785,
      "eral": 786,
      "Ġits": 787,
      "por": 788,
      "Ġnon": 789,
      "Ġincl": 790,
      "Ġimport": 791,
      "Ġplan": 792,
      "Ġhealth": 793,
      "fication": 794,
      "Ġtechn": 795,
      "ile": 796,
      "mo": 797,
      "Ġro": 798,
      "tru": 799,
      "Ġoffic": 800,
      "vent": 801,
      "gr": 802,
      "Ġph": 803,
      "ticle": 804,
      "ection": 805,
      "Ã§": 806,
      "Ġdemand": 807,
      "Ã¨res": 808,
      "Ġfac": 809,
      "uation": 810,
      "ĠÂ«": 811,
      "Ġcor": 812,
      "Ġemploy": 813,
      "Ġrapp": 814,
      "Ġel": 815,
      "Ġcap": 816,
      "Ġenvir": 817,
      "enti": 818,
      "omm": 819,
      "cri": 820,
      "Ġunder": 821,
      "cep": 822,
      "Ġinternational": 823,
      "teur": 824,
      "ust": 825,
      "Ġcanadian": 826,
      "Ġsta": 827,
      "Ġservice": 828,
      "ources": 829,
      "Ġdonn": 830,
      "ille": 831,
      "Ġgovern": 832,
      "so": 833,
      "Ġdoc": 834,
      "Ġfinan": 835,
      "ences": 836,
      "Ġser": 837,
      "Ġperm": 838,
      "Ġnou": 839,
      "Ġprot": 840,
      "ĠprÃ©sent": 841,
      "Ġwere": 842,
      "Ġspec": 843,
      "ales": 844,
      "Ã£": 845,
      "Ġ.": 846,
      "Ġprin": 847,
      "ive": 848,
      "Ġprocess": 849,
      "Ġvo": 850,
      "cher": 851,
      "enc": 852,
      "oll": 853,
      "Ġma": 854,
      "Ġminis": 855,
      "one": 856,
      "Ġleur": 857,
      "ese": 858,
      "antÃ©": 859,
      "Ġindi": 860,
      "cision": 861,
      "sition": 862,
      "ivers": 863,
      "Ġfr": 864,
      "Ġdro": 865,
      "enne": 866,
      "ough": 867,
      "Ġgen": 868,
      "sid": 869,
      "duc": 870,
      "ises": 871,
      "Ġyear": 872,
      "cc": 873,
      "ĠgÃ©n": 874,
      "Ġapplic": 875,
      "conom": 876,
      "Ã©l": 877,
      "ĠsantÃ©": 878,
      "Ġpoliti": 879,
      "ions": 880,
      "Ġvis": 881,
      "iÃ¨re": 882,
      "tro": 883,
      "Ġeffec": 884,
      "Ġcomme": 885,
      "Ġnor": 886,
      "Ġdocu": 887,
      "Ġmemb": 888,
      "Ġgou": 889,
      "Ġmay": 890,
      "ound": 891,
      "Ġdev": 892,
      "Ġop": 893,
      "dition": 894,
      "Ġcas": 895,
      "Ġmore": 896,
      "ric": 897,
      "Ġnum": 898,
      "Ġver": 899,
      "Ġalso": 900,
      "Ġsoci": 901,
      "Ġparticip": 902,
      "ose": 903,
      "Ġconse": 904,
      "acc": 905,
      "enn": 906,
      "Ġson": 907,
      "Ġbeen": 908,
      "ourn": 909,
      "ot": 910,
      "Ġaff": 911,
      "Ġrapport": 912,
      "Ġdirec": 913,
      "ual": 914,
      "Ġprogramme": 915,
      "Ġthere": 916,
      "oci": 917,
      "Ġthese": 918,
      "Ġrem": 919,
      "Ġ10": 920,
      "ater": 921,
      "....": 922,
      "Ġ[": 923,
      "ĠÂ»": 924,
      "abil": 925,
      "Ġmanag": 926,
      "Ġgouvern": 927,
      "Ġmes": 928,
      "Â©": 929,
      "Ġreport": 930,
      "Ġpres": 931,
      "Ã¨me": 932,
      "Ġdur": 933,
      "pend": 934,
      "19": 935,
      "Ġconcern": 936,
      "Ġsign": 937,
      "ticul": 938,
      "ww": 939,
      "000": 940,
      "tribu": 941,
      "Ġtout": 942,
      "part": 943,
      "Ġprojet": 944,
      "ulation": 945,
      "ours": 946,
      "Ġinf": 947,
      "opp": 948,
      "pri": 949,
      "Ġconf": 950,
      "ke": 951,
      "use": 952,
      "ks": 953,
      "gal": 954,
      "iew": 955,
      "istr": 956,
      "Ġses": 957,
      "Ġout": 958,
      "Ġbas": 959,
      "Ã©t": 960,
      "Ġdevelopment": 961,
      "Ġtravail": 962,
      "ory": 963,
      "ances": 964,
      "Ã¨g": 965,
      "eu": 966,
      "Ġprof": 967,
      "Ġparticul": 968,
      "Ġinv": 969,
      "anc": 970,
      "ĠÃ©t": 971,
      "entr": 972,
      "Ġmet": 973,
      "Ġmain": 974,
      "Ġeurope": 975,
      "stem": 976,
      "Ġmarch": 977,
      "Ġchar": 978,
      "Ġqual": 979,
      "ru": 980,
      "etw": 981,
      "ind": 982,
      "Ġsit": 983,
      "ils": 984,
      "ost": 985,
      "Ġrev": 986,
      "Ġprovin": 987,
      "Ġfun": 988,
      "Ġthey": 989,
      "ng": 990,
      "ages": 991,
      "ple": 992,
      "ime": 993,
      "Ġgu": 994,
      "earch": 995,
      "ouv": 996,
      "Ġrecher": 997,
      "Ġnous": 998,
      "Ġinstitu": 999,
      "Ġpolic": 1000,
      "ets": 1001,
      "Ġris": 1002,
      "ax": 1003,
      "Ġenviron": 1004,
      "Ġtou": 1005,
      "Ġloc": 1006,
      "vention": 1007,
      "01": 1008,
      "Ġexam": 1009,
      "Ġresearch": 1010,
      "Ġfait": 1011,
      "ĠgÃ©nÃ©r": 1012,
      "Ġhum": 1013,
      "atives": 1014,
      "Ġdeux": 1015,
      "sible": 1016,
      "Ġpra": 1017,
      "Ġgovernment": 1018,
      "velopp": 1019,
      "Ġsc": 1020,
      "ific": 1021,
      "ms": 1022,
      "Ġ%": 1023,
      "tal": 1024,
      "Ġrep": 1025,
      "Ġpropos": 1026,
      "Ġprovid": 1027,
      "termin": 1028,
      "olu": 1029,
      "ating": 1030,
      "Ġâ": 1031,
      "ante": 1032,
      "Ġ>": 1033,
      "Ġrequire": 1034,
      "Ġiniti": 1035,
      "Ġsystem": 1036,
      "Ġpays": 1037,
      "raph": 1038,
      "Ġprem": 1039,
      "ress": 1040,
      "Ġpeut": 1041,
      "teurs": 1042,
      "________": 1043,
      "ty": 1044,
      "vid": 1045,
      "Ġfon": 1046,
      "aly": 1047,
      "Ġcommit": 1048,
      "Ġ2006": 1049,
      "Ġgestion": 1050,
      "Ġindus": 1051,
      "ding": 1052,
      "Ġmill": 1053,
      "ĠrÃ¨g": 1054,
      "Ġbut": 1055,
      "Ġcontin": 1056,
      "ency": 1057,
      "Ġsuch": 1058,
      "Ġproduc": 1059,
      "Ġprojec": 1060,
      "ĠdÃ©velopp": 1061,
      "ene": 1062,
      "Ġshould": 1063,
      "Ġloi": 1064,
      "Ġ2005": 1065,
      "ied": 1066,
      "Ġiss": 1067,
      "Ġgouvernement": 1068,
      "ca": 1069,
      "Ġone": 1070,
      "Ãł": 1071,
      "Ġjus": 1072,
      "des": 1073,
      "Ġover": 1074,
      "try": 1075,
      "Ġany": 1076,
      "valuation": 1077,
      "ange": 1078,
      "ature": 1079,
      "Ġyou": 1080,
      "Ġid": 1081,
      "Ġutil": 1082,
      "Ġif": 1083,
      "Ġfir": 1084,
      "ois": 1085,
      "her": 1086,
      "Ġcontribu": 1087,
      "Ġsuiv": 1088,
      "ĠÃ©ta": 1089,
      "Ġnombre": 1090,
      "hip": 1091,
      "seign": 1092,
      "agraph": 1093,
      "Ġ12": 1094,
      "tim": 1095,
      "Ġuse": 1096,
      "Ġrespec": 1097,
      "Ġ2004": 1098,
      "ight": 1099,
      "Ġpeu": 1100,
      "Ġain": 1101,
      "ov": 1102,
      "ree": 1103,
      "lev": 1104,
      "abor": 1105,
      "Ġorganis": 1106,
      "tique": 1107,
      "Ġthan": 1108,
      "Ġcommer": 1109,
      "Ġsupport": 1110,
      "Ġprincip": 1111,
      "Ġainsi": 1112,
      "ural": 1113,
      "Ġprotection": 1114,
      "Ġbr": 1115,
      "Ġinclud": 1116,
      "ai": 1117,
      "ĠmÃ©": 1118,
      "Ġlim": 1119,
      "Ġact": 1120,
      "Ġtechnolog": 1121,
      "Ġdate": 1122,
      "ui": 1123,
      "ton": 1124,
      "Ġtri": 1125,
      "Ġmanagement": 1126,
      "Ġdom": 1127,
      "led": 1128,
      "Ġobjec": 1129,
      "ely": 1130,
      "erg": 1131,
      "Ã®": 1132,
      "Ġval": 1133,
      "ables": 1134,
      "eur": 1135,
      "Ġrecherche": 1136,
      "Ġwould": 1137,
      "Ġconseil": 1138,
      "Ġfond": 1139,
      "ussi": 1140,
      "Ġenvironment": 1141,
      "ited": 1142,
      "Ġsous": 1143,
      "Ġparagraph": 1144,
      "Ġfra": 1145,
      "Ġadmin": 1146,
      "Ġpop": 1147,
      "ĠÃ©l": 1148,
      "Ġgroup": 1149,
      "Ġtotal": 1150,
      "Ġ2007": 1151,
      "Ġcad": 1152,
      "Ġfe": 1153,
      "ulture": 1154,
      "Ġhow": 1155,
      "bles": 1156,
      "ente": 1157,
      "Ã»": 1158,
      "Ãªme": 1159,
      "Ġassoci": 1160,
      "ade": 1161,
      "Ġje": 1162,
      "tiques": 1163,
      "Ã¢": 1164,
      "10": 1165,
      "Ã©ment": 1166,
      "Ġsyst": 1167,
      "Ġlors": 1168,
      "sibil": 1169,
      "atÃ©g": 1170,
      "Ġwho": 1171,
      "ines": 1172,
      "Ġneed": 1173,
      "ann": 1174,
      "ollow": 1175,
      "get": 1176,
      "Ġmais": 1177,
      "Ġoper": 1178,
      "ĠdÃ©p": 1179,
      "ĠrÃ©p": 1180,
      "Ġleurs": 1181,
      "aient": 1182,
      "Ġautres": 1183,
      "act": 1184,
      "Ġarticle": 1185,
      "Ġprior": 1186,
      "Ġfourn": 1187,
      "Ġlong": 1188,
      "Ġfollow": 1189,
      "Ġaccord": 1190,
      "Ġup": 1191,
      "ĠdÃ©veloppement": 1192,
      "Ġ15": 1193,
      "Ġcro": 1194,
      "Ġgrand": 1195,
      "rough": 1196,
      "ption": 1197,
      "ards": 1198,
      "Ġchang": 1199,
      "Ġstu": 1200,
      "Ġsci": 1201,
      "onnement": 1202,
      "ally": 1203,
      "een": 1204,
      "ood": 1205,
      "Ġent": 1206,
      "Ġmati": 1207,
      "Ġincre": 1208,
      "Ġfirst": 1209,
      "Ġtem": 1210,
      "Ġ2003": 1211,
      "Ġcommunic": 1212,
      "autres": 1213,
      "tifs": 1214,
      "Ã©tÃ©": 1215,
      "Ġdepart": 1216,
      "Ġhigh": 1217,
      "Ġtax": 1218,
      "Ġeng": 1219,
      "tÃ©ri": 1220,
      "Ġmen": 1221,
      "tern": 1222,
      "Ġtous": 1223,
      "Ġaf": 1224,
      "Ġsection": 1225,
      "Ġcontr": 1226,
      "Ġamend": 1227,
      "urr": 1228,
      "Ġtransport": 1229,
      "ateg": 1230,
      "etween": 1231,
      "Ġcompr": 1232,
      "Ġthrough": 1233,
      "lu": 1234,
      "Ġregul": 1235,
      "Ġsel": 1236,
      "Ġens": 1237,
      "Ã©ration": 1238,
      "ĠeuropÃ©": 1239,
      "Ġmembres": 1240,
      "Ġbetween": 1241,
      "Ġdirect": 1242,
      "ital": 1243,
      "Ġfonction": 1244,
      "entif": 1245,
      "Ã©qu": 1246,
      "iers": 1247,
      ".,": 1248,
      "Ġmat": 1249,
      "Ġminist": 1250,
      "Ġ11": 1251,
      "Ġauth": 1252,
      "ateurs": 1253,
      "Ġmark": 1254,
      "Ġcours": 1255,
      "ario": 1256,
      "Ġdisc": 1257,
      "Ġgeneral": 1258,
      "iser": 1259,
      "Ġdocument": 1260,
      "Ġrece": 1261,
      "Ġnumber": 1262,
      "eng": 1263,
      "Ġlang": 1264,
      "tives": 1265,
      "antes": 1266,
      "Ġpolicy": 1267,
      "Ġty": 1268,
      "Ġagre": 1269,
      "Ġress": 1270,
      "Ġcompl": 1271,
      "Ġtime": 1272,
      "Ġvous": 1273,
      "Ġnouvel": 1274,
      "red": 1275,
      "ĠmÃªme": 1276,
      "Ġfi": 1277,
      "Ġproduits": 1278,
      "Ġsim": 1279,
      "Ġair": 1280,
      "Ġcr": 1281,
      "Ġcontra": 1282,
      "rait": 1283,
      "Ġ2002": 1284,
      "information": 1285,
      "endre": 1286,
      "ditions": 1287,
      "Ġnation": 1288,
      "Ġsp": 1289,
      "ake": 1290,
      "ĠdonnÃ©es": 1291,
      "ĠprÃ©v": 1292,
      "Ġhad": 1293,
      "Ġcal": 1294,
      "Ġdemande": 1295,
      "arm": 1296,
      "Ġfaire": 1297,
      "Ġsome": 1298,
      "Ġwhere": 1299,
      "aine": 1300,
      "Ġtw": 1301,
      "land": 1302,
      "duction": 1303,
      "Ġte": 1304,
      "Ġrepr": 1305,
      "cid": 1306,
      "Ġca": 1307,
      "Ġeuropean": 1308,
      "Ġprogrammes": 1309,
      "Ġeconom": 1310,
      "Ġadv": 1311,
      "Ġpermet": 1312,
      "Ġlevel": 1313,
      "Ġmed": 1314,
      "Ġrenseign": 1315,
      "Ġvi": 1316,
      "Ġauthor": 1317,
      "Ġju": 1318,
      "now": 1319,
      "aut": 1320,
      "Ġmodi": 1321,
      "Ġdat": 1322,
      "Ġentrepr": 1323,
      "Ġcadre": 1324,
      "estions": 1325,
      "Ġmod": 1326,
      "Ġpoint": 1327,
      "ild": 1328,
      "als": 1329,
      "lect": 1330,
      "Ġinto": 1331,
      "Ġ20": 1332,
      "ning": 1333,
      "Ġquestion": 1334,
      "Ġtre": 1335,
      "ici": 1336,
      "Ġcommunity": 1337,
      "ĠÃ©gal": 1338,
      "Ġcertain": 1339,
      "Ġcomple": 1340,
      "Ġvari": 1341,
      "Ġorganiz": 1342,
      "cou": 1343,
      "Ġ18": 1344,
      "Ġbien": 1345,
      "Ġpriv": 1346,
      "Ġsocial": 1347,
      "Ġelle": 1348,
      "Ġmil": 1349,
      "vre": 1350,
      "Ġcommitte": 1351,
      "ĠrÃ©sult": 1352,
      "Ġafin": 1353,
      "13": 1354,
      "Ġrespon": 1355,
      "prÃ¨s": 1356,
      "Ġstat": 1357,
      "ĠactivitÃ©s": 1358,
      "iness": 1359,
      "ession": 1360,
      "Ġdoit": 1361,
      "fs": 1362,
      "Ġexp": 1363,
      "Ġsite": 1364,
      "Ġconta": 1365,
      "ved": 1366,
      "Ġmise": 1367,
      "Ġpartie": 1368,
      "Ġtoute": 1369,
      "Ġref": 1370,
      "Ġtit": 1371,
      "ĠÃ©tabl": 1372,
      "article": 1373,
      "Ġanaly": 1374,
      "Ġbus": 1375,
      "Ġhel": 1376,
      "ĠprÃ©c": 1377,
      "Ġplace": 1378,
      "Ġ198": 1379,
      "Ġsch": 1380,
      "ss": 1381,
      "iste": 1382,
      "Ġpersonnes": 1383,
      "ety": 1384,
      "Ġsus": 1385,
      "ters": 1386,
      "ĠÃ©galement": 1387,
      "Ġcentre": 1388,
      "Ġconn": 1389,
      "Ġtro": 1390,
      "ack": 1391,
      "ĠdÃ©cision": 1392,
      "Ġstates": 1393,
      "12": 1394,
      "cil": 1395,
      "lection": 1396,
      "Ġport": 1397,
      "Ġz": 1398,
      "Ġconditions": 1399,
      "Ġconsi": 1400,
      "tice": 1401,
      "Ġmust": 1402,
      "Ġquestions": 1403,
      "Ġ2001": 1404,
      "com": 1405,
      "Ġfam": 1406,
      "iter": 1407,
      "Ġreven": 1408,
      "Ġrenseignements": 1409,
      "Ġdecision": 1410,
      "Ġaussi": 1411,
      "Ġ13": 1412,
      "Ġnouve": 1413,
      "nex": 1414,
      "erc": 1415,
      "Ġdont": 1416,
      "Ġabout": 1417,
      "--": 1418,
      "Ġindic": 1419,
      "ĠmatiÃ¨re": 1420,
      "Ġconstitu": 1421,
      "Ġonly": 1422,
      "cture": 1423,
      "Ġnive": 1424,
      "isl": 1425,
      "bec": 1426,
      "Ġ14": 1427,
      "Ġmoy": 1428,
      "Ġfed": 1429,
      "Ġgl": 1430,
      "Ġavant": 1431,
      "Ġbud": 1432,
      "ĠrÃ©gion": 1433,
      "Ġwhen": 1434,
      "tent": 1435,
      "istration": 1436,
      "tric": 1437,
      "wn": 1438,
      "Ġshall": 1439,
      "Ġtwo": 1440,
      "Ġconcl": 1441,
      "Ġrespons": 1442,
      "tries": 1443,
      "Ġpat": 1444,
      "Ġche": 1445,
      "Ã©cur": 1446,
      "Ġ2000": 1447,
      "igin": 1448,
      "ode": 1449,
      "ĠspÃ©": 1450,
      "Ġequ": 1451,
      "Ġimportant": 1452,
      "ches": 1453,
      "Ġten": 1454,
      "Ġmeas": 1455,
      "Ġutilis": 1456,
      "Ġobs": 1457,
      "Ġwell": 1458,
      "Ã´le": 1459,
      "ieu": 1460,
      "ii": 1461,
      "Ġcommittee": 1462,
      "ĠreprÃ©sent": 1463,
      "ased": 1464,
      "11": 1465,
      "io": 1466,
      "up": 1467,
      "ition": 1468,
      "Ġexper": 1469,
      "pu": 1470,
      "Ġbusiness": 1471,
      "position": 1472,
      "Ġsol": 1473,
      "ast": 1474,
      "ars": 1475,
      "action": 1476,
      "Ġconsider": 1477,
      "Ġpass": 1478,
      "Ġpromo": 1479,
      "Ġcouncil": 1480,
      "ĠsÃ©cur": 1481,
      "Ġdepartment": 1482,
      "ament": 1483,
      "arg": 1484,
      "tablish": 1485,
      "Ġsurve": 1486,
      "ĠÃ©tu": 1487,
      "Ġconsult": 1488,
      "Ġcollec": 1489,
      "sions": 1490,
      "Ġassess": 1491,
      "Ã©cess": 1492,
      "Ġbl": 1493,
      "ĠstratÃ©g": 1494,
      "onc": 1495,
      "Ġcoll": 1496,
      "tÃ©r": 1497,
      "Ġterrit": 1498,
      "Ġbec": 1499,
      "Ã©ra": 1500,
      "Ġjo": 1501,
      "Ġstrateg": 1502,
      "Ġwithin": 1503,
      "Ġindivid": 1504,
      "ĠfÃ©d": 1505,
      "Ġapplication": 1506,
      "anti": 1507,
      "Ġressources": 1508,
      "ination": 1509,
      "Ġstand": 1510,
      "ĠnÃ©cess": 1511,
      "Ġdescri": 1512,
      "Ġselon": 1513,
      "Ġmesures": 1514,
      "Ġdist": 1515,
      "Ã©li": 1516,
      "Ġprofession": 1517,
      "Ġmade": 1518,
      "Ġour": 1519,
      "Ġadd": 1520,
      "Ġregion": 1521,
      "Ġcapac": 1522,
      "Ġyears": 1523,
      "Ġrais": 1524,
      "tement": 1525,
      "Ġestablish": 1526,
      "mission": 1527,
      "Ġproduction": 1528,
      "Ġhuman": 1529,
      "clar": 1530,
      "ĠÃ©tats": 1531,
      "iqu": 1532,
      "Ġimm": 1533,
      "Ġreview": 1534,
      "Ġfl": 1535,
      "fore": 1536,
      "gc": 1537,
      "Ġdroits": 1538,
      "sitions": 1539,
      "Ã¨mes": 1540,
      "Ġactu": 1541,
      "Ġgre": 1542,
      "Ġ16": 1543,
      "pro": 1544,
      "usion": 1545,
      "Ġsoit": 1546,
      "Ġpeuvent": 1547,
      "ner": 1548,
      "Ġexem": 1549,
      "ples": 1550,
      "ds": 1551,
      "Ġthose": 1552,
      "Ġconsid": 1553,
      "Ġmember": 1554,
      "Ġprovide": 1555,
      "tt": 1556,
      "Ġmaj": 1557,
      "Ġcompte": 1558,
      "Ġans": 1559,
      "Ġproject": 1560,
      "Ġinform": 1561,
      "Ġtable": 1562,
      "50": 1563,
      "ible": 1564,
      "Ġadop": 1565,
      "Ġsen": 1566,
      "Ġ30": 1567,
      "ĠâĢĶ": 1568,
      "ivent": 1569,
      "ĠÃ©conom": 1570,
      "Ġlab": 1571,
      "aines": 1572,
      "20": 1573,
      "Ġgra": 1574,
      "Ã¹": 1575,
      "ĠsÃ©curitÃ©": 1576,
      "king": 1577,
      "ĠcrÃ©": 1578,
      "Ġ000": 1579,
      "Ġdata": 1580,
      "Ġcent": 1581,
      "Ġmr": 1582,
      "ount": 1583,
      "Ġban": 1584,
      "Ġused": 1585,
      "Ġunivers": 1586,
      "ib": 1587,
      "urer": 1588,
      "Ġpolitique": 1589,
      "Ġcoop": 1590,
      "Ġoff": 1591,
      "Ġdiv": 1592,
      "off": 1593,
      "ĠcomitÃ©": 1594,
      "Ġocc": 1595,
      "Ã©lior": 1596,
      "ĠrÃ¨glement": 1597,
      "ining": 1598,
      "Ġfinanci": 1599,
      "Ġpopulation": 1600,
      "ducation": 1601,
      "Ġactivities": 1602,
      "ays": 1603,
      "aiss": 1604,
      "entes": 1605,
      "eau": 1606,
      "ĠministÃ¨re": 1607,
      "ĠsystÃ¨me": 1608,
      "graph": 1609,
      "co": 1610,
      "ĠgÃ©nÃ©ral": 1611,
      "Ġdroit": 1612,
      "vi": 1613,
      "ights": 1614,
      "ĠdÃ©l": 1615,
      "Ġbure": 1616,
      "Ġperi": 1617,
      "Ġpur": 1618,
      "ule": 1619,
      "Ġnature": 1620,
      "Ġaddition": 1621,
      "ennes": 1622,
      "Ġcha": 1623,
      "Ġlic": 1624,
      "Ġmal": 1625,
      "ĠoÃ¹": 1626,
      "Ġfollowing": 1627,
      "ĠrÃ©sultats": 1628,
      "Ġfederal": 1629,
      "ĠdiffÃ©r": 1630,
      "Ġeach": 1631,
      "Ġcri": 1632,
      "Ġknow": 1633,
      "Ġke": 1634,
      "oire": 1635,
      "Ġset": 1636,
      "ouver": 1637,
      "Ġfacil": 1638,
      "ĠsÃ©": 1639,
      "Ġtrib": 1640,
      "gment": 1641,
      "cem": 1642,
      "........": 1643,
      "Ġbene": 1644,
      "Ġgro": 1645,
      "Ġmoins": 1646,
      "ules": 1647,
      "Ġperson": 1648,
      "Ġperiod": 1649,
      "Ġ17": 1650,
      "Ġbu": 1651,
      "Ġstru": 1652,
      "olution": 1653,
      "embl": 1654,
      "Ġimpro": 1655,
      "ateur": 1656,
      "Ġrefer": 1657,
      "Ġbes": 1658,
      "ĠpÃ©ri": 1659,
      "Ġcontre": 1660,
      "Ġlaw": 1661,
      "ĠdÃ©termin": 1662,
      "Ġboard": 1663,
      "Ġparties": 1664,
      "Ġsep": 1665,
      "Ġappropri": 1666,
      "sc": 1667,
      "Ġsal": 1668,
      "go": 1669,
      "ders": 1670,
      "Ġgroupe": 1671,
      "Ġher": 1672,
      "man": 1673,
      "Ġperform": 1674,
      "Ġprocessus": 1675,
      "enses": 1676,
      "Ġorder": 1677,
      "ft": 1678,
      "Ġincluding": 1679,
      "valu": 1680,
      "Ġavail": 1681,
      "Ã©v": 1682,
      "Ġidentif": 1683,
      "fi": 1684,
      "Ġess": 1685,
      "Ġstud": 1686,
      "tiss": 1687,
      "Ġconform": 1688,
      "Ġbase": 1689,
      "iÃ¨res": 1690,
      "ĠmÃ©d": 1691,
      "Ġrepres": 1692,
      "Ġdocuments": 1693,
      "Ġbeso": 1694,
      "Ġcommunau": 1695,
      "Ġcre": 1696,
      "arly": 1697,
      "Ġmost": 1698,
      "blig": 1699,
      "ership": 1700,
      "eff": 1701,
      "Ġdivers": 1702,
      "Ġaccess": 1703,
      "Ã´t": 1704,
      "oy": 1705,
      "Åĵ": 1706,
      "ource": 1707,
      "Ġsans": 1708,
      "mp": 1709,
      "Ġfur": 1710,
      "Ġrespect": 1711,
      "Ġpossible": 1712,
      "Ġdiffer": 1713,
      "wa": 1714,
      "Ġduring": 1715,
      "inter": 1716,
      "Ġfinancial": 1717,
      "Ġmul": 1718,
      "Ġresources": 1719,
      "Ġweb": 1720,
      "Ġeconomic": 1721,
      "Ġopp": 1722,
      "Ġvale": 1723,
      "Ġcontinu": 1724,
      "Ġtrois": 1725,
      "organ": 1726,
      "the": 1727,
      "br": 1728,
      "Ġint": 1729,
      "yl": 1730,
      "issement": 1731,
      "Ġlead": 1732,
      "tenir": 1733,
      "very": 1734,
      "ople": 1735,
      "Ġnations": 1736,
      "Ġformation": 1737,
      "//": 1738,
      "ude": 1739,
      "reg": 1740,
      "Ġtrait": 1741,
      "cul": 1742,
      "Ġgood": 1743,
      "Ġvol": 1744,
      "ĠlÃ©g": 1745,
      "util": 1746,
      "Ġpa": 1747,
      "Ġtribun": 1748,
      "Ġrad": 1749,
      "ĠtÃ©l": 1750,
      "ties": 1751,
      "Ġculture": 1752,
      "ings": 1753,
      "itation": 1754,
      "Ã©ta": 1755,
      "Ġemploye": 1756,
      "agn": 1757,
      "cer": 1758,
      "Ġcare": 1759,
      "ren": 1760,
      "Ġimplement": 1761,
      "Ġdoivent": 1762,
      "Ġniveau": 1763,
      "02": 1764,
      "Ġpeople": 1765,
      "Ġ2008": 1766,
      "Ġcel": 1767,
      "Ġinves": 1768,
      "gn": 1769,
      "Ġ|": 1770,
      "Ġminister": 1771,
      "Ġconcernant": 1772,
      "ĠdÃ©clar": 1773,
      "Ġsubst": 1774,
      "Ġrelations": 1775,
      "Ġboth": 1776,
      "uses": 1777,
      "Ġ25": 1778,
      "ttp": 1779,
      "://": 1780,
      "Ġautre": 1781,
      "ret": 1782,
      "Ġresul": 1783,
      "ys": 1784,
      "trol": 1785,
      "tention": 1786,
      "cal": 1787,
      "igr": 1788,
      "ires": 1789,
      "Ġfem": 1790,
      "Ġcurr": 1791,
      "ellement": 1792,
      "aboration": 1793,
      "Ġsecteur": 1794,
      "Ġpolitiques": 1795,
      "Ġjur": 1796,
      "Ġprovided": 1797,
      "emble": 1798,
      "Ġbro": 1799,
      "Ġ1999": 1800,
      "Ġcountries": 1801,
      "era": 1802,
      "Ġpersonnel": 1803,
      "Ġrights": 1804,
      "Ġparagraphe": 1805,
      "Ġcase": 1806,
      "ick": 1807,
      "az": 1808,
      "Ġagency": 1809,
      "Ġprac": 1810,
      "xim": 1811,
      "Ġoffice": 1812,
      "03": 1813,
      "Ġvers": 1814,
      "Ġexpl": 1815,
      "Ġbureau": 1816,
      "ploi": 1817,
      "Ġissues": 1818,
      "Ġontario": 1819,
      "199": 1820,
      "ges": 1821,
      "ever": 1822,
      "ĠfaÃ§": 1823,
      "Ġcanadiens": 1824,
      "Ġcompan": 1825,
      "mon": 1826,
      "Ġdern": 1827,
      "cles": 1828,
      "ĠcoÃ»": 1829,
      "ĠÃ©tait": 1830,
      "Ġfu": 1831,
      "Ġcand": 1832,
      "Ġend": 1833,
      "alis": 1834,
      "Ġdesign": 1835,
      "Ġcomb": 1836,
      "ĠaprÃ¨s": 1837,
      "Ã©ro": 1838,
      "Ġdiscus": 1839,
      "Ġbenef": 1840,
      "Ã©valuation": 1841,
      "mar": 1842,
      "Ġsaf": 1843,
      "amp": 1844,
      "Ġexig": 1845,
      "Ġavailable": 1846,
      "tionn": 1847,
      "Ġyour": 1848,
      "Ġautor": 1849,
      "Ġcir": 1850,
      "Ġtrade": 1851,
      "Ġpor": 1852,
      "Ġsup": 1853,
      "oi": 1854,
      "Ġcontrol": 1855,
      "Ġwor": 1856,
      "Ġmajor": 1857,
      "Ġchild": 1858,
      "Ġcandid": 1859,
      "Ġhis": 1860,
      "Ġcanadien": 1861,
      "abit": 1862,
      "Ġjan": 1863,
      "envir": 1864,
      "Ġcanadienne": 1865,
      "Ġagric": 1866,
      "Ġtraining": 1867,
      "Ġcoord": 1868,
      "mment": 1869,
      "www": 1870,
      "Ġinterest": 1871,
      "af": 1872,
      "Ġci": 1873,
      "cent": 1874,
      "04": 1875,
      "eration": 1876,
      "Ġbel": 1877,
      "Ġagreement": 1878,
      "Åĵu": 1879,
      "Ġchaque": 1880,
      "lectr": 1881,
      "Ġinstru": 1882,
      "Ġcorpor": 1883,
      "Ġtoutes": 1884,
      "Ġmarket": 1885,
      "Ġbudget": 1886,
      "Ġhowever": 1887,
      "positions": 1888,
      "ĠdÃ©fin": 1889,
      "ĠfÃ©dÃ©r": 1890,
      "Ġestim": 1891,
      "Ġpouv": 1892,
      "Ġindividual": 1893,
      "Ġafter": 1894,
      "Ġdetermin": 1895,
      "Ġproducts": 1896,
      "Ġste": 1897,
      "Ġassist": 1898,
      "Ġtribunal": 1899,
      "Ġret": 1900,
      "ĠdÃ©c": 1901,
      "Ġpresent": 1902,
      "tains": 1903,
      "ily": 1904,
      "mis": 1905,
      "Ġindustry": 1906,
      "ger": 1907,
      "Ġsubs": 1908,
      "Ġils": 1909,
      "own": 1910,
      "Ġbri": 1911,
      "Ġwhat": 1912,
      "Ġconvention": 1913,
      "14": 1914,
      "Ġspecific": 1915,
      "Ġwater": 1916,
      "ole": 1917,
      "iment": 1918,
      "Ġoblig": 1919,
      "Ġsituation": 1920,
      "ĠâĹ": 1921,
      "Ġdistri": 1922,
      "Ġenti": 1923,
      "gation": 1924,
      "Ġparticipation": 1925,
      "ension": 1926,
      "tien": 1927,
      "nov": 1928,
      "Ġsignific": 1929,
      "05": 1930,
      "isme": 1931,
      "Ġrecom": 1932,
      "Ġsecur": 1933,
      "ancement": 1934,
      "Ġ24": 1935,
      "Ġeffort": 1936,
      "Ġenvironmental": 1937,
      "Ġclient": 1938,
      "union": 1939,
      "Ġsecond": 1940,
      "atory": 1941,
      "atis": 1942,
      "Ġpage": 1943,
      "Ġpublique": 1944,
      "su": 1945,
      "ok": 1946,
      "Ġsm": 1947,
      "Ġcurrent": 1948,
      "Ġx": 1949,
      "unic": 1950,
      "15": 1951,
      "ask": 1952,
      "Ġprograms": 1953,
      "Ġ/": 1954,
      "urance": 1955,
      "Ġpersonne": 1956,
      "Ġve": 1957,
      "Ġdou": 1958,
      "Ġaction": 1959,
      "ints": 1960,
      "ites": 1961,
      "tenti": 1962,
      ");": 1963,
      "Ġbeing": 1964,
      "ili": 1965,
      "Ġcould": 1966,
      "Ġfish": 1967,
      "aking": 1968,
      "Ġanalys": 1969,
      "iginal": 1970,
      "Ã©ch": 1971,
      "Ġtaux": 1972,
      "Ġrepresent": 1973,
      "Ġrecommand": 1974,
      "cle": 1975,
      "cs": 1976,
      "Ã©rence": 1977,
      "Ġproper": 1978,
      "Ġprovision": 1979,
      "Ġtemps": 1980,
      "Ġprojets": 1981,
      "Ġbre": 1982,
      "Ġseptem": 1983,
      "Ġcommercial": 1984,
      "tawa": 1985,
      "Ġensure": 1986,
      "Ġeffic": 1987,
      "ability": 1988,
      "ful": 1989,
      "Ġ31": 1990,
      "ĠfaÃ§on": 1991,
      "Ġmesure": 1992,
      "ect": 1993,
      "ĠâĹ¦": 1994,
      "imin": 1995,
      "ĠdÃ©f": 1996,
      "Ġvue": 1997,
      "Ġmembers": 1998,
      "Ġtype": 1999,
      "Ġpotenti": 2000,
      "ĠpÃ©riode": 2001,
      "Ġdoll": 2002,
      "Ġoct": 2003,
      "ized": 2004,
      "ĠsociÃ©tÃ©": 2005,
      "endant": 2006,
      "Ġ&": 2007,
      "ĠrÃ©f": 2008,
      "Ġdra": 2009,
      "Ġhist": 2010,
      "Ġobserv": 2011,
      "Ãªt": 2012,
      "Ġarea": 2013,
      "ommend": 2014,
      "Ġcla": 2015,
      "he": 2016,
      "Ġvie": 2017,
      "Ġpartn": 2018,
      "Ġresults": 2019,
      "Ġgar": 2020,
      "Ġparten": 2021,
      "Ġlocal": 2022,
      "Ġdirection": 2023,
      "Ġtreat": 2024,
      "eting": 2025,
      "Ġrequired": 2026,
      "hol": 2027,
      "ctions": 2028,
      "lectron": 2029,
      "Ġaid": 2030,
      "omen": 2031,
      "Ġregulations": 2032,
      "ĠmarchÃ©": 2033,
      "ĠintÃ©": 2034,
      "Ġconstru": 2035,
      "Ġrecommend": 2036,
      "Ġaddress": 2037,
      "30": 2038,
      "Ġinvol": 2039,
      "Ġministre": 2040,
      "Ġ100": 2041,
      "Ġthem": 2042,
      "Ġleg": 2043,
      "16": 2044,
      "________________": 2045,
      "Ġ22": 2046,
      "Ġinst": 2047,
      "trie": 2048,
      "ry": 2049,
      "Ġentreprises": 2050,
      "Ġfurther": 2051,
      "Ġâĸ": 2052,
      "Ġthree": 2053,
      "tivitÃ©": 2054,
      "raient": 2055,
      "ains": 2056,
      "ense": 2057,
      "tamment": 2058,
      "ck": 2059,
      "Ġfil": 2060,
      "vement": 2061,
      "Ġsav": 2062,
      "Ġmany": 2063,
      "Ġach": 2064,
      "Ġinstitutions": 2065,
      "ortun": 2066,
      "Ġaw": 2067,
      "Ġtransfer": 2068,
      "gg": 2069,
      "Ġsin": 2070,
      "arge": 2071,
      "ariat": 2072,
      "Ġhelp": 2073,
      "Ġful": 2074,
      "xt": 2075,
      "quent": 2076,
      "Ġlieu": 2077,
      "ame": 2078,
      "but": 2079,
      "Ġworld": 2080,
      "ife": 2081,
      "table": 2082,
      "Ġglob": 2083,
      "Ġcertains": 2084,
      "âĢ¦": 2085,
      "pes": 2086,
      "ultural": 2087,
      "Ġmeeting": 2088,
      "Ġcommunication": 2089,
      "Ġsector": 2090,
      "dic": 2091,
      "Ġplans": 2092,
      "Ġ21": 2093,
      "ared": 2094,
      "ĠvÃ©ri": 2095,
      "Ãªte": 2096,
      "Ġinitiatives": 2097,
      "Ġposition": 2098,
      "Ġhttp": 2099,
      "Ġareas": 2100,
      "Ġhy": 2101,
      "Ġrelative": 2102,
      "Ġrend": 2103,
      "rc": 2104,
      "Ġenvironnement": 2105,
      "Ġstatis": 2106,
      "Ġsucc": 2107,
      "ĠeuropÃ©enne": 2108,
      "Ġspecial": 2109,
      "Ġfound": 2110,
      "Ġstate": 2111,
      "Ġregard": 2112,
      "work": 2113,
      "ieurs": 2114,
      "Ġmont": 2115,
      "Ġcondu": 2116,
      "ras": 2117,
      "âĢĵ": 2118,
      "Ġchange": 2119,
      "Ġjour": 2120,
      "ories": 2121,
      "Ġdisp": 2122,
      "Ġdirective": 2123,
      "ĠÃ©c": 2124,
      "Ġcle": 2125,
      "mm": 2126,
      "Ġ23": 2127,
      "Ġland": 2128,
      "Ġavoir": 2129,
      "assi": 2130,
      "Ġsecurity": 2131,
      "Ġgiv": 2132,
      "Ġrisk": 2133,
      "18": 2134,
      "Ġlangu": 2135,
      "Ġ1998": 2136,
      "vem": 2137,
      "ving": 2138,
      "itor": 2139,
      "ĠqualitÃ©": 2140,
      "abilitÃ©": 2141,
      "Ġprobl": 2142,
      "Ġagain": 2143,
      "06": 2144,
      "Åĵuvre": 2145,
      "Ġbased": 2146,
      "ower": 2147,
      "Ġciv": 2148,
      "Ġvertu": 2149,
      "Ġcompar": 2150,
      "Ġfood": 2151,
      "Ġallow": 2152,
      "Ġwomen": 2153,
      "Ġauto": 2154,
      "Ġaccep": 2155,
      "urn": 2156,
      "Ġforce": 2157,
      "euro": 2158,
      "exam": 2159,
      "bility": 2160,
      "hic": 2161,
      "ĠdÃ©penses": 2162,
      "aff": 2163,
      "Ġfore": 2164,
      "Ġsera": 2165,
      "Ġcop": 2166,
      "pose": 2167,
      "Ġguid": 2168,
      "Ġwhile": 2169,
      "istra": 2170,
      "irm": 2171,
      "Ġmand": 2172,
      "Ġcos": 2173,
      "Ġessenti": 2174,
      "tical": 2175,
      "ĠÃ©ch": 2176,
      "Ġdistribu": 2177,
      "Ġcrit": 2178,
      "Ġinvest": 2179,
      "erve": 2180,
      "Ġfact": 2181,
      "dies": 2182,
      "Ġplusieurs": 2183,
      "Ġfer": 2184,
      "Ġcentr": 2185,
      "Ã©bec": 2186,
      "Ġmake": 2187,
      "Ġinternation": 2188,
      "Ġocto": 2189,
      "isse": 2190,
      "Ġliv": 2191,
      "ception": 2192,
      "Ġrelated": 2193,
      "Ġâĸª": 2194,
      "Ġtitre": 2195,
      "Ġopportun": 2196,
      "inÃ©": 2197,
      "art": 2198,
      "Ġcourt": 2199,
      "ĠmÃ©th": 2200,
      "Ġauc": 2201,
      "Ġmillion": 2202,
      "Ġfonds": 2203,
      "ieux": 2204,
      "esse": 2205,
      "Ġmission": 2206,
      "25": 2207,
      "place": 2208,
      "Ġengag": 2209,
      "Ġdollars": 2210,
      "Ġesp": 2211,
      "environnement": 2212,
      "Ġparticipants": 2213,
      "Ġproced": 2214,
      "ium": 2215,
      "Ġnotamment": 2216,
      "Ġur": 2217,
      "igne": 2218,
      "omb": 2219,
      "Ġinclude": 2220,
      "la": 2221,
      "Ġconsul": 2222,
      "Ġfav": 2223,
      "Ġnord": 2224,
      "Ġnouveau": 2225,
      "Ġenc": 2226,
      "islation": 2227,
      "Ġoffer": 2228,
      "Ġnovem": 2229,
      "Ġeducation": 2230,
      "Ġcomment": 2231,
      "ister": 2232,
      "Ġprogr": 2233,
      "Ġbar": 2234,
      "Ġlist": 2235,
      "Ġassessment": 2236,
      "Ġrequest": 2237,
      "ĠÃ©qu": 2238,
      "Ġfig": 2239,
      "ĠannÃ©es": 2240,
      "Ġmeasures": 2241,
      "Ġparli": 2242,
      "alitÃ©": 2243,
      "eric": 2244,
      "Ġadministra": 2245,
      "Ġsee": 2246,
      "Ã©rie": 2247,
      "uf": 2248,
      "Ġprovincial": 2249,
      "Ġprest": 2250,
      "Ġrequirements": 2251,
      "till": 2252,
      "atisf": 2253,
      "Ġlet": 2254,
      "ification": 2255,
      "enci": 2256,
      "Ġarti": 2257,
      "Ġnouvelle": 2258,
      "Ġmilit": 2259,
      "oph": 2260,
      "Ġbefore": 2261,
      "Ġkey": 2262,
      "Ġrelev": 2263,
      "Ġsubjec": 2264,
      "Ġsk": 2265,
      "Ġown": 2266,
      "Ġcode": 2267,
      "Ġdiffic": 2268,
      "Ġexport": 2269,
      "Â»": 2270,
      "ctu": 2271,
      "Ġemployment": 2272,
      "Ġtex": 2273,
      "Ġcapital": 2274,
      "Ġreceiv": 2275,
      "Ġperformance": 2276,
      "Ġgrow": 2277,
      "ĠÃ£": 2278,
      "Ġsurveill": 2279,
      "ennent": 2280,
      "Ġworking": 2281,
      "nement": 2282,
      "tend": 2283,
      "Ġquel": 2284,
      "Ġpendant": 2285,
      "Ġstaff": 2286,
      "ĠtrÃ¨s": 2287,
      "ĠamÃ©lior": 2288,
      "Ãªtre": 2289,
      "ĠbÃ©n": 2290,
      "Ġtar": 2291,
      "ĠpremiÃ¨re": 2292,
      "Ġ28": 2293,
      "Ġhabit": 2294,
      "sive": 2295,
      "Ġ26": 2296,
      "ian": 2297,
      "Ġdr": 2298,
      "Ġrecord": 2299,
      "Ġorganismes": 2300,
      "Ġapproach": 2301,
      "Ġinte": 2302,
      "sign": 2303,
      "Ġregional": 2304,
      "tm": 2305,
      "Ġparliament": 2306,
      "puis": 2307,
      "Ġenf": 2308,
      "utilisation": 2309,
      "Ġvaleur": 2310,
      "yant": 2311,
      "Ġot": 2312,
      "Ġsame": 2313,
      "Ġautoch": 2314,
      "Ġcountry": 2315,
      "ether": 2316,
      "oires": 2317,
      "trang": 2318,
      "Ġefforts": 2319,
      "22": 2320,
      "Ġintro": 2321,
      "Ġsujet": 2322,
      "Ġir": 2323,
      "Ġple": 2324,
      "gu": 2325,
      "met": 2326,
      "Ġconcer": 2327,
      "Ġnotre": 2328,
      "ism": 2329,
      "Ġnationale": 2330,
      "Ġchez": 2331,
      "Ġunited": 2332,
      "inf": 2333,
      "Ġmillions": 2334,
      "ech": 2335,
      "Ġprojects": 2336,
      "Ġindustri": 2337,
      "Ġchap": 2338,
      "Ġavait": 2339,
      "nexe": 2340,
      "Ġframe": 2341,
      "eld": 2342,
      "Ġeffectu": 2343,
      "Ġmis": 2344,
      "Ġcommunications": 2345,
      "occ": 2346,
      "07": 2347,
      "Ġnouvelles": 2348,
      "ases": 2349,
      "oles": 2350,
      "Ġvotre": 2351,
      "17": 2352,
      "Ġ27": 2353,
      "ecess": 2354,
      "vely": 2355,
      "Ġcompris": 2356,
      "Ġinde": 2357,
      "Ġfemmes": 2358,
      "ervation": 2359,
      "Ġcy": 2360,
      "Ġmus": 2361,
      "pt": 2362,
      "Ġresult": 2363,
      "uit": 2364,
      "Ġsatisf": 2365,
      "Ġpropri": 2366,
      "Ġfund": 2367,
      "pre": 2368,
      "Ġpossibil": 2369,
      "Ġeffective": 2370,
      "Ġsafety": 2371,
      "emploi": 2372,
      "Ġabor": 2373,
      "Ġquality": 2374,
      "ledge": 2375,
      "Ġexemple": 2376,
      "aide": 2377,
      "Ġconte": 2378,
      "Ġexc": 2379,
      "fois": 2380,
      "mit": 2381,
      "Ġlin": 2382,
      "ool": 2383,
      "tification": 2384,
      "unis": 2385,
      "rastru": 2386,
      "ause": 2387,
      "unes": 2388,
      "Ġrou": 2389,
      "Ġsince": 2390,
      "Ġprovince": 2391,
      "Ġconcentr": 2392,
      "indus": 2393,
      "can": 2394,
      "Ġmu": 2395,
      "Ġfunding": 2396,
      "Ġdoes": 2397,
      "Ġobjectifs": 2398,
      "Ġanti": 2399,
      "Ġprofessionn": 2400,
      "applic": 2401,
      "Ġaugment": 2402,
      "Ġparlement": 2403,
      "Ġdefin": 2404,
      "ĠcontrÃ´le": 2405,
      "taire": 2406,
      "Ġlorsque": 2407,
      "ox": 2408,
      ".)": 2409,
      "Ġtest": 2410,
      "ĠÅĵuvre": 2411,
      "ĠreÃ§": 2412,
      "ize": 2413,
      "Ġsignificant": 2414,
      "Ġreconn": 2415,
      "Ġsystems": 2416,
      "Ġsuff": 2417,
      "ĠrÃ©pond": 2418,
      "Ã©tat": 2419,
      "Ġ1997": 2420,
      "ĠspÃ©ci": 2421,
      "ĠprÃ©sente": 2422,
      "Ġmeth": 2423,
      "Ġdepuis": 2424,
      "Ġaut": 2425,
      "Ġlui": 2426,
      "Ġdeli": 2427,
      "rier": 2428,
      "Ġintegr": 2429,
      "omp": 2430,
      "Ġfinancement": 2431,
      "Ġclaim": 2432,
      "Ġdivision": 2433,
      "ĠrÃ©glement": 2434,
      "Ġarr": 2435,
      "jo": 2436,
      "Ġcompe": 2437,
      "Ġcou": 2438,
      "Ġottawa": 2439,
      "be": 2440,
      "Ġcommon": 2441,
      "Ġdem": 2442,
      "Ġparticular": 2443,
      "Ġ*": 2444,
      "ices": 2445,
      "Ġpai": 2446,
      "tition": 2447,
      "Ġseu": 2448,
      "coura": 2449,
      "Ġnat": 2450,
      "Ġreas": 2451,
      "Ġagainst": 2452,
      "tics": 2453,
      "Ġdescription": 2454,
      "Ġcontact": 2455,
      "ĠÃ©conomique": 2456,
      "Ġshe": 2457,
      "Ġcontinue": 2458,
      "Ġgroupes": 2459,
      "ĠprÃ©sid": 2460,
      "Ġhome": 2461,
      "Ġframework": 2462,
      "employ": 2463,
      "Ġassociation": 2464,
      "Ġpoints": 2465,
      "vers": 2466,
      "Ġbecause": 2467,
      "Ġofficial": 2468,
      "Ġaud": 2469,
      "istre": 2470,
      "Ġjud": 2471,
      "Ġtake": 2472,
      "ĠspÃ©cial": 2473,
      "Ã©tu": 2474,
      "ĠgÃ©nÃ©rale": 2475,
      "df": 2476,
      "Ġview": 2477,
      "ane": 2478,
      "Ġii": 2479,
      "Ġstructure": 2480,
      "ators": 2481,
      "Ġstudy": 2482,
      "Ġcommunities": 2483,
      "Ġlog": 2484,
      "Ġclass": 2485,
      "Ġnecess": 2486,
      "Ġappli": 2487,
      ".\"": 2488,
      "Ġlarge": 2489,
      "Ġsitu": 2490,
      "Ġfois": 2491,
      "sh": 2492,
      "Ġcontract": 2493,
      "iÃ¨me": 2494,
      "ator": 2495,
      "Ġceux": 2496,
      "Ġdispositions": 2497,
      "Ġcost": 2498,
      "Ġcontribution": 2499,
      "Ġconsomm": 2500,
      "24": 2501,
      "Ġayant": 2502,
      "Ġencoura": 2503,
      "Ġdomaine": 2504,
      "Ġmater": 2505,
      "Ġpremier": 2506,
      "ately": 2507,
      "Ġjusqu": 2508,
      "gl": 2509,
      "ĠrÃ©v": 2510,
      "Ġdevrait": 2511,
      "ath": 2512,
      "09": 2513,
      "Ġcommerce": 2514,
      "iver": 2515,
      "Ġless": 2516,
      "Ġprincipal": 2517,
      "quer": 2518,
      "orte": 2519,
      "ouve": 2520,
      "Ġexerc": 2521,
      "Ġincrease": 2522,
      "Ġarch": 2523,
      "ĠÃ©n": 2524,
      "Ġamount": 2525,
      "admin": 2526,
      "Ġprix": 2527,
      "Ġknowledge": 2528,
      "Ġimpact": 2529,
      "Ġcanadiennes": 2530,
      "Ġfuture": 2531,
      "Ġfix": 2532,
      "Ġconnaiss": 2533,
      "Ġdestin": 2534,
      "ouse": 2535,
      "Ġ29": 2536,
      "Ġforces": 2537,
      "Ġimplementation": 2538,
      "berta": 2539,
      "Ġconst": 2540,
      "23": 2541,
      "Ã©cu": 2542,
      "venir": 2543,
      "Ġfab": 2544,
      "application": 2545,
      "Ġnos": 2546,
      "Ġfran": 2547,
      "Ġsem": 2548,
      "Ġtraitement": 2549,
      "Ġinitiative": 2550,
      "industrie": 2551,
      "Ġcosts": 2552,
      "Ġuniversity": 2553,
      "resp": 2554,
      "Ġge": 2555,
      "Ġproperty": 2556,
      "08": 2557,
      "Ġminim": 2558,
      "Ġbesoins": 2559,
      "dro": 2560,
      "Ġmois": 2561,
      "Ġtechnology": 2562,
      "ĠconsidÃ©r": 2563,
      "ĠÃ©lev": 2564,
      "Ġtak": 2565,
      "Ġhand": 2566,
      "ograph": 2567,
      "ression": 2568,
      "ĠquÃ©bec": 2569,
      "Ġinvesti": 2570,
      "Ġnorth": 2571,
      "Ġbasis": 2572,
      "etwork": 2573,
      "tones": 2574,
      "Ġsumm": 2575,
      "Ġacqu": 2576,
      "uel": 2577,
      "Ġdef": 2578,
      "Ġdos": 2579,
      "ipe": 2580,
      "ones": 2581,
      "Ġlegal": 2582,
      "Ġexperi": 2583,
      "Ġsuppl": 2584,
      "ĠrÃ©du": 2585,
      "Ġdifferent": 2586,
      "Ġproduit": 2587,
      "lements": 2588,
      "Ġdirector": 2589,
      "bilitÃ©": 2590,
      "ĠnÃ©g": 2591,
      "Ġconten": 2592,
      "Ġgrande": 2593,
      "Ġcanadians": 2594,
      "tÃ©rieur": 2595,
      "Ġavis": 2596,
      "Ġ50": 2597,
      "ization": 2598,
      "ĠrÃ´le": 2599,
      "atif": 2600,
      "Ġaur": 2601,
      "Ġsubject": 2602,
      "Ã©tabl": 2603,
      "Ġschool": 2604,
      "Ġaccoun": 2605,
      "ĠdÃ©ta": 2606,
      "Ġcirc": 2607,
      "Ġgiven": 2608,
      "Ġaboriginal": 2609,
      "Ġsmall": 2610,
      "Ġmaterial": 2611,
      "Ġsugg": 2612,
      "pa": 2613,
      "Ġnetwork": 2614,
      "Ġtradition": 2615,
      "ĠÃ©taient": 2616,
      "mÃ©": 2617,
      "ĠprÃ©s": 2618,
      "lan": 2619,
      "Ġec": 2620,
      "Ġfrais": 2621,
      "Ġmettre": 2622,
      "Ġinnov": 2623,
      "ury": 2624,
      "day": 2625,
      "Ġrevenu": 2626,
      "Ġsl": 2627,
      "import": 2628,
      "ĠannÃ©e": 2629,
      "Ãªts": 2630,
      "Ġexcl": 2631,
      "illes": 2632,
      "Ġcompos": 2633,
      "Ġjustice": 2634,
      "Ġfinal": 2635,
      "ceed": 2636,
      "Ġseront": 2637,
      "Ġfoc": 2638,
      "Ġmondi": 2639,
      "Ġsimil": 2640,
      "Ġsuite": 2641,
      "Ġamong": 2642,
      "Ġ1996": 2643,
      "asse": 2644,
      "Ġvalue": 2645,
      "uring": 2646,
      "Ġneeds": 2647,
      "tained": 2648,
      "Ġorganization": 2649,
      "Ġrapports": 2650,
      "Ġnouveaux": 2651,
      "Ġpromotion": 2652,
      "âĢ¦âĢ¦": 2653,
      "ength": 2654,
      "isting": 2655,
      "Ġrole": 2656,
      "ub": 2657,
      "Ġsix": 2658,
      "Ġautochtones": 2659,
      "Ã®tre": 2660,
      "Ġed": 2661,
      "Ġrap": 2662,
      "force": 2663,
      "Ġgroups": 2664,
      "Ġday": 2665,
      "Ġappropriate": 2666,
      "Ġnorm": 2667,
      "Ġcalcul": 2668,
      "Ġachie": 2669,
      "Ġsurveillance": 2670,
      "Ġmoyen": 2671,
      "Ġrate": 2672,
      "examen": 2673,
      "Ġcertaines": 2674,
      "Ġsites": 2675,
      "Ġtechnologies": 2676,
      "rug": 2677,
      "Ġissue": 2678,
      "Ġwhether": 2679,
      "Ġ197": 2680,
      "Ġannual": 2681,
      "Ġsources": 2682,
      "Ġmethod": 2683,
      "Ġhar": 2684,
      "Ã©ments": 2685,
      "Ġgoods": 2686,
      "ined": 2687,
      "fications": 2688,
      "ĠconformÃ©ment": 2689,
      "Ġmonth": 2690,
      "Ġpeti": 2691,
      "Â°": 2692,
      "Ġmulti": 2693,
      "ĠÃ©valu": 2694,
      "Ġexpec": 2695,
      "airs": 2696,
      "Ġpap": 2697,
      "Ġnote": 2698,
      "Ġincome": 2699,
      "ĠâĢ¨": 2700,
      "ĠÃ©v": 2701,
      "Ġradio": 2702,
      "ron": 2703,
      "ness": 2704,
      "Ġmainten": 2705,
      "Ġfour": 2706,
      "ĠbÃ©nÃ©": 2707,
      "Ġunion": 2708,
      "Ġlicence": 2709,
      "ĠpÃª": 2710,
      "Ġbuil": 2711,
      "Ġcompany": 2712,
      "Ġfre": 2713,
      "ulaire": 2714,
      "avant": 2715,
      "ogn": 2716,
      "Ġdispon": 2717,
      "Ġcause": 2718,
      "Ġcorre": 2719,
      "Ġanim": 2720,
      "Ġbroad": 2721,
      "ĠdÃ©pos": 2722,
      "Ġsoins": 2723,
      "Ġviol": 2724,
      "Ġenter": 2725,
      "Ġsavoir": 2726,
      "Ġmaxim": 2727,
      "isant": 2728,
      "Ġright": 2729,
      "ĠmÃ©dic": 2730,
      "Ġchildren": 2731,
      "Ġauthority": 2732,
      "Ġproble": 2733,
      "Ġusing": 2734,
      "Ġcroiss": 2735,
      "ler": 2736,
      "Ġelles": 2737,
      "onne": 2738,
      "Ġsever": 2739,
      "ock": 2740,
      "iled": 2741,
      "Ã¨ne": 2742,
      "alog": 2743,
      "26": 2744,
      "Ġorganizations": 2745,
      "aces": 2746,
      "Ġvisant": 2747,
      "Ġconsultation": 2748,
      "Ġenfants": 2749,
      "Ġnav": 2750,
      "Ġevaluation": 2751,
      "arch": 2752,
      "ĠprÃ©par": 2753,
      "Ġrele": 2754,
      "imp": 2755,
      "Ġconsum": 2756,
      "Ġtor": 2757,
      "Ġsource": 2758,
      "Ġproposed": 2759,
      "Ġconstruction": 2760,
      "Ġrelatives": 2761,
      "2006": 2762,
      "2005": 2763,
      "respond": 2764,
      "ather": 2765,
      "mi": 2766,
      "ward": 2767,
      "ĠconsÃ©qu": 2768,
      "ventions": 2769,
      "Ġseulement": 2770,
      "tivitÃ©s": 2771,
      "Ġvery": 2772,
      "Ġdrug": 2773,
      "ĠsystÃ¨mes": 2774,
      "vious": 2775,
      "28": 2776,
      "Ġpati": 2777,
      "Ġoffici": 2778,
      "Ġwithout": 2779,
      "ides": 2780,
      "Ġpouvoir": 2781,
      "Ġrecogn": 2782,
      "ĠnumÃ©ro": 2783,
      "encies": 2784,
      "Ġsex": 2785,
      "Ġmars": 2786,
      "Ġsyn": 2787,
      "tand": 2788,
      "Ġhom": 2789,
      "Ġarticles": 2790,
      "Ġversion": 2791,
      "ma": 2792,
      "Ġfis": 2793,
      "eter": 2794,
      "atifs": 2795,
      "Ġrisque": 2796,
      "----": 2797,
      "Ġexample": 2798,
      "onom": 2799,
      "appro": 2800,
      "identi": 2801,
      "exp": 2802,
      "way": 2803,
      "ĠprocÃ©d": 2804,
      "Ġcorrespond": 2805,
      "Ġer": 2806,
      "Ġcamp": 2807,
      "onto": 2808,
      "line": 2809,
      "Ġdistribution": 2810,
      "Ġunders": 2811,
      "Ġprovides": 2812,
      "Ġbenefits": 2813,
      "uve": 2814,
      "accÃ¨s": 2815,
      "ĠcoÃ»ts": 2816,
      "office": 2817,
      "other": 2818,
      "Ġexplo": 2819,
      "uk": 2820,
      "Ġforeign": 2821,
      "phone": 2822,
      "ĠemployÃ©s": 2823,
      "Ġsoutien": 2824,
      "Ġsau": 2825,
      "Ġprinci": 2826,
      "Ġglobal": 2827,
      "mination": 2828,
      "Ġmanuf": 2829,
      "ĠmatÃ©ri": 2830,
      "entrepr": 2831,
      "Ġprovinces": 2832,
      "Ġclassi": 2833,
      "ĠmodÃ¨": 2834,
      "Ġchanges": 2835,
      "Ġcommand": 2836,
      "ĠbÃ©nÃ©fic": 2837,
      "Ġtim": 2838,
      "Ġinternationale": 2839,
      "aill": 2840,
      "Ġstandards": 2841,
      "trÃ©": 2842,
      "Ġterme": 2843,
      "Ġclim": 2844,
      "Ġdeta": 2845,
      "wan": 2846,
      "99": 2847,
      "Ġjourn": 2848,
      "Ġlife": 2849,
      "ergy": 2850,
      "tÃ©rie": 2851,
      "Ġmalad": 2852,
      "Ġtour": 2853,
      "Ġaspec": 2854,
      "tÃ©e": 2855,
      "Ġanalysis": 2856,
      "Ġexist": 2857,
      "Ġcover": 2858,
      "Ġmontant": 2859,
      "Ã¨ces": 2860,
      "Ġlear": 2861,
      "vidence": 2862,
      "Ġnet": 2863,
      "Ġev": 2864,
      "icro": 2865,
      "ality": 2866,
      "Ġameric": 2867,
      "acy": 2868,
      "gÃ©": 2869,
      "Ġinternet": 2870,
      "pendant": 2871,
      "Ġord": 2872,
      "Ġstrategy": 2873,
      "time": 2874,
      "iance": 2875,
      "tage": 2876,
      "Ġencore": 2877,
      "quelle": 2878,
      "Ġdonc": 2879,
      "27": 2880,
      "Ġdid": 2881,
      "ident": 2882,
      "Ġproduct": 2883,
      "Ġnecessary": 2884,
      "ĠcompÃ©": 2885,
      "ï¬": 2886,
      "Ġquat": 2887,
      "ha": 2888,
      "Ġlaquelle": 2889,
      "fr": 2890,
      "Ġcases": 2891,
      "Ġsuccess": 2892,
      "Ġroy": 2893,
      "Ġlevels": 2894,
      "Ġhol": 2895,
      "Ġorganisations": 2896,
      "rastructure": 2897,
      "oss": 2898,
      "Ġchem": 2899,
      "voir": 2900,
      "Ġtoutefois": 2901,
      "administration": 2902,
      "unicip": 2903,
      "Ġatte": 2904,
      "quÃ©": 2905,
      "hy": 2906,
      "Ġcher": 2907,
      "hib": 2908,
      "Ġcin": 2909,
      "Ġexpos": 2910,
      "Ġbul": 2911,
      "Ġway": 2912,
      "Ġmeans": 2913,
      "ĠcapacitÃ©": 2914,
      "ling": 2915,
      "ĠprocÃ©": 2916,
      "Ġtant": 2917,
      "Ġemployees": 2918,
      "Ġhead": 2919,
      "ĠeuropÃ©en": 2920,
      "ĠmaniÃ¨re": 2921,
      "Ġassistance": 2922,
      "Ġrempl": 2923,
      "Ġni": 2924,
      "Ġconduct": 2925,
      "Ġfavor": 2926,
      "Ġjeunes": 2927,
      "tices": 2928,
      "men": 2929,
      "ised": 2930,
      "Ġtravaux": 2931,
      "Ġmonitor": 2932,
      "Ġperman": 2933,
      "ril": 2934,
      "Ġinstitution": 2935,
      "Ġpourrait": 2936,
      "Ġfocus": 2937,
      "aint": 2938,
      "Ġoutre": 2939,
      "Ã©rations": 2940,
      "Ġappe": 2941,
      "Ġmunicip": 2942,
      "Ġraison": 2943,
      "ubl": 2944,
      "Ġexigences": 2945,
      "no": 2946,
      "Ġcollaboration": 2947,
      "Ġconcerne": 2948,
      "Ġimprove": 2949,
      "Ġamendment": 2950,
      "ying": 2951,
      "Ġresponsibil": 2952,
      "Ġ;": 2953,
      "odes": 2954,
      "Ġcela": 2955,
      "missions": 2956,
      "Ġincreased": 2957,
      "Ġdemandes": 2958,
      "accord": 2959,
      "ibles": 2960,
      "ellectu": 2961,
      "Ġprendre": 2962,
      "Ġback": 2963,
      "Ġlimited": 2964,
      "td": 2965,
      "Ġenv": 2966,
      "Ġapply": 2967,
      "2007": 2968,
      "Ġactivity": 2969,
      "Ġpopul": 2970,
      "ep": 2971,
      "ĠÃ©lÃ©ments": 2972,
      "Ġguide": 2973,
      "Ġintellectu": 2974,
      "Ġconsidered": 2975,
      "ontario": 2976,
      "Ġmoment": 2977,
      "ĠstratÃ©gie": 2978,
      "21": 2979,
      "gen": 2980,
      "Ġreceived": 2981,
      "ĠnÃ©cessaire": 2982,
      "askat": 2983,
      "Ġvic": 2984,
      "Ġpartnership": 2985,
      "Ġjuin": 2986,
      "Ġpolicies": 2987,
      "Ġreports": 2988,
      "Ġdirecteur": 2989,
      "iner": 2990,
      "Ġliste": 2991,
      "Ġnormes": 2992,
      "Ġprovisions": 2993,
      "Ġpotential": 2994,
      "Ġestablished": 2995,
      "Ġsoient": 2996,
      "Ġtend": 2997,
      "aci": 2998,
      "Ġill": 2999,
      "Ġtel": 3000,
      "Ġcell": 3001,
      "Ġcelle": 3002,
      "oms": 3003,
      "bs": 3004,
      "Ġrelevant": 3005,
      "ensemble": 3006,
      "ĠÂ´": 3007,
      "appel": 3008,
      "ench": 3009,
      "Ġsecret": 3010,
      "wh": 3011,
      "Ġshow": 3012,
      "Ġterms": 3013,
      "Ġappr": 3014,
      "ected": 3015,
      "Ġfins": 3016,
      "Ġsustain": 3017,
      "iÃ©": 3018,
      "29": 3019,
      "Ġregulation": 3020,
      "ird": 3021,
      "Ġpercent": 3022,
      "Ġrisques": 3023,
      "Ġbal": 3024,
      "Ġeffets": 3025,
      "tant": 3026,
      "Ġjune": 3027,
      "Ġconv": 3028,
      "of": 3029,
      "Ġ=": 3030,
      "Ġhistor": 3031,
      "Ġaffaires": 3032,
      "Ġjurid": 3033,
      "ology": 3034,
      "rent": 3035,
      "Ġpratiques": 3036,
      "cr": 3037,
      "Ġclients": 3038,
      "Ġnow": 3039,
      "Ġlorsqu": 3040,
      "Ġadministration": 3041,
      "Ġenergy": 3042,
      "Ġeffet": 3043,
      "europe": 3044,
      ")(": 3045,
      "Ġnatural": 3046,
      "ced": 3047,
      "Ġfaut": 3048,
      "Ġrepor": 3049,
      "Ġoperations": 3050,
      "Ġbank": 3051,
      "ists": 3052,
      "Ã©raux": 3053,
      "umb": 3054,
      "ĠdÃ©terminer": 3055,
      "inte": 3056,
      "Ġpil": 3057,
      "Ġactions": 3058,
      "Ġfabric": 3059,
      "ipment": 3060,
      "ĠÃ©tant": 3061,
      "Ġprevious": 3062,
      "Ġpermis": 3063,
      "Ġcarri": 3064,
      "Ġadditional": 3065,
      "Ġinflu": 3066,
      "Ġcorporation": 3067,
      "ening": 3068,
      "annÃ©e": 3069,
      "cts": 3070,
      "Ġinstall": 3071,
      "Ġrendement": 3072,
      "Ġcomplex": 3073,
      "ueur": 3074,
      "naires": 3075,
      "Ġwww": 3076,
      "htm": 3077,
      "Ġsom": 3078,
      "itob": 3079,
      "ght": 3080,
      "ior": 3081,
      "Ġmor": 3082,
      "cembre": 3083,
      "Ġparticulier": 3084,
      "Ġdec": 3085,
      "Ġbuilding": 3086,
      "side": 3087,
      "Ġcondition": 3088,
      "Ġmeille": 3089,
      "Ġcelui": 3090,
      "Ġspecies": 3091,
      "ĠprotÃ©": 3092,
      "active": 3093,
      "Ġname": 3094,
      "Ġtoronto": 3095,
      "cember": 3096,
      "ĠcoopÃ©ration": 3097,
      "ĠfÃ©dÃ©ral": 3098,
      "Ġsein": 3099,
      "Ġcust": 3100,
      "Ġrespond": 3101,
      "Ġtechniques": 3102,
      "tish": 3103,
      "Ġminor": 3104,
      "Ġquanti": 3105,
      "sp": 3106,
      "Ġpost": 3107,
      "Ġdue": 3108,
      "Ġcontributions": 3109,
      "Ġlanguage": 3110,
      "Ġtypes": 3111,
      "ĠproblÃ¨mes": 3112,
      "Ġbeh": 3113,
      "Ġgrowth": 3114,
      "ified": 3115,
      "ĠmÃ©di": 3116,
      "asing": 3117,
      "Ġetc": 3118,
      "ĠcrÃ©d": 3119,
      "anch": 3120,
      "ina": 3121,
      "Ġnaturel": 3122,
      "Ġmoder": 3123,
      "Ġ1995": 3124,
      "ĠintÃ©gr": 3125,
      "ids": 3126,
      "Ġtherefore": 3127,
      "Ġpurs": 3128,
      "forme": 3129,
      "ĠÃ©trang": 3130,
      "tation": 3131,
      "ĠÂ»,": 3132,
      "Ġsociety": 3133,
      "view": 3134,
      "Ġposte": 3135,
      "33": 3136,
      "Ġbet": 3137,
      "ĠdonnÃ©": 3138,
      "ĠdÃ©j": 3139,
      "sibles": 3140,
      "Ġchall": 3141,
      "bed": 3142,
      "Ġpris": 3143,
      "igration": 3144,
      "Ġvarious": 3145,
      "................": 3146,
      "organisation": 3147,
      "itoba": 3148,
      "Ġnu": 3149,
      "Ġsubmit": 3150,
      "ocra": 3151,
      "issent": 3152,
      "yn": 3153,
      "Ã©rer": 3154,
      "uant": 3155,
      "agne": 3156,
      "Ġaccording": 3157,
      "Ġfull": 3158,
      "Ġplanning": 3159,
      "Ġappar": 3160,
      "ĠdÃ©claration": 3161,
      "actions": 3162,
      "Ġbill": 3163,
      "Ġaccount": 3164,
      "Ġprim": 3165,
      "tÃ©rÃªt": 3166,
      "Ġunderstand": 3167,
      "Ġ40": 3168,
      "Ġvig": 3169,
      "Ġcapacity": 3170,
      "Ã©tÃ©s": 3171,
      "ĠdÃ©cembre": 3172,
      "Ġtravel": 3173,
      "Ġmeasure": 3174,
      "Ġposi": 3175,
      "esp": 3176,
      "Ġobjectives": 3177,
      "2004": 3178,
      "ĠÃ©tudi": 3179,
      "Ġcroissance": 3180,
      "Ġtravaille": 3181,
      "Ġquebec": 3182,
      "Ġfournir": 3183,
      "Ġdeveloped": 3184,
      "Ġdossi": 3185,
      "ference": 3186,
      "Ġpolice": 3187,
      "Ġtermin": 3188,
      "ological": 3189,
      "Ġinvestment": 3190,
      "ĠrÃ©gime": 3191,
      "thern": 3192,
      "Ġwar": 3193,
      "amÃ©lior": 3194,
      "Ġdecember": 3195,
      "alisation": 3196,
      "edi": 3197,
      "Ġbesoin": 3198,
      "Ġevidence": 3199,
      "Ġcelles": 3200,
      "apr": 3201,
      "Ġtravaill": 3202,
      "Ġcommuniqu": 3203,
      "Ġpan": 3204,
      "ĠÃ©tudes": 3205,
      "Ġidenti": 3206,
      "Ġequipment": 3207,
      "Ġbeau": 3208,
      "uss": 3209,
      "Ġtaken": 3210,
      "ked": 3211,
      "Ġappel": 3212,
      "ueil": 3213,
      "ĠÃ©lectron": 3214,
      "Ġrules": 3215,
      "vier": 3216,
      "Ã¡": 3217,
      "Ġcat": 3218,
      "Ġmicro": 3219,
      "Ġmy": 3220,
      "lected": 3221,
      "Ġdele": 3222,
      "Ġsaskat": 3223,
      "ĠrÃ©gions": 3224,
      "Ġimpos": 3225,
      "Ġsubstances": 3226,
      "dire": 3227,
      "ĠsupplÃ©ment": 3228,
      "ics": 3229,
      "Ġprogress": 3230,
      "ross": 3231,
      "quÃªte": 3232,
      "Ġapr": 3233,
      "Ġread": 3234,
      "Ġstudies": 3235,
      "Ġorganisation": 3236,
      "Ġlegislation": 3237,
      "Ġbritish": 3238,
      "60": 3239,
      "Ġrest": 3240,
      "quel": 3241,
      "35": 3242,
      "Ġpublications": 3243,
      "Ġclin": 3244,
      "Ġentr": 3245,
      "atic": 3246,
      "40": 3247,
      "Ġligne": 3248,
      "ecu": 3249,
      "Ġmarchand": 3250,
      "istes": 3251,
      "ĠauprÃ¨s": 3252,
      "aving": 3253,
      "ĠfranÃ§": 3254,
      "Ġlast": 3255,
      "Ġpersons": 3256,
      "ĠrÃ©alis": 3257,
      "Ġgaz": 3258,
      "Ġavons": 3259,
      "atique": 3260,
      "ĠdÃ©cisions": 3261,
      "ĠrÃ©seau": 3262,
      "Ġseptembre": 3263,
      "cription": 3264,
      "ols": 3265,
      "Ġ<": 3266,
      "Ġalors": 3267,
      "put": 3268,
      "Ġlarg": 3269,
      "ĠrÃ©fÃ©rence": 3270,
      "Ġ35": 3271,
      "Ġfamily": 3272,
      "exerc": 3273,
      "ĠcatÃ©g": 3274,
      "Ġcultural": 3275,
      "tific": 3276,
      "aprÃ¨s": 3277,
      "Ġlow": 3278,
      "Ġauthorities": 3279,
      "Ġprop": 3280,
      "Ġvoy": 3281,
      "ĠrÃ©c": 3282,
      "Ġear": 3283,
      "Ġrecent": 3284,
      "lo": 3285,
      "Ġline": 3286,
      "ĠtraitÃ©": 3287,
      "intÃ©": 3288,
      "Ġenh": 3289,
      "ix": 3290,
      "Ġresponse": 3291,
      "Ġconservation": 3292,
      "illet": 3293,
      "Ġcentral": 3294,
      "Ġstrategic": 3295,
      "cra": 3296,
      "\".": 3297,
      "Ġsw": 3298,
      "Ġprotoc": 3299,
      "ban": 3300,
      "ove": 3301,
      "Ġpersonal": 3302,
      "Ġeven": 3303,
      "Ġprob": 3304,
      "uns": 3305,
      "Ġquatre": 3306,
      "ĠrÃ©pon": 3307,
      "ival": 3308,
      "Ġcit": 3309,
      "ĠprÃ©sident": 3310,
      "Ġjours": 3311,
      "ished": 3312,
      "ustr": 3313,
      "Ġdise": 3314,
      "Ġincluded": 3315,
      "Ġbil": 3316,
      "Ġaver": 3317,
      "Ġhos": 3318,
      "objet": 3319,
      "Ġpoursu": 3320,
      "45": 3321,
      "ĠÃ©tat": 3322,
      "ĠcommunautÃ©": 3323,
      "67": 3324,
      "Ġincid": 3325,
      "Ġobligations": 3326,
      "explo": 3327,
      "chewan": 3328,
      "autre": 3329,
      "Ġaj": 3330,
      "Ġculturel": 3331,
      "Ġseveral": 3332,
      "ette": 3333,
      "Ġreference": 3334,
      "uary": 3335,
      "Ġmembre": 3336,
      "Ġphase": 3337,
      "Ã©m": 3338,
      "ctures": 3339,
      "Ġopin": 3340,
      "lor": 3341,
      "bour": 3342,
      "tÃ©s": 3343,
      "Ġmer": 3344,
      "ĠdÃ©jÃł": 3345,
      "Ġadministrative": 3346,
      "acitÃ©": 3347,
      "Ġaudit": 3348,
      "Ġaspects": 3349,
      "Ġsud": 3350,
      "Ġalberta": 3351,
      "Ġrestric": 3352,
      "rir": 3353,
      "Ġdown": 3354,
      "31": 3355,
      "Ġevery": 3356,
      "acter": 3357,
      "ĠvÃ©rification": 3358,
      "Ġpuis": 3359,
      "ritann": 3360,
      "Ġscience": 3361,
      "Ġjohn": 3362,
      "Ġadap": 3363,
      "canad": 3364,
      "Ġimpl": 3365,
      "ror": 3366,
      "ĠdÃ©b": 3367,
      "Ġmonde": 3368,
      "Ġpension": 3369,
      "Ġseptember": 3370,
      "read": 3371,
      "isÃ©": 3372,
      "Ġscientif": 3373,
      "Ġanother": 3374,
      "Ġthen": 3375,
      "ĠrÃ©sid": 3376,
      "dure": 3377,
      "Ġdeveloping": 3378,
      "pital": 3379,
      "aring": 3380,
      "Ġreturn": 3381,
      "Ġdevraient": 3382,
      "Ġabs": 3383,
      "Ġadj": 3384,
      "let": 3385,
      "agence": 3386,
      "atoire": 3387,
      "ĠpropriÃ©tÃ©": 3388,
      "by": 3389,
      "change": 3390,
      "Ġreason": 3391,
      "Ġapril": 3392,
      "tively": 3393,
      "euvre": 3394,
      "Ġtreatment": 3395,
      "Ġsam": 3396,
      "ï¬ģ": 3397,
      "Ġstrength": 3398,
      "Ġmanufact": 3399,
      "Ġabove": 3400,
      "Ġali": 3401,
      "Ġmai": 3402,
      "duced": 3403,
      "Ġapplicable": 3404,
      "Ġstatus": 3405,
      "Ġfield": 3406,
      "ĠprÃ©cÃ©d": 3407,
      "Ġtechnical": 3408,
      "Ġforme": 3409,
      "Ġ1994": 3410,
      "Ġplu": 3411,
      "Ġhal": 3412,
      "press": 3413,
      "ĠparticuliÃ¨re": 3414,
      "Ġresponsible": 3415,
      "Ġmanitoba": 3416,
      "Ġpublication": 3417,
      "Ġeffects": 3418,
      "Ġassembl": 3419,
      "Ġunderta": 3420,
      "Ġbetter": 3421,
      "Ġactive": 3422,
      "itre": 3423,
      "Ġprivate": 3424,
      "2003": 3425,
      "Ġsurvey": 3426,
      "Ġexisting": 3427,
      "ives": 3428,
      "Ġsecteurs": 3429,
      "ĠmÃ©c": 3430,
      "Ġcependant": 3431,
      "mb": 3432,
      "ĠfranÃ§ais": 3433,
      "mer": 3434,
      "tissement": 3435,
      "uly": 3436,
      "Ġchangements": 3437,
      "Ġsubsection": 3438,
      "Ġjanvier": 3439,
      "Ã¯": 3440,
      "va": 3441,
      "Ġofficer": 3442,
      "analy": 3443,
      "Ġcharge": 3444,
      "Ġsport": 3445,
      "Ã©laboration": 3446,
      "vez": 3447,
      "Ã©rique": 3448,
      "Ġdon": 3449,
      "Ġacces": 3450,
      "Ġparty": 3451,
      "aison": 3452,
      "hr": 3453,
      "Ġcf": 3454,
      "Ġavril": 3455,
      "Ġpi": 3456,
      "Ġreporting": 3457,
      "oul": 3458,
      "Ġconsist": 3459,
      "grÃ©": 3460,
      "Ġ60": 3461,
      "forcement": 3462,
      "Ġapplications": 3463,
      "Ġjou": 3464,
      "Ġjob": 3465,
      "Ġfive": 3466,
      "Ġpractices": 3467,
      "Ġsaid": 3468,
      "cept": 3469,
      "Ġappo": 3470,
      "Ġcinq": 3471,
      "rie": 3472,
      "Ġamendement": 3473,
      "Ġcooperation": 3474,
      "Ġteam": 3475,
      "effic": 3476,
      "oti": 3477,
      "Ġdomes": 3478,
      "nes": 3479,
      "Ġphys": 3480,
      "Ġage": 3481,
      "gin": 3482,
      "indre": 3483,
      "Ġpurpose": 3484,
      "Ġmedia": 3485,
      "Ġdiscri": 3486,
      "ief": 3487,
      "âĢĶ": 3488,
      "orial": 3489,
      "Ġopportunities": 3490,
      "Ġnext": 3491,
      "clos": 3492,
      "asion": 3493,
      "Ġconcurr": 3494,
      "Ġtermes": 3495,
      "ologie": 3496,
      "Ġimportance": 3497,
      "66": 3498,
      "Ã©rÃ©": 3499,
      "Ġmess": 3500,
      "Ġacross": 3501,
      "Ġautom": 3502,
      "Ġjanuary": 3503,
      "lex": 3504,
      "Ġinspec": 3505,
      "Ġsing": 3506,
      "Ġvir": 3507,
      "Ġprocedures": 3508,
      "ental": 3509,
      "ned": 3510,
      "Ġemployee": 3511,
      "ront": 3512,
      "elines": 3513,
      "Ġq": 3514,
      "Ġfisher": 3515,
      "ĠÃ©valuation": 3516,
      "Ġband": 3517,
      "Ġven": 3518,
      "based": 3519,
      "olutions": 3520,
      "Ġtop": 3521,
      "Ġaffairs": 3522,
      "taining": 3523,
      "Ġeffect": 3524,
      "Ġcivil": 3525,
      "Ġmilieu": 3526,
      "95": 3527,
      "Ġmedical": 3528,
      "osph": 3529,
      "Ġcolumb": 3530,
      "ends": 3531,
      "Ġcred": 3532,
      "Ġproposition": 3533,
      "ĠmÃ©can": 3534,
      "Ġpolitical": 3535,
      "ĠsecrÃ©": 3536,
      "ĠmarchÃ©s": 3537,
      "Ġaccordance": 3538,
      "Ġproven": 3539,
      "usions": 3540,
      "Ġpopulations": 3541,
      "Ġprep": 3542,
      "doc": 3543,
      "ged": 3544,
      "88": 3545,
      "alogue": 3546,
      "avis": 3547,
      "Ã©gard": 3548,
      "Ġmme": 3549,
      "\",": 3550,
      "mun": 3551,
      "order": 3552,
      "Ġpress": 3553,
      "ĠdurÃ©e": 3554,
      "Ġfranc": 3555,
      "Ġpropor": 3556,
      "ĠcrÃ©ation": 3557,
      "tÃ©es": 3558,
      "Ġpertin": 3559,
      "ĠnÃ©cessaires": 3560,
      "oto": 3561,
      "Ġorigin": 3562,
      "Ġefficace": 3563,
      "Ġlit": 3564,
      "ĠpremiÃ¨res": 3565,
      "assurer": 3566,
      "Ã¨ce": 3567,
      "Ġsched": 3568,
      "Ġcarb": 3569,
      "Ĥ¬": 3570,
      "naire": 3571,
      "autor": 3572,
      "enz": 3573,
      "resse": 3574,
      "we": 3575,
      "ĠopÃ©rations": 3576,
      "ĠdÃ©lÃ©g": 3577,
      "ciaux": 3578,
      "ritannique": 3579,
      "Ġmeet": 3580,
      "Ġmieux": 3581,
      "Ġoccup": 3582,
      "Ġcall": 3583,
      "though": 3584,
      "Ġemerg": 3585,
      "Ġvigueur": 3586,
      "Ġlabour": 3587,
      "Ġidentified": 3588,
      "itable": 3589,
      "yer": 3590,
      "Ġsaskatchewan": 3591,
      "ĠnÃ©goci": 3592,
      "Ġbenefit": 3593,
      "Ġnotice": 3594,
      "ĠprocÃ©dure": 3595,
      "Ġmodifi": 3596,
      "Ġpartir": 3597,
      "aille": 3598,
      "ĠrÃ¨gles": 3599,
      "Ġ1990": 3600,
      "44": 3601,
      "ĠÃ©labor": 3602,
      "Ġannex": 3603,
      "Ġlabor": 3604,
      "37": 3605,
      "comm": 3606,
      "Ġcertific": 3607,
      "Ġobtenir": 3608,
      "Ġcentres": 3609,
      "Ġsoul": 3610,
      "Ġconfirm": 3611,
      "Ġaucune": 3612,
      "):": 3613,
      "Ġadministr": 3614,
      "itaire": 3615,
      "Ġcolumbia": 3616,
      "Ġmonitoring": 3617,
      "oit": 3618,
      "registre": 3619,
      "Ġhon": 3620,
      "ĠÂ».": 3621,
      "Ġoctober": 3622,
      "Ġalthough": 3623,
      "Ġstandard": 3624,
      "Ġcrimin": 3625,
      "Ġdistin": 3626,
      "Ġcommunautaire": 3627,
      "ĠministÃ¨res": 3628,
      "Ġlign": 3629,
      "lish": 3630,
      "ĠsÃ©lection": 3631,
      "tie": 3632,
      "Ġcham": 3633,
      "tle": 3634,
      "issant": 3635,
      "ope": 3636,
      "Ġdeb": 3637,
      "Ġstre": 3638,
      "Ġzone": 3639,
      "Ġcontex": 3640,
      "ouest": 3641,
      "cas": 3642,
      "Ġaltern": 3643,
      "Ã¨te": 3644,
      "ipo": 3645,
      "Ġcoordination": 3646,
      "Ġms": 3647,
      "Ġheld": 3648,
      "Ġtran": 3649,
      "itiz": 3650,
      "Ġspe": 3651,
      "elf": 3652,
      "Ġpen": 3653,
      "Ġgas": 3654,
      "placement": 3655,
      "assurance": 3656,
      "ither": 3657,
      "Ġcompanies": 3658,
      "und": 3659,
      "Ġexperience": 3660,
      "ĠdÃ©fense": 3661,
      "stances": 3662,
      "activitÃ©": 3663,
      "Ġprom": 3664,
      "jour": 3665,
      "ĠcompÃ©t": 3666,
      "Ġbest": 3667,
      "Ã©conom": 3668,
      "Ġjoint": 3669,
      "Ġsciences": 3670,
      "ames": 3671,
      "ison": 3672,
      "Ġnovembre": 3673,
      "Ġissu": 3674,
      "ae": 3675,
      "Ġpartenaires": 3676,
      "Ġhaving": 3677,
      "Ġappeal": 3678,
      "Ġtableau": 3679,
      "euille": 3680,
      "Ġoctobre": 3681,
      "Ġrenfor": 3682,
      "osition": 3683,
      "face": 3684,
      "tient": 3685,
      "Ġdays": 3686,
      "Ġyouth": 3687,
      "ĠindÃ©": 3688,
      "ergie": 3689,
      "Ġlesqu": 3690,
      "inÃ©a": 3691,
      "Ġtox": 3692,
      "Ġposs": 3693,
      "Ġsuivants": 3694,
      "Ġfont": 3695,
      "uelle": 3696,
      "tences": 3697,
      "Ġinfrastructure": 3698,
      "Ġplanification": 3699,
      "rique": 3700,
      "Ã¢ce": 3701,
      "ills": 3702,
      "coup": 3703,
      "Ġexpected": 3704,
      "Ġfacteurs": 3705,
      "Ġobten": 3706,
      "Ġtechnologie": 3707,
      "Ġmodif": 3708,
      "ĠdÃ©sign": 3709,
      "Ġltd": 3710,
      "Ġangl": 3711,
      "ave": 3712,
      "Ġproviding": 3713,
      "Ġatlan": 3714,
      "49": 3715,
      "ĠcollectivitÃ©s": 3716,
      "Ġdepartments": 3717,
      "iation": 3718,
      "pc": 3719,
      "2002": 3720,
      "ĠdÃ©m": 3721,
      "...": 3722,
      "Ġphy": 3723,
      "Ġlike": 3724,
      "urg": 3725,
      "exercice": 3726,
      "Ġserait": 3727,
      "Ġassurer": 3728,
      "Ġrange": 3729,
      "Ġthird": 3730,
      "Â¨": 3731,
      "Ġ45": 3732,
      "ĠgrÃ¢ce": 3733,
      "Ġdisposition": 3734,
      "36": 3735,
      "ĠtÃ©lÃ©": 3736,
      "Ġgaranti": 3737,
      "rain": 3738,
      "Ġtenu": 3739,
      "annexe": 3740,
      "47": 3741,
      "Ġmandat": 3742,
      "Ġrates": 3743,
      "tir": 3744,
      "Ġaim": 3745,
      "Ġmarchandises": 3746,
      "ien": 3747,
      "Ġdecisions": 3748,
      "Ġstrong": 3749,
      "Ġremain": 3750,
      "39": 3751,
      "Ġnationaux": 3752,
      "Ġchangement": 3753,
      "Ġtur": 3754,
      "duce": 3755,
      "nels": 3756,
      "ĠcompÃ©tences": 3757,
      "Ġcaus": 3758,
      "Ġassociated": 3759,
      "Ġ--": 3760,
      "Ġwee": 3761,
      "Ġsuperv": 3762,
      "Ġatta": 3763,
      "Ġrepro": 3764,
      "nel": 3765,
      "Ġinformations": 3766,
      "itaires": 3767,
      "bo": 3768,
      "Ġlik": 3769,
      "poses": 3770,
      "613": 3771,
      "Ġnovember": 3772,
      "Ġsouvent": 3773,
      "Ġcn": 3774,
      "Ġaucun": 3775,
      "Ġcompens": 3776,
      "Ġgreat": 3777,
      "Ġiii": 3778,
      "Ġattribu": 3779,
      "pendent": 3780,
      "Ġreal": 3781,
      "Ġvoir": 3782,
      "Ġappu": 3783,
      "Ġregister": 3784,
      "ĠprioritÃ©s": 3785,
      "Ġdomaines": 3786,
      "Ġagencies": 3787,
      "Ġinvolved": 3788,
      "Ġfall": 3789,
      "wick": 3790,
      "Ġhumaines": 3791,
      "Ġcherche": 3792,
      "Ġgreater": 3793,
      "ombie": 3794,
      "Ġdiscussion": 3795,
      "Ġsimilar": 3796,
      "ĠfinanciÃ¨re": 3797,
      "Ġclos": 3798,
      "over": 3799,
      "Ġriver": 3800,
      "Ġbeaucoup": 3801,
      "Ġchac": 3802,
      "atiques": 3803,
      "Ġarri": 3804,
      "Ġdifficult": 3805,
      "Ġsociale": 3806,
      "ĠrÃ©par": 3807,
      "Ġlut": 3808,
      "Ġtransportation": 3809,
      "Ġ+": 3810,
      "Ġconnaissances": 3811,
      "iture": 3812,
      "Ġtreaty": 3813,
      "ĠamÃ©liorer": 3814,
      "Ġred": 3815,
      "Ġdispos": 3816,
      "Ġalle": 3817,
      "Ġpurposes": 3818,
      "Ġfile": 3819,
      "Ġindividuals": 3820,
      "Ġmaking": 3821,
      "Ġsustainable": 3822,
      "Ġaliment": 3823,
      "ĠrÃ©union": 3824,
      "dess": 3825,
      "Ġbrev": 3826,
      "Ġleast": 3827,
      "less": 3828,
      "Ġrecommandations": 3829,
      "Ġconsultations": 3830,
      "Ġformul": 3831,
      "Ġexpend": 3832,
      "Ġcontrat": 3833,
      "Ġelectron": 3834,
      "org": 3835,
      "Ġjuillet": 3836,
      "Ġhor": 3837,
      "Ġdeal": 3838,
      "Ġextra": 3839,
      "Ġinstitute": 3840,
      "Ġarm": 3841,
      "Ġopen": 3842,
      "Ġlake": 3843,
      "Ġclear": 3844,
      "Ġger": 3845,
      "Ġjuly": 3846,
      "38": 3847,
      "Ġhere": 3848,
      "Ã©ric": 3849,
      "Ġoeuvre": 3850,
      "intÃ©gr": 3851,
      "Ġclassification": 3852,
      "Ġinsurance": 3853,
      "Ġdomestic": 3854,
      "ĠrÃ©ponse": 3855,
      "ze": 3856,
      "Ġliens": 3857,
      "olume": 3858,
      "Ġinterven": 3859,
      "Ġarrang": 3860,
      "Ġproposal": 3861,
      "lector": 3862,
      "Ġcriter": 3863,
      "ĠprocÃ©dures": 3864,
      "lections": 3865,
      "ley": 3866,
      "Ġmc": 3867,
      "ĠmontrÃ©": 3868,
      "echan": 3869,
      "Ġhau": 3870,
      "iÃ©s": 3871,
      "Ġdurant": 3872,
      "Ġmuch": 3873,
      "Ġreported": 3874,
      "Ġinstruments": 3875,
      "Ġplupart": 3876,
      "Ġguidelines": 3877,
      "Ġmodifications": 3878,
      "Ġfar": 3879,
      "Ġconference": 3880,
      "Ġpower": 3881,
      "Ġgrant": 3882,
      "ĠrÃ©duire": 3883,
      "Ġpartners": 3884,
      "ira": 3885,
      "Ġcompon": 3886,
      "Ġmodel": 3887,
      "term": 3888,
      "Ġlangues": 3889,
      "Ġhouse": 3890,
      "Ã©ducation": 3891,
      "Ġlimit": 3892,
      "Ġbiens": 3893,
      "Ã©rience": 3894,
      "Ġdang": 3895,
      "uels": 3896,
      "Ġagreements": 3897,
      "Ġitem": 3898,
      "Ġnotes": 3899,
      "Ġcarac": 3900,
      "Ġlignes": 3901,
      "inn": 3902,
      "Ġmonths": 3903,
      "Ġhigher": 3904,
      "48": 3905,
      "ancouver": 3906,
      "avantage": 3907,
      "itage": 3908,
      "Ġpaid": 3909,
      "75": 3910,
      "gÃ©s": 3911,
      "Ã©tablissement": 3912,
      "Ġcitoy": 3913,
      "ody": 3914,
      "iles": 3915,
      "Ġaverage": 3916,
      "thers": 3917,
      "ĠcoÃ»t": 3918,
      "Ġdelivery": 3919,
      "Ġstatut": 3920,
      "Ġrecommendations": 3921,
      "Ġexpress": 3922,
      "Ġadmis": 3923,
      "Ġ95": 3924,
      "Ġpublics": 3925,
      "Ġcoh": 3926,
      "ĠcaractÃ©r": 3927,
      "ĠâĢĺ": 3928,
      "Ġdisclos": 3929,
      "Ġvaleurs": 3930,
      "Ġpermettre": 3931,
      "Ġcitiz": 3932,
      "Ġperspec": 3933,
      "tors": 3934,
      "agit": 3935,
      "unswick": 3936,
      "Ġeas": 3937,
      "Ġps": 3938,
      "iquement": 3939,
      "Ġincludes": 3940,
      "Ġbon": 3941,
      "Ġreferred": 3942,
      "utri": 3943,
      "Ġsession": 3944,
      "Ġtarif": 3945,
      "ĠdiffÃ©rents": 3946,
      "institu": 3947,
      "Ġresponsabil": 3948,
      "ĠrÃ©glementation": 3949,
      "Ġcopy": 3950,
      "Ġmac": 3951,
      "Ġfree": 3952,
      "Ġfrench": 3953,
      "ĠÃ©g": 3954,
      "Ġlangue": 3955,
      "Ġmechan": 3956,
      "ĠmodÃ¨le": 3957,
      "isÃ©s": 3958,
      "occup": 3959,
      "Ġsuivant": 3960,
      "Ġregulatory": 3961,
      "ĠtÃ©": 3962,
      "raÃ®": 3963,
      "Ġconcerning": 3964,
      "Ġmoyens": 3965,
      "Ġface": 3966,
      "Ġplain": 3967,
      "titude": 3968,
      "analyse": 3969,
      "Ġharm": 3970,
      "Ġpriorities": 3971,
      "intÃ©rÃªt": 3972,
      "Ġadvis": 3973,
      "exploitation": 3974,
      ".-": 3975,
      "Ġproceed": 3976,
      "eux": 3977,
      "Ã©tude": 3978,
      "Ġsens": 3979,
      "ĠsociÃ©tÃ©s": 3980,
      "vision": 3981,
      "Ġpatients": 3982,
      "Ġtransports": 3983,
      "Ġdel": 3984,
      "Ġcontexte": 3985,
      "jours": 3986,
      "tc": 3987,
      "aud": 3988,
      "Ġfiscal": 3989,
      "Ġaudi": 3990,
      "Ġfinanc": 3991,
      "agement": 3992,
      "Ġterres": 3993,
      "bru": 3994,
      "wards": 3995,
      "Ġhydro": 3996,
      "Ġincreasing": 3997,
      "sec": 3998,
      "cy": 3999,
      "Ġfactors": 4000,
      "ris": 4001,
      "ĠrÃ©un": 4002,
      "ĠmatÃ©riel": 4003,
      "Ġvolume": 4004,
      "Ġrelation": 4005,
      "goti": 4006,
      "ĠspÃ©cif": 4007,
      "Ġafric": 4008,
      "Ġ00": 4009,
      "ĠespÃ¨ces": 4010,
      "Ġtes": 4011,
      "taires": 4012,
      "entreprise": 4013,
      "Ġremo": 4014,
      "Ġlac": 4015,
      "Ġword": 4016,
      "Ġrelationship": 4017,
      "not": 4018,
      "see": 4019,
      "britannique": 4020,
      "Ġsuivi": 4021,
      "Ġregarding": 4022,
      "Ġsolutions": 4023,
      "ious": 4024,
      "Ġagents": 4025,
      "Ġtranspar": 4026,
      "ĠaÃ©ri": 4027,
      "Ġrail": 4028,
      "Ġprincipaux": 4029,
      "ĠcÃ´": 4030,
      "Ġsearch": 4031,
      "aw": 4032,
      "eth": 4033,
      "istance": 4034,
      "Ġearly": 4035,
      "Ġparmi": 4036,
      "Ġsuivantes": 4037,
      "ications": 4038,
      "Ġexecu": 4039,
      "Ġresid": 4040,
      "ĠaccÃ¨s": 4041,
      "Ã©sor": 4042,
      "Ġpermanent": 4043,
      "Ġyoun": 4044,
      "initi": 4045,
      "ĠcritÃ¨res": 4046,
      "Ġground": 4047,
      "ttes": 4048,
      ",\"": 4049,
      "Ġax": 4050,
      "rel": 4051,
      "ĠmÃ©thodes": 4052,
      "old": 4053,
      "Ġrapid": 4054,
      "Ġoverall": 4055,
      "Ġdurable": 4056,
      "inves": 4057,
      "Ġrecru": 4058,
      "alitÃ©s": 4059,
      "Ġcross": 4060,
      "Ġpartici": 4061,
      "Ġconclusions": 4062,
      "Ġdefence": 4063,
      "Ġprincipes": 4064,
      "Ġalloc": 4065,
      "ĠpÃªche": 4066,
      "dom": 4067,
      "Ġhospital": 4068,
      "Ġnorthern": 4069,
      "Ġminimum": 4070,
      "ĠÃ¢": 4071,
      "Ġmaximum": 4072,
      "ĠopÃ©ration": 4073,
      "Ġtempor": 4074,
      "rad": 4075,
      "Ġuti": 4076,
      "ĠresponsabilitÃ©": 4077,
      "Ġindustrial": 4078,
      "assembl": 4079,
      "ologiques": 4080,
      "Ġrelativement": 4081,
      "Ġtoujours": 4082,
      "hom": 4083,
      "Ġinvestig": 4084,
      "Ġnegoti": 4085,
      "2001": 4086,
      "Ġforum": 4087,
      "Ġbranch": 4088,
      "46": 4089,
      "ĠlÃ©gisl": 4090,
      "Ã©cution": 4091,
      "ĠrÃ©duction": 4092,
      "Ġopinion": 4093,
      "Ġdimin": 4094,
      "Ġparc": 4095,
      "ah": 4096,
      "veness": 4097,
      "Ġgovernments": 4098,
      "Ġsuggest": 4099,
      "bruary": 4100,
      "Ġagriculture": 4101,
      "Ġmort": 4102,
      "ĠÃ©conomiques": 4103,
      "Ġisland": 4104,
      "Ġchapitre": 4105,
      "Ġproblems": 4106,
      "html": 4107,
      "Ġelig": 4108,
      "aries": 4109,
      "Ġfigure": 4110,
      "ik": 4111,
      "Ġpharm": 4112,
      "Ġplay": 4113,
      "bert": 4114,
      "Ġmodern": 4115,
      "Ġnews": 4116,
      "Ġfrance": 4117,
      "Ġpreuve": 4118,
      "Ġtels": 4119,
      "Ġaide": 4120,
      "Ġinternal": 4121,
      "Ã©vrier": 4122,
      "Ġfacilit": 4123,
      "ager": 4124,
      "Ġstatement": 4125,
      "Ġupon": 4126,
      "Ġresource": 4127,
      "Ġvalid": 4128,
      "Ġshare": 4129,
      "Ġincor": 4130,
      "Ġfunction": 4131,
      "rid": 4132,
      "Ġmodification": 4133,
      "onstr": 4134,
      "orie": 4135,
      "Ġaliments": 4136,
      "Ġcharacter": 4137,
      "Ġden": 4138,
      "Ġnutri": 4139,
      "thÃ¨": 4140,
      "Ġtoget": 4141,
      "Ġselection": 4142,
      "ĠdÃ©but": 4143,
      "bours": 4144,
      "Ġtogether": 4145,
      "ĠautoritÃ©s": 4146,
      "Ġcont": 4147,
      "dc": 4148,
      "Ġlearning": 4149,
      "acts": 4150,
      "Ġtechnique": 4151,
      "Ġstill": 4152,
      "Ġextern": 4153,
      "85": 4154,
      "ĠdeuxiÃ¨me": 4155,
      "tÃ©rÃªts": 4156,
      "80": 4157,
      "Ã©di": 4158,
      "aments": 4159,
      "Ġfut": 4160,
      "Ġstake": 4161,
      "isÃ©e": 4162,
      "anced": 4163,
      "istiques": 4164,
      "ĠrÃ©serve": 4165,
      "Ġliber": 4166,
      "Ġgouvernements": 4167,
      "Ġtele": 4168,
      "registrement": 4169,
      "Ġmondiale": 4170,
      "iller": 4171,
      "Ġmarine": 4172,
      "Ġavantages": 4173,
      "Ġdetermine": 4174,
      "igine": 4175,
      "ĠÃ©tude": 4176,
      "Ġvancouver": 4177,
      "fa": 4178,
      "Ġdonner": 4179,
      "Ġmilitary": 4180,
      "Ġunique": 4181,
      "Ġshort": 4182,
      "Ġadopted": 4183,
      "pending": 4184,
      "Ġvehic": 4185,
      "97": 4186,
      "arb": 4187,
      "Ġpursuant": 4188,
      "Ġheritage": 4189,
      "Ġexamen": 4190,
      "Ġoc": 4191,
      "Ġpractice": 4192,
      "Ġpatri": 4193,
      "Ġoften": 4194,
      "Ġtrouver": 4195,
      "Ġapplicant": 4196,
      "Ġpollu": 4197,
      "Ġpriority": 4198,
      "ĠfÃ©vrier": 4199,
      "90": 4200,
      "Ġniveaux": 4201,
      "Ġprofessional": 4202,
      "Ġfunds": 4203,
      "Ġcateg": 4204,
      "Ġavaient": 4205,
      "Ġterre": 4206,
      "Ġmean": 4207,
      "Ġcompetition": 4208,
      "Ġpourraient": 4209,
      "Ġterm": 4210,
      "Ġlois": 4211,
      "Ġleadership": 4212,
      "Ġenglish": 4213,
      "Ġquant": 4214,
      "Ġlib": 4215,
      "ĠliÃ©s": 4216,
      "Ġpaper": 4217,
      "Ġcriteria": 4218,
      "Ġscienti": 4219,
      "Ġphysi": 4220,
      "Ġnationales": 4221,
      "ering": 4222,
      "ries": 4223,
      "itions": 4224,
      "Ġorient": 4225,
      "Ġ1993": 4226,
      "Ġdiscuss": 4227,
      "Ġable": 4228,
      "Ġnombreux": 4229,
      "Ġlikely": 4230,
      "ommunic": 4231,
      "Ġchalleng": 4232,
      "ĠgÃ©": 4233,
      "importance": 4234,
      "Ġoutil": 4235,
      "Ġ201": 4236,
      "ready": 4237,
      "uter": 4238,
      "Ġstudents": 4239,
      "dis": 4240,
      "Ġmatter": 4241,
      "Ġwipo": 4242,
      "Ġparticularly": 4243,
      "âĤ¬": 4244,
      "ĠtÃ©lÃ©c": 4245,
      "Ġtir": 4246,
      "Ġbudg": 4247,
      "65": 4248,
      "ukon": 4249,
      "autÃ©s": 4250,
      "2008": 4251,
      "antill": 4252,
      "cipl": 4253,
      "Ġintroduction": 4254,
      "Ġprocedure": 4255,
      "Ġdernier": 4256,
      "Ġproportion": 4257,
      "Ġ1992": 4258,
      "issements": 4259,
      "Ġfebruary": 4260,
      "Ġcomplain": 4261,
      "aign": 4262,
      "34": 4263,
      "Ġdim": 4264,
      "inc": 4265,
      "Ġhaut": 4266,
      "Ġsupply": 4267,
      "Ã¨ve": 4268,
      "oura": 4269,
      "Ġlanguages": 4270,
      "Ġ37": 4271,
      "Ġcourse": 4272,
      "Ġprepar": 4273,
      "Ġprocesses": 4274,
      "ouvel": 4275,
      "Ġfarm": 4276,
      "Ġconclusion": 4277,
      "Ġstakehol": 4278,
      "appli": 4279,
      "nelle": 4280,
      "Ġrecherches": 4281,
      "Ġsuit": 4282,
      "Ġtouch": 4283,
      "Ġrecours": 4284,
      "Ġcompeti": 4285,
      "Ġeither": 4286,
      "Ġapproxim": 4287,
      "aj": 4288,
      "Ġarchives": 4289,
      "Ġbecome": 4290,
      "Ġunit": 4291,
      "Ġcomprend": 4292,
      "Ġemission": 4293,
      "ĠÃ©lectronique": 4294,
      "orter": 4295,
      "Ġporte": 4296,
      "Ġprestation": 4297,
      "efficacitÃ©": 4298,
      "Ġimportante": 4299,
      "univers": 4300,
      "Ġlocation": 4301,
      "Ġheures": 4302,
      "aÃ®tre": 4303,
      "Ġmention": 4304,
      "Ġwest": 4305,
      "Ġchef": 4306,
      "ĠdÃ©cou": 4307,
      "Ġalready": 4308,
      "Ġpatent": 4309,
      "Ġprogramm": 4310,
      "tiveness": 4311,
      "Ġdevant": 4312,
      "Ġself": 4313,
      "Ġfinding": 4314,
      "Ġdiscrimination": 4315,
      "ender": 4316,
      "Ġcolombie": 4317,
      "ĠfÃ©dÃ©rale": 4318,
      "rou": 4319,
      "Ġproch": 4320,
      "Ġattend": 4321,
      "Ã©hic": 4322,
      "Ġfinanciers": 4323,
      "Ġnoted": 4324,
      "Ġprise": 4325,
      "Ġevent": 4326,
      "Ġdavantage": 4327,
      "98": 4328,
      "Ã»t": 4329,
      "Ġinnovation": 4330,
      "Ġcancer": 4331,
      "Ã©nergie": 4332,
      "Ġformat": 4333,
      "Ġtravailleurs": 4334,
      "ĠmÃ©dec": 4335,
      "wer": 4336,
      "Ġvalues": 4337,
      "ug": 4338,
      "Ġpayments": 4339,
      "rol": 4340,
      "Ġaider": 4341,
      "ĠrÃ©pondre": 4342,
      "att": 4343,
      "ĠprÃ¨s": 4344,
      "ĠrÃ©serv": 4345,
      "Ġworkers": 4346,
      "Ġanalyse": 4347,
      "Ġrich": 4348,
      "Ġyoung": 4349,
      "Ġregions": 4350,
      "Ġ,": 4351,
      "Ġjuris": 4352,
      "Ġaille": 4353,
      "Ġrussi": 4354,
      "Ġanglais": 4355,
      "Ġfaible": 4356,
      "Ġ'": 4357,
      "Ġpromote": 4358,
      "ueill": 4359,
      "ĠcommunautÃ©s": 4360,
      "Ġpast": 4361,
      "urent": 4362,
      "ĠvÃ©hic": 4363,
      "ication": 4364,
      "Ġchois": 4365,
      "Ġothers": 4366,
      "Ġmariti": 4367,
      "Ġreach": 4368,
      "**": 4369,
      "Ġvoie": 4370,
      "ciale": 4371,
      "Ġindustries": 4372,
      "Ġidentify": 4373,
      "Ġcollabor": 4374,
      "ĠreÃ§u": 4375,
      "Ġcompliance": 4376,
      "urant": 4377,
      "Ġsummary": 4378,
      "Ġassembly": 4379,
      "ĠstratÃ©gique": 4380,
      "32": 4381,
      "Ġinternationales": 4382,
      "Ġvit": 4383,
      "Ġcurrently": 4384,
      "Ġroad": 4385,
      "Ġyukon": 4386,
      "Ġsubmitted": 4387,
      "ĠparticuliÃ¨rement": 4388,
      "Ġterror": 4389,
      "Ġpositive": 4390,
      "ink": 4391,
      "Ġdraft": 4392,
      "Ġsouth": 4393,
      "Ġretra": 4394,
      "Ġunderstanding": 4395,
      "Ġmoyenne": 4396,
      "2000": 4397,
      "Ġquar": 4398,
      "Ġcomplete": 4399,
      "ologique": 4400,
      "Ġlower": 4401,
      "Ġupd": 4402,
      "Ġsingle": 4403,
      "Ġailleurs": 4404,
      "ĠrÃ©gul": 4405,
      "hui": 4406,
      "alinÃ©a": 4407,
      "ismes": 4408,
      "Ġconjo": 4409,
      "Ġeconomy": 4410,
      "trices": 4411,
      "Ġchair": 4412,
      "Ġther": 4413,
      "ĠliÃ©es": 4414,
      "ically": 4415,
      "origine": 4416,
      "estern": 4417,
      "jourd": 4418,
      "Ġmach": 4419,
      "Ġworks": 4420,
      "ew": 4421,
      "spec": 4422,
      "utes": 4423,
      "Ġappell": 4424,
      "Ġseul": 4425,
      "Ġfournisse": 4426,
      "Ġevalu": 4427,
      "Ġparce": 4428,
      "onnes": 4429,
      "Ġjournal": 4430,
      "Ġmentionn": 4431,
      "Ġpresident": 4432,
      "Ġrepl": 4433,
      "fc": 4434,
      "Ġsomm": 4435,
      "Ġrural": 4436,
      "Ġannoun": 4437,
      "ĠmontrÃ©al": 4438,
      "Ġfamille": 4439,
      "ĠreprÃ©sentants": 4440,
      "Ġannexe": 4441,
      "Ġtari": 4442,
      "Ġ36": 4443,
      "Ġcho": 4444,
      "Ġprestations": 4445,
      "ched": 4446,
      "Ġquelques": 4447,
      "Ġresponsable": 4448,
      "ĠrÃ©mun": 4449,
      "Ġfisheries": 4450,
      "Ġcontext": 4451,
      "Ã©p": 4452,
      "itures": 4453,
      "Ġresponsibility": 4454,
      "Ġsurv": 4455,
      "site": 4456,
      "Ġelectronic": 4457,
      "atures": 4458,
      "impÃ´t": 4459,
      "Ġrefus": 4460,
      "Ġviolence": 4461,
      "Ġcontent": 4462,
      "Ġdiscussions": 4463,
      "ĠdÃ©lai": 4464,
      "Ġtab": 4465,
      "Ġactuellement": 4466,
      "Ġlutte": 4467,
      "Ġpayment": 4468,
      "Ġsurface": 4469,
      "ĠconfÃ©rence": 4470,
      "Ġsuper": 4471,
      "diction": 4472,
      "Ġpubliques": 4473,
      "limin": 4474,
      "Ġprinciples": 4475,
      "Ġcitizens": 4476,
      "Ġrevenue": 4477,
      "Ġappear": 4478,
      "Ġobjective": 4479,
      "ĠintÃ©ress": 4480,
      "Ġtransfert": 4481,
      "Ġaffect": 4482,
      "Ġgene": 4483,
      "Ġdialogue": 4484,
      "Ġbio": 4485,
      "ĠlÃ©gislation": 4486,
      "mental": 4487,
      "Ġapproved": 4488,
      "abilities": 4489,
      "Ġphoto": 4490,
      "Ġscientific": 4491,
      "ĠconsÃ©quent": 4492,
      "Ġajou": 4493,
      "55": 4494,
      "Ġregistration": 4495,
      "Ġder": 4496,
      "Ġsignal": 4497,
      "Ġdeme": 4498,
      "Ġsolution": 4499,
      "Ġcra": 4500,
      "Ġlinks": 4501,
      "Ġbelow": 4502,
      "Ġprevention": 4503,
      "Ġexchange": 4504,
      "Ġtransition": 4505,
      "Ã©rieur": 4506,
      "Ġking": 4507,
      "Ġskills": 4508,
      "Ġdisclosure": 4509,
      "Ġaqu": 4510,
      "Ã©taire": 4511,
      "Ġoperation": 4512,
      "Ġreduce": 4513,
      "fici": 4514,
      "Ġmaintenant": 4515,
      "Ġmaterials": 4516,
      "Ġstatistics": 4517,
      "Ġsembl": 4518,
      "Ġentreprise": 4519,
      "cell": 4520,
      "Ġdiri": 4521,
      "Ġcompagn": 4522,
      "truction": 4523,
      "Ġfonctions": 4524,
      "Ġ04": 4525,
      "Ġaug": 4526,
      "Ġcompleted": 4527,
      "Ġapprouv": 4528,
      "Ġreform": 4529,
      "Ġcredit": 4530,
      "Ġpoly": 4531,
      "pdf": 4532,
      "col": 4533,
      "Ġ90": 4534,
      "Ã©tique": 4535,
      "tiqu": 4536,
      "Ġexcell": 4537,
      "lation": 4538,
      "Ġcam": 4539,
      "ĠdÃ©finition": 4540,
      "Ġpratique": 4541,
      "Ġdisease": 4542,
      "ĠsÃ©rie": 4543,
      "ptions": 4544,
      "Ġoptions": 4545,
      "Ġtransf": 4546,
      "Ġaffec": 4547,
      "Ġbanque": 4548,
      "Ġrati": 4549,
      "ways": 4550,
      "Ġapplied": 4551,
      "Ġrembours": 4552,
      "erver": 4553,
      "Ġaccueil": 4554,
      "endi": 4555,
      "Ġportant": 4556,
      "Ġsepar": 4557,
      "ompl": 4558,
      "Ġconver": 4559,
      "nelles": 4560,
      "associ": 4561,
      "ĠmÃ©dias": 4562,
      "Ġ1991": 4563,
      "Ġtarget": 4564,
      "ĠdiffÃ©rentes": 4565,
      "Ġcoordin": 4566,
      "Ġplac": 4567,
      "ĠmÃ©thode": 4568,
      "ĠÃ©levÃ©": 4569,
      "Ġuntil": 4570,
      "Ġevents": 4571,
      "registr": 4572,
      "Ġacquis": 4573,
      "cide": 4574,
      "Ġprises": 4575,
      "ĠprÃ©vention": 4576,
      "Ġdiverses": 4577,
      "Ġiv": 4578,
      "Ġ34": 4579,
      "Ġrenforcer": 4580,
      "Ġmaladies": 4581,
      "Ġdemonstr": 4582,
      "Ã©chelle": 4583,
      "ana": 4584,
      "Ġrelating": 4585,
      "ĠprÃ©senter": 4586,
      "oix": 4587,
      "onde": 4588,
      "Ġ33": 4589,
      "intention": 4590,
      "Ġsaint": 4591,
      "ĠprogrÃ¨s": 4592,
      "Ġconseils": 4593,
      "Ġtu": 4594,
      "Ġtariff": 4595,
      "Ġmarque": 4596,
      "Ġincorpor": 4597,
      "Ġmilli": 4598,
      "ouvoir": 4599,
      "Ġvision": 4600,
      "rant": 4601,
      "oncÃ©": 4602,
      "pol": 4603,
      "ĠfrÃ©": 4604,
      "tine": 4605,
      "Ġcarry": 4606,
      "Ġtenir": 4607,
      "Ġpark": 4608,
      "Ġdistric": 4609,
      "Ġvisit": 4610,
      "Ġinitial": 4611,
      "Ġcollection": 4612,
      "tise": 4613,
      "96": 4614,
      "Ġget": 4615,
      "bi": 4616,
      "Ġcontri": 4617,
      "Ġtrou": 4618,
      "Ġinj": 4619,
      "ĠÃ©vent": 4620,
      "rage": 4621,
      "Ġstock": 4622,
      "ĠÃ©missions": 4623,
      "Ġabil": 4624,
      "Ġfacilities": 4625,
      "oration": 4626,
      "ablement": 4627,
      "Ġdecl": 4628,
      "Ã©conomie": 4629,
      "Ġsubstance": 4630,
      "ĠpÃ©n": 4631,
      "Ġdeliver": 4632,
      "eness": 4633,
      "Ġconducted": 4634,
      "Ġprepared": 4635,
      "Ġgener": 4636,
      "ĠsupÃ©rie": 4637,
      "Ġplut": 4638,
      "Ġattention": 4639,
      "ĠcrÃ©dit": 4640,
      "Ġsimpl": 4641,
      "ĠproblÃ¨me": 4642,
      "Ġpostes": 4643,
      "posi": 4644,
      "icient": 4645,
      "Ġconstitue": 4646,
      "ensive": 4647,
      "Ġintellectuelle": 4648,
      "Ġ38": 4649,
      "Ġdiver": 4650,
      "Ġformer": 4651,
      "exÃ©cution": 4652,
      "Ġimportants": 4653,
      "Ġmigr": 4654,
      "going": 4655,
      "ĠcontrÃ´": 4656,
      "Ġcannot": 4657,
      "Ġparticiper": 4658,
      "Ġvoyage": 4659,
      "Ġ75": 4660,
      "Ġissued": 4661,
      "94": 4662,
      "anges": 4663,
      "Ġopportunity": 4664,
      "Ġpromouvoir": 4665,
      "Ġpaci": 4666,
      "Ġrepubl": 4667,
      "Ġdri": 4668,
      "Ġetats": 4669,
      "Ġchoix": 4670,
      "Ġdisponibles": 4671,
      "Ġlat": 4672,
      "Ãªmes": 4673,
      "ĠamÃ©ric": 4674,
      "Ġsociaux": 4675,
      "Ġdiminu": 4676,
      "ĠrÃ©per": 4677,
      "Ġsensibil": 4678,
      "oÃ»t": 4679,
      "acqu": 4680,
      "Ġdipl": 4681,
      "enseign": 4682,
      "Ġcorporate": 4683,
      "Ġnormal": 4684,
      "Ġtools": 4685,
      "ended": 4686,
      "Ġconsistent": 4687,
      "elling": 4688,
      "Ġconcerned": 4689,
      "tÃ©l": 4690,
      "Ġterritorial": 4691,
      "Ġargu": 4692,
      "ĠderniÃ¨re": 4693,
      "tÃ©rieure": 4694,
      "uration": 4695,
      "canada": 4696,
      "________________________________": 4697,
      "ws": 4698,
      "Ġcity": 4699,
      "Ġapport": 4700,
      "Ġrevenus": 4701,
      "tier": 4702,
      "ĠpossibilitÃ©": 4703,
      "inst": 4704,
      "Ġdirectement": 4705,
      "Ġatlantic": 4706,
      "ĠprÃ©vues": 4707,
      "Ġ80": 4708,
      "Ġneeded": 4709,
      "Ġ500": 4710,
      "lectric": 4711,
      "Ġsuccessful": 4712,
      "Ġcomments": 4713,
      "Ġfamil": 4714,
      "ĠpossibilitÃ©s": 4715,
      "cting": 4716,
      "ĠprÃ©sence": 4717,
      "%)": 4718,
      "incl": 4719,
      "objec": 4720,
      "Ġchapter": 4721,
      "Ġconsommation": 4722,
      "Ġvote": 4723,
      "Ġcoordonn": 4724,
      "istan": 4725,
      "Ġhabitat": 4726,
      "Ġvente": 4727,
      "Ġul": 4728,
      "Ġpresented": 4729,
      "Ġbelie": 4730,
      "Ġprice": 4731,
      "Ġ]": 4732,
      "Ġschedule": 4733,
      "Ġcandidats": 4734,
      "rentiss": 4735,
      "Ġ#": 4736,
      "Ġfair": 4737,
      "serv": 4738,
      "Ġbat": 4739,
      "Ġamerican": 4740,
      "Ġcircum": 4741,
      "Ġtoday": 4742,
      "Ġministers": 4743,
      "iff": 4744,
      "âĢ¦âĢ¦âĢ¦âĢ¦": 4745,
      "moine": 4746,
      "Ġcs": 4747,
      "tariat": 4748,
      "Ġdocumentation": 4749,
      "âĢĳ": 4750,
      "Ġoutside": 4751,
      "ĠcrÃ©er": 4752,
      "erre": 4753,
      "Ġencourage": 4754,
      "Ġchercheurs": 4755,
      "Ġpurch": 4756,
      "Ġjustification": 4757,
      "Ġoperating": 4758,
      "ordre": 4759,
      "ĠsupplÃ©mentaires": 4760,
      "Ġmg": 4761,
      "Ġsecretariat": 4762,
      "ute": 4763,
      "Ġentit": 4764,
      "Ġobservations": 4765,
      "Ġloss": 4766,
      "assemblÃ©e": 4767,
      "Ġconcentrations": 4768,
      "Ġpoiss": 4769,
      "Ġthus": 4770,
      "Ġpersonnels": 4771,
      "77": 4772,
      "anci": 4773,
      "ĠutilisÃ©": 4774,
      "Ġprincipe": 4775,
      "rentissage": 4776,
      "cepti": 4777,
      "ibility": 4778,
      "ĠprÃ©voit": 4779,
      "Ġexperts": 4780,
      "Ġintervenants": 4781,
      "Ġemp": 4782,
      "enquÃªte": 4783,
      "Ġapproche": 4784,
      "Ġvisite": 4785,
      "Ġchim": 4786,
      "ĠdÃ©taill": 4787,
      "Ġjustif": 4788,
      "ez": 4789,
      "letin": 4790,
      "Ġdet": 4791,
      "adop": 4792,
      "ls": 4793,
      "Ġterritoire": 4794,
      "Ġrencon": 4795,
      "Ġtoxic": 4796,
      "Ġ32": 4797,
      "Ġlequel": 4798,
      "Ġtelle": 4799,
      "Ġconcentration": 4800,
      "ĠtÃ©mo": 4801,
      "Ġstrategies": 4802,
      "Ġenregistr": 4803,
      "Ġmich": 4804,
      "Ġlu": 4805,
      "ĠmatiÃ¨res": 4806,
      "Ġproactive": 4807,
      "ably": 4808,
      "ĠprÃ©sentation": 4809,
      "Ġoperational": 4810,
      "ĠmÃ©dicaments": 4811,
      "Ã¨ge": 4812,
      "Ġrepresentative": 4813,
      "ĠplutÃ´t": 4814,
      "ĠrÃ¨glements": 4815,
      "aa": 4816,
      "Ġvacc": 4817,
      "Ġflu": 4818,
      "Ġaugust": 4819,
      "Ġpaiements": 4820,
      "Ġexiste": 4821,
      "Ġcolle": 4822,
      "Ġdirectly": 4823,
      "Ġcandidates": 4824,
      "Ġbay": 4825,
      "Ġsmo": 4826,
      "ĠtrÃ©sor": 4827,
      "Ġcontenu": 4828,
      "Ġutiliser": 4829,
      "Ġappoint": 4830,
      "Ġrenouvel": 4831,
      "ĠprivÃ©": 4832,
      "Ġstructures": 4833,
      "Ġeaux": 4834,
      "aps": 4835,
      "ĠindiquÃ©": 4836,
      "Ġclar": 4837,
      "year": 4838,
      "Ġrenew": 4839,
      "Ġstakeholders": 4840,
      "Ġexclus": 4841,
      "due": 4842,
      "Ġstar": 4843,
      "mail": 4844,
      "Ġchallenges": 4845,
      "Ġjap": 4846,
      "Ġrepublic": 4847,
      "ony": 4848,
      "Ġhistory": 4849,
      "initiative": 4850,
      "Ġconsommateurs": 4851,
      "come": 4852,
      "Ġmight": 4853,
      "ĠutilisÃ©s": 4854,
      "Ġfinancier": 4855,
      "Ġfabrication": 4856,
      "ĠactivitÃ©": 4857,
      "Ã¨de": 4858,
      "keting": 4859,
      "Ġdirectrices": 4860,
      "Ġcommenc": 4861,
      "Ġdemander": 4862,
      "Ġinstallations": 4863,
      "ommunications": 4864,
      "Ġput": 4865,
      "Ġpatrimoine": 4866,
      "Ġgenerally": 4867,
      "--------": 4868,
      "Ġindex": 4869,
      "ĠcatÃ©gorie": 4870,
      "Ġdirectives": 4871,
      "Ġcollective": 4872,
      "lier": 4873,
      "arr": 4874,
      "Ġpermit": 4875,
      "Ġcommentaires": 4876,
      "Ġic": 4877,
      "Ġprimary": 4878,
      "oud": 4879,
      "Ġministres": 4880,
      "ĠÃ©tabli": 4881,
      "41": 4882,
      "Ġaujourd": 4883,
      "Ġzones": 4884,
      "Ġdescribed": 4885,
      "Ġfonctionnement": 4886,
      "Ġindicated": 4887,
      "Ġsat": 4888,
      "Ġfo": 4889,
      "Ġmethods": 4890,
      "Ġsent": 4891,
      "Ġcycle": 4892,
      "uellement": 4893,
      "Ġdetermined": 4894,
      "Ġhommes": 4895,
      "ĠÃ©tablir": 4896,
      "Ã®t": 4897,
      "Ġexecutive": 4898,
      "Ġsuscepti": 4899,
      "Ġaccomp": 4900,
      "Ġbody": 4901,
      "Ġconstitution": 4902,
      "Ħ¢": 4903,
      "imm": 4904,
      "reh": 4905,
      "ĠrÃ£": 4906,
      "Ġbasic": 4907,
      "Ġrule": 4908,
      "Ġprocure": 4909,
      "Ġforms": 4910,
      "Ġviv": 4911,
      "Ġpilo": 4912,
      "ĠresponsabilitÃ©s": 4913,
      "Ġachieve": 4914,
      "Ġinten": 4915,
      "Ġplant": 4916,
      "âĦ¢": 4917,
      "Ġrendre": 4918,
      "Ġinterview": 4919,
      "isÃ©es": 4920,
      "ĠsecrÃ©tariat": 4921,
      "ĠprÃ©occup": 4922,
      "Ġfind": 4923,
      "Ġgive": 4924,
      "68": 4925,
      "Ġvise": 4926,
      "arc": 4927,
      "Ġvolun": 4928,
      "Ġtelles": 4929,
      "ĠdÃ©ch": 4930,
      "Ġwestern": 4931,
      "orient": 4932,
      "Ġremar": 4933,
      "Ãªtes": 4934,
      "Ġapproval": 4935,
      "Ġcompet": 4936,
      "100": 4937,
      "gÃ©es": 4938,
      "Ġdit": 4939,
      "Ġclaire": 4940,
      "tissements": 4941,
      "Ġcommunautaires": 4942,
      "Ġplease": 4943,
      "ĠintÃ©rÃªts": 4944,
      "asp": 4945,
      "ĠclÃ©s": 4946,
      "Ġexten": 4947,
      "ĠderniÃ¨res": 4948,
      "tability": 4949,
      "Ġjust": 4950,
      "Ġpublished": 4951,
      "govern": 4952,
      "Ġfort": 4953,
      "Ġchemical": 4954,
      "ular": 4955,
      "dp": 4956,
      "Ġscre": 4957,
      "endix": 4958,
      "Ġwrit": 4959,
      "aissance": 4960,
      "gÃ©e": 4961,
      "riel": 4962,
      "umul": 4963,
      "ĠdÃ©posÃ©": 4964,
      "Ġhours": 4965,
      "Ġparents": 4966,
      "Ġconcerns": 4967,
      "Ġoffices": 4968,
      "Ġmid": 4969,
      "ynam": 4970,
      "crit": 4971,
      "Ġprovenant": 4972,
      "Ġsenior": 4973,
      "Ġassign": 4974,
      "Ġreduction": 4975,
      "Ġpaiement": 4976,
      "Ġagent": 4977,
      "Ġrom": 4978,
      "rador": 4979,
      "Ġteach": 4980,
      "cus": 4981,
      "Ġprofessionnels": 4982,
      "Ġbulletin": 4983,
      "Ġintegrated": 4984,
      "Ġtaking": 4985,
      "Ġeduc": 4986,
      "ulgation": 4987,
      "Ġassociations": 4988,
      "Ġdossier": 4989,
      "Ġcaract": 4990,
      "Ġcontamin": 4991,
      "Ġrejet": 4992,
      "Ġdesigned": 4993,
      "Ġfinance": 4994,
      "homme": 4995,
      "ych": 4996,
      "ĠaoÃ»t": 4997,
      "Ġfrancoph": 4998,
      "Ġvos": 4999,
      "anes": 5000,
      "isent": 5001,
      "ĠfinanciÃ¨res": 5002,
      "Ġdelegation": 5003,
      "Ġouver": 5004,
      "tit": 5005,
      "ĠdÃ©si": 5006,
      "enregistrement": 5007,
      "Ġbonne": 5008,
      "Ġfaisant": 5009,
      "na": 5010,
      "ĠdÃ©pÃ´t": 5011,
      "Ġgrands": 5012,
      "novation": 5013,
      "Ġsubstanti": 5014,
      "eaux": 5015,
      "isations": 5016,
      "Ġfondament": 5017,
      "Ġreceive": 5018,
      "Ġisol": 5019,
      "Ġchamp": 5020,
      "ĠentraÃ®": 5021,
      "Ġpermettant": 5022,
      "ingu": 5023,
      "Ã©th": 5024,
      "Ġconcurrence": 5025,
      "Ġaward": 5026,
      "Ġ85": 5027,
      "Ġplein": 5028,
      "gar": 5029,
      "lique": 5030,
      "roÃ®tre": 5031,
      "Ġpositions": 5032,
      "Ġsais": 5033,
      "oxy": 5034,
      "Ġsections": 5035,
      "Ġmag": 5036,
      "ĠstratÃ©gies": 5037,
      "43": 5038,
      "Ġqualif": 5039,
      "Ġ70": 5040,
      "Ġalong": 5041,
      "Ġfeed": 5042,
      "abs": 5043,
      "inde": 5044,
      "Ġexpenses": 5045,
      "Ġchief": 5046,
      "Ġsituations": 5047,
      "42": 5048,
      "Ġcommitment": 5049,
      "Ġoil": 5050,
      "Ġcustoms": 5051,
      "Ġimpacts": 5052,
      "tout": 5053,
      "Ġresolution": 5054,
      "Ġharmon": 5055,
      "Ġ48": 5056,
      "emn": 5057,
      "Ġeux": 5058,
      "Ġcomprendre": 5059,
      "enf": 5060,
      "Ġcc": 5061,
      "Ġsuppor": 5062,
      "Ġsafe": 5063,
      "Ġproblem": 5064,
      "Ġ65": 5065,
      "Ġbur": 5066,
      "ĠcapacitÃ©s": 5067,
      "Ġmontre": 5068,
      "Ġthre": 5069,
      "Ġrelease": 5070,
      "Ġrecords": 5071,
      "ually": 5072,
      "craft": 5073,
      "Ġ01": 5074,
      "Ġroyal": 5075,
      "Ã©tait": 5076,
      "Ġtot": 5077,
      "ially": 5078,
      "Ġenvironnementale": 5079,
      "Ġplanned": 5080,
      "Ġoffre": 5081,
      "Ġarts": 5082,
      "quently": 5083,
      "Ġpoursuiv": 5084,
      "ompi": 5085,
      "ops": 5086,
      "ĠdemandÃ©": 5087,
      "Ġknown": 5088,
      "Ġ55": 5089,
      "osy": 5090,
      "alf": 5091,
      "vin": 5092,
      "Ġenj": 5093,
      "Ġcm": 5094,
      "aster": 5095,
      "Ġgreen": 5096,
      "Ġthroughout": 5097,
      "Ġmunicipal": 5098,
      "ey": 5099,
      "Ã©tation": 5100,
      "Ġwaste": 5101,
      "Ġindiqu": 5102,
      "ĠreprÃ©sentant": 5103,
      "Ġdefined": 5104,
      "Ġemb": 5105,
      "Ġsize": 5106,
      "Ġrelatifs": 5107,
      "habit": 5108,
      "Ġstress": 5109,
      "Ġregistered": 5110,
      "Ġensemble": 5111,
      "ĠdÃ©mon": 5112,
      "Ġmarkets": 5113,
      "ĠÃ©quip": 5114,
      "erson": 5115,
      "Ġpermettra": 5116,
      "Ġannuel": 5117,
      "Ġart": 5118,
      "Ã©quipe": 5119,
      "iÃ©e": 5120,
      "qui": 5121,
      "Ġterritoires": 5122,
      "Ġweek": 5123,
      "export": 5124,
      "Ġmaladie": 5125,
      "enseignement": 5126,
      "Ġconsumer": 5127,
      "ĠdÃ©s": 5128,
      "ken": 5129,
      "Ġaround": 5130,
      "Ġmeetings": 5131,
      "umÃ©": 5132,
      "Ġextent": 5133,
      "Ġdonne": 5134,
      "Ġextend": 5135,
      "Ġdefinition": 5136,
      "Ġvas": 5137,
      "Ġcarried": 5138,
      "right": 5139,
      "Ġcommiss": 5140,
      "Ġclimate": 5141,
      "ustral": 5142,
      "Ġemploi": 5143,
      "Ġeligible": 5144,
      "Ġobjectif": 5145,
      "Ġfinances": 5146,
      "Ġbou": 5147,
      "Ġbillion": 5148,
      "Ġtiers": 5149,
      "appui": 5150,
      "ising": 5151,
      "uni": 5152,
      "Ġraisonn": 5153,
      "Ġprivacy": 5154,
      "Ã¨rent": 5155,
      "Ġï": 5156,
      "amÃ©lioration": 5157,
      "da": 5158,
      "Ġ39": 5159,
      "ĠprioritÃ©": 5160,
      "adresse": 5161,
      "Ġsuffis": 5162,
      "ought": 5163,
      "Ġfew": 5164,
      "Ġpollution": 5165,
      "Ġdig": 5166,
      "olid": 5167,
      "Ġtransmission": 5168,
      "Ġrepresentatives": 5169,
      "Ġparts": 5170,
      "Ġability": 5171,
      "atoires": 5172,
      "Ġgens": 5173,
      "Ġtreas": 5174,
      "Ġmaintenance": 5175,
      "puty": 5176,
      "Ġconven": 5177,
      "investissement": 5178,
      "Ġoce": 5179,
      "Ġstated": 5180,
      "ĠrÃ©publ": 5181,
      "Ġstation": 5182,
      "uits": 5183,
      "Ġdistrict": 5184,
      "Ġasi": 5185,
      "Ġagreed": 5186,
      "effec": 5187,
      "Ġpartenariat": 5188,
      "Ġspecified": 5189,
      "Ġtelec": 5190,
      "Ġletter": 5191,
      "unav": 5192,
      "Ġengine": 5193,
      "Ġgerman": 5194,
      "Ġindependent": 5195,
      "Ġtiss": 5196,
      "Ġdemocra": 5197,
      "Ġcab": 5198,
      "Ġwat": 5199,
      "Ġos": 5200,
      "Ġmarketing": 5201,
      "Ġdeg": 5202,
      "apprentissage": 5203,
      "Ġliqu": 5204,
      "Ġfich": 5205,
      "Ġdone": 5206,
      "Ġenterpr": 5207,
      "Ġstor": 5208,
      "Ġwild": 5209,
      "jud": 5210,
      "Ġmex": 5211,
      "aisse": 5212,
      "ĠministÃ©ri": 5213,
      "âĤ¬âĦ¢": 5214,
      "agnos": 5215,
      "fe": 5216,
      "Ġtimes": 5217,
      "Ġoccur": 5218,
      "Ġawar": 5219,
      "Ġemployer": 5220,
      "ĠÃ©tablissements": 5221,
      "ĠdÃ©lÃ©gation": 5222,
      "Ġforest": 5223,
      "ĠgÃ©nÃ©ralement": 5224,
      "Ġenforcement": 5225,
      "ĠtÃ¢": 5226,
      "Ġneu": 5227,
      "Ġdepartmental": 5228,
      "Ġexamin": 5229,
      "Ġcomptes": 5230,
      "Ġtexte": 5231,
      "Ġriv": 5232,
      "Ġpdf": 5233,
      "Ġindian": 5234,
      "Ġlegisl": 5235,
      "Ġexternal": 5236,
      "gary": 5237,
      "Ġphysical": 5238,
      "Ġpack": 5239,
      "Ġarb": 5240,
      "Ġaccompl": 5241,
      "Ġscientifiques": 5242,
      "Ġforward": 5243,
      "isions": 5244,
      "Ġcompensation": 5245,
      "Ġonce": 5246,
      "Ġsoulign": 5247,
      "Ġconflic": 5248,
      "Ã©rable": 5249,
      "dr": 5250,
      "Ġbra": 5251,
      "Ġreasons": 5252,
      "Ġconnex": 5253,
      "Ġ47": 5254,
      "ground": 5255,
      "Ġconsideration": 5256,
      "lang": 5257,
      "mont": 5258,
      "uelles": 5259,
      "aliment": 5260,
      "hÃ©": 5261,
      "Ġmak": 5262,
      "Ġville": 5263,
      "ĠconformitÃ©": 5264,
      "esti": 5265,
      "Ġethn": 5266,
      "Ġappendix": 5267,
      "oid": 5268,
      "Ġapproximately": 5269,
      "omes": 5270,
      "Ġcontinued": 5271,
      "Ġip": 5272,
      "kes": 5273,
      "Ġamb": 5274,
      "uite": 5275,
      "Ġawareness": 5276,
      "universitÃ©": 5277,
      "Ġobsta": 5278,
      "Ġspending": 5279,
      "enda": 5280,
      "ĠbÃ©nÃ©fici": 5281,
      "times": 5282,
      "Ġarrangements": 5283,
      "Ġcrime": 5284,
      "Ġrather": 5285,
      "Ġresponsibilities": 5286,
      "ĠrÃ©publique": 5287,
      "Ġsan": 5288,
      "Ġpropre": 5289,
      "Ġoutils": 5290,
      "Ġnombreuses": 5291,
      "Ġdiss": 5292,
      "Ġbegin": 5293,
      "Ġsorte": 5294,
      "Ġvul": 5295,
      "ĠlimitÃ©": 5296,
      "tivity": 5297,
      "ĠfÃ©dÃ©raux": 5298,
      "Ġessential": 5299,
      "intern": 5300,
      "Ġestimates": 5301,
      "87": 5302,
      "Ġaircraft": 5303,
      "ĠnÃ©": 5304,
      "pecially": 5305,
      "Ġrequires": 5306,
      "ĠdÃ©clarÃ©": 5307,
      "Ġjuridique": 5308,
      "ired": 5309,
      "Ġsectors": 5310,
      "Ġment": 5311,
      "Ġdeputy": 5312,
      "Ġide": 5313,
      "comes": 5314,
      "blio": 5315,
      "Ġacad": 5316,
      "Ġjam": 5317,
      "Ġinternationaux": 5318,
      "Ġtraditional": 5319,
      "uded": 5320,
      "Ġconfl": 5321,
      "Ġelements": 5322,
      "enant": 5323,
      "Ġtowards": 5324,
      "veur": 5325,
      "Ġinvent": 5326,
      "Ġap": 5327,
      "igence": 5328,
      "exper": 5329,
      "Ã¢ge": 5330,
      "Ġequal": 5331,
      "bers": 5332,
      "ensus": 5333,
      "ef": 5334,
      "Ġcommissioner": 5335,
      "innovation": 5336,
      "Ġ)": 5337,
      "Ġuk": 5338,
      "Ġsales": 5339,
      "Ġsuivante": 5340,
      "Ġcompreh": 5341,
      "Ġemissions": 5342,
      "Ġconsulta": 5343,
      "201": 5344,
      "association": 5345,
      "Ġlaun": 5346,
      "Ġaccr": 5347,
      "Ġinfec": 5348,
      "bation": 5349,
      "ĠdÃ©mocra": 5350,
      "Ġscoti": 5351,
      "Ġpropres": 5352,
      "Ġofficielles": 5353,
      "ĠnÃ©cessitÃ©": 5354,
      "Ġcontain": 5355,
      "Ġhiv": 5356,
      "tait": 5357,
      "Ġpasser": 5358,
      "Ġresponsables": 5359,
      "Ġsett": 5360,
      "oth": 5361,
      "ĠrÃ©gional": 5362,
      "ĠrÃ©munÃ©ration": 5363,
      "Ġlight": 5364,
      "Ġpropositions": 5365,
      "cident": 5366,
      "zed": 5367,
      "Ġauton": 5368,
      "ason": 5369,
      "nd": 5370,
      "Ġclaims": 5371,
      "Ġdiagnos": 5372,
      "Ġanci": 5373,
      "Ġamerica": 5374,
      "Ġchacun": 5375,
      "Ġliving": 5376,
      "ĠÃ©gard": 5377,
      "Ġaurait": 5378,
      "Ġinterests": 5379,
      "Ġappellant": 5380,
      "auteur": 5381,
      "Ġhous": 5382,
      "Ġamendments": 5383,
      "Ġgrandes": 5384,
      "dÃ©": 5385,
      "Ġrequirement": 5386,
      "Ġnavig": 5387,
      "Ġfavoriser": 5388,
      "Ġfaciliter": 5389,
      "ordin": 5390,
      "Ġlack": 5391,
      "Ġenvis": 5392,
      "Ġcitoyens": 5393,
      "Ġrisks": 5394,
      "Ġtemp": 5395,
      "cad": 5396,
      "Ġrecommandation": 5397,
      "Ġbor": 5398,
      "Ġdepos": 5399,
      "gi": 5400,
      "Ġcreate": 5401,
      "Ġmandate": 5402,
      "Ġtaxes": 5403,
      "avoir": 5404,
      "Ġmanif": 5405,
      "ĠstratÃ©giques": 5406,
      "water": 5407,
      "Ġnunav": 5408,
      "Ġintended": 5409,
      "Ġru": 5410,
      "iii": 5411,
      "Ġdynam": 5412,
      "diff": 5413,
      "Ġbalance": 5414,
      "Ġproposals": 5415,
      "ĠÃ©valuer": 5416,
      "know": 5417,
      "Ġconcept": 5418,
      "Ġdossiers": 5419,
      "Ġwind": 5420,
      "Ġconsent": 5421,
      "Ġcharter": 5422,
      "Ġimmedi": 5423,
      "Ġformulaire": 5424,
      "Ġcircumstances": 5425,
      "ottawa": 5426,
      "Ġbroadcas": 5427,
      "Ġintellectual": 5428,
      "Ġinstrument": 5429,
      "Ġti": 5430,
      "Ġtreasury": 5431,
      "Ġestablishment": 5432,
      "mping": 5433,
      "Ġbc": 5434,
      "ĠpÃªches": 5435,
      "Ġflex": 5436,
      "Ġconsac": 5437,
      "Ġperf": 5438,
      "Ġlocaux": 5439,
      "Ġconstat": 5440,
      "ida": 5441,
      "buted": 5442,
      "ĠprotÃ©ger": 5443,
      "rement": 5444,
      "Ã§u": 5445,
      "Ġveuille": 5446,
      "Ġmedic": 5447,
      "Ġfeu": 5448,
      "entrÃ©e": 5449,
      "Ġmm": 5450,
      "Ġpourcent": 5451,
      "ĠprÃ©vu": 5452,
      "Ġfri": 5453,
      "applique": 5454,
      "Ġdrugs": 5455,
      "intes": 5456,
      "Ġlum": 5457,
      "sif": 5458,
      "ĠprÃ©paration": 5459,
      "Ġefficient": 5460,
      "Ã¡Ã¡": 5461,
      "Ġleave": 5462,
      "augment": 5463,
      "Ġveuillez": 5464,
      "Ġcontribute": 5465,
      "overy": 5466,
      "Ġ41": 5467,
      "expÃ©rience": 5468,
      "gement": 5469,
      "Ġbir": 5470,
      "amÃ©liorer": 5471,
      "Ġrecommendation": 5472,
      "Ã©trang": 5473,
      "Ġpanel": 5474,
      "Ġcustom": 5475,
      "Ġbiblio": 5476,
      "Ġespecially": 5477,
      "Ġlingu": 5478,
      "Ġactual": 5479,
      "Ã©tudes": 5480,
      "Ġdrog": 5481,
      "1999": 5482,
      "Ġscope": 5483,
      "ney": 5484,
      "Ġkeep": 5485,
      "mosph": 5486,
      "Ġconfidenti": 5487,
      "¿½": 5488,
      "Ġsurtout": 5489,
      "Ġimmigr": 5490,
      "ns": 5491,
      "related": 5492,
      "organisme": 5493,
      "ontal": 5494,
      "Ġadult": 5495,
      "eurs": 5496,
      "rs": 5497,
      "Ġquand": 5498,
      "Ġprocessing": 5499,
      "Ġtrust": 5500,
      "Ġnova": 5501,
      "Ġassum": 5502,
      "Ġservir": 5503,
      "tual": 5504,
      "eront": 5505,
      "ico": 5506,
      "Ġtests": 5507,
      "Ġrelatif": 5508,
      "Ġvice": 5509,
      "Ġcouver": 5510,
      "ĠrÃ¨gle": 5511,
      "Ġprol": 5512,
      "Ġconsolid": 5513,
      "Ġaugmentation": 5514,
      "Ġoriginal": 5515,
      "Ġtext": 5516,
      "den": 5517,
      "Â´": 5518,
      "ĠcaractÃ©ristiques": 5519,
      "Ġade": 5520,
      "ĠprÃ©sentÃ©": 5521,
      "useum": 5522,
      "Ġlibr": 5523,
      "Ġlettre": 5524,
      "dessus": 5525,
      "Ġdecre": 5526,
      "Ġdam": 5527,
      "Ġrappor": 5528,
      "Ġcompared": 5529,
      "uding": 5530,
      "Ġamoun": 5531,
      "Ġprevent": 5532,
      "Ġscotia": 5533,
      "Ġexceed": 5534,
      "gent": 5535,
      "Ġchec": 5536,
      "Ġpsych": 5537,
      "Ġol": 5538,
      "Ġstatistiques": 5539,
      "ductions": 5540,
      "Ġterritories": 5541,
      "Ġoption": 5542,
      "Ġagricultural": 5543,
      "Ġdetailed": 5544,
      "inted": 5545,
      "ga": 5546,
      "Ġguar": 5547,
      "Ġpied": 5548,
      "ĠrÃ©d": 5549,
      "agric": 5550,
      "Ġproduced": 5551,
      "bourg": 5552,
      "do": 5553,
      "cie": 5554,
      "inform": 5555,
      "Ġrac": 5556,
      "bc": 5557,
      "ĠdÃ¨s": 5558,
      "Ġ1987": 5559,
      "iÃ©es": 5560,
      "ateral": 5561,
      "Ġengagements": 5562,
      "61": 5563,
      "Ġbehalf": 5564,
      "Ġwritten": 5565,
      "Ġbord": 5566,
      "Ġunies": 5567,
      "Ġimpri": 5568,
      "Ġprescri": 5569,
      "Ġrespective": 5570,
      "life": 5571,
      "ares": 5572,
      "ĠdÃ©t": 5573,
      "Ġordin": 5574,
      "Ġbring": 5575,
      "objectif": 5576,
      "urÃ©": 5577,
      "http": 5578,
      "Ġorganisme": 5579,
      "Ġpct": 5580,
      "Ġcreated": 5581,
      "Ġmanufacturing": 5582,
      "Ġtaxe": 5583,
      "Ġait": 5584,
      "Ġmobil": 5585,
      "Ġadvice": 5586,
      "intÃ©gration": 5587,
      "Ġox": 5588,
      "ĠÃ©tudiants": 5589,
      "Ġtrop": 5590,
      "Ġmanner": 5591,
      "Ġdiffusion": 5592,
      "Ġroute": 5593,
      "Ġcomprehensive": 5594,
      "Ġship": 5595,
      "Ġofficers": 5596,
      "son": 5597,
      "Ġtask": 5598,
      "Ġinuit": 5599,
      "ĠcollectivitÃ©": 5600,
      "found": 5601,
      "vous": 5602,
      "adap": 5603,
      "Ġparcs": 5604,
      "Ġcapit": 5605,
      "Ġhim": 5606,
      "usse": 5607,
      "Ġcritical": 5608,
      "ĠbÃ¢": 5609,
      "Ġtaille": 5610,
      "ĠrÃ©seaux": 5611,
      "istique": 5612,
      "Ġinterp": 5613,
      "ored": 5614,
      "ĠrÃ©al": 5615,
      "Ġ49": 5616,
      "mise": 5617,
      "ging": 5618,
      "ider": 5619,
      "Ġadvisory": 5620,
      "Ġfully": 5621,
      "89": 5622,
      "Ġsatisfaction": 5623,
      "Ã©tranger": 5624,
      "aÃ®t": 5625,
      "Ġcentrale": 5626,
      "prÃ©": 5627,
      "ows": 5628,
      "Ġprinciple": 5629,
      "opie": 5630,
      "Ġsommes": 5631,
      "Ġemergency": 5632,
      "Ġfire": 5633,
      "Ġdatab": 5634,
      "ĠsuccÃ¨s": 5635,
      "Ġrelig": 5636,
      "Ġenvoy": 5637,
      "Ġsufficient": 5638,
      "Ġfees": 5639,
      "Ġimproved": 5640,
      "Ġmaritime": 5641,
      "Ġcouns": 5642,
      "Ġmaintain": 5643,
      "Ġ44": 5644,
      "Ġinstructions": 5645,
      "ipeg": 5646,
      "Ġactuelle": 5647,
      "Ã¨le": 5648,
      "ĠproposÃ©": 5649,
      "Ġdetails": 5650,
      "Ġbehav": 5651,
      "Ġexhib": 5652,
      "Ġasked": 5653,
      "innipeg": 5654,
      "Ġ02": 5655,
      "Ġinstitutional": 5656,
      "ibilitÃ©": 5657,
      "ash": 5658,
      "west": 5659,
      "Ġdisponible": 5660,
      "Ġcur": 5661,
      "ĠmodÃ¨les": 5662,
      "Ġstreet": 5663,
      "Ã©rences": 5664,
      "ument": 5665,
      "Ġestimated": 5666,
      "Ġrecueill": 5667,
      "Ġdiscipl": 5668,
      "Ġsubventions": 5669,
      "Ġ05": 5670,
      "cf": 5671,
      "Ġconnexes": 5672,
      "Ġscol": 5673,
      "Ġtps": 5674,
      "ĠreprÃ©sente": 5675,
      "Ã¨nes": 5676,
      "Ġlibre": 5677,
      "Ġsimple": 5678,
      "Ġaccords": 5679,
      "Ġartis": 5680,
      "Ġmix": 5681,
      "Ġongoing": 5682,
      "Ġmuseum": 5683,
      "Ġmilitaire": 5684,
      "ĠrÃ©solution": 5685,
      "Ã©quip": 5686,
      "ĠsÃ»": 5687,
      "ĠtÃ©lÃ©phone": 5688,
      "obil": 5689,
      "ĠvÃ©hicules": 5690,
      "Ġmatters": 5691,
      "Ġmissions": 5692,
      "prÃ©tation": 5693,
      "uff": 5694,
      "Ġguerre": 5695,
      "Ġentreprene": 5696,
      "phas": 5697,
      "Ġreduced": 5698,
      "ĠÃ©p": 5699,
      "Ġalli": 5700,
      "Ġcandidate": 5701,
      "publ": 5702,
      "Ġ88": 5703,
      "ĠcompÃ©tence": 5704,
      "Ġadequ": 5705,
      "Ġclearly": 5706,
      "Ġjean": 5707,
      "indi": 5708,
      "cont": 5709,
      "Ġutilisation": 5710,
      "Ġindique": 5711,
      "Ġparticuliers": 5712,
      "erie": 5713,
      "Ġtal": 5714,
      "Ġprincipales": 5715,
      "ville": 5716,
      "Ġdan": 5717,
      "Ġber": 5718,
      "Ġchiff": 5719,
      "Ġlater": 5720,
      "ĪĴ": 5721,
      "wg": 5722,
      "Ġfoundation": 5723,
      "Ġdix": 5724,
      "gne": 5725,
      "Ġinvestissements": 5726,
      "Ġwant": 5727,
      "row": 5728,
      "otechn": 5729,
      "mettre": 5730,
      "lemen": 5731,
      "Ġsubse": 5732,
      "obtenir": 5733,
      "Ġcriminal": 5734,
      "69": 5735,
      "Ġseule": 5736,
      "Ġscientifique": 5737,
      "Ġfail": 5738,
      "Ġenqu": 5739,
      "ĠrÃ©sultat": 5740,
      "Ġassets": 5741,
      "Ġconception": 5742,
      "Ġprotocole": 5743,
      "ocation": 5744,
      "ĠindÃ©pend": 5745,
      "Ġavez": 5746,
      "Ġsusp": 5747,
      "Ġresearchers": 5748,
      "Ġcommuniquer": 5749,
      "atively": 5750,
      "Ġsemble": 5751,
      "dra": 5752,
      "ĠpÃ©": 5753,
      "yle": 5754,
      "Ġchron": 5755,
      "ocks": 5756,
      "Ġremplac": 5757,
      "Ġadoption": 5758,
      "Ġcome": 5759,
      "Ġwhole": 5760,
      "Ġkm": 5761,
      "Ġalternative": 5762,
      "Ġelection": 5763,
      "Ġworksh": 5764,
      "Ġlonger": 5765,
      "Ġstim": 5766,
      "Ġep": 5767,
      "Ġtravailler": 5768,
      "Ġinvestigation": 5769,
      "Ġmou": 5770,
      "ĠrÃ©unions": 5771,
      "70": 5772,
      "ank": 5773,
      "Ġconvient": 5774,
      "titul": 5775,
      "Ġpetites": 5776,
      "itr": 5777,
      "Ġpages": 5778,
      "ee": 5779,
      "xx": 5780,
      "Ġdesignated": 5781,
      "Ġintegration": 5782,
      "bes": 5783,
      "lin": 5784,
      "Ġproducteurs": 5785,
      "Ġappare": 5786,
      "Ġcivile": 5787,
      "Ġtob": 5788,
      "mÃ©di": 5789,
      "Ġtransactions": 5790,
      "Ġimportantes": 5791,
      "Ġvolon": 5792,
      "Ġauxqu": 5793,
      "Ġtesting": 5794,
      "cipient": 5795,
      "Ġmanagers": 5796,
      "Ġcreation": 5797,
      "environ": 5798,
      "Ġlimite": 5799,
      "Ġpourcentage": 5800,
      "ulf": 5801,
      "Ġlanc": 5802,
      "Ġadded": 5803,
      "Ġcontracting": 5804,
      "Ġaccountability": 5805,
      "Ġsoc": 5806,
      "Ġparks": 5807,
      "Ġcompagnie": 5808,
      "Ġlink": 5809,
      "ourable": 5810,
      "affaires": 5811,
      "isms": 5812,
      "Ġreste": 5813,
      "Ġensuite": 5814,
      "most": 5815,
      "Ġserious": 5816,
      "onses": 5817,
      "Ġwood": 5818,
      "urgence": 5819,
      "Ġinfluence": 5820,
      "Ġcult": 5821,
      "Ġprend": 5822,
      "Ġtransformation": 5823,
      "Ġsupported": 5824,
      "formes": 5825,
      "ware": 5826,
      "Ġexpertise": 5827,
      "Ġmessage": 5828,
      "Ġexercise": 5829,
      "quence": 5830,
      "Ġobtained": 5831,
      "ĠdÃ©crit": 5832,
      "Ġsuc": 5833,
      "tables": 5834,
      "Ġconnaissance": 5835,
      "Ġreserve": 5836,
      "ĠdÃ©liv": 5837,
      "Ġengagement": 5838,
      "Ġraisons": 5839,
      "sibilitÃ©": 5840,
      "ki": 5841,
      "Ġdomin": 5842,
      "ctive": 5843,
      "ĠexÃ©cu": 5844,
      "ï¿½": 5845,
      "Ġdess": 5846,
      "Ġ43": 5847,
      "Ġlesquels": 5848,
      "Ġcompter": 5849,
      "Ġtrouve": 5850,
      "ariats": 5851,
      "Ġsoft": 5852,
      "Ġ?": 5853,
      "izing": 5854,
      "Ġregistr": 5855,
      "ĠmÃ©canismes": 5856,
      "ĠÂ·": 5857,
      "ĠcaractÃ¨re": 5858,
      "ori": 5859,
      "Ã¨tres": 5860,
      "Ġprotect": 5861,
      "rer": 5862,
      "Ġundertaking": 5863,
      "Ġdav": 5864,
      "Ġduties": 5865,
      "Ã©rÃ©s": 5866,
      "osse": 5867,
      "Ġclasse": 5868,
      "Ġensuring": 5869,
      "Ġentitled": 5870,
      "Ġparam": 5871,
      "Ġregular": 5872,
      "Ġidentification": 5873,
      "Ġmeilleure": 5874,
      "Ġmilliards": 5875,
      "agriculture": 5876,
      "Ġseries": 5877,
      "Ġcommitments": 5878,
      "Ġpet": 5879,
      "Ġtitle": 5880,
      "Ġexpenditures": 5881,
      "Ġstrengthen": 5882,
      "atric": 5883,
      "ark": 5884,
      "Ġfron": 5885,
      "Ġprofit": 5886,
      "rite": 5887,
      "Ġprovinciaux": 5888,
      "Ġfiled": 5889,
      "Ġsupporting": 5890,
      "Ġnunavut": 5891,
      "Ġenhance": 5892,
      "Ġobjet": 5893,
      "Ġfaits": 5894,
      "63": 5895,
      "Ġfollows": 5896,
      "Ġbrevets": 5897,
      "mark": 5898,
      "Ġcommune": 5899,
      "Ġtelephone": 5900,
      "Ġfid": 5901,
      "Ġwebsite": 5902,
      "Ġgradu": 5903,
      "Ġnaturelles": 5904,
      "Ġamended": 5905,
      "Ġimplemented": 5906,
      "ived": 5907,
      "ĠÃ©crit": 5908,
      "ĠrÃ©alisation": 5909,
      "Ġassu": 5910,
      "Ġbrunswick": 5911,
      "Ġcomputer": 5912,
      "Ġexcep": 5913,
      "lectoral": 5914,
      "ĠenquÃªte": 5915,
      "Ġcd": 5916,
      "Ġcu": 5917,
      "tez": 5918,
      "Ġfisc": 5919,
      "Ġperspective": 5920,
      "Ġways": 5921,
      "Ġpartner": 5922,
      "Ġusers": 5923,
      "ĠsupÃ©rieur": 5924,
      "Ġformal": 5925,
      "Ġeast": 5926,
      "Ġrang": 5927,
      "Ġpeace": 5928,
      "aume": 5929,
      "Ġquelque": 5930,
      "Ã©taires": 5931,
      "Ġbuild": 5932,
      "Ġcodes": 5933,
      "Ġcru": 5934,
      "Ġnomination": 5935,
      "Ã©tablir": 5936,
      "plois": 5937,
      "hc": 5938,
      "Ġgender": 5939,
      "ducing": 5940,
      "Ġacid": 5941,
      "Ġrc": 5942,
      "adoption": 5943,
      "ĠrÃ©ponses": 5944,
      "Ġconclu": 5945,
      "ify": 5946,
      "ĠÃ©lÃ©ment": 5947,
      "obs": 5948,
      "ĠimmÃ©di": 5949,
      "atta": 5950,
      "Ã©tiques": 5951,
      "Ġrestrictions": 5952,
      "Ġ42": 5953,
      "head": 5954,
      "Ġvra": 5955,
      "Ġmilitaires": 5956,
      "Ġled": 5957,
      "Ġcombat": 5958,
      "Ġfonctionnaires": 5959,
      "Ġprime": 5960,
      "Ġcharges": 5961,
      "Ġ1989": 5962,
      "alberta": 5963,
      "agent": 5964,
      "Ġamounts": 5965,
      "wise": 5966,
      "foundland": 5967,
      "Ġlesquelles": 5968,
      "Ġjudici": 5969,
      "lementing": 5970,
      "Ġmanager": 5971,
      "Ġquelle": 5972,
      "Ġoutcomes": 5973,
      "Ġprincipalement": 5974,
      "Ġfindings": 5975,
      "temps": 5976,
      "ĠadoptÃ©": 5977,
      "ĠprÃ©vue": 5978,
      "Ġprog": 5979,
      "Ġlittle": 5980,
      "imes": 5981,
      "Ġvia": 5982,
      "Ġcommerciaux": 5983,
      "Ġlabrador": 5984,
      "Ġadjust": 5985,
      "Ġeffici": 5986,
      "Ġaven": 5987,
      "Ġstage": 5988,
      "Ġmoney": 5989,
      "Ġindire": 5990,
      "Ġclairement": 5991,
      "elves": 5992,
      "Ġlimites": 5993,
      "ghan": 5994,
      "occasion": 5995,
      "ĠcrÃ©dits": 5996,
      "Ġexposure": 5997,
      "Ġreasonable": 5998,
      "comp": 5999,
      "inet": 6000,
      "Ġcorrection": 6001,
      "64": 6002,
      "Ġurban": 6003,
      "Ġsea": 6004,
      "Ġpatient": 6005,
      "Ġsouten": 6006,
      "Ġinterne": 6007,
      "Ġaffected": 6008,
      "Ġcihr": 6009,
      "Ġjuge": 6010,
      "ĠÃ©vÃ©n": 6011,
      "ĠdÃ©pend": 6012,
      "Ġfacility": 6013,
      "Ġexpri": 6014,
      "Ġestime": 6015,
      "Ġsold": 6016,
      "Ġarc": 6017,
      "ring": 6018,
      "pm": 6019,
      "Ġcommerciales": 6020,
      "Ġimmigration": 6021,
      "Ġagricoles": 6022,
      "Ġagenda": 6023,
      "Ġchlor": 6024,
      "ery": 6025,
      "Ġfactor": 6026,
      "Ġcalled": 6027,
      "activitÃ©s": 6028,
      "back": 6029,
      "Ġoly": 6030,
      "Ġvih": 6031,
      "Ġhandic": 6032,
      "Ġcomponent": 6033,
      "Ġrapporteur": 6034,
      "Ġlien": 6035,
      "Ġouv": 6036,
      "ĠdÃ£": 6037,
      "cussions": 6038,
      "Ã©valu": 6039,
      "92": 6040,
      "58": 6041,
      "Ġprices": 6042,
      "ĠdiversitÃ©": 6043,
      "Ġdeclar": 6044,
      "acco": 6045,
      "ffic": 6046,
      "Ġobligation": 6047,
      "Ġturn": 6048,
      "ivalent": 6049,
      "Ġgovernance": 6050,
      "Ġhearing": 6051,
      "Ġimmun": 6052,
      "Ġfaveur": 6053,
      "istic": 6054,
      "aceu": 6055,
      "intÃ©rieur": 6056,
      "Ġspace": 6057,
      "Ġemphas": 6058,
      "Ġhu": 6059,
      "ommod": 6060,
      "Ġexpand": 6061,
      "Ġolymp": 6062,
      "Ġgain": 6063,
      "avenir": 6064,
      "Ġdegree": 6065,
      "Ġsound": 6066,
      "Ġtard": 6067,
      "Ġuni": 6068,
      "Ġimproving": 6069,
      "Ġfamilies": 6070,
      "Ġrue": 6071,
      "Ġeffectiveness": 6072,
      "Ġdisposi": 6073,
      "iel": 6074,
      "Ġgam": 6075,
      "Ġrequested": 6076,
      "Ġphot": 6077,
      "auv": 6078,
      "Ġgoals": 6079,
      "ĠportÃ©e": 6080,
      "Ġgestionnaires": 6081,
      "Ġchambre": 6082,
      "ĠcatÃ©gories": 6083,
      "Ġcovered": 6084,
      "Ġhoriz": 6085,
      "Ġlicences": 6086,
      "ĠprÃ©cis": 6087,
      "Ġpartenariats": 6088,
      "rÃ©g": 6089,
      "Ġoccasion": 6090,
      "Ġwinnipeg": 6091,
      "ĠlÃł": 6092,
      "aie": 6093,
      "Ġtranspor": 6094,
      "erse": 6095,
      "Ġshown": 6096,
      "Ġsauf": 6097,
      "Ġrecettes": 6098,
      "Ġaustral": 6099,
      "Ġindicators": 6100,
      "Ġmajority": 6101,
      "Ġretour": 6102,
      "Ġintervention": 6103,
      "Ġclose": 6104,
      "Ġ06": 6105,
      "Ġnotification": 6106,
      "Ġplas": 6107,
      "Ġ1988": 6108,
      "Ġimplementing": 6109,
      "Ġenable": 6110,
      "ĠÎ": 6111,
      "Ã«": 6112,
      "Ġconstituent": 6113,
      "ĠÃ©nonc": 6114,
      "Ġparta": 6115,
      "Ġ`": 6116,
      "Ġconsulter": 6117,
      "ipp": 6118,
      "Ġwhite": 6119,
      "Ġstruct": 6120,
      "Ġaccessible": 6121,
      "Ġinterpret": 6122,
      "Ġath": 6123,
      "Ġ08": 6124,
      "Ġhun": 6125,
      "Ġdeath": 6126,
      "Ġministry": 6127,
      "Ġguarante": 6128,
      "Ġsolid": 6129,
      "Ġincidence": 6130,
      "Ġproceedings": 6131,
      "Ġsetting": 6132,
      "key": 6133,
      "ara": 6134,
      "ĠÃ©chÃ©": 6135,
      "ĠspÃ©cifiques": 6136,
      "Ġnever": 6137,
      "Ġfournisseurs": 6138,
      "index": 6139,
      "Ġlegislative": 6140,
      "Ġindicate": 6141,
      "Ġfinancing": 6142,
      "Ġexamine": 6143,
      "Ġspr": 6144,
      "ansion": 6145,
      "cons": 6146,
      "nÃ©s": 6147,
      "Ġavoid": 6148,
      "Ġ300": 6149,
      "Ġcertification": 6150,
      "Ġ1985": 6151,
      "Ġenseign": 6152,
      "ĠmajoritÃ©": 6153,
      "Ġvariety": 6154,
      "ĠdÃ©fis": 6155,
      "Ġmove": 6156,
      "trans": 6157,
      "Ġinterventions": 6158,
      "78": 6159,
      "Ġpath": 6160,
      "Ġdestination": 6161,
      "mal": 6162,
      "exportation": 6163,
      "Ġirsc": 6164,
      "Ġlisted": 6165,
      "Ġlook": 6166,
      "Ġexception": 6167,
      "Ġappliqu": 6168,
      "Ġnewfoundland": 6169,
      "ĠdÃ©chets": 6170,
      "Ġpartnerships": 6171,
      "Ġinspection": 6172,
      "Ġjuridiques": 6173,
      "lant": 6174,
      "Ġintitul": 6175,
      "atlan": 6176,
      "ĠrÃ©sumÃ©": 6177,
      "Ġinstance": 6178,
      "Ġtransform": 6179,
      "Ã³": 6180,
      "istics": 6181,
      "Ġcalend": 6182,
      "Ġmode": 6183,
      "Ġfax": 6184,
      "Ġvar": 6185,
      "Ġconsiste": 6186,
      "Ġparticipate": 6187,
      "Ã©galitÃ©": 6188,
      "Ġsupplement": 6189,
      "Ġbehavi": 6190,
      "Ġlocated": 6191,
      "Ġdirectorate": 6192,
      "Ġcotis": 6193,
      "road": 6194,
      "mc": 6195,
      "ÃŃ": 6196,
      "Ġbois": 6197,
      "Ġitself": 6198,
      "rÃ©s": 6199,
      "Ġcommerciale": 6200,
      "Ġfais": 6201,
      "Ġpal": 6202,
      "Ġofficials": 6203,
      "Ġ\\": 6204,
      "Ġprohib": 6205,
      "Ġstart": 6206,
      "once": 6207,
      "Ġwhose": 6208,
      "ycl": 6209,
      "Ġanimaux": 6210,
      "tail": 6211,
      "Ġrecovery": 6212,
      "Ġconcep": 6213,
      "ĠdÃ»": 6214,
      "Ġsupports": 6215,
      "install": 6216,
      "car": 6217,
      "Ġmodifier": 6218,
      "Ġwords": 6219,
      "Ġdifferences": 6220,
      "Ġaccounts": 6221,
      "new": 6222,
      "Ġdiversity": 6223,
      "Ġdistance": 6224,
      "Ġlou": 6225,
      "Ġcircon": 6226,
      "Ġcomposition": 6227,
      "Ġcultures": 6228,
      "Ġguidance": 6229,
      "Ġtenue": 6230,
      "cides": 6231,
      "odi": 6232,
      "andis": 6233,
      "ĠprÃ©al": 6234,
      "Ġpouvoirs": 6235,
      "ĠocÃ©": 6236,
      "93": 6237,
      "Ġselected": 6238,
      "Ġtraffic": 6239,
      "Ġsigned": 6240,
      "Ġuniquement": 6241,
      "Ġyet": 6242,
      "ĠtroisiÃ¨me": 6243,
      "Ġfilm": 6244,
      "Ġcontribuer": 6245,
      "pay": 6246,
      "tified": 6247,
      "Ġsubvention": 6248,
      "ata": 6249,
      "Ġvu": 6250,
      "Ġstatistique": 6251,
      "Ġgeograph": 6252,
      "Ġterritory": 6253,
      "Ġconserv": 6254,
      "Ġbis": 6255,
      "Ġclinical": 6256,
      "vis": 6257,
      "enced": 6258,
      "more": 6259,
      "ĠexpÃ©ri": 6260,
      "Ġtobacco": 6261,
      "ĠÃ©chantill": 6262,
      "Ġaccommod": 6263,
      "trer": 6264,
      "idÃ©": 6265,
      "Ġbusinesses": 6266,
      "Ġcomplaint": 6267,
      "ruption": 6268,
      "Ġprince": 6269,
      "Ġneg": 6270,
      "Ġanalyses": 6271,
      "Ġwish": 6272,
      "Ġwhereas": 6273,
      "Ġmises": 6274,
      "ifax": 6275,
      "Ġreflect": 6276,
      "Ġlaws": 6277,
      "Ġparticipant": 6278,
      "Ġpermettent": 6279,
      "Ġreten": 6280,
      "tiennent": 6281,
      "Ġexplain": 6282,
      "ifications": 6283,
      "Ġeur": 6284,
      "Ġfreed": 6285,
      "62": 6286,
      "Ġcontenant": 6287,
      "Ġmerc": 6288,
      "taux": 6289,
      "Ġproduire": 6290,
      "mÃ©s": 6291,
      "Ġbox": 6292,
      "Ġold": 6293,
      "oper": 6294,
      "Ġrapidement": 6295,
      "Ġfacilitate": 6296,
      "Ġsti": 6297,
      "Ã¨tes": 6298,
      "wide": 6299,
      "Ġcopyright": 6300,
      "Ġbodies": 6301,
      "Ġcouv": 6302,
      "Ġtook": 6303,
      "crire": 6304,
      "Ġcontacts": 6305,
      "Ġdepend": 6306,
      "ĠprÃªts": 6307,
      "Ġproducers": 6308,
      "etÃ©": 6309,
      "Ġfournit": 6310,
      "Ġsil": 6311,
      "ĠquantitÃ©": 6312,
      "Ġnear": 6313,
      "Ġenfin": 6314,
      "inspec": 6315,
      "Ġradiodiff": 6316,
      "Ġmaintenir": 6317,
      "Ġendro": 6318,
      "fl": 6319,
      "Ġcomponents": 6320,
      "Ġfamilles": 6321,
      "tel": 6322,
      "Ġwhy": 6323,
      "ham": 6324,
      "ĠdÃ©mar": 6325,
      "57": 6326,
      "Ġatteindre": 6327,
      "Ġmaintien": 6328,
      "Ġafrica": 6329,
      "Ġpropose": 6330,
      "quoi": 6331,
      "Ġitems": 6332,
      "Ġbureaux": 6333,
      "ĠrÃ©percussions": 6334,
      "ades": 6335,
      "amment": 6336,
      "gs": 6337,
      "eline": 6338,
      "illage": 6339,
      "Ġminutes": 6340,
      "institut": 6341,
      "Ġfuel": 6342,
      "Ġeducational": 6343,
      "Ġsemaine": 6344,
      "Ġconcours": 6345,
      "alle": 6346,
      "Ġaddressed": 6347,
      "Ġgenre": 6348,
      "Ġexpressed": 6349,
      "exposition": 6350,
      "Ġinformed": 6351,
      "mr": 6352,
      "ĠmÃªmes": 6353,
      "ape": 6354,
      "Ġcomporte": 6355,
      "Ġestablishing": 6356,
      "Ġoptim": 6357,
      "absence": 6358,
      "ĠgÃ©nÃ©rales": 6359,
      "Ġ03": 6360,
      "ĠutilisÃ©es": 6361,
      "Ġsauv": 6362,
      "Ġpasse": 6363,
      "Ġbackground": 6364,
      "hist": 6365,
      "rice": 6366,
      "ĠprivÃ©e": 6367,
      "effet": 6368,
      "Ġmultil": 6369,
      "oks": 6370,
      "quement": 6371,
      "Ġhousing": 6372,
      "Ġreserv": 6373,
      "Ġrecipient": 6374,
      "ĠnÃ©gociations": 6375,
      "Ġdivulgation": 6376,
      "Ġlis": 6377,
      "Ġdifficile": 6378,
      "amb": 6379,
      "uc": 6380,
      "Ġing": 6381,
      "Ġcombus": 6382,
      "ĠprÃ©sentÃ©e": 6383,
      "Ã©change": 6384,
      "Ġprotec": 6385,
      "Ġprogramming": 6386,
      "Ġdouble": 6387,
      "Ġcommissaire": 6388,
      "Ġcounter": 6389,
      "Ġsujets": 6390,
      "Ġang": 6391,
      "Ġretraite": 6392,
      "endu": 6393,
      "imination": 6394,
      "Ġdispar": 6395,
      "Ġhaz": 6396,
      "ÂĴ": 6397,
      "Ġagricole": 6398,
      "Ġdated": 6399,
      "Ġinstitutionn": 6400,
      "Ġlocales": 6401,
      "Ġaura": 6402,
      "Ġpuisque": 6403,
      "Ġremboursement": 6404,
      "exist": 6405,
      "Ġyes": 6406,
      "Ġfamili": 6407,
      "Ġexige": 6408,
      "ĠÃ©trangÃ¨res": 6409,
      "Ġsignature": 6410,
      "estre": 6411,
      "ĠrÃ©gionaux": 6412,
      "Ġexpect": 6413,
      "Ġvend": 6414,
      "hydro": 6415,
      "Ġrecommended": 6416,
      "ulaires": 6417,
      "Ġexaminer": 6418,
      "Ġduty": 6419,
      "Ġgranted": 6420,
      "Ġgross": 6421,
      "Ġrailway": 6422,
      "Ġatmosph": 6423,
      "Ġadmissibles": 6424,
      "Ġroyaume": 6425,
      "Ġrenforcement": 6426,
      "lands": 6427,
      "Ġprai": 6428,
      "Ġadvant": 6429,
      "Ġsond": 6430,
      "Â«": 6431,
      "Ġmad": 6432,
      "Ġcombin": 6433,
      "ĠprÃ©f": 6434,
      "Ġunits": 6435,
      "Ġappointment": 6436,
      "Ġpercentage": 6437,
      "Ã§ant": 6438,
      "Ġappl": 6439,
      "Ġprincipale": 6440,
      "tiÃ¨re": 6441,
      "Ġperfection": 6442,
      "Ġtent": 6443,
      "ald": 6444,
      "91": 6445,
      "expl": 6446,
      "=\"": 6447,
      "Ġwide": 6448,
      "Ġcontained": 6449,
      "Ġtemper": 6450,
      "Ġtrouv": 6451,
      "tÃ©rieures": 6452,
      "Ġphysique": 6453,
      "monton": 6454,
      "Ġcategory": 6455,
      "Ġpremiers": 6456,
      "ĠthÃ©": 6457,
      "Ġhandicap": 6458,
      "Ġhalf": 6459,
      "Ġrun": 6460,
      "Ġici": 6461,
      "emb": 6462,
      "Ġhaute": 6463,
      "Ġaffich": 6464,
      "Ġobtain": 6465,
      "Ġ67": 6466,
      "Ġvehicle": 6467,
      "Ġrenv": 6468,
      "Ġmass": 6469,
      "bor": 6470,
      "ĠgÃ©ograph": 6471,
      "Ġnorme": 6472,
      "pi": 6473,
      "Ġmi": 6474,
      "Ġparliamentary": 6475,
      "Ġcomplet": 6476,
      "mor": 6477,
      "Ġbey": 6478,
      "ĠÃ©tro": 6479,
      "Ġpublish": 6480,
      "Ġchina": 6481,
      "Ġfavour": 6482,
      "ores": 6483,
      "Ġjurisdiction": 6484,
      "net": 6485,
      "Ġcolon": 6486,
      "intervention": 6487,
      "Ġmrs": 6488,
      "ĠÃ©nerg": 6489,
      "Ġnegotiations": 6490,
      "Ġmechanisms": 6491,
      "je": 6492,
      "ĠadÃ©qu": 6493,
      "vertis": 6494,
      "Ġcul": 6495,
      "ĠÃ©laborer": 6496,
      "Ġvictor": 6497,
      "Ġentry": 6498,
      "Ġsample": 6499,
      "autorisation": 6500,
      "Ġcontents": 6501,
      "Ġplants": 6502,
      "Ġanimal": 6503,
      "Ġportion": 6504,
      "Ġnetworks": 6505,
      "ĠrÃ©vision": 6506,
      "enge": 6507,
      "heure": 6508,
      "Ġjury": 6509,
      "anche": 6510,
      "illed": 6511,
      "atement": 6512,
      "Ġwel": 6513,
      "Ġplainte": 6514,
      "Ġcalgary": 6515,
      "Ġfaci": 6516,
      "Ġmine": 6517,
      "Ġpourquoi": 6518,
      "Ġgouvernementaux": 6519,
      "Ġtoo": 6520,
      "zer": 6521,
      "ĠdÃ©cl": 6522,
      "Ġcommitted": 6523,
      "Ġfee": 6524,
      "Ġstep": 6525,
      "clÃ©": 6526,
      "Ġprotocol": 6527,
      "Ġrig": 6528,
      "Ġstimul": 6529,
      "Ġsecretary": 6530,
      "Ġattra": 6531,
      "Ġterrain": 6532,
      "Ġprofessionnelle": 6533,
      "Ġsubsi": 6534,
      "amÃ©rique": 6535,
      "levision": 6536,
      "Ġcompor": 6537,
      "ĠfondÃ©e": 6538,
      "lines": 6539,
      "Ġachieved": 6540,
      "Ġconsumers": 6541,
      "Ġimprovement": 6542,
      "Ġapproaches": 6543,
      "Ġefficaces": 6544,
      "Ġsatell": 6545,
      "orable": 6546,
      "Ġthems": 6547,
      "nÃ©": 6548,
      "83": 6549,
      "Ġital": 6550,
      "entente": 6551,
      "Ġ%)": 6552,
      "Ġchemin": 6553,
      "Ġthemselves": 6554,
      "ift": 6555,
      "Ġsociales": 6556,
      "Ġsor": 6557,
      "................................": 6558,
      "Ġcomprennent": 6559,
      "iction": 6560,
      "ĠrÃ©partition": 6561,
      "Ġhard": 6562,
      "ĠassociÃ©s": 6563,
      "Ġmeaning": 6564,
      "clear": 6565,
      "Ġrequests": 6566,
      "Ġexamination": 6567,
      "Ġconflict": 6568,
      "Ġbroadcasting": 6569,
      "ouvez": 6570,
      "Ġgarde": 6571,
      "Ġobserved": 6572,
      "Ġdavid": 6573,
      "ko": 6574,
      "Ġwildlife": 6575,
      "ĠconsidÃ©rable": 6576,
      "Ġtitulaire": 6577,
      "Ġsignificantly": 6578,
      "Ġliter": 6579,
      "anger": 6580,
      "Ġbeyond": 6581,
      "Ġroom": 6582,
      "Ġ57": 6583,
      "Ġurb": 6584,
      "Ġbrevet": 6585,
      "Ġdanger": 6586,
      "fo": 6587,
      "Ġlot": 6588,
      "Ã¨rement": 6589,
      "Ġmd": 6590,
      "pres": 6591,
      "Ġexpenditure": 6592,
      "Ġsoutenir": 6593,
      "Ġrendu": 6594,
      "Ġnumbers": 6595,
      "ams": 6596,
      "Ġclean": 6597,
      "Ġtandis": 6598,
      "Ġsubstitu": 6599,
      "ĠpubliÃ©": 6600,
      "Ġfundament": 6601,
      "Ġefficiency": 6602,
      "mpt": 6603,
      "acces": 6604,
      "Ġpresence": 6605,
      "Ġsuivre": 6606,
      "ĠconnaÃ®tre": 6607,
      "Ġthreat": 6608,
      "Ġray": 6609,
      "Ġbiotechn": 6610,
      "Ġchallenge": 6611,
      "Ġmap": 6612,
      "Ġexpliqu": 6613,
      "Ã©rone": 6614,
      "Ġjamais": 6615,
      "ending": 6616,
      "Ġlibrary": 6617,
      "Ġrecognized": 6618,
      "Ġtown": 6619,
      "Ġserve": 6620,
      "making": 6621,
      "Ġordonn": 6622,
      "acquis": 6623,
      "Ġperspectives": 6624,
      "Ġgoal": 6625,
      "Ġ87": 6626,
      "Ġindicateurs": 6627,
      "Ġpouvez": 6628,
      "Ġfc": 6629,
      "brunswick": 6630,
      "ĠpassÃ©": 6631,
      "ports": 6632,
      "extÃ©rieur": 6633,
      "Ġdimension": 6634,
      "Ġreti": 6635,
      "Ġmedium": 6636,
      "Ġcontrats": 6637,
      "Ġcore": 6638,
      "oblig": 6639,
      "hu": 6640,
      "Ġuseful": 6641,
      "Ġcirconstances": 6642,
      "ĠtempÃ©r": 6643,
      "Ġcirculation": 6644,
      "Ġborder": 6645,
      "Ġalco": 6646,
      "Ġfle": 6647,
      "Ġotherwise": 6648,
      "Ġspecifically": 6649,
      "Ġfishing": 6650,
      "ica": 6651,
      "ĠallÃ©g": 6652,
      "Ġround": 6653,
      "Ġvess": 6654,
      "fp": 6655,
      "Ġelectoral": 6656,
      "Ġlun": 6657,
      "Ġyork": 6658,
      "Ġgrants": 6659,
      "note": 6660,
      "load": 6661,
      "ĠrÃ©forme": 6662,
      "Ġutilisateurs": 6663,
      "Ġmessages": 6664,
      "Ã©volution": 6665,
      "lande": 6666,
      "Ġoffrir": 6667,
      "Ġanticip": 6668,
      "infrastructure": 6669,
      "autoritÃ©": 6670,
      "Ġspor": 6671,
      "Ã©cosse": 6672,
      "Ġparticipating": 6673,
      "Ġnomin": 6674,
      "Ġkg": 6675,
      "iring": 6676,
      "Ġearlier": 6677,
      "house": 6678,
      "Ġsensibilisation": 6679,
      "ĠtÃ©lÃ©v": 6680,
      "Ġobstacles": 6681,
      "Ġstatements": 6682,
      "Ġtool": 6683,
      "86": 6684,
      "Ġreconnaissance": 6685,
      "Ġinsuff": 6686,
      "lÃ©": 6687,
      "Ġpros": 6688,
      "Ġsoumis": 6689,
      "Ġcontinuer": 6690,
      "Ġmotifs": 6691,
      "Ġtotale": 6692,
      "Ġadvertis": 6693,
      "uer": 6694,
      "Ġcontracts": 6695,
      "Ġpharmaceu": 6696,
      "cast": 6697,
      "Ġsept": 6698,
      "ĠÃ©trangers": 6699,
      "Ġannounced": 6700,
      "Ġstanding": 6701,
      "Ġinclus": 6702,
      "Ġcrtc": 6703,
      "Ġpromoting": 6704,
      "emic": 6705,
      "enting": 6706,
      "Ġmoun": 6707,
      "iting": 6708,
      "Ġnrc": 6709,
      "Ġsteps": 6710,
      "Ġmental": 6711,
      "Ġfoot": 6712,
      "Ġqualifications": 6713,
      "rich": 6714,
      "Ġschools": 6715,
      "{\\": 6716,
      "Ġcarte": 6717,
      "Ġperte": 6718,
      "ĠrÃ©aliser": 6719,
      "Ġ07": 6720,
      "Ġflow": 6721,
      "ĠgÃ©nÃ©raux": 6722,
      "Ġalways": 6723,
      "Ġrevised": 6724,
      "after": 6725,
      "Ġdiscussed": 6726,
      "hon": 6727,
      "Ġradi": 6728,
      "Ġpoids": 6729,
      "operation": 6730,
      "Ġleading": 6731,
      "Ġforte": 6732,
      "Ġapplies": 6733,
      "Ġdevices": 6734,
      "audi": 6735,
      "Ġacceptable": 6736,
      "Ġobtenu": 6737,
      "fique": 6738,
      "Ġmondial": 6739,
      "where": 6740,
      "Ġshared": 6741,
      "Ġeth": 6742,
      "Ġoui": 6743,
      "Ġapplicables": 6744,
      "accep": 6745,
      "Ġmarques": 6746,
      "Ġgains": 6747,
      "Ġnam": 6748,
      "Ġmakes": 6749,
      "Ġplaign": 6750,
      "Ġresulting": 6751,
      "visionnement": 6752,
      "Ġscreening": 6753,
      "Ġimportations": 6754,
      "Ġrespecter": 6755,
      "provin": 6756,
      "Ġ46": 6757,
      "Ġrapide": 6758,
      "atte": 6759,
      "ghanistan": 6760,
      "mograph": 6761,
      "Ġconduc": 6762,
      "Ġreviewed": 6763,
      "Ġatt": 6764,
      "Ġvehicles": 6765,
      "Ġseparate": 6766,
      "augmentation": 6767,
      "Ġdiseases": 6768,
      "ĠrÃ©guliÃ¨re": 6769,
      "quar": 6770,
      "Ġadjo": 6771,
      "Ġpayable": 6772,
      "Ġgrowing": 6773,
      "Ġadvance": 6774,
      "Ġbiling": 6775,
      "Ġ($": 6776,
      "Ġkind": 6777,
      "Ġï¬ģ": 6778,
      "cted": 6779,
      "Ã©riques": 6780,
      "ĠdÃ©velopper": 6781,
      "hood": 6782,
      "Ġsusceptibles": 6783,
      "eneur": 6784,
      "fond": 6785,
      "oh": 6786,
      "agers": 6787,
      "Ġprofessionnel": 6788,
      "Ġrecognition": 6789,
      "ciation": 6790,
      "ĠÃ©lections": 6791,
      "accueil": 6792,
      "Ġwaters": 6793,
      "riv": 6794,
      "ĠsupplÃ©mentaire": 6795,
      "employeur": 6796,
      "engagement": 6797,
      "impact": 6798,
      "Ġentente": 6799,
      "ierre": 6800,
      "Ġ97": 6801,
      "Ġaccur": 6802,
      "Ġfournis": 6803,
      "Ġhonourable": 6804,
      "Ġoperate": 6805,
      "Ġoffered": 6806,
      "Ġgarantir": 6807,
      "iry": 6808,
      "amm": 6809,
      "Ġdrogues": 6810,
      "icial": 6811,
      "Ã¨ves": 6812,
      "titudes": 6813,
      "Ġfourni": 6814,
      "Ġlieux": 6815,
      "raine": 6816,
      "Ġveiller": 6817,
      "ington": 6818,
      "Ġaffili": 6819,
      "ĠdÃ©n": 6820,
      "Ġspeak": 6821,
      "ĠintÃ©rieur": 6822,
      "Ġseraient": 6823,
      "Ġaccept": 6824,
      "Ġessentiel": 6825,
      "ĠpiÃ¨ces": 6826,
      "Ġprint": 6827,
      "excl": 6828,
      "Ġconsensus": 6829,
      "Ġavanc": 6830,
      "Ġsummer": 6831,
      "Ġillustr": 6832,
      "Ġstocks": 6833,
      "opieur": 6834,
      "ĠutilisÃ©e": 6835,
      "Ġfaud": 6836,
      "Ġpresse": 6837,
      "Ġseem": 6838,
      "Ġdomm": 6839,
      "Ġpreparation": 6840,
      "Ġcourriel": 6841,
      "Ġcommunes": 6842,
      "quences": 6843,
      "Ġalmost": 6844,
      "Ġbass": 6845,
      "007": 6846,
      "ĠdegrÃ©": 6847,
      "bal": 6848,
      "parti": 6849,
      "ĠaugmentÃ©": 6850,
      "Ġseen": 6851,
      "Ġparent": 6852,
      "Ġ56": 6853,
      "Ġprocurement": 6854,
      "Ġelement": 6855,
      "ĠpÃ©tro": 6856,
      "Ġintell": 6857,
      "Ġlines": 6858,
      "liminary": 6859,
      "Ġreproduction": 6860,
      "neuve": 6861,
      "Ġchimiques": 6862,
      "Ġexpor": 6863,
      "Ġsomme": 6864,
      "abord": 6865,
      "aÃ¯": 6866,
      "ĠmodalitÃ©s": 6867,
      "Ġdeven": 6868,
      "aise": 6869,
      "ĠbÃ¢ti": 6870,
      "Ġnutrition": 6871,
      "Ġalimentaire": 6872,
      "description": 6873,
      "ev": 6874,
      "Ġdatabase": 6875,
      "Ġcollege": 6876,
      "Ġinvestments": 6877,
      "Ġdirige": 6878,
      "Ġtakes": 6879,
      "Ġexcept": 6880,
      "pard": 6881,
      "habitat": 6882,
      "Ġentire": 6883,
      "tÃ©n": 6884,
      "fier": 6885,
      "Ã¶": 6886,
      "84": 6887,
      "Ġpartage": 6888,
      "dem": 6889,
      "Ġprolong": 6890,
      "ĠtraitÃ©s": 6891,
      "Ġentrepreneurs": 6892,
      "ino": 6893,
      "Ġquoti": 6894,
      "eler": 6895,
      "ancing": 6896,
      "Ġgh": 6897,
      "Ġpic": 6898,
      "employÃ©": 6899,
      "ancy": 6900,
      "ĠdÃ©part": 6901,
      "Ġsignif": 6902,
      "Ġoutcome": 6903,
      "ĠÃ©valuations": 6904,
      "ĠdÃ©cid": 6905,
      "Ġsouh": 6906,
      "Ġbell": 6907,
      "ĠfÃ©": 6908,
      "ĠrÃ©gimes": 6909,
      "Ġcomparative": 6910,
      "Ġhumaine": 6911,
      "ĠenquÃªtes": 6912,
      "orge": 6913,
      "Ġpattern": 6914,
      "Ġsay": 6915,
      "Ġsecure": 6916,
      "ĠreprÃ©sentent": 6917,
      "Ġanswer": 6918,
      "pper": 6919,
      "tendu": 6920,
      "Ġkil": 6921,
      "Ġusage": 6922,
      "Ġsouhait": 6923,
      "utiliser": 6924,
      "verne": 6925,
      "incid": 6926,
      "ĠuniversitÃ©": 6927,
      "Ġ52": 6928,
      "tein": 6929,
      "Ġrequis": 6930,
      "Ġcarbon": 6931,
      "Ġsemaines": 6932,
      "Ġ400": 6933,
      "Ġbarri": 6934,
      "Ġhalifax": 6935,
      "Ġaer": 6936,
      "Ġpuisse": 6937,
      "ĠcomplÃ©ment": 6938,
      "ĠbibliothÃ¨": 6939,
      "Ġpaul": 6940,
      "Ġeffectively": 6941,
      "Ġlength": 6942,
      "Ġabsence": 6943,
      "Ġtrends": 6944,
      "Ġrecently": 6945,
      "Ġ1980": 6946,
      "Ġbound": 6947,
      "Ġ2010": 6948,
      "Ġmanque": 6949,
      "Ġcharte": 6950,
      "ĠeuropÃ©ens": 6951,
      "Ġconfiance": 6952,
      "Ġexamples": 6953,
      "dessous": 6954,
      "ige": 6955,
      "aily": 6956,
      "Ġunless": 6957,
      "Ġtabac": 6958,
      "Ġpreliminary": 6959,
      "Ġpow": 6960,
      "Ġimports": 6961,
      "Ġdraw": 6962,
      "orientation": 6963,
      "ĠdiffÃ©rences": 6964,
      "med": 6965,
      "ĠÃ©lect": 6966,
      "54": 6967,
      "rastructures": 6968,
      "Ġvac": 6969,
      "anim": 6970,
      "ĠdÃ©pass": 6971,
      "aced": 6972,
      "Ġ59": 6973,
      "Ġjobs": 6974,
      "Ġcertificate": 6975,
      "ĠsÃ©par": 6976,
      "Ġ51": 6977,
      "etary": 6978,
      "Ġgouverne": 6979,
      "Ġdose": 6980,
      "Ġfidu": 6981,
      "employment": 6982,
      "hold": 6983,
      "Ġequity": 6984,
      "sim": 6985,
      "Ġfinally": 6986,
      "Ġcompetitive": 6987,
      "Ġdispl": 6988,
      "Ġblood": 6989,
      "bres": 6990,
      "nor": 6991,
      "ĠaccroÃ®tre": 6992,
      "Ġproduce": 6993,
      "Ġpc": 6994,
      "Ġpm": 6995,
      "interprÃ©tation": 6996,
      "Ġdebt": 6997,
      "rec": 6998,
      "rÃ©h": 6999,
      "Ġblack": 7000,
      "Ġcontraire": 7001,
      "ford": 7002,
      "ll": 7003,
      "Ġstri": 7004,
      "top": 7005,
      "Ġliti": 7006,
      "ienne": 7007,
      "cemment": 7008,
      "ĠconsÃ©quences": 7009,
      "Ġcongr": 7010,
      "approbation": 7011,
      "Ġ53": 7012,
      "taine": 7013,
      "fil": 7014,
      "vant": 7015,
      "Ġvoul": 7016,
      "Ġpaix": 7017,
      "Ġauthorized": 7018,
      "usage": 7019,
      "magne": 7020,
      "Ġcp": 7021,
      "ĠlibertÃ©": 7022,
      "ĠcomplÃ¨te": 7023,
      "ĠdÃ©tail": 7024,
      "Ġhausse": 7025,
      "Ġchacune": 7026,
      "Ġportu": 7027,
      "82": 7028,
      "trice": 7029,
      "ĠrÃ©serves": 7030,
      "del": 7031,
      "ĠchargÃ©": 7032,
      "Ġtraiter": 7033,
      "Ġcontient": 7034,
      "Ġmigration": 7035,
      "Ġsuggested": 7036,
      "Ġtelevision": 7037,
      "tone": 7038,
      "Ã©cole": 7039,
      "Ġlongue": 7040,
      "Ġhypo": 7041,
      "Ġtourism": 7042,
      "Ġtravers": 7043,
      "Ġconforme": 7044,
      "Ġcampagne": 7045,
      "Ġdeclaration": 7046,
      "Ġsocio": 7047,
      "Ġchos": 7048,
      "Ġfollowed": 7049,
      "Ġremains": 7050,
      "ĠeffectuÃ©": 7051,
      "Ġcopies": 7052,
      "ataire": 7053,
      "Ġsale": 7054,
      "Ġmagn": 7055,
      "Ġbru": 7056,
      "icit": 7057,
      "Ã©der": 7058,
      "Ġsettlement": 7059,
      "ĠprÃ©vus": 7060,
      "Ġtyp": 7061,
      "Ġ54": 7062,
      "Ġquestionnaire": 7063,
      "ĠmÃ©canisme": 7064,
      "appu": 7065,
      "Ġinterpretation": 7066,
      "Ġpotentiel": 7067,
      "Ġpresentation": 7068,
      "Ġcontinues": 7069,
      "ande": 7070,
      "Ġfaite": 7071,
      "Ġindustrie": 7072,
      "tv": 7073,
      "Ġgenetic": 7074,
      "Ġdifficul": 7075,
      "Ġcontaining": 7076,
      "Ġdecid": 7077,
      "Ġpouvant": 7078,
      "))": 7079,
      "Ġliaison": 7080,
      "Ġpip": 7081,
      "Ġrejec": 7082,
      "Ġindemn": 7083,
      "Ġcabinet": 7084,
      "Ġcauses": 7085,
      "ĠrÃ©pondants": 7086,
      "Ġchine": 7087,
      "Ġpilot": 7088,
      "Ġconsultatif": 7089,
      "Ġregrou": 7090,
      "Ġutilisant": 7091,
      "gov": 7092,
      "Ġinvolving": 7093,
      "Ġconseill": 7094,
      "Ġfunctions": 7095,
      "Ġdouanes": 7096,
      "Ã¼": 7097,
      "Ġonline": 7098,
      "Ġpassage": 7099,
      "Ġpacific": 7100,
      "Ġradiodiffusion": 7101,
      "Ġparis": 7102,
      "500": 7103,
      "Ġtaxation": 7104,
      "Ġcampaign": 7105,
      "Ġvan": 7106,
      "ĠrÃ©cemment": 7107,
      "Ġinvolvement": 7108,
      "Ġdecided": 7109,
      "ĠprÃ©occupations": 7110,
      "Ġkingdom": 7111,
      "ka": 7112,
      "eci": 7113,
      "ĠdÃ©tails": 7114,
      "Ġdetermination": 7115,
      "Ġlicense": 7116,
      "ros": 7117,
      "Ġquo": 7118,
      "Ġrevenues": 7119,
      "Ġcess": 7120,
      "oples": 7121,
      "Ġhealthy": 7122,
      "Ġoceans": 7123,
      "Ġdiplom": 7124,
      "].": 7125,
      "avait": 7126,
      "Ġpul": 7127,
      "Ġbelg": 7128,
      "Ġcrown": 7129,
      "Ġexportations": 7130,
      "Ġtendances": 7131,
      "ĠÃ©lectroniques": 7132,
      "Ġtrain": 7133,
      "ĠrÃ©gionale": 7134,
      "ĠrequÃ©r": 7135,
      "Ġintroduced": 7136,
      "Ġassistant": 7137,
      "Ġfacteur": 7138,
      "Ġrobert": 7139,
      "Ġhighly": 7140,
      "ĠriviÃ¨re": 7141,
      "Ġtonnes": 7142,
      "Ġactuel": 7143,
      "Ġmots": 7144,
      "51": 7145,
      "Ġofferts": 7146,
      "Ġgraph": 7147,
      "Ġpeoples": 7148,
      "duit": 7149,
      "Ġrespondents": 7150,
      "Ġinterested": 7151,
      "Ã´ts": 7152,
      "Ġhors": 7153,
      "quÃ©bec": 7154,
      "Ġlogici": 7155,
      "tur": 7156,
      "achat": 7157,
      "ĠeuropÃ©ennes": 7158,
      "atrice": 7159,
      "Ġbiom": 7160,
      "Ġmeasurement": 7161,
      "Ġundertaken": 7162,
      "ĠvisÃ©e": 7163,
      "Ġrecevoir": 7164,
      "Ġpayer": 7165,
      "Ġhighl": 7166,
      "Ġcorps": 7167,
      "Ġmines": 7168,
      "Ġweight": 7169,
      "Ġmontants": 7170,
      "oster": 7171,
      "ĠtÃ¢ches": 7172,
      "ĠcomitÃ©s": 7173,
      "Ã¤": 7174,
      "ova": 7175,
      "Ġsensi": 7176,
      "Ġinnovative": 7177,
      "Ġventes": 7178,
      "Ġglobale": 7179,
      "espÃ¨ce": 7180,
      "Ġinfra": 7181,
      "Ġfirms": 7182,
      "Ġexplor": 7183,
      "Ġmanifest": 7184,
      "sa": 7185,
      "inary": 7186,
      "Ġbeginning": 7187,
      "Ġcharacteristics": 7188,
      "ĠapprouvÃ©": 7189,
      "Ġcig": 7190,
      "Ġdaily": 7191,
      "plus": 7192,
      "loi": 7193,
      "Ġaccepted": 7194,
      "iration": 7195,
      "Ġderniers": 7196,
      "Ġfundamental": 7197,
      "Ġsoftware": 7198,
      "Ġallowed": 7199,
      "Ġdeleg": 7200,
      "Ġimmobil": 7201,
      "Ġ77": 7202,
      "Ġva": 7203,
      "Ġbehaviour": 7204,
      "Ġcompati": 7205,
      "cn": 7206,
      "ĠexpÃ©rience": 7207,
      "Ġporter": 7208,
      "ĠvisÃ©s": 7209,
      "Ġprofess": 7210,
      "ert": 7211,
      "Ġwid": 7212,
      "Ġsubmission": 7213,
      "ĠgÃ©rer": 7214,
      "Ġessais": 7215,
      "ĠdestinÃ©s": 7216,
      "Ġbases": 7217,
      "Ġcertificat": 7218,
      "Ġbook": 7219,
      "Ġstations": 7220,
      "Ġcond": 7221,
      "Ġ1986": 7222,
      "Ġrh": 7223,
      "Ġvide": 7224,
      "Ġformes": 7225,
      "Ã®le": 7226,
      "Ġeastern": 7227,
      "Ġsommaire": 7228,
      "ĠocÃ©ans": 7229,
      "Ġmodels": 7230,
      "Ġ64": 7231,
      "Ġcorporations": 7232,
      "Ġrecons": 7233,
      "atlantique": 7234,
      "Ġspir": 7235,
      "Ġprotected": 7236,
      "Ġtherap": 7237,
      "ĠsecrÃ©taire": 7238,
      "atÃ©r": 7239,
      "existence": 7240,
      "mÃªme": 7241,
      "Ġdivid": 7242,
      "uge": 7243,
      "Ġsymb": 7244,
      "Ġdigital": 7245,
      "Ġplaintes": 7246,
      "Ġ58": 7247,
      "territ": 7248,
      "Ġvirus": 7249,
      "ĠcongÃ©": 7250,
      "Ġspons": 7251,
      "56": 7252,
      "bas": 7253,
      "52": 7254,
      "Ġraisonnable": 7255,
      "Ġgros": 7256,
      "'t": 7257,
      "Ġlive": 7258,
      "Ġprovis": 7259,
      "hal": 7260,
      "Ġcomplaints": 7261,
      "thing": 7262,
      "Ġlaboratory": 7263,
      "Ġsteel": 7264,
      "Ġoccupational": 7265,
      "Ġrent": 7266,
      "Ġstra": 7267,
      "mement": 7268,
      "Ġbrought": 7269,
      "tiÃ¨res": 7270,
      "Ġlarger": 7271,
      "ena": 7272,
      "Ġwal": 7273,
      "zone": 7274,
      "Ġphotograph": 7275,
      "Ġvaste": 7276,
      "ĠÃ©tablissement": 7277,
      "ĠÃ©vÃ©nements": 7278,
      "Ġcomportement": 7279,
      "Ã©quipement": 7280,
      "udes": 7281,
      "Ġquotidi": 7282,
      "ania": 7283,
      "Ġconcluded": 7284,
      "Ġphysici": 7285,
      "cor": 7286,
      "exem": 7287,
      "Ġmail": 7288,
      "Ġfol": 7289,
      "Ġdumping": 7290,
      "Ġdeem": 7291,
      "izes": 7292,
      "marily": 7293,
      "ni": 7294,
      "Ġlimits": 7295,
      "Ġatteint": 7296,
      "mat": 7297,
      "Ġarchit": 7298,
      "grou": 7299,
      "Ġsoil": 7300,
      "Ġpensions": 7301,
      "Ġmiss": 7302,
      "utÃ©": 7303,
      "Ġgermany": 7304,
      "Ġfro": 7305,
      "53": 7306,
      "with": 7307,
      "imposition": 7308,
      "Ġwash": 7309,
      "ran": 7310,
      "ĠdonnÃ©e": 7311,
      "Ġadequate": 7312,
      "Ġhistorique": 7313,
      "Ġfit": 7314,
      "accent": 7315,
      "Ġcash": 7316,
      "Ġelections": 7317,
      "ĠÃ©levÃ©s": 7318,
      "Ġdg": 7319,
      "Ġdisting": 7320,
      "Ġcardi": 7321,
      "800": 7322,
      "hÃ©sion": 7323,
      "sities": 7324,
      "Ġpressure": 7325,
      "rop": 7326,
      "Ġexempl": 7327,
      "ots": 7328,
      "Ġincreases": 7329,
      "ĠcomprÃ©h": 7330,
      "Ġsole": 7331,
      "Ġcandidat": 7332,
      "iseaux": 7333,
      "ĠÃ©tapes": 7334,
      "Ġcheck": 7335,
      "Ġcadres": 7336,
      "erait": 7337,
      "Ġgrain": 7338,
      "Ġgri": 7339,
      "Ã¨vement": 7340,
      "ael": 7341,
      "ĠnuclÃ©": 7342,
      "Ġenterprises": 7343,
      "Ġcommittees": 7344,
      "Ġtemporary": 7345,
      "document": 7346,
      "Ġutile": 7347,
      "trent": 7348,
      "ray": 7349,
      "ĠemployÃ©": 7350,
      "ĠcrÃ©Ã©": 7351,
      "Ġtendance": 7352,
      "Ġmovement": 7353,
      "Ġpoor": 7354,
      "aged": 7355,
      "Ġindig": 7356,
      "Ġcoast": 7357,
      "Ġoverview": 7358,
      "ouss": 7359,
      "aritÃ©": 7360,
      "Ġdiab": 7361,
      "ened": 7362,
      "prin": 7363,
      "Ġcellules": 7364,
      "Ġdangere": 7365,
      "wood": 7366,
      "inking": 7367,
      "Ġquarter": 7368,
      "oon": 7369,
      "Ġstable": 7370,
      "ĠprÃ©limin": 7371,
      "eless": 7372,
      "Ġsalle": 7373,
      "Ġrob": 7374,
      "Ġmusic": 7375,
      "Ġminority": 7376,
      "Ġusually": 7377,
      "Ġjuste": 7378,
      "Ġcollecte": 7379,
      "Ġleaders": 7380,
      "Ġassur": 7381,
      "Ġfixed": 7382,
      "Ġexclusive": 7383,
      "Ã©chantill": 7384,
      "Ġinjury": 7385,
      "Ġannuelle": 7386,
      "Ġcontains": 7387,
      "Ġflo": 7388,
      "Ġcut": 7389,
      "umes": 7390,
      "paragraph": 7391,
      "Ġbande": 7392,
      "Ġfaites": 7393,
      "Ġanimals": 7394,
      "Ġmatern": 7395,
      "ĠinfÃ©rie": 7396,
      "Ġbrief": 7397,
      "Ġtransaction": 7398,
      "dite": 7399,
      "Ġrub": 7400,
      "Ġshows": 7401,
      "Ġvent": 7402,
      "Ġallocation": 7403,
      "oking": 7404,
      "Ġrur": 7405,
      "Ġengineering": 7406,
      "ĠcompÃ©ti": 7407,
      "Ġstudent": 7408,
      "Ġgouvernance": 7409,
      "bon": 7410,
      "Ġuses": 7411,
      "intro": 7412,
      "chement": 7413,
      "Ġlicens": 7414,
      "Ġextr": 7415,
      "Ġimmigrants": 7416,
      "Ġlearn": 7417,
      "59": 7418,
      "Ġbless": 7419,
      "Ġreceiving": 7420,
      "ĠprÃ©cise": 7421,
      "vres": 7422,
      "Ġleader": 7423,
      "Ġreceip": 7424,
      "Ġatel": 7425,
      "tary": 7426,
      "Ġlakes": 7427,
      "Ġattem": 7428,
      "tile": 7429,
      "Ġbreak": 7430,
      "essai": 7431,
      "Ġcomplainant": 7432,
      "Ġsuis": 7433,
      "auc": 7434,
      "ĠchaÃ®": 7435,
      "Ġaffirm": 7436,
      "Ġraised": 7437,
      "Ġjapan": 7438,
      "approvisionnement": 7439,
      "ogen": 7440,
      "Ġcoal": 7441,
      "Ġveter": 7442,
      "ĠconsÃ©quence": 7443,
      "ettes": 7444,
      "itch": 7445,
      "Ġclause": 7446,
      "Ġmultiple": 7447,
      "ands": 7448,
      "nous": 7449,
      "Ġpoisson": 7450,
      "Ġhumains": 7451,
      "itÃ£": 7452,
      "ainc": 7453,
      "Ġpasseng": 7454,
      "Ġdispose": 7455,
      "Ġprimarily": 7456,
      "Ġaccounting": 7457,
      "Ġlate": 7458,
      "Ã©rÃ©e": 7459,
      "ĠprocÃ©der": 7460,
      "Ġsyndic": 7461,
      "Ġpetits": 7462,
      "Ġremplir": 7463,
      "aging": 7464,
      "Ġalimentaires": 7465,
      "Ġquit": 7466,
      "etage": 7467,
      "Ġimage": 7468,
      "Ġappuyer": 7469,
      "Ġexcellence": 7470,
      "Ġpreviously": 7471,
      "Ġsenti": 7472,
      "Ġexports": 7473,
      "Ġstorage": 7474,
      "Ġsports": 7475,
      "Ġtelecommunications": 7476,
      "level": 7477,
      "Ġlands": 7478,
      "ĠdÃ©terminÃ©": 7479,
      "appliquent": 7480,
      "inqu": 7481,
      "Ġpens": 7482,
      "don": 7483,
      "chÃ©": 7484,
      "ĠÃ©larg": 7485,
      "ĠdÃ©bat": 7486,
      "Ġofficielle": 7487,
      "cour": 7488,
      "Ġhr": 7489,
      "Ġconsci": 7490,
      "prof": 7491,
      "Ġseed": 7492,
      "anie": 7493,
      "Ġpresque": 7494,
      "arily": 7495,
      ".).": 7496,
      "Ġuser": 7497,
      "Ġweeks": 7498,
      "Ġappointed": 7499,
      "riting": 7500,
      "ĠprÃ©alable": 7501,
      "Ġacts": 7502,
      "Ġlaboratoire": 7503,
      "Ġperfectionnement": 7504,
      "liz": 7505,
      "Ġworked": 7506,
      "Ġelectric": 7507,
      "thÃ¨se": 7508,
      "ĠrÃ©gionales": 7509,
      "Ġdoing": 7510,
      "aur": 7511,
      "Ġtas": 7512,
      "ĠdÃ©termination": 7513,
      "acquisition": 7514,
      "Ġconsumption": 7515,
      "ĠmalgrÃ©": 7516,
      "Ġinput": 7517,
      "Ġincen": 7518,
      "affaire": 7519,
      "ĠdÃ©clarations": 7520,
      "Ġrelatively": 7521,
      "clam": 7522,
      "Ġcollected": 7523,
      "Ġcareer": 7524,
      "Ġagri": 7525,
      "Ġdiversi": 7526,
      "ĠÃ©lector": 7527,
      "Ġpoissons": 7528,
      "Ġlond": 7529,
      "Ġrepe": 7530,
      "1998": 7531,
      "Ġexemples": 7532,
      "Ġtransit": 7533,
      "Ġsqu": 7534,
      "Ġculturelles": 7535,
      "Ġprefer": 7536,
      "Ġcategories": 7537,
      "Ġviews": 7538,
      "ĠmÃ©dicaux": 7539,
      "ĠvÃ©g": 7540,
      "Ġbelieve": 7541,
      "Ġenhanced": 7542,
      "Ġpoursuivre": 7543,
      "duire": 7544,
      "Ġdisabilities": 7545,
      "Ġnov": 7546,
      "ĠdÃ©finir": 7547,
      "Ġadminister": 7548,
      "Ġsubsequent": 7549,
      "Ġnurs": 7550,
      "Ġdistinct": 7551,
      "Ġenvironnementales": 7552,
      "Ġprec": 7553,
      "ĠfÃ©dÃ©rales": 7554,
      "ĠÃ©tape": 7555,
      "Ġcourant": 7556,
      "Ġmanufactur": 7557,
      "inspection": 7558,
      "Ġham": 7559,
      "iant": 7560,
      "Ġimplications": 7561,
      "ĠrÃ©vÃ©l": 7562,
      "andum": 7563,
      "Ġexpert": 7564,
      "ĠpÃ©r": 7565,
      "Ġlogement": 7566,
      "Ġsun": 7567,
      "Ġententes": 7568,
      "ĠÃ©chÃ©ant": 7569,
      "crits": 7570,
      "cd": 7571,
      "Ġfiling": 7572,
      "Ġchann": 7573,
      "Ġadministratives": 7574,
      "ĠmodifiÃ©": 7575,
      "ĠdifficultÃ©s": 7576,
      "cession": 7577,
      "Ġconjoint": 7578,
      "acture": 7579,
      "cadre": 7580,
      "Ġpetite": 7581,
      "Ġresponses": 7582,
      "entretien": 7583,
      "Ġedmonton": 7584,
      "Ġko": 7585,
      "phen": 7586,
      "Ġdiam": 7587,
      "lying": 7588,
      "Ġgal": 7589,
      "Ġdifference": 7590,
      "appelant": 7591,
      "rÃ©e": 7592,
      "unitÃ©": 7593,
      "Ã©valuer": 7594,
      "ĠparticipÃ©": 7595,
      "prÃ©sid": 7596,
      "Ġseven": 7597,
      "elds": 7598,
      "Ġwhe": 7599,
      "Ġidentity": 7600,
      "Ġafghanistan": 7601,
      "Ġaccrue": 7602,
      "tiers": 7603,
      "pd": 7604,
      "ĠÃ©lÃ¨ves": 7605,
      "Ġconj": 7606,
      "ott": 7607,
      "Ġoppos": 7608,
      "fied": 7609,
      "ĠrÃ©uss": 7610,
      "ĠmÃ©r": 7611,
      "mÃ©diaire": 7612,
      "iens": 7613,
      "Ġsalari": 7614,
      "Ġassurance": 7615,
      "Ġcumul": 7616,
      "immigration": 7617,
      "incidence": 7618,
      "Ġmarks": 7619,
      "ĠrÃ©tabl": 7620,
      "cee": 7621,
      "Ġreducing": 7622,
      "ĠcÃ©rÃ©": 7623,
      "Ġpossibles": 7624,
      "Ġfailure": 7625,
      "lined": 7626,
      "outes": 7627,
      "Ã´les": 7628,
      "osystem": 7629,
      "truct": 7630,
      "Ġcommercialisation": 7631,
      "Ġdomic": 7632,
      "aids": 7633,
      "Ġnorthwest": 7634,
      "Ġenvironnementaux": 7635,
      "Ġapplicants": 7636,
      "Ġseason": 7637,
      "ĠdÃ©cidÃ©": 7638,
      "ded": 7639,
      "Ġthough": 7640,
      "Ġquick": 7641,
      "ĠdÃ©ten": 7642,
      "Ġ98": 7643,
      "Ġassure": 7644,
      "Ġsalmon": 7645,
      "Ġsupervis": 7646,
      "Ġfes": 7647,
      "Ġgst": 7648,
      "Ġmedicine": 7649,
      "Ġmontreal": 7650,
      "Ġnavires": 7651,
      "Ġdesp": 7652,
      "ressions": 7653,
      "Ġnuclear": 7654,
      "Ġassujet": 7655,
      "Ġfeel": 7656,
      "expression": 7657,
      "Ġthink": 7658,
      "Ġscale": 7659,
      "ĠmÃ©dical": 7660,
      "uste": 7661,
      "appliquer": 7662,
      "ĠsÃ©n": 7663,
      "Ġdisability": 7664,
      "program": 7665,
      "Ġvictimes": 7666,
      "Ġcree": 7667,
      "Ġmanage": 7668,
      "Ġregistre": 7669,
      "date": 7670,
      "utÃ©s": 7671,
      "Ġbrid": 7672,
      "Ġfurthermore": 7673,
      "Ġfiles": 7674,
      "Ġnegative": 7675,
      "Ġutilise": 7676,
      "Ġdevra": 7677,
      "histoire": 7678,
      "Ġcounsel": 7679,
      "law": 7680,
      "Ã©nagement": 7681,
      "mises": 7682,
      "Ġmachines": 7683,
      "Ġsharing": 7684,
      "Ġ94": 7685,
      "itiÃ©": 7686,
      "Ġliquid": 7687,
      "riques": 7688,
      "Ġmentioned": 7689,
      "stes": 7690,
      "Ġpractical": 7691,
      "Ġproviders": 7692,
      "Ġenjeux": 7693,
      "ĠdiplÃ´": 7694,
      "Ġ61": 7695,
      "importation": 7696,
      "Ġexercice": 7697,
      "Ġratio": 7698,
      "Ġdates": 7699,
      "stra": 7700,
      "Ġtitres": 7701,
      "Ġpuissent": 7702,
      "fax": 7703,
      "Ġtient": 7704,
      "Ġstabil": 7705,
      "Ġwinter": 7706,
      "Ġ613": 7707,
      "Ġ2009": 7708,
      "ĠcomprÃ©hension": 7709,
      "Ġmener": 7710,
      "Ġrefuge": 7711,
      "Ġ84": 7712,
      "Ġjapon": 7713,
      "Ġsuppli": 7714,
      "Ġacknow": 7715,
      "Ġlocale": 7716,
      "auche": 7717,
      "Ġfum": 7718,
      "ĠâĢ¦": 7719,
      "Ġmt": 7720,
      "Ġlargest": 7721,
      "ĠÃ©levÃ©e": 7722,
      "ym": 7723,
      "Ġ63": 7724,
      "Ġmanufacture": 7725,
      "Ġacting": 7726,
      "Ġdemocratic": 7727,
      "food": 7728,
      "Ġresta": 7729,
      "Ġagree": 7730,
      "Ġretail": 7731,
      "tÃ©m": 7732,
      "Ġdiffus": 7733,
      "ĠunitÃ©s": 7734,
      "Ġscru": 7735,
      "Ġupdated": 7736,
      "Ġleft": 7737,
      "Ġagence": 7738,
      "itant": 7739,
      "Ġworkplace": 7740,
      "Ġprescribed": 7741,
      "Ġvictoria": 7742,
      "Ġjeux": 7743,
      "ush": 7744,
      "Ġ150": 7745,
      "usement": 7746,
      "Ġretr": 7747,
      "Ġchoice": 7748,
      "Ġrelationships": 7749,
      "Ġinstallation": 7750,
      "wgsc": 7751,
      "ĠintÃ©rÃªt": 7752,
      "Ġsessions": 7753,
      "Ġcibl": 7754,
      "elt": 7755,
      "experts": 7756,
      "Ġpp": 7757,
      "governmental": 7758,
      "Ġfunded": 7759,
      "Ġwriting": 7760,
      "hum": 7761,
      "Ġsuffisamment": 7762,
      "ĠvisÃ©es": 7763,
      "health": 7764,
      "Ġcooper": 7765,
      "Ġautant": 7766,
      "Ġadvanced": 7767,
      "Ġconduite": 7768,
      "autom": 7769,
      "Ġvariables": 7770,
      "honorable": 7771,
      "Ġsys": 7772,
      "nings": 7773,
      "including": 7774,
      "ifier": 7775,
      "igu": 7776,
      "Ġcontrols": 7777,
      "Â»,": 7778,
      "Ġrecrutement": 7779,
      "Ġacquisition": 7780,
      "ker": 7781,
      "Ġpau": 7782,
      "Ġeffectuer": 7783,
      "Ġcalls": 7784,
      "Ġinfirm": 7785,
      "Ġmaison": 7786,
      "Ġ66": 7787,
      "ĠprÃ©parer": 7788,
      "Ġfreedom": 7789,
      "obligation": 7790,
      "Ġcris": 7791,
      "Ġintr": 7792,
      "approche": 7793,
      "Ġprogres": 7794,
      "inal": 7795,
      "Ġmodes": 7796,
      "Ġcopie": 7797,
      "Ġside": 7798,
      "Ġfigurant": 7799,
      "Ġinfrastructures": 7800,
      "meu": 7801,
      "Ġgazette": 7802,
      "offre": 7803,
      "Ġpourra": 7804,
      "Ġfoods": 7805,
      "ĠÃ©cl": 7806,
      "Ġcard": 7807,
      "Ġpetit": 7808,
      "Ġdetermining": 7809,
      "Ġvariation": 7810,
      "aculture": 7811,
      "Ġparlementaire": 7812,
      "ĠconsidÃ©rÃ©": 7813,
      "Ġsuspension": 7814,
      "Ġsouha": 7815,
      "moins": 7816,
      "Ġassessed": 7817,
      "pour": 7818,
      "Ġrussie": 7819,
      "Ġaper": 7820,
      "Ġaviation": 7821,
      "Ġmechanism": 7822,
      "here": 7823,
      "uled": 7824,
      "Ġecosystem": 7825,
      "Ġavailability": 7826,
      "ĠaÃ©ro": 7827,
      "hor": 7828,
      "Ġparfois": 7829,
      "Ġhighest": 7830,
      "ĠprÃªt": 7831,
      "ĠÃ©changes": 7832,
      "acte": 7833,
      "Ġrare": 7834,
      "ĠmÃ©n": 7835,
      "mage": 7836,
      "cier": 7837,
      "Ġalcohol": 7838,
      "ĠlumiÃ¨re": 7839,
      "Ġnotif": 7840,
      "endra": 7841,
      "Ġpeter": 7842,
      "ential": 7843,
      "Ġsar": 7844,
      "Ġmotiv": 7845,
      "Ġdevelopments": 7846,
      "Ġindication": 7847,
      "Ġdespite": 7848,
      "ouveau": 7849,
      "alco": 7850,
      "Ġbaisse": 7851,
      "ĠprÃ©cÃ©dente": 7852,
      "Ã©rÃ©es": 7853,
      "from": 7854,
      "iable": 7855,
      "kg": 7856,
      "Ġterritori": 7857,
      "Ġsatellite": 7858,
      "Ġ99": 7859,
      "Ġharbour": 7860,
      "Ġemployed": 7861,
      "Ġelse": 7862,
      "Ġresol": 7863,
      "81": 7864,
      "Ġhistoric": 7865,
      "Ġemplois": 7866,
      "Ã©b": 7867,
      "Ġconflits": 7868,
      "arian": 7869,
      "alement": 7870,
      "Ġbecame": 7871,
      "assistance": 7872,
      "Ġvolunte": 7873,
      "adaptation": 7874,
      "Ġintention": 7875,
      "Ġadvantage": 7876,
      "oqu": 7877,
      "Ġadultes": 7878,
      "Ġhabituellement": 7879,
      "Ġneuf": 7880,
      "Ġgamme": 7881,
      "ĠbÃ©nÃ©v": 7882,
      "Ġaware": 7883,
      "Ġinternes": 7884,
      "entreprises": 7885,
      "Ġgovernor": 7886,
      "Ġcontest": 7887,
      "utation": 7888,
      "ĠÃ©tablis": 7889,
      "otte": 7890,
      "Ġimprovements": 7891,
      "Ġ800": 7892,
      "ĠÃ©coles": 7893,
      "Ġrcmp": 7894,
      "Ġadministrations": 7895,
      "Ġmodified": 7896,
      "ĠuniversitÃ©s": 7897,
      "Ġfoster": 7898,
      "ppe": 7899,
      "Ġ250": 7900,
      "ouvern": 7901,
      "ĠexaminÃ©": 7902,
      "Ġuniver": 7903,
      "ĠvÃ©rifier": 7904,
      "Ġworkshop": 7905,
      "Ġsang": 7906,
      "Ġarctic": 7907,
      "ĠrÃ©ception": 7908,
      "ault": 7909,
      "hics": 7910,
      "Ġquoi": 7911,
      "Ġcontinuing": 7912,
      "Ġprospec": 7913,
      "Ġfront": 7914,
      "Ġprofil": 7915,
      "Ġprobablement": 7916,
      "Ġpme": 7917,
      "Ġnavigation": 7918,
      "onie": 7919,
      "Ġdens": 7920,
      "Ġplate": 7921,
      "Ġgouvernementales": 7922,
      "fol": 7923,
      "Ġmanaging": 7924,
      "Ġpla": 7925,
      "ordonn": 7926,
      "Ġrefl": 7927,
      "Ġcoverage": 7928,
      "Ġarbitr": 7929,
      "Ġmining": 7930,
      "Ġpron": 7931,
      "Ġindiquer": 7932,
      "Ġbanks": 7933,
      "Ġelect": 7934,
      "Ġdeemed": 7935,
      "Ġmutu": 7936,
      "ote": 7937,
      "Ġtraditionnels": 7938,
      "Ġprofessionals": 7939,
      "Ġsubsidi": 7940,
      "ĠjournÃ©e": 7941,
      "Ġara": 7942,
      "Ġprofile": 7943,
      "uves": 7944,
      "ĠempÃª": 7945,
      "Ġtables": 7946,
      "jan": 7947,
      "internet": 7948,
      "argent": 7949,
      "Ġcompletion": 7950,
      "ĠdÃ©cÃ¨s": 7951,
      "Ġgrc": 7952,
      "canadian": 7953,
      "sy": 7954,
      "Ġgall": 7955,
      "ĠrÃ©alisÃ©s": 7956,
      "Ġlacs": 7957,
      "Ġimmediately": 7958,
      "Ġfeatures": 7959,
      "uds": 7960,
      "Ġjudgment": 7961,
      "ĠvÃ©r": 7962,
      "ola": 7963,
      "mem": 7964,
      "Ġrein": 7965,
      "Ġmargin": 7966,
      "ĠdÃ©lais": 7967,
      "Ġwilli": 7968,
      "Ġsondage": 7969,
      "Ġcreating": 7970,
      "Ġtemporaire": 7971,
      "Ġadress": 7972,
      "Ġparagraphes": 7973,
      "Ġchrom": 7974,
      "installation": 7975,
      "Ġsupervision": 7976,
      "estim": 7977,
      "Ġpredic": 7978,
      "ĠtÃ©lÃ©vision": 7979,
      "Ġcombined": 7980,
      "Ġdeploy": 7981,
      "verty": 7982,
      "Ġofficiel": 7983,
      "Ġqualified": 7984,
      "Ġcells": 7985,
      "Ġcoup": 7986,
      "Ġreflec": 7987,
      "Ġadul": 7988,
      "Ġstric": 7989,
      "md": 7990,
      "Ġobtenus": 7991,
      "Ġdispu": 7992,
      "Ġsexe": 7993,
      "Ġsouthern": 7994,
      "ĠeffectuÃ©es": 7995,
      "ouverture": 7996,
      "Ġcigare": 7997,
      "Ġinterpr": 7998,
      "ĠphÃ©n": 7999,
      "Ġmotor": 8000,
      "1997": 8001,
      "oudre": 8002,
      "Ġrepresented": 8003,
      "Ġplaces": 8004,
      "ously": 8005,
      "Ġlev": 8006,
      "Ġlux": 8007,
      "Ġadverse": 8008,
      "tte": 8009,
      "Ġresidents": 8010,
      "Ġpacifique": 8011,
      "Ġbour": 8012,
      "Ġholding": 8013,
      "Ġfestiv": 8014,
      "Ġouts": 8015,
      "certain": 8016,
      "Ġaus": 8017,
      "Ġappareils": 8018,
      "Ġsympt": 8019,
      "Ġallows": 8020,
      "Ġgrounds": 8021,
      "Ġpenal": 8022,
      "%.": 8023,
      "Ġaccompagn": 8024,
      "Ġadmissible": 8025,
      "Ġaimed": 8026,
      "Ġupdate": 8027,
      "provincial": 8028,
      "gÃ©n": 8029,
      "Ġrecouv": 8030,
      "ĠhÃ´": 8031,
      "Ġdemeure": 8032,
      "cteur": 8033,
      "Ġconsulting": 8034,
      "Ġthings": 8035,
      "ml": 8036,
      "Ġbanques": 8037,
      "ĠtÃ©moign": 8038,
      "Ġmotion": 8039,
      "ouvernement": 8040,
      "rin": 8041,
      "Ã©rables": 8042,
      "ĠprÃ©sentÃ©s": 8043,
      "Ġvalu": 8044,
      "Ġcircul": 8045,
      "ĠdÃ©finiti": 8046,
      "Ġmauv": 8047,
      "Ġcapable": 8048,
      "iger": 8049,
      "Ġcompound": 8050,
      "admis": 8051,
      "Ġdevenir": 8052,
      "bue": 8053,
      "Ġperformed": 8054,
      "Ġplaced": 8055,
      "Ġabroad": 8056,
      "Ġchin": 8057,
      "Ġrespectively": 8058,
      "Ġmol": 8059,
      "76": 8060,
      "Ġrevend": 8061,
      "plement": 8062,
      "Ġavenue": 8063,
      "Ġvital": 8064,
      "Ġspring": 8065,
      "sie": 8066,
      "resh": 8067,
      "prit": 8068,
      "ĠÃ©tablies": 8069,
      "carb": 8070,
      "ĠprÃ©sentÃ©es": 8071,
      "Ġflight": 8072,
      "dation": 8073,
      "âĢ¨âĢ¨": 8074,
      "Ġtrim": 8075,
      "Ġdevait": 8076,
      "Ġexamined": 8077,
      "section": 8078,
      "Ġmineral": 8079,
      "Ġrecruit": 8080,
      "identification": 8081,
      "Ġobligatoire": 8082,
      "ĠdÃ©cret": 8083,
      "Ġregards": 8084,
      "cidents": 8085,
      "Ġinventory": 8086,
      "ĠtÃ©lÃ©communications": 8087,
      "Ġmeilleur": 8088,
      "Ġremise": 8089,
      "ĠprÃ£": 8090,
      "ĠstabilitÃ©": 8091,
      "Ã´mage": 8092,
      "Ġ73": 8093,
      "ĠpublicitÃ©": 8094,
      "Ġeau": 8095,
      "Ġseek": 8096,
      "Ġadvertising": 8097,
      "sor": 8098,
      "Ġvoc": 8099,
      "Ã¨tre": 8100,
      "non": 8101,
      "71": 8102,
      "ĠdiffÃ©rence": 8103,
      "Ġprepare": 8104,
      "Ġice": 8105,
      "Ġcourts": 8106,
      "Ġdemandeur": 8107,
      "excell": 8108,
      "Ġcomprom": 8109,
      "ilibre": 8110,
      "Ġpurchase": 8111,
      "Ġcomply": 8112,
      "Ġextre": 8113,
      "lets": 8114,
      "Ġvoluntary": 8115,
      "Ġnumer": 8116,
      "Ġspo": 8117,
      "Ġautochtone": 8118,
      "Ġstrengthening": 8119,
      "Ġkb": 8120,
      "Ġthom": 8121,
      "ĠaÃ©rienne": 8122,
      "Ġfigures": 8123,
      "dle": 8124,
      "Ġbiological": 8125,
      "Ġtaxpay": 8126,
      "Ġtraite": 8127,
      "Ġstability": 8128,
      "Ġdead": 8129,
      "Ġreleased": 8130,
      "ĠcÃ´tÃ©": 8131,
      "econom": 8132,
      "Ġjames": 8133,
      "Ġappears": 8134,
      "Ġdispositifs": 8135,
      "Ġtransparence": 8136,
      "sez": 8137,
      "argets": 8138,
      "1996": 8139,
      "Ġbegan": 8140,
      "Ġdep": 8141,
      "Ġbac": 8142,
      "Ġadresse": 8143,
      "Ġerre": 8144,
      "ĠrÃ©ussi": 8145,
      "Ġsecondary": 8146,
      "Ġprogrammation": 8147,
      "Ġ!": 8148,
      "Ġuniversities": 8149,
      "Ġdiminution": 8150,
      "division": 8151,
      "Ġnour": 8152,
      "Ġsurveys": 8153,
      "Ġchanging": 8154,
      "ĠprÃ©sentes": 8155,
      "Ġra": 8156,
      "Ġphosph": 8157,
      "idential": 8158,
      "Ġspati": 8159,
      "79": 8160,
      "Ġmarqu": 8161,
      "rac": 8162,
      "tream": 8163,
      "Ġpauvre": 8164,
      "Ġmari": 8165,
      "ĠÃ©tablie": 8166,
      "ĠconÃ§": 8167,
      "Ġautomob": 8168,
      "Ġavantage": 8169,
      "Ġrespectivement": 8170,
      "ĠtempÃ©rature": 8171,
      "74": 8172,
      "asions": 8173,
      "ĠprÃ©sentent": 8174,
      "Ġheure": 8175,
      "Ġ72": 8176,
      "Ġemployers": 8177,
      "gos": 8178,
      "Ġtouchant": 8179,
      "Ġfourniture": 8180,
      "ĠconsidÃ©ration": 8181,
      "Ġscrutin": 8182,
      "ĠeffectuÃ©e": 8183,
      ".),": 8184,
      "Ġcartes": 8185,
      "Ġrock": 8186,
      "Ġbag": 8187,
      "Ġpoverty": 8188,
      "berg": 8189,
      "ĠannoncÃ©": 8190,
      "Ġperiods": 8191,
      "Ġaccompan": 8192,
      "aser": 8193,
      "Ġorientation": 8194,
      "Ġhabitats": 8195,
      "Ġopposition": 8196,
      "Ġhong": 8197,
      "ĠlÃ¢": 8198,
      "Ġenvers": 8199,
      "Ġpoll": 8200,
      "Ġ62": 8201,
      "redi": 8202,
      "Ġagro": 8203,
      "Ġhear": 8204,
      "Ġindustrielle": 8205,
      "Ġextension": 8206,
      "sta": 8207,
      "Ġremplacement": 8208,
      "dent": 8209,
      "Ġtargets": 8210,
      "Ġvirtu": 8211,
      "Ġhazard": 8212,
      "national": 8213,
      "Ġreconnu": 8214,
      "aria": 8215,
      "Ġappui": 8216,
      "Ġjudiciaire": 8217,
      "Ġgestionnaire": 8218,
      ".:": 8219,
      "ĠmÃ©decins": 8220,
      "Ġhapp": 8221,
      "Ġcomport": 8222,
      "Ġbudgets": 8223,
      "Ġdispute": 8224,
      "bri": 8225,
      "ĠsupÃ©rieure": 8226,
      "Ġgran": 8227,
      "Ġcaused": 8228,
      "ĠpÃ©riodes": 8229,
      "rez": 8230,
      "Ġspirit": 8231,
      "Ġcorruption": 8232,
      "informations": 8233,
      "examiner": 8234,
      "Ġauxquels": 8235,
      "Ġrecycl": 8236,
      "Ġbiais": 8237,
      "ĠsiÃ¨": 8238,
      "ĠintÃ©grÃ©e": 8239,
      "gue": 8240,
      "Ġtac": 8241,
      "ĠsystÃ©m": 8242,
      "Ġcycl": 8243,
      "Ġfields": 8244,
      "ĠprÃ©jud": 8245,
      "Ġwithdra": 8246,
      "ĠmoitiÃ©": 8247,
      "\")": 8248,
      "Ġtraitements": 8249,
      "73": 8250,
      "Ġequivalent": 8251,
      "Ġ96": 8252,
      "Ġurl": 8253,
      "Ġinqu": 8254,
      "Ġactifs": 8255,
      "Ġdil": 8256,
      "Ġpossibility": 8257,
      "Ġclosely": 8258,
      "bro": 8259,
      "ky": 8260,
      "Ġnames": 8261,
      "Ġcourses": 8262,
      "Ġdebate": 8263,
      "Ġclasses": 8264,
      "adhÃ©sion": 8265,
      "Ġrecens": 8266,
      "Ġedward": 8267,
      "Ġfederation": 8268,
      "Ġdeposit": 8269,
      "Ġsense": 8270,
      "Â».": 8271,
      "Ġhistorical": 8272,
      "Ġrepos": 8273,
      "Ġloans": 8274,
      "ĠÃ®": 8275,
      "Ġlie": 8276,
      "esc": 8277,
      "ĠvidÃ©": 8278,
      "rais": 8279,
      "----------------": 8280,
      "Ġ68": 8281,
      "Ġpression": 8282,
      "Ġawards": 8283,
      "ĠlimitÃ©e": 8284,
      "Ġorganized": 8285,
      "Ġweather": 8286,
      "inafter": 8287,
      "Ġhold": 8288,
      "Ġactuelles": 8289,
      "Ġrenewal": 8290,
      "Ġrepresentation": 8291,
      "Ġanciens": 8292,
      "Ġ86": 8293,
      "Ġindirect": 8294,
      "Ġextended": 8295,
      "âĢ°": 8296,
      "Ġpreced": 8297,
      "Ġimporte": 8298,
      "Ġcau": 8299,
      "Ġreplaced": 8300,
      "Ġphotos": 8301,
      "Ġindiquent": 8302,
      "Ġpertinents": 8303,
      "ĠparticuliÃ¨res": 8304,
      "ĠrÃ©sidence": 8305,
      "Ġ89": 8306,
      "Ġchris": 8307,
      "Ġtom": 8308,
      "Ġmoreover": 8309,
      "Ġdomicile": 8310,
      "oe": 8311,
      "Ġconventions": 8312,
      "Ġsouff": 8313,
      "Ġassessments": 8314,
      "osyst": 8315,
      "this": 8316,
      "Ġethics": 8317,
      "Ġapparent": 8318,
      "Ġtemperature": 8319,
      "ardi": 8320,
      "greg": 8321,
      "zy": 8322,
      "Ġsubstantial": 8323,
      "Ġmichael": 8324,
      "Ġassez": 8325,
      "ĠspÃ©cifique": 8326,
      "lectricitÃ©": 8327,
      "Ġcommence": 8328,
      "Ġexpansion": 8329,
      "Ġvenir": 8330,
      "Ġauteurs": 8331,
      "Ġfondation": 8332,
      "Ã©tiqu": 8333,
      "Ġtourisme": 8334,
      "Ġallowance": 8335,
      "Ġrepresents": 8336,
      "Ġcomparaison": 8337,
      "Ġcarrying": 8338,
      "Ġconsiders": 8339,
      "ĠprÃ©cÃ©dent": 8340,
      "Â®": 8341,
      "Ġpapier": 8342,
      "Ġexploitation": 8343,
      "ĠrelÃ¨ve": 8344,
      "Ġduration": 8345,
      "Ġimported": 8346,
      "}\\": 8347,
      "ministre": 8348,
      "Ġmembership": 8349,
      "Ġinscrit": 8350,
      "iditÃ©": 8351,
      "Ġfrequ": 8352,
      "Ġaient": 8353,
      "atus": 8354,
      "Ġjouer": 8355,
      "Ġpartout": 8356,
      "Ġdissem": 8357,
      "Ġbanc": 8358,
      "angl": 8359,
      "ĠcarriÃ¨re": 8360,
      "Ġ78": 8361,
      "Ġsmoking": 8362,
      "Ġvillage": 8363,
      "Ġfores": 8364,
      "dd": 8365,
      "ĠÃ©limin": 8366,
      "Ġcotisations": 8367,
      "tiles": 8368,
      "Ã©ronefs": 8369,
      "unesse": 8370,
      "Ġrespondent": 8371,
      "Ġequality": 8372,
      "ĠmusÃ©e": 8373,
      "enza": 8374,
      "influ": 8375,
      "Ġ76": 8376,
      "Ġroles": 8377,
      "Ġconnec": 8378,
      "Ġsanc": 8379,
      "Ġencourager": 8380,
      "Ġculturelle": 8381,
      "Ġreb": 8382,
      "Ġrien": 8383,
      "Ġdisposal": 8384,
      "espace": 8385,
      "Ġvoyages": 8386,
      "habil": 8387,
      "chlor": 8388,
      "Ġheav": 8389,
      "Ġaccordingly": 8390,
      "Ġcame": 8391,
      "leur": 8392,
      "Ġexpression": 8393,
      "Ġsand": 8394,
      "Ġcompetent": 8395,
      "idence": 8396,
      "Ġaspect": 8397,
      "Ġsupplies": 8398,
      "dit": 8399,
      "Ġcorrec": 8400,
      "ĠrÃ©action": 8401,
      "Ã©quitÃ©": 8402,
      "ĠconsidÃ©rant": 8403,
      "ĠbudgÃ©taire": 8404,
      "ĠaperÃ§u": 8405,
      "bile": 8406,
      "Ġconnection": 8407,
      "Ġindications": 8408,
      "Ġdiscrimin": 8409,
      "Ġpesti": 8410,
      "ĠunitÃ©": 8411,
      "ĠaÃ©rien": 8412,
      "Ġgoing": 8413,
      "Ġoffers": 8414,
      "ĠmÃ©l": 8415,
      "ĠsÃ»re": 8416,
      "Ġbid": 8417,
      "Ġsac": 8418,
      "ĠsupÃ©rieurs": 8419,
      "Ġcorp": 8420,
      "Ġabord": 8421,
      "Ġchau": 8422,
      "Ġunf": 8423,
      "Ġmaintained": 8424,
      "Ġgeorge": 8425,
      "Ġ93": 8426,
      "ĠmatÃ©riaux": 8427,
      "umin": 8428,
      "Ġphil": 8429,
      "Ġoccurred": 8430,
      "ĠantÃ©rieure": 8431,
      "Ġlaur": 8432,
      "entiel": 8433,
      "ĠmÃ©t": 8434,
      "Ġdescrip": 8435,
      "Ġmur": 8436,
      "Ġcontrolled": 8437,
      "ĠmentionnÃ©": 8438,
      "Ġopinions": 8439,
      "Ġmagaz": 8440,
      "Ġhot": 8441,
      "Ġintegrity": 8442,
      "quarters": 8443,
      "iche": 8444,
      "Ġinterc": 8445,
      "ellow": 8446,
      "âĢ¦âĢ¦âĢ¦âĢ¦âĢ¦âĢ¦âĢ¦âĢ¦": 8447,
      "ali": 8448,
      "ston": 8449,
      "Ġconseiller": 8450,
      "anmoins": 8451,
      "omc": 8452,
      "ĠdÃ©par": 8453,
      "ĠrÃ©glementaires": 8454,
      "Ġsexual": 8455,
      "tÃ©lÃ©c": 8456,
      "Ġtirer": 8457,
      "oure": 8458,
      "Ġdealing": 8459,
      "Ġelimin": 8460,
      "Ġcontac": 8461,
      "Ġresulted": 8462,
      "Ġinjec": 8463,
      "Ġinterpre": 8464,
      "Ġorganizational": 8465,
      "Ġsignifie": 8466,
      "stand": 8467,
      "Ġimpossible": 8468,
      "Ġdevront": 8469,
      "Ġposts": 8470,
      "Ġprochaine": 8471,
      "Ġhoc": 8472,
      "ĠdÃ©cide": 8473,
      "Ġamending": 8474,
      "Ġhost": 8475,
      "Ġlinked": 8476,
      "onnage": 8477,
      "Ġreached": 8478,
      "ĠdÃ©coulant": 8479,
      "Ġ600": 8480,
      "Ġgoverning": 8481,
      "Ġmemor": 8482,
      "Ġrestruct": 8483,
      "onds": 8484,
      "Ġtransparency": 8485,
      "rane": 8486,
      "imer": 8487,
      "ĠÃ©laborÃ©": 8488,
      "Ġcollections": 8489,
      "Ġorders": 8490,
      "ĠcommencÃ©": 8491,
      "72": 8492,
      "Ġformule": 8493,
      "instru": 8494,
      "Ġpouvait": 8495,
      "ĠvisÃ©": 8496,
      "alcool": 8497,
      "Ġhuit": 8498,
      "Ġrenouvellement": 8499,
      "Ġasia": 8500,
      "Ġgarantie": 8501,
      "eli": 8502,
      "ĠÂ©": 8503,
      "ĠbÃ©nÃ©ficiaires": 8504,
      "troph": 8505,
      "Ġsouligne": 8506,
      "Ġcoming": 8507,
      "Ġ09": 8508,
      "Â§": 8509,
      "yp": 8510,
      "Ġconnu": 8511,
      "Ġsynth": 8512,
      "Ġpourront": 8513,
      "Ġemerging": 8514,
      "Ġrecorded": 8515,
      "Ġjac": 8516,
      "Ġrestre": 8517,
      "Ġhall": 8518,
      "Ġconcre": 8519,
      "Ġresident": 8520,
      "ecture": 8521,
      "Ġdoute": 8522,
      "ered": 8523,
      "Ġpertes": 8524,
      "andon": 8525,
      "Ġtimely": 8526,
      "bus": 8527,
      "Ġgames": 8528,
      "Ġsoutenu": 8529,
      "Ġactuels": 8530,
      "Ġrecon": 8531,
      "itude": 8532,
      "sida": 8533,
      "Ġexplan": 8534,
      "Ġdamage": 8535,
      "Ġdirections": 8536,
      "Ġinclure": 8537,
      "aider": 8538,
      "Ġbarriers": 8539,
      "alimentation": 8540,
      "divers": 8541,
      "Ġmaintaining": 8542,
      "ĠÃ©vid": 8543,
      "ï¿½ï¿½": 8544,
      "ĠcollÃ¨g": 8545,
      "Ġlaid": 8546,
      "Ġquels": 8547,
      "ĠconsidÃ¨re": 8548,
      "Ġmilieux": 8549,
      "Ġdollar": 8550,
      "Ġincreasingly": 8551,
      "Ġconfer": 8552,
      "chÃ©s": 8553,
      "ĠnÃ©anmoins": 8554,
      "Ġconseillers": 8555,
      "pir": 8556,
      "ĠâĪĴ": 8557,
      "exception": 8558,
      "fait": 8559,
      "Ġpossession": 8560,
      "Ġmanual": 8561,
      "Ġconflit": 8562,
      "Ġlaiss": 8563,
      "nouveau": 8564,
      "ĠimmÃ©diatement": 8565,
      "eec": 8566,
      "Ġchiffres": 8567,
      "Ġfurn": 8568,
      "Ġrespir": 8569,
      "Ġ...": 8570,
      "Ġexces": 8571,
      "Ġcomparison": 8572,
      "Ġintelligence": 8573,
      "Ġcari": 8574,
      "Ġmack": 8575,
      "ĠpauvretÃ©": 8576,
      "Ġabuse": 8577,
      "Ġ83": 8578,
      "Ġdestruction": 8579,
      "ĠarrÃªt": 8580,
      "Ġunemployment": 8581,
      "Ġ81": 8582,
      "itations": 8583,
      "Ġstructural": 8584,
      "Ġinfection": 8585,
      "ull": 8586,
      "Ġloan": 8587,
      "Ġ%.": 8588,
      "ĠÃ©viter": 8589,
      "Ġ________________________________": 8590,
      "Ġjeu": 8591,
      "Ġnoter": 8592,
      "ĠdÃ©ploy": 8593,
      "Ġcliniques": 8594,
      "Ġram": 8595,
      "Ġpowers": 8596,
      "effectu": 8597,
      "Ġfacts": 8598,
      "Ġconcepts": 8599,
      "Ġconsultants": 8600,
      "Ġvuln": 8601,
      "tisse": 8602,
      "identitÃ©": 8603,
      "Ġadvoc": 8604,
      "Ġsets": 8605,
      "Ġ69": 8606,
      "ecd": 8607,
      "tirer": 8608,
      "Ġsoon": 8609,
      "Ġjeunesse": 8610,
      "Ġenough": 8611,
      "Ġgold": 8612,
      "Ġauquel": 8613,
      "Ġessentiellement": 8614,
      "lent": 8615,
      "Ġdisplay": 8616,
      "Ġreleases": 8617,
      "Ġassigned": 8618,
      "Ġdelivered": 8619,
      "ĠreprÃ©sentation": 8620,
      "Ġcentury": 8621,
      "Ġcomplexes": 8622,
      "Ġfixe": 8623,
      "Ġtrouvent": 8624,
      "Ġtechnological": 8625,
      "discipl": 8626,
      "Ġsum": 8627,
      "Ġsend": 8628,
      "Ġfocused": 8629,
      "ĠnumÃ©rique": 8630,
      "hst": 8631,
      "Ã§ons": 8632,
      "ĠÃ©quipe": 8633,
      "Ġreferences": 8634,
      "Ġct": 8635,
      "Ġtort": 8636,
      "Ġ(\"": 8637,
      "nia": 8638,
      "rog": 8639,
      "ĠtÃ©lÃ©ph": 8640,
      "ĠcoopÃ©ra": 8641,
      "Ġpou": 8642,
      "Ġtoward": 8643,
      "Ġheading": 8644,
      "Ġinvestigations": 8645,
      "Ġproductivity": 8646,
      "Ġpeuples": 8647,
      "Ġcommuns": 8648,
      "Ġexemption": 8649,
      "Ġrejected": 8650,
      "lav": 8651,
      "ĠintitulÃ©": 8652,
      "atrices": 8653,
      "Ġindicates": 8654,
      "Ġaugmenter": 8655,
      "Ġdiagnostic": 8656,
      "Ġsuppri": 8657,
      "observation": 8658,
      "ĠmÃ©decine": 8659,
      "Ġimprim": 8660,
      "ĠcommuniquÃ©": 8661,
      "Ġroutes": 8662,
      "Ġentered": 8663,
      "Ġmas": 8664,
      "Ġtranslation": 8665,
      "Ġsn": 8666,
      "Ġcertaine": 8667,
      "Ġgrade": 8668,
      "Ġannivers": 8669,
      "Ġidentifying": 8670,
      "Ġquelles": 8671,
      "Ġdemonstrate": 8672,
      "ĠliÃ©e": 8673,
      "ĠproposÃ©e": 8674,
      "Ġfutures": 8675,
      "ĠrÃ©duit": 8676,
      "tead": 8677,
      "general": 8678,
      "Ġresidence": 8679,
      "Ġcanc": 8680,
      "irme": 8681,
      "Ġarmes": 8682,
      "%,": 8683,
      "Ġplantes": 8684,
      "ĠbÃ©nÃ©ficiaire": 8685,
      "Ġincorporated": 8686,
      "Ġmot": 8687,
      "Ġmobile": 8688,
      "Ġconstant": 8689,
      "Ġcorrect": 8690,
      "Ġadjoint": 8691,
      "Ġchefs": 8692,
      "cin": 8693,
      "Ġoffs": 8694,
      "Ġsche": 8695,
      "Ġsignificative": 8696,
      "Ġball": 8697,
      "oming": 8698,
      "omie": 8699,
      "Ġatlantique": 8700,
      "Ġtv": 8701,
      "ĠprÃ©visions": 8702,
      "ensions": 8703,
      "Ġorganic": 8704,
      "ya": 8705,
      "Ġappels": 8706,
      "Ġluxem": 8707,
      "Ġvisible": 8708,
      "Ġlar": 8709,
      "Ġalign": 8710,
      "Ġcompta": 8711,
      "ĠprÃ©venir": 8712,
      "Ġstatistical": 8713,
      "Ġmainly": 8714,
      "Ã©thique": 8715,
      "Ġprovisoire": 8716,
      "Ġstages": 8717,
      "Ġrede": 8718,
      "ĠspÃ©ciaux": 8719,
      "Ã©taient": 8720,
      "Ġapporter": 8721,
      "uÃ©": 8722,
      "rÃ©es": 8723,
      "Ġcommissions": 8724,
      "Ġreviews": 8725,
      "ĠmenÃ©es": 8726,
      "Ġchanged": 8727,
      "Ġfloor": 8728,
      "Âª": 8729,
      "list": 8730,
      "ĠorganisÃ©": 8731,
      "Ġintra": 8732,
      "Ġdotation": 8733,
      "ĠfranÃ§aise": 8734,
      "Ġfiducie": 8735,
      "ĠdisponibilitÃ©": 8736,
      "Ġmentale": 8737,
      "ĠfÃ©dÃ©ration": 8738,
      "Ġindiens": 8739,
      "Ġveget": 8740,
      "ĠspÃ©ciales": 8741,
      "Ġgrie": 8742,
      "Ġpwgsc": 8743,
      "Ġbos": 8744,
      "Ġvulner": 8745,
      "orti": 8746,
      "Ġ92": 8747,
      "Ġstaffing": 8748,
      "anne": 8749,
      "Ġload": 8750,
      "ĠÅĵu": 8751,
      "Ġbuildings": 8752,
      "ĠminoritÃ©s": 8753,
      "Ġactes": 8754,
      "Ġpharmac": 8755,
      "Ġbig": 8756,
      "Ġhonor": 8757,
      "ĠspÃ©cialistes": 8758,
      "vest": 8759,
      "ba": 8760,
      "government": 8761,
      "haus": 8762,
      "Ġmartin": 8763,
      "001": 8764,
      "ĠprÃ©voir": 8765,
      "Ġkos": 8766,
      "Ġvary": 8767,
      "Ġmasse": 8768,
      "obe": 8769,
      "Ġquantita": 8770,
      "Ġwto": 8771,
      "ĠrÃ©fug": 8772,
      "Ġtransmit": 8773,
      "Ġviolation": 8774,
      "traduction": 8775,
      "Ġmexico": 8776,
      "Ġeight": 8777,
      "Ġ71": 8778,
      "iennent": 8779,
      "person": 8780,
      "Ġlif": 8781,
      "Ġsuggestions": 8782,
      "Ġoxy": 8783,
      "Ġestimations": 8784,
      "Ġwit": 8785,
      "Ġessentiels": 8786,
      "Ġsimilaires": 8787,
      "Ġoccasions": 8788,
      "Ġcarbone": 8789,
      "Ġexceptions": 8790,
      "anda": 8791,
      "ips": 8792,
      "Ġsmith": 8793,
      "conta": 8794,
      "Ġextensive": 8795,
      "Ġemployeurs": 8796,
      "Ġna": 8797,
      "Ġoccurr": 8798,
      "Ġpierre": 8799,
      "Ġmultipl": 8800,
      "Ġsamples": 8801,
      "Ġreceipt": 8802,
      "num": 8803,
      "acdi": 8804,
      "Ġgeneration": 8805,
      "Ġconfidence": 8806,
      "Ġaccident": 8807,
      "div": 8808,
      "Ġjudicial": 8809,
      "isp": 8810,
      "Ġpain": 8811,
      "Ġvilles": 8812,
      "Ġsubmissions": 8813,
      "ĠdÃ©fi": 8814,
      "hereinafter": 8815,
      "Ġsommet": 8816,
      "ĠconsidÃ©rÃ©e": 8817,
      "Ġchose": 8818,
      "ĠclÃ©": 8819,
      "Ġpertinentes": 8820,
      "fish": 8821,
      "Ġï£": 8822,
      "Ġcomplement": 8823,
      "Ġregroup": 8824,
      "Ġfirm": 8825,
      "ÂŃ": 8826,
      "Ġcalc": 8827,
      "Ġmultiples": 8828,
      "Ġimmediate": 8829,
      "Ġvariable": 8830,
      "Ġveut": 8831,
      "Ġrelever": 8832,
      "ennetÃ©": 8833,
      "Ġinqui": 8834,
      "ĠprocÃ©dÃ©": 8835,
      "Ġns": 8836,
      "Ġarrangement": 8837,
      "Ġvisiteurs": 8838,
      "Ġordre": 8839,
      "Ġimpliqu": 8840,
      "Ġprochaines": 8841,
      "Ġseconde": 8842,
      "ficit": 8843,
      "ĠfondÃ©": 8844,
      "Ġbonnes": 8845,
      "ĠcontribuÃ©": 8846,
      "Ġmiti": 8847,
      "Ġ1984": 8848,
      "inscription": 8849,
      "tendue": 8850,
      "ĠbibliothÃ¨que": 8851,
      "lab": 8852,
      "ĠsoulignÃ©": 8853,
      "Ġrelief": 8854,
      "Ġfeedback": 8855,
      "illing": 8856,
      "Ġpleinement": 8857,
      "ĠÂ°": 8858,
      "inage": 8859,
      "Ġdecline": 8860,
      "Ġnar": 8861,
      "Ġwhom": 8862,
      "ovis": 8863,
      "Ġwing": 8864,
      "Ġdirectors": 8865,
      "ĠamÃ©ricains": 8866,
      "economic": 8867,
      "ĠnÃ©gociation": 8868,
      "quie": 8869,
      "institution": 8870,
      "Ġgather": 8871,
      "Ġremaining": 8872,
      "Ġmetal": 8873,
      "Ġutiles": 8874,
      "accroÃ®tre": 8875,
      "esses": 8876,
      "Ġsr": 8877,
      "Ġprovenance": 8878,
      "ĠsiÃ¨cle": 8879,
      "Ġregime": 8880,
      "ĠdÃ©couver": 8881,
      "Ġsct": 8882,
      "ĠaccordÃ©": 8883,
      "Ã©rance": 8884,
      "ĠproductivitÃ©": 8885,
      "Ġinhib": 8886,
      ")-": 8887,
      "ĠappropriÃ©e": 8888,
      "enous": 8889,
      "Ã¡Ã¡Ã¡Ã¡": 8890,
      "Ġlaunched": 8891,
      "Ġattent": 8892,
      "Ġnotices": 8893,
      "Ġsays": 8894,
      "ĠprÃ©ciser": 8895,
      "Ġoiseaux": 8896,
      "Ġincur": 8897,
      "gence": 8898,
      "ung": 8899,
      "ĠeffectuÃ©s": 8900,
      "eding": 8901,
      "Ġtissus": 8902,
      "Ġguarantee": 8903,
      "Ġsecondaire": 8904,
      "enfant": 8905,
      "Ġexer": 8906,
      "Ġplacement": 8907,
      "Ġ74": 8908,
      "gouvernement": 8909,
      "Ġafrican": 8910,
      "aborer": 8911,
      "cks": 8912,
      "Ġmanaged": 8913,
      "Ġauront": 8914,
      "unction": 8915,
      "Ġheadquarters": 8916,
      "Ġcomplexe": 8917,
      "Ġcontribut": 8918,
      "Ġfrancophone": 8919,
      "Ġlivre": 8920,
      "entis": 8921,
      "Ã¨lement": 8922,
      "Ġentity": 8923,
      "Ġtenant": 8924,
      "Ġ%,": 8925,
      "Ġrencontre": 8926,
      "ĠbÃ©nÃ©ficier": 8927,
      "Ġstatutory": 8928,
      "Ġstream": 8929,
      "ĠsignÃ©": 8930,
      "Ġheart": 8931,
      "Ġadopter": 8932,
      "plain": 8933,
      "neau": 8934,
      "Ġconclure": 8935,
      "ĠpiÃ¨ce": 8936,
      "anol": 8937,
      "imb": 8938,
      "Ġoffert": 8939,
      "ĠproposÃ©es": 8940,
      "Ġconsiderable": 8941,
      "ĠcontrÃ´les": 8942,
      "Ġinterm": 8943,
      "Ġportugal": 8944,
      "Ġsheet": 8945,
      "irs": 8946,
      "Ġenterprise": 8947,
      "Ġenjoy": 8948,
      "aisance": 8949,
      "itÃ©e": 8950,
      "attention": 8951,
      "fault": 8952,
      "Ġserved": 8953,
      "Ġvolet": 8954,
      "Ġ91": 8955,
      "Ġclub": 8956,
      "tÃ©rieurs": 8957,
      "Ġclaimant": 8958,
      "Ġmonetary": 8959,
      "Ġvoici": 8960,
      "Ġnative": 8961,
      "Ġcontaminants": 8962,
      "Ġtreated": 8963,
      "Ġvariations": 8964,
      "Ġconting": 8965,
      "str": 8966,
      "Ġsemin": 8967,
      "esis": 8968,
      "idrc": 8969,
      "Ġdetail": 8970,
      "Ġvideo": 8971,
      "ĠcÃ´te": 8972,
      "Ġfournisseur": 8973,
      "delÃł": 8974,
      "Ġda": 8975,
      "Ġtrack": 8976,
      "Ġacknowled": 8977,
      "Ġcalculated": 8978,
[...]
