{
  "version": "1.0",
  "truncation": null,
  "padding": null,
  "added_tokens": [
    {
      "id": 0,
      "content": "<pad>",
      "single_word": false,
      "lstrip": false,
      "rstrip": false,
      "normalized": false,
      "special": true
    },
    {
      "id": 1,
      "content": "<bos>",
      "single_word": false,
      "lstrip": false,
      "rstrip": false,
      "normalized": false,
      "special": true
    },
    {
      "id": 2,
      "content": "<eos>",
      "single_word": false,
      "lstrip": false,
      "rstrip": false,
      "normalized": false,
      "special": true
    },
    {
      "id": 3,
      "content": "<unk>",
      "single_word": false,
      "lstrip": false,
      "rstrip": false,
      "normalized": false,
      "special": true
    }
  ],
  "normalizer": null,
  "pre_tokenizer": {
    "type": "Whitespace"
  },
  "post_processor": null,
  "decoder": null,
  "model": {
    "type": "BPE",
    "dropout": null,
    "unk_token": "<unk>",
    "continuing_subword_prefix": null,
    "end_of_word_suffix": null,
    "fuse_unk": false,
    "byte_fallback": false,
    "ignore_merges": false,
    "vocab": {
      "<pad>": 0,
      "<bos>": 1,
      "<eos>": 2,
      "<unk>": 3,
      "\u0001": 4,
      "\u0002": 5,
      "\u0003": 6,
      "\u0004": 7,
      "\u0005": 8,
      "\u0006": 9,
      "\u0007": 10,
      "\b": 11,
      "\u000e": 12,
      "\u000f": 13,
      "\u0010": 14,
      "\u0011": 15,
      "\u0012": 16,
      "\u0013": 17,
      "\u0014": 18,
      "\u0015": 19,
      "\u0016": 20,
      "\u0017": 21,
      "\u0018": 22,
      "\u0019": 23,
      "\u001a": 24,
      "\u001b": 25,
      "\u001c": 26,
      "\u001d": 27,
      "\u001e": 28,
      "\u001f": 29,
      "!": 30,
      "\"": 31,
      "#": 32,
      "$": 33,
      "%": 34,
      "&": 35,
      "'": 36,
      "(": 37,
      ")": 38,
      "*": 39,
      "+": 40,
      ",": 41,
      "-": 42,
      ".": 43,
      "/": 44,
      "0": 45,
      "1": 46,
      "2": 47,
      "3": 48,
      "4": 49,
      "5": 50,
      "6": 51,
      "7": 52,
      "8": 53,
      "9": 54,
      ":": 55,
      ";": 56,
      "<": 57,
      "=": 58,
      ">": 59,
      "?": 60,
      "@": 61,
      "A": 62,
      "B": 63,
      "C": 64,
      "D": 65,
      "E": 66,
      "F": 67,
      "G": 68,
      "H": 69,
      "I": 70,
      "J": 71,
      "K": 72,
      "L": 73,
      "M": 74,
      "N": 75,
      "O": 76,
      "P": 77,
      "Q": 78,
      "R": 79,
      "S": 80,
      "T": 81,
      "U": 82,
      "V": 83,
      "W": 84,
      "X": 85,
      "Y": 86,
      "Z": 87,
      "[": 88,
      "\\": 89,
      "]": 90,
      "^": 91,
      "_": 92,
      "`": 93,
      "a": 94,
      "b": 95,
      "c": 96,
      "d": 97,
      "e": 98,
      "f": 99,
      "g": 100,
      "h": 101,
      "i": 102,
      "j": 103,
      "k": 104,
      "l": 105,
      "m": 106,
      "n": 107,
      "o": 108,
      "p": 109,
      "q": 110,
      "r": 111,
      "s": 112,
      "t": 113,
      "u": 114,
      "v": 115,
      "w": 116,
      "x": 117,
      "y": 118,
      "z": 119,
      "{": 120,
      "|": 121,
      "}": 122,
      "~": 123,
      "": 124,
      "": 125,
      "": 126,
      "": 127,
      "": 128,
      "": 129,
      "": 130,
      "": 131,
      "": 132,
      "": 133,
      "": 134,
      "": 135,
      "": 136,
      "": 137,
      "": 138,
      "": 139,
      "": 140,
      "": 141,
      "": 142,
      "": 143,
      "": 144,
      "": 145,
      "": 146,
      "": 147,
      "": 148,
      "": 149,
      "": 150,
      "": 151,
      "": 152,
      "": 153,
      "": 154,
      "": 155,
      "¡": 156,
      "¢": 157,
      "£": 158,
      "¤": 159,
      "¥": 160,
      "¦": 161,
      "§": 162,
      "¨": 163,
      "©": 164,
      "ª": 165,
      "«": 166,
      "¬": 167,
      "­": 168,
      "®": 169,
      "¯": 170,
      "°": 171,
      "±": 172,
      "²": 173,
      "³": 174,
      "´": 175,
      "µ": 176,
      "¶": 177,
      "·": 178,
      "¸": 179,
      "¹": 180,
      "º": 181,
      "»": 182,
      "¼": 183,
      "½": 184,
      "¾": 185,
      "¿": 186,
      "À": 187,
      "Á": 188,
      "Â": 189,
      "Ã": 190,
      "Ä": 191,
      "Å": 192,
      "Æ": 193,
      "Ç": 194,
      "È": 195,
      "É": 196,
      "Ê": 197,
      "Ë": 198,
      "Ì": 199,
      "Í": 200,
      "Î": 201,
      "Ï": 202,
      "Ð": 203,
      "Ñ": 204,
      "Ò": 205,
      "Ó": 206,
      "Ô": 207,
      "Õ": 208,
      "Ö": 209,
      "×": 210,
      "Ø": 211,
      "Ù": 212,
      "Ú": 213,
      "Û": 214,
      "Ü": 215,
      "Ý": 216,
      "Þ": 217,
      "ß": 218,
      "à": 219,
      "á": 220,
      "â": 221,
      "ã": 222,
      "ä": 223,
      "å": 224,
      "æ": 225,
      "ç": 226,
      "è": 227,
      "é": 228,
      "ê": 229,
      "ë": 230,
      "ì": 231,
      "í": 232,
      "î": 233,
      "ï": 234,
      "ð": 235,
      "ñ": 236,
      "ò": 237,
      "ó": 238,
      "ô": 239,
      "õ": 240,
      "ö": 241,
      "÷": 242,
      "ø": 243,
      "ù": 244,
      "ú": 245,
      "û": 246,
      "ü": 247,
      "ý": 248,
      "þ": 249,
      "ÿ": 250,
      "Ā": 251,
      "ā": 252,
      "Ă": 253,
      "ă": 254,
      "Ą": 255,
      "ą": 256,
      "Ć": 257,
      "ć": 258,
      "Ĉ": 259,
      "ĉ": 260,
      "Ċ": 261,
      "ċ": 262,
      "Č": 263,
      "č": 264,
      "Ď": 265,
      "ď": 266,
      "Đ": 267,
      "đ": 268,
      "Ē": 269,
      "ē": 270,
      "Ĕ": 271,
      "ĕ": 272,
      "Ė": 273,
      "ė": 274,
      "Ę": 275,
      "ę": 276,
      "Ě": 277,
      "ě": 278,
      "ĝ": 279,
      "Ğ": 280,
      "ğ": 281,
      "Ġ": 282,
      "ġ": 283,
      "Ģ": 284,
      "ģ": 285,
      "Ĥ": 286,
      "ĥ": 287,
      "Ħ": 288,
      "ħ": 289,
      "Ĩ": 290,
      "ĩ": 291,
      "Ī": 292,
      "ī": 293,
      "Ĭ": 294,
      "ĭ": 295,
      "Į": 296,
      "į": 297,
      "İ": 298,
      "ı": 299,
      "Ĳ": 300,
      "ĳ": 301,
      "Ĵ": 302,
      "Ķ": 303,
      "ķ": 304,
      "Ĺ": 305,
      "ĺ": 306,
      "Ļ": 307,
      "ļ": 308,
      "Ľ": 309,
      "ľ": 310,
      "Ł": 311,
      "ł": 312,
      "Ń": 313,
      "ń": 314,
      "Ņ": 315,
      "ņ": 316,
      "Ň": 317,
      "ň": 318,
      "ŋ": 319,
      "Ō": 320,
      "ō": 321,
      "Ŏ": 322,
      "ŏ": 323,
      "Ő": 324,
      "ő": 325,
      "Œ": 326,
      "œ": 327,
      "Ŕ": 328,
      "ŕ": 329,
      "Ř": 330,
      "ř": 331,
      "Ś": 332,
      "ś": 333,
      "Ŝ": 334,
      "ŝ": 335,
      "Ş": 336,
      "ş": 337,
      "Š": 338,
      "š": 339,
      "Ţ": 340,
      "ţ": 341,
      "Ť": 342,
      "ť": 343,
      "ũ": 344,
      "Ū": 345,
      "ū": 346,
      "ŭ": 347,
      "Ů": 348,
      "ů": 349,
      "Ű": 350,
      "ű": 351,
      "Ų": 352,
      "ų": 353,
      "Ŵ": 354,
      "Ŷ": 355,
      "ŷ": 356,
      "Ÿ": 357,
      "Ź": 358,
      "ź": 359,
      "Ż": 360,
      "ż": 361,
      "Ž": 362,
      "ž": 363,
      "Ɓ": 364,
      "ƅ": 365,
      "Ɔ": 366,
      "Ɗ": 367,
      "Ə": 368,
      "Ɛ": 369,
      "Ƒ": 370,
      "ƒ": 371,
      "Ƙ": 372,
      "ƙ": 373,
      "Ɲ": 374,
      "Ơ": 375,
      "ơ": 376,
      "Ư": 377,
      "ư": 378,
      "Ƴ": 379,
      "ƴ": 380,
      "Ƶ": 381,
      "ǌ": 382,
      "Ǎ": 383,
      "ǎ": 384,
      "ǔ": 385,
      "ǖ": 386,
      "ǜ": 387,
      "Ǧ": 388,
      "ǧ": 389,
      "Ǫ": 390,
      "ǫ": 391,
      "Ǻ": 392,
      "ǻ": 393,
      "Ǿ": 394,
      "ǿ": 395,
      "Ȅ": 396,
      "Ș": 397,
      "ș": 398,
      "ț": 399,
      "Ɂ": 400,
      "ɓ": 401,
      "ɔ": 402,
      "ɗ": 403,
      "ə": 404,
      "ɛ": 405,
      "ɲ": 406,
      "ɶ": 407,
      "ʔ": 408,
      "ʹ": 409,
      "ʺ": 410,
      "ʻ": 411,
      "ʼ": 412,
      "ˆ": 413,
      "ˇ": 414,
      "ˉ": 415,
      "˘": 416,
      "˙": 417,
      "˚": 418,
      "˛": 419,
      "˜": 420,
      "˝": 421,
      "̀": 422,
      "́": 423,
      "̂": 424,
      "̃": 425,
      "̄": 426,
      "̊": 427,
      "̌": 428,
      "̓": 429,
      "̧": 430,
      "̨": 431,
      "̩": 432,
      "̱": 433,
      "̵": 434,
      "̶": 435,
      "̹": 436,
      "ͦ": 437,
      "Ͱ": 438,
      ";": 439,
      "΄": 440,
      "Ά": 441,
      "·": 442,
      "Έ": 443,
      "Ή": 444,
      "Ί": 445,
      "Ό": 446,
      "Ύ": 447,
      "Ώ": 448,
      "ΐ": 449,
      "Α": 450,
      "Β": 451,
      "Γ": 452,
      "Δ": 453,
      "Ε": 454,
      "Ζ": 455,
      "Η": 456,
      "Θ": 457,
      "Ι": 458,
      "Κ": 459,
      "Λ": 460,
      "Μ": 461,
      "Ν": 462,
      "Ξ": 463,
      "Ο": 464,
      "Π": 465,
      "Ρ": 466,
      "Σ": 467,
      "Τ": 468,
      "Υ": 469,
      "Φ": 470,
      "Χ": 471,
      "Ψ": 472,
      "Ω": 473,
      "Ϊ": 474,
      "ά": 475,
      "έ": 476,
      "ή": 477,
      "ί": 478,
      "ΰ": 479,
      "α": 480,
      "β": 481,
      "γ": 482,
      "δ": 483,
      "ε": 484,
      "ζ": 485,
      "η": 486,
      "θ": 487,
      "ι": 488,
      "κ": 489,
      "λ": 490,
      "μ": 491,
      "ν": 492,
      "ξ": 493,
      "ο": 494,
      "π": 495,
      "ρ": 496,
      "ς": 497,
      "σ": 498,
      "τ": 499,
      "υ": 500,
      "φ": 501,
      "χ": 502,
      "ψ": 503,
      "ω": 504,
      "ϊ": 505,
      "ϋ": 506,
      "ό": 507,
      "ύ": 508,
      "ώ": 509,
      "ϑ": 510,
      "ϒ": 511,
      "ϕ": 512,
      "ϖ": 513,
      "Є": 514,
      "І": 515,
      "Ї": 516,
      "Ј": 517,
      "Ћ": 518,
      "А": 519,
      "Б": 520,
      "В": 521,
      "Г": 522,
      "Д": 523,
      "Е": 524,
      "Ж": 525,
      "З": 526,
      "И": 527,
      "Й": 528,
      "К": 529,
      "Л": 530,
      "М": 531,
      "Н": 532,
      "О": 533,
      "П": 534,
      "Р": 535,
      "С": 536,
      "Т": 537,
      "У": 538,
      "Ф": 539,
      "Х": 540,
      "Ц": 541,
      "Ч": 542,
      "Ш": 543,
      "Щ": 544,
      "Ъ": 545,
      "Ы": 546,
      "Ь": 547,
      "Э": 548,
      "Ю": 549,
      "Я": 550,
      "а": 551,
      "б": 552,
      "в": 553,
      "г": 554,
      "д": 555,
      "е": 556,
      "ж": 557,
      "з": 558,
      "и": 559,
      "й": 560,
      "к": 561,
      "л": 562,
      "м": 563,
      "н": 564,
      "о": 565,
      "п": 566,
      "р": 567,
      "с": 568,
      "т": 569,
      "у": 570,
      "ф": 571,
      "х": 572,
      "ц": 573,
      "ч": 574,
      "ш": 575,
      "щ": 576,
      "ъ": 577,
      "ы": 578,
      "ь": 579,
      "э": 580,
      "ю": 581,
      "я": 582,
      "ё": 583,
      "ђ": 584,
      "є": 585,
      "і": 586,
      "ї": 587,
      "ј": 588,
      "љ": 589,
      "њ": 590,
      "ћ": 591,
      "ѥ": 592,
      "ѭ": 593,
      "ґ": 594,
      "Ө": 595,
      "Ԁ": 596,
      "׀": 597,
      "א": 598,
      "ב": 599,
      "ד": 600,
      "ה": 601,
      "ו": 602,
      "ז": 603,
      "ח": 604,
      "י": 605,
      "ל": 606,
      "ם": 607,
      "מ": 608,
      "נ": 609,
      "ע": 610,
      "פ": 611,
      "ק": 612,
      "ר": 613,
      "ש": 614,
      "ת": 615,
      "״": 616,
      "،": 617,
      "؛": 618,
      "ء": 619,
      "آ": 620,
      "أ": 621,
      "ؤ": 622,
      "إ": 623,
      "ئ": 624,
      "ا": 625,
      "ب": 626,
      "ة": 627,
      "ت": 628,
      "ث": 629,
      "ج": 630,
      "ح": 631,
      "خ": 632,
      "د": 633,
      "ذ": 634,
      "ر": 635,
      "ز": 636,
      "س": 637,
      "ش": 638,
      "ص": 639,
      "ض": 640,
      "ط": 641,
      "ظ": 642,
      "ع": 643,
      "غ": 644,
      "ـ": 645,
      "ف": 646,
      "ق": 647,
      "ك": 648,
      "ل": 649,
      "م": 650,
      "ن": 651,
      "ه": 652,
      "و": 653,
      "ى": 654,
      "ي": 655,
      "ً": 656,
      "ٍ": 657,
      "َ": 658,
      "ُ": 659,
      "ِ": 660,
      "ّ": 661,
      "٠": 662,
      "١": 663,
      "٢": 664,
      "٣": 665,
      "٤": 666,
      "٥": 667,
      "٦": 668,
      "٧": 669,
      "٨": 670,
      "٩": 671,
      "٭": 672,
      "ٱ": 673,
      "پ": 674,
      "ڈ": 675,
      "ژ": 676,
      "ڤ": 677,
      "گ": 678,
      "ھ": 679,
      "ہ": 680,
      "ی": 681,
      "ۚ": 682,
      "܌": 683,
      "ૻ": 684,
      "ഋ": 685,
      "൅": 686,
      "ท": 687,
      "ย": 688,
      "ไ": 689,
      "ၳ": 690,
      "ᆠ": 691,
      "ᐁ": 692,
      "ᐃ": 693,
      "ᐅ": 694,
      "ᐆ": 695,
      "ᐊ": 696,
      "ᐋ": 697,
      "ᐟ": 698,
      "ᐠ": 699,
      "ᐡ": 700,
      "ᐢ": 701,
      "ᐣ": 702,
      "ᐤ": 703,
      "ᐦ": 704,
      "ᐧ": 705,
      "ᐨ": 706,
      "ᐯ": 707,
      "ᐱ": 708,
      "ᐲ": 709,
      "ᐳ": 710,
      "ᐴ": 711,
      "ᐸ": 712,
      "ᐹ": 713,
      "ᑈ": 714,
      "ᑉ": 715,
      "ᑊ": 716,
      "ᑌ": 717,
      "ᑎ": 718,
      "ᑏ": 719,
      "ᑐ": 720,
      "ᑑ": 721,
      "ᑕ": 722,
      "ᑖ": 723,
      "ᑥ": 724,
      "ᑦ": 725,
      "ᑫ": 726,
      "ᑭ": 727,
      "ᑮ": 728,
      "ᑯ": 729,
      "ᑰ": 730,
      "ᑲ": 731,
      "ᑳ": 732,
      "ᒂ": 733,
      "ᒃ": 734,
      "ᒋ": 735,
      "ᒌ": 736,
      "ᒍ": 737,
      "ᒎ": 738,
      "ᒐ": 739,
      "ᒑ": 740,
      "ᒠ": 741,
      "ᒡ": 742,
      "ᒥ": 743,
      "ᒦ": 744,
      "ᒧ": 745,
      "ᒪ": 746,
      "ᒫ": 747,
      "ᒻ": 748,
      "ᓀ": 749,
      "ᓂ": 750,
      "ᓃ": 751,
      "ᓄ": 752,
      "ᓅ": 753,
      "ᓇ": 754,
      "ᓈ": 755,
      "ᓐ": 756,
      "ᓕ": 757,
      "ᓖ": 758,
      "ᓗ": 759,
      "ᓘ": 760,
      "ᓚ": 761,
      "ᓛ": 762,
      "ᓪ": 763,
      "ᓭ": 764,
      "ᓯ": 765,
      "ᓰ": 766,
      "ᓱ": 767,
      "ᓲ": 768,
      "ᓴ": 769,
      "ᓵ": 770,
      "ᔅ": 771,
      "ᔌ": 772,
      "ᔍ": 773,
      "ᔎ": 774,
      "ᔏ": 775,
      "ᔑ": 776,
      "ᔓ": 777,
      "ᔕ": 778,
      "ᔨ": 779,
      "ᔩ": 780,
      "ᔪ": 781,
      "ᔫ": 782,
      "ᔭ": 783,
      "ᔮ": 784,
      "ᔾ": 785,
      "ᕆ": 786,
      "ᕇ": 787,
      "ᕈ": 788,
      "ᕉ": 789,
      "ᕋ": 790,
      "ᕌ": 791,
      "ᕐ": 792,
      "ᕑ": 793,
      "ᕕ": 794,
      "ᕖ": 795,
      "ᕗ": 796,
      "ᕘ": 797,
      "ᕙ": 798,
      "ᕚ": 799,
      "ᕝ": 800,
      "ᕼ": 801,
      "ᕿ": 802,
      "ᖁ": 803,
      "ᖂ": 804,
      "ᖃ": 805,
      "ᖄ": 806,
      "ᖅ": 807,
      "ᖏ": 808,
      "ᖑ": 809,
      "ᖓ": 810,
      "ᖔ": 811,
      "ᖕ": 812,
      "ᖠ": 813,
      "ᖢ": 814,
      "ᖦ": 815,
      "ᙱ": 816,
      "ᙲ": 817,
      "ᙳ": 818,
      "ᙵ": 819,
      "ᙶ": 820,
      "ᮖ": 821,
      "ḏ": 822,
      "ḵ": 823,
      "ṯ": 824,
      "Ẃ": 825,
      "ẃ": 826,
      "Ẕ": 827,
      "ẕ": 828,
      "ạ": 829,
      "Ả": 830,
      "ả": 831,
      "Ấ": 832,
      "ấ": 833,
      "Ầ": 834,
      "ầ": 835,
      "ẩ": 836,
      "Ậ": 837,
      "ậ": 838,
      "ắ": 839,
      "ằ": 840,
      "ẳ": 841,
      "Ặ": 842,
      "ặ": 843,
      "Ẻ": 844,
      "ẻ": 845,
      "Ẽ": 846,
      "ẽ": 847,
      "Ế": 848,
      "ế": 849,
      "ề": 850,
      "ể": 851,
      "Ệ": 852,
      "ệ": 853,
      "ỉ": 854,
      "ị": 855,
      "Ọ": 856,
      "ọ": 857,
      "ố": 858,
      "ồ": 859,
      "ổ": 860,
      "ộ": 861,
      "Ớ": 862,
      "ớ": 863,
      "Ờ": 864,
      "ờ": 865,
      "Ở": 866,
      "ở": 867,
      "Ợ": 868,
      "ợ": 869,
      "Ụ": 870,
      "ụ": 871,
      "Ủ": 872,
      "ủ": 873,
      "Ứ": 874,
      "ứ": 875,
      "ừ": 876,
      "Ử": 877,
      "ử": 878,
      "ữ": 879,
      "ự": 880,
      "Ỳ": 881,
      "᾿": 882,
      "ῆ": 883,
      "‌": 884,
      "‍": 885,
      "‎": 886,
      "‏": 887,
      "‐": 888,
      "‑": 889,
      "‒": 890,
      "–": 891,
      "—": 892,
      "―": 893,
      "‖": 894,
      "‘": 895,
      "’": 896,
      "‚": 897,
      "‛": 898,
      "“": 899,
      "”": 900,
      "„": 901,
      "‟": 902,
      "†": 903,
      "‡": 904,
      "•": 905,
      "‣": 906,
      "…": 907,
      "‧": 908,
      "‪": 909,
      "‫": 910,
      "‬": 911,
      "‰": 912,
      "′": 913,
      "″": 914,
      "‴": 915,
      "‹": 916,
      "›": 917,
      "‾": 918,
      "⁁": 919,
      "⁄": 920,
      "⁏": 921,
      "⁪": 922,
      "⁬": 923,
      "⁭": 924,
      "⁮": 925,
      "⁯": 926,
      "⁷": 927,
      "₀": 928,
      "₁": 929,
      "₂": 930,
      "₤": 931,
      "€": 932,
      "⃞": 933,
      "ℓ": 934,
      "№": 935,
      "ℜ": 936,
      "℡": 937,
      "™": 938,
      "Ω": 939,
      "⅓": 940,
      "⅔": 941,
      "⅛": 942,
      "⅜": 943,
      "⅝": 944,
      "←": 945,
      "↑": 946,
      "→": 947,
      "↓": 948,
      "↔": 949,
      "↗": 950,
      "↘": 951,
      "↵": 952,
      "⇅": 953,
      "⇆": 954,
      "⇌": 955,
      "⇑": 956,
      "⇒": 957,
      "⇓": 958,
      "⇔": 959,
      "⇘": 960,
      "⇙": 961,
      "∀": 962,
      "∂": 963,
      "∃": 964,
      "∅": 965,
      "∆": 966,
      "∇": 967,
      "∈": 968,
      "∋": 969,
      "∍": 970,
      "∏": 971,
      "∑": 972,
      "−": 973,
      "∕": 974,
      "∗": 975,
      "∘": 976,
      "∙": 977,
      "√": 978,
      "∝": 979,
      "∞": 980,
      "∩": 981,
      "∪": 982,
      "∫": 983,
      "∴": 984,
      "∼": 985,
      "≅": 986,
      "≈": 987,
      "≍": 988,
      "≠": 989,
      "≡": 990,
      "≤": 991,
      "≥": 992,
      "≪": 993,
      "⊂": 994,
      "⊃": 995,
      "⊇": 996,
      "⊔": 997,
      "⊕": 998,
      "⊥": 999,
      "⋅": 1000,
      "⋞": 1001,
      "⋟": 1002,
      "⌂": 1003,
      "⌋": 1004,
      "⌠": 1005,
      "⌦": 1006,
      "⌧": 1007,
      "〈": 1008,
      "〉": 1009,
      "⌫": 1010,
      "⎛": 1011,
      "⎜": 1012,
      "⎝": 1013,
      "⎞": 1014,
      "⎟": 1015,
      "⎠": 1016,
      "⎡": 1017,
      "⎢": 1018,
      "⎣": 1019,
      "⎤": 1020,
      "⎥": 1021,
      "⎦": 1022,
      "⎧": 1023,
      "⎨": 1024,
      "⎩": 1025,
      "⎮": 1026,
      "⎯": 1027,
      "⏐": 1028,
      "⏹": 1029,
      "①": 1030,
      "②": 1031,
      "Ⓓ": 1032,
      "─": 1033,
      "━": 1034,
      "│": 1035,
      "┌": 1036,
      "┐": 1037,
      "└": 1038,
      "┬": 1039,
      "┴": 1040,
      "║": 1041,
      "▀": 1042,
      "█": 1043,
      "▌": 1044,
      "▐": 1045,
      "░": 1046,
      "▘": 1047,
      "■": 1048,
      "□": 1049,
      "▢": 1050,
      "▪": 1051,
      "▫": 1052,
      "▬": 1053,
      "▲": 1054,
      "▵": 1055,
      "▸": 1056,
      "►": 1057,
      "▼": 1058,
      "◄": 1059,
      "◆": 1060,
      "◊": 1061,
      "○": 1062,
      "●": 1063,
      "◗": 1064,
      "◘": 1065,
      "◦": 1066,
      "★": 1067,
      "☎": 1068,
      "☐": 1069,
      "☑": 1070,
      "☛": 1071,
      "☯": 1072,
      "☺": 1073,
      "☻": 1074,
      "☼": 1075,
      "♀": 1076,
      "♂": 1077,
      "♒": 1078,
      "♠": 1079,
      "♣": 1080,
      "♥": 1081,
      "♦": 1082,
      "♪": 1083,
      "✁": 1084,
      "✂": 1085,
      "✃": 1086,
      "✄": 1087,
      "✆": 1088,
      "✇": 1089,
      "✈": 1090,
      "✉": 1091,
      "✍": 1092,
      "✏": 1093,
      "✐": 1094,
      "✓": 1095,
      "✔": 1096,
      "✕": 1097,
      "✖": 1098,
      "✗": 1099,
      "✘": 1100,
      "✜": 1101,
      "✝": 1102,
      "✢": 1103,
      "✤": 1104,
      "✦": 1105,
      "✧": 1106,
      "✭": 1107,
      "✱": 1108,
      "✳": 1109,
      "✴": 1110,
      "✵": 1111,
      "❁": 1112,
      "❆": 1113,
      "❈": 1114,
      "❊": 1115,
      "❋": 1116,
      "❍": 1117,
      "❏": 1118,
      "❐": 1119,
      "❑": 1120,
      "❒": 1121,
      "❖": 1122,
      "❙": 1123,
      "❚": 1124,
      "❯": 1125,
      "❶": 1126,
      "❷": 1127,
      "➀": 1128,
      "➁": 1129,
      "➄": 1130,
      "➊": 1131,
      "➋": 1132,
      "➌": 1133,
      "➍": 1134,
      "➎": 1135,
      "➏": 1136,
      "➑": 1137,
      "➓": 1138,
      "➔": 1139,
      "➘": 1140,
      "➙": 1141,
      "➚": 1142,
      "➛": 1143,
      "➜": 1144,
      "➝": 1145,
      "➞": 1146,
      "➟": 1147,
      "➠": 1148,
      "➡": 1149,
      "➢": 1150,
      "➣": 1151,
      "➤": 1152,
      "➥": 1153,
      "➧": 1154,
      "➨": 1155,
      "➩": 1156,
      "➪": 1157,
      "➫": 1158,
      "➮": 1159,
      "➯": 1160,
      "➲": 1161,
      "➾": 1162,
      "、": 1163,
      "。": 1164,
      "〈": 1165,
      "《": 1166,
      "》": 1167,
      "『": 1168,
      "』": 1169,
      "い": 1170,
      "か": 1171,
      "が": 1172,
      "こ": 1173,
      "さ": 1174,
      "し": 1175,
      "す": 1176,
      "そ": 1177,
      "て": 1178,
      "で": 1179,
      "と": 1180,
      "に": 1181,
      "の": 1182,
      "は": 1183,
      "ま": 1184,
      "ら": 1185,
      "る": 1186,
      "れ": 1187,
      "を": 1188,
      "ア": 1189,
      "ウ": 1190,
      "ォ": 1191,
      "ク": 1192,
      "シ": 1193,
      "ジ": 1194,
      "ス": 1195,
      "セ": 1196,
      "タ": 1197,
      "ッ": 1198,
      "テ": 1199,
      "ト": 1200,
      "ニ": 1201,
      "パ": 1202,
      "フ": 1203,
      "ペ": 1204,
      "ホ": 1205,
      "マ": 1206,
      "ム": 1207,
      "ュ": 1208,
      "ョ": 1209,
      "ヨ": 1210,
      "ラ": 1211,
      "リ": 1212,
      "ル": 1213,
      "ロ": 1214,
      "ン": 1215,
      "・": 1216,
      "ー": 1217,
      "䁲": 1218,
      "䨂": 1219,
      "䨢": 1220,
      "䰂": 1221,
      "䰄": 1222,
      "䰚": 1223,
      "䰦": 1224,
      "䰨": 1225,
      "䰪": 1226,
      "一": 1227,
      "丁": 1228,
      "七": 1229,
      "万": 1230,
      "三": 1231,
      "上": 1232,
      "下": 1233,
      "不": 1234,
      "与": 1235,
      "专": 1236,
      "世": 1237,
      "业": 1238,
      "东": 1239,
      "两": 1240,
      "严": 1241,
      "个": 1242,
      "中": 1243,
      "临": 1244,
      "丸": 1245,
      "丹": 1246,
      "为": 1247,
      "主": 1248,
      "举": 1249,
      "乃": 1250,
      "久": 1251,
      "义": 1252,
      "之": 1253,
      "乌": 1254,
      "乏": 1255,
      "也": 1256,
      "书": 1257,
      "买": 1258,
      "了": 1259,
      "予": 1260,
      "争": 1261,
      "事": 1262,
      "二": 1263,
      "于": 1264,
      "五": 1265,
      "亚": 1266,
      "些": 1267,
      "交": 1268,
      "产": 1269,
      "享": 1270,
      "京": 1271,
      "人": 1272,
      "今": 1273,
      "介": 1274,
      "仍": 1275,
      "从": 1276,
      "他": 1277,
      "付": 1278,
      "代": 1279,
      "令": 1280,
      "以": 1281,
      "们": 1282,
      "仲": 1283,
      "件": 1284,
      "价": 1285,
      "任": 1286,
      "份": 1287,
      "企": 1288,
      "伊": 1289,
      "伏": 1290,
      "休": 1291,
      "众": 1292,
      "优": 1293,
      "会": 1294,
      "传": 1295,
      "伦": 1296,
      "伯": 1297,
      "估": 1298,
      "伶": 1299,
      "但": 1300,
      "佈": 1301,
      "位": 1302,
      "住": 1303,
      "体": 1304,
      "何": 1305,
      "佛": 1306,
      "作": 1307,
      "佩": 1308,
      "使": 1309,
      "例": 1310,
      "供": 1311,
      "依": 1312,
      "価": 1313,
      "便": 1314,
      "促": 1315,
      "俄": 1316,
      "保": 1317,
      "信": 1318,
      "修": 1319,
      "候": 1320,
      "借": 1321,
      "値": 1322,
      "债": 1323,
      "值": 1324,
      "假": 1325,
      "做": 1326,
      "停": 1327,
      "健": 1328,
      "偿": 1329,
      "储": 1330,
      "催": 1331,
      "像": 1332,
      "僚": 1333,
      "儿": 1334,
      "允": 1335,
      "元": 1336,
      "充": 1337,
      "兆": 1338,
      "先": 1339,
      "光": 1340,
      "克": 1341,
      "免": 1342,
      "兒": 1343,
      "入": 1344,
      "全": 1345,
      "八": 1346,
      "公": 1347,
      "六": 1348,
      "兰": 1349,
      "共": 1350,
      "关": 1351,
      "兵": 1352,
      "其": 1353,
      "具": 1354,
      "典": 1355,
      "兹": 1356,
      "养": 1357,
      "内": 1358,
      "写": 1359,
      "军": 1360,
      "农": 1361,
      "冰": 1362,
      "决": 1363,
      "况": 1364,
      "冷": 1365,
      "净": 1366,
      "准": 1367,
      "减": 1368,
      "几": 1369,
      "凡": 1370,
      "凭": 1371,
      "凯": 1372,
      "出": 1373,
      "击": 1374,
      "函": 1375,
      "分": 1376,
      "刑": 1377,
      "划": 1378,
      "列": 1379,
      "刘": 1380,
      "则": 1381,
      "刚": 1382,
      "创": 1383,
      "初": 1384,
      "判": 1385,
      "別": 1386,
      "利": 1387,
      "别": 1388,
      "到": 1389,
      "制": 1390,
      "刷": 1391,
      "券": 1392,
      "則": 1393,
      "前": 1394,
      "剑": 1395,
      "副": 1396,
      "劃": 1397,
      "力": 1398,
      "办": 1399,
      "加": 1400,
      "务": 1401,
      "动": 1402,
      "助": 1403,
      "努": 1404,
      "励": 1405,
      "劳": 1406,
      "势": 1407,
      "勒": 1408,
      "動": 1409,
      "務": 1410,
      "包": 1411,
      "匈": 1412,
      "化": 1413,
      "北": 1414,
      "区": 1415,
      "医": 1416,
      "區": 1417,
      "十": 1418,
      "千": 1419,
      "升": 1420,
      "午": 1421,
      "华": 1422,
      "协": 1423,
      "協": 1424,
      "单": 1425,
      "南": 1426,
      "占": 1427,
      "卡": 1428,
      "卢": 1429,
      "卫": 1430,
      "印": 1431,
      "危": 1432,
      "即": 1433,
      "却": 1434,
      "厄": 1435,
      "厅": 1436,
      "厉": 1437,
      "原": 1438,
      "厨": 1439,
      "去": 1440,
      "参": 1441,
      "參": 1442,
      "又": 1443,
      "及": 1444,
      "反": 1445,
      "发": 1446,
      "取": 1447,
      "受": 1448,
      "变": 1449,
      "叙": 1450,
      "口": 1451,
      "古": 1452,
      "另": 1453,
      "只": 1454,
      "可": 1455,
      "台": 1456,
      "号": 1457,
      "司": 1458,
      "吁": 1459,
      "各": 1460,
      "合": 1461,
      "吉": 1462,
      "同": 1463,
      "名": 1464,
      "后": 1465,
      "向": 1466,
      "含": 1467,
      "启": 1468,
      "告": 1469,
      "员": 1470,
      "周": 1471,
      "和": 1472,
      "咨": 1473,
      "品": 1474,
      "哈": 1475,
      "响": 1476,
      "員": 1477,
      "哥": 1478,
      "唱": 1479,
      "商": 1480,
      "善": 1481,
      "喜": 1482,
      "單": 1483,
      "器": 1484,
      "囚": 1485,
      "四": 1486,
      "回": 1487,
      "因": 1488,
      "团": 1489,
      "围": 1490,
      "国": 1491,
      "图": 1492,
      "圖": 1493,
      "土": 1494,
      "圣": 1495,
      "在": 1496,
      "圭": 1497,
      "地": 1498,
      "场": 1499,
      "址": 1500,
      "坚": 1501,
      "坛": 1502,
      "坦": 1503,
      "型": 1504,
      "垒": 1505,
      "埃": 1506,
      "城": 1507,
      "域": 1508,
      "執": 1509,
      "培": 1510,
      "基": 1511,
      "堂": 1512,
      "堡": 1513,
      "報": 1514,
      "場": 1515,
      "塔": 1516,
      "塞": 1517,
      "境": 1518,
      "墅": 1519,
      "增": 1520,
      "墨": 1521,
      "士": 1522,
      "声": 1523,
      "处": 1524,
      "备": 1525,
      "変": 1526,
      "复": 1527,
      "外": 1528,
      "多": 1529,
      "够": 1530,
      "大": 1531,
      "太": 1532,
      "夫": 1533,
      "央": 1534,
      "失": 1535,
      "头": 1536,
      "套": 1537,
      "奥": 1538,
      "女": 1539,
      "好": 1540,
      "如": 1541,
      "妮": 1542,
      "姆": 1543,
      "始": 1544,
      "姓": 1545,
      "委": 1546,
      "威": 1547,
      "娅": 1548,
      "娜": 1549,
      "媒": 1550,
      "嫩": 1551,
      "子": 1552,
      "孔": 1553,
      "字": 1554,
      "存": 1555,
      "学": 1556,
      "學": 1557,
      "宁": 1558,
      "它": 1559,
      "宅": 1560,
      "安": 1561,
      "完": 1562,
      "宗": 1563,
      "官": 1564,
      "定": 1565,
      "宛": 1566,
      "实": 1567,
      "审": 1568,
      "客": 1569,
      "宣": 1570,
      "室": 1571,
      "宪": 1572,
      "宫": 1573,
      "害": 1574,
      "家": 1575,
      "容": 1576,
      "宾": 1577,
      "宿": 1578,
      "寄": 1579,
      "富": 1580,
      "寓": 1581,
      "察": 1582,
      "对": 1583,
      "寻": 1584,
      "导": 1585,
      "射": 1586,
      "将": 1587,
      "專": 1588,
      "對": 1589,
      "小": 1590,
      "少": 1591,
      "尔": 1592,
      "尤": 1593,
      "就": 1594,
      "尼": 1595,
      "局": 1596,
      "层": 1597,
      "居": 1598,
      "届": 1599,
      "展": 1600,
      "属": 1601,
      "山": 1602,
      "岛": 1603,
      "峡": 1604,
      "州": 1605,
      "巡": 1606,
      "工": 1607,
      "差": 1608,
      "已": 1609,
      "巴": 1610,
      "市": 1611,
      "布": 1612,
      "帆": 1613,
      "师": 1614,
      "希": 1615,
      "帐": 1616,
      "帝": 1617,
      "带": 1618,
      "席": 1619,
      "帮": 1620,
      "帳": 1621,
      "常": 1622,
      "干": 1623,
      "平": 1624,
      "年": 1625,
      "并": 1626,
      "广": 1627,
      "庆": 1628,
      "序": 1629,
      "库": 1630,
      "应": 1631,
      "府": 1632,
      "废": 1633,
      "度": 1634,
      "庭": 1635,
      "康": 1636,
      "廉": 1637,
      "廚": 1638,
      "延": 1639,
      "廷": 1640,
      "建": 1641,
      "开": 1642,
      "弃": 1643,
      "式": 1644,
      "引": 1645,
      "弗": 1646,
      "弱": 1647,
      "强": 1648,
      "当": 1649,
      "录": 1650,
      "形": 1651,
      "影": 1652,
      "往": 1653,
      "征": 1654,
      "径": 1655,
      "待": 1656,
      "律": 1657,
      "徐": 1658,
      "徒": 1659,
      "得": 1660,
      "微": 1661,
      "德": 1662,
      "心": 1663,
      "必": 1664,
      "忍": 1665,
      "志": 1666,
      "忘": 1667,
      "忙": 1668,
      "忠": 1669,
      "快": 1670,
      "念": 1671,
      "急": 1672,
      "性": 1673,
      "总": 1674,
      "恩": 1675,
      "息": 1676,
      "悬": 1677,
      "情": 1678,
      "意": 1679,
      "感": 1680,
      "愿": 1681,
      "憾": 1682,
      "戈": 1683,
      "成": 1684,
      "我": 1685,
      "或": 1686,
      "战": 1687,
      "戶": 1688,
      "户": 1689,
      "房": 1690,
      "所": 1691,
      "才": 1692,
      "打": 1693,
      "托": 1694,
      "执": 1695,
      "扩": 1696,
      "批": 1697,
      "找": 1698,
      "承": 1699,
      "技": 1700,
      "把": 1701,
      "投": 1702,
      "护": 1703,
      "报": 1704,
      "抵": 1705,
      "担": 1706,
      "拉": 1707,
      "招": 1708,
      "拜": 1709,
      "拟": 1710,
      "拥": 1711,
      "拨": 1712,
      "择": 1713,
      "括": 1714,
      "拳": 1715,
      "拿": 1716,
      "持": 1717,
      "指": 1718,
      "按": 1719,
      "挑": 1720,
      "挪": 1721,
      "捐": 1722,
      "换": 1723,
      "据": 1724,
      "捷": 1725,
      "授": 1726,
      "掉": 1727,
      "掌": 1728,
      "排": 1729,
      "接": 1730,
      "控": 1731,
      "推": 1732,
      "措": 1733,
      "提": 1734,
      "揭": 1735,
      "援": 1736,
      "搁": 1737,
      "搞": 1738,
      "搬": 1739,
      "摊": 1740,
      "摘": 1741,
      "摩": 1742,
      "撒": 1743,
      "撤": 1744,
      "擁": 1745,
      "操": 1746,
      "支": 1747,
      "收": 1748,
      "改": 1749,
      "放": 1750,
      "政": 1751,
      "故": 1752,
      "效": 1753,
      "敌": 1754,
      "救": 1755,
      "教": 1756,
      "散": 1757,
      "数": 1758,
      "整": 1759,
      "文": 1760,
      "料": 1761,
      "斤": 1762,
      "断": 1763,
      "斯": 1764,
      "新": 1765,
      "方": 1766,
      "於": 1767,
      "施": 1768,
      "旅": 1769,
      "日": 1770,
      "旦": 1771,
      "旨": 1772,
      "时": 1773,
      "明": 1774,
      "易": 1775,
      "映": 1776,
      "昨": 1777,
      "是": 1778,
      "显": 1779,
      "晚": 1780,
      "普": 1781,
      "景": 1782,
      "晶": 1783,
      "智": 1784,
      "暖": 1785,
      "暴": 1786,
      "曲": 1787,
      "更": 1788,
      "書": 1789,
      "曹": 1790,
      "曼": 1791,
      "替": 1792,
      "最": 1793,
      "會": 1794,
      "月": 1795,
      "有": 1796,
      "服": 1797,
      "朗": 1798,
      "望": 1799,
      "朝": 1800,
      "期": 1801,
      "木": 1802,
      "本": 1803,
      "术": 1804,
      "朱": 1805,
      "机": 1806,
      "杂": 1807,
      "权": 1808,
      "李": 1809,
      "材": 1810,
      "条": 1811,
      "来": 1812,
      "杨": 1813,
      "杭": 1814,
      "東": 1815,
      "松": 1816,
      "板": 1817,
      "构": 1818,
      "析": 1819,
      "林": 1820,
      "果": 1821,
      "枪": 1822,
      "架": 1823,
      "柏": 1824,
      "查": 1825,
      "栄": 1826,
      "标": 1827,
      "校": 1828,
      "样": 1829,
      "核": 1830,
      "根": 1831,
      "格": 1832,
      "框": 1833,
      "案": 1834,
      "桑": 1835,
      "档": 1836,
      "梅": 1837,
      "梯": 1838,
      "检": 1839,
      "森": 1840,
      "植": 1841,
      "業": 1842,
      "楼": 1843,
      "概": 1844,
      "槍": 1845,
      "樊": 1846,
      "機": 1847,
      "權": 1848,
      "次": 1849,
      "欢": 1850,
      "欧": 1851,
      "款": 1852,
      "歌": 1853,
      "止": 1854,
      "正": 1855,
      "此": 1856,
      "步": 1857,
      "死": 1858,
      "残": 1859,
      "殖": 1860,
      "殘": 1861,
      "段": 1862,
      "殺": 1863,
      "母": 1864,
      "毎": 1865,
      "每": 1866,
      "毒": 1867,
      "比": 1868,
      "毛": 1869,
      "民": 1870,
      "气": 1871,
      "気": 1872,
      "氣": 1873,
      "氧": 1874,
      "水": 1875,
      "永": 1876,
      "求": 1877,
      "汉": 1878,
      "汶": 1879,
      "沙": 1880,
      "没": 1881,
      "治": 1882,
      "泊": 1883,
      "法": 1884,
      "波": 1885,
      "注": 1886,
      "泰": 1887,
      "泳": 1888,
      "泽": 1889,
      "洁": 1890,
      "洋": 1891,
      "洛": 1892,
      "津": 1893,
      "洲": 1894,
      "活": 1895,
      "派": 1896,
      "流": 1897,
      "测": 1898,
      "济": 1899,
      "海": 1900,
      "消": 1901,
      "涉": 1902,
      "清": 1903,
      "済": 1904,
      "港": 1905,
      "游": 1906,
      "源": 1907,
      "滑": 1908,
      "满": 1909,
      "漏": 1910,
      "演": 1911,
      "潜": 1912,
      "澳": 1913,
      "濟": 1914,
      "火": 1915,
      "灾": 1916,
      "点": 1917,
      "焦": 1918,
      "然": 1919,
      "照": 1920,
      "煽": 1921,
      "燕": 1922,
      "爱": 1923,
      "爲": 1924,
      "版": 1925,
      "牙": 1926,
      "物": 1927,
      "特": 1928,
      "犯": 1929,
      "状": 1930,
      "狠": 1931,
      "独": 1932,
      "猎": 1933,
      "献": 1934,
      "獵": 1935,
      "獻": 1936,
      "率": 1937,
      "王": 1938,
      "环": 1939,
      "现": 1940,
      "玻": 1941,
      "珍": 1942,
      "班": 1943,
      "球": 1944,
      "理": 1945,
      "琴": 1946,
      "瑞": 1947,
      "環": 1948,
      "瓜": 1949,
      "瓦": 1950,
      "甘": 1951,
      "生": 1952,
      "産": 1953,
      "用": 1954,
      "田": 1955,
      "由": 1956,
      "申": 1957,
      "电": 1958,
      "甸": 1959,
      "界": 1960,
      "留": 1961,
      "略": 1962,
      "當": 1963,
      "疆": 1964,
      "疏": 1965,
      "疑": 1966,
      "疗": 1967,
      "疾": 1968,
      "病": 1969,
      "登": 1970,
      "發": 1971,
      "白": 1972,
      "百": 1973,
      "的": 1974,
      "皮": 1975,
      "益": 1976,
      "监": 1977,
      "盖": 1978,
      "盘": 1979,
      "盟": 1980,
      "目": 1981,
      "直": 1982,
      "相": 1983,
      "省": 1984,
      "真": 1985,
      "着": 1986,
      "督": 1987,
      "知": 1988,
      "石": 1989,
      "矿": 1990,
      "码": 1991,
      "研": 1992,
      "础": 1993,
      "确": 1994,
      "磁": 1995,
      "社": 1996,
      "祖": 1997,
      "神": 1998,
      "票": 1999,
      "福": 2000,
      "离": 2001,
      "秀": 2002,
      "私": 2003,
      "种": 2004,
      "科": 2005,
      "秘": 2006,
      "租": 2007,
      "积": 2008,
      "称": 2009,
      "移": 2010,
      "稅": 2011,
      "程": 2012,
      "税": 2013,
      "種": 2014,
      "稳": 2015,
      "稿": 2016,
      "穆": 2017,
      "究": 2018,
      "穷": 2019,
      "空": 2020,
      "穿": 2021,
      "突": 2022,
      "窗": 2023,
      "立": 2024,
      "站": 2025,
      "章": 2026,
      "童": 2027,
      "端": 2028,
      "笔": 2029,
      "符": 2030,
      "第": 2031,
      "等": 2032,
      "筑": 2033,
      "答": 2034,
      "策": 2035,
      "签": 2036,
      "简": 2037,
      "算": 2038,
      "管": 2039,
      "箭": 2040,
      "簽": 2041,
      "籍": 2042,
      "类": 2043,
      "粮": 2044,
      "精": 2045,
      "糖": 2046,
      "系": 2047,
      "約": 2048,
      "索": 2049,
      "紧": 2050,
      "細": 2051,
      "紹": 2052,
      "経": 2053,
      "網": 2054,
      "線": 2055,
      "績": 2056,
      "繁": 2057,
      "约": 2058,
      "级": 2059,
      "纳": 2060,
      "纽": 2061,
      "线": 2062,
      "练": 2063,
      "组": 2064,
      "细": 2065,
      "织": 2066,
      "终": 2067,
      "绍": 2068,
      "经": 2069,
      "结": 2070,
      "给": 2071,
      "络": 2072,
      "统": 2073,
      "继": 2074,
      "绩": 2075,
      "续": 2076,
      "维": 2077,
      "综": 2078,
      "绿": 2079,
      "缅": 2080,
      "缆": 2081,
      "编": 2082,
      "缩": 2083,
      "缴": 2084,
      "缺": 2085,
      "网": 2086,
      "罗": 2087,
      "罪": 2088,
      "置": 2089,
      "署": 2090,
      "美": 2091,
      "翰": 2092,
      "翻": 2093,
      "老": 2094,
      "考": 2095,
      "者": 2096,
      "而": 2097,
      "耳": 2098,
      "耶": 2099,
      "耽": 2100,
      "职": 2101,
      "联": 2102,
      "聘": 2103,
      "聚": 2104,
      "聞": 2105,
      "聽": 2106,
      "聾": 2107,
      "股": 2108,
      "肯": 2109,
      "育": 2110,
      "背": 2111,
      "能": 2112,
      "脑": 2113,
      "脚": 2114,
      "脱": 2115,
      "腊": 2116,
      "自": 2117,
      "至": 2118,
      "致": 2119,
      "舉": 2120,
      "舍": 2121,
      "般": 2122,
      "船": 2123,
      "艇": 2124,
      "良": 2125,
      "色": 2126,
      "艺": 2127,
      "艾": 2128,
      "节": 2129,
      "芬": 2130,
      "花": 2131,
      "苏": 2132,
      "若": 2133,
      "范": 2134,
      "茵": 2135,
      "草": 2136,
      "荫": 2137,
      "药": 2138,
      "荷": 2139,
      "莫": 2140,
      "莱": 2141,
      "获": 2142,
      "菲": 2143,
      "萄": 2144,
      "营": 2145,
      "萨": 2146,
      "葡": 2147,
      "蒂": 2148,
      "蔺": 2149,
      "薪": 2150,
      "虑": 2151,
      "虚": 2152,
      "血": 2153,
      "行": 2154,
      "补": 2155,
      "表": 2156,
      "袋": 2157,
      "被": 2158,
      "袭": 2159,
      "裁": 2160,
      "裔": 2161,
      "裩": 2162,
      "西": 2163,
      "要": 2164,
      "覆": 2165,
      "見": 2166,
      "視": 2167,
      "见": 2168,
      "观": 2169,
      "规": 2170,
      "视": 2171,
      "览": 2172,
      "角": 2173,
      "解": 2174,
      "言": 2175,
      "計": 2176,
      "訊": 2177,
      "設": 2178,
      "許": 2179,
      "診": 2180,
      "証": 2181,
      "評": 2182,
      "話": 2183,
      "認": 2184,
      "語": 2185,
      "論": 2186,
      "諸": 2187,
      "證": 2188,
      "警": 2189,
      "議": 2190,
      "護": 2191,
      "计": 2192,
      "订": 2193,
      "认": 2194,
      "讨": 2195,
      "训": 2196,
      "议": 2197,
      "讯": 2198,
      "记": 2199,
      "许": 2200,
      "论": 2201,
      "讼": 2202,
      "设": 2203,
      "访": 2204,
      "证": 2205,
      "评": 2206,
      "识": 2207,
      "诉": 2208,
      "诊": 2209,
      "译": 2210,
      "诗": 2211,
      "话": 2212,
      "诠": 2213,
      "询": 2214,
      "该": 2215,
      "语": 2216,
      "说": 2217,
      "请": 2218,
      "诺": 2219,
      "调": 2220,
      "谅": 2221,
      "谈": 2222,
      "象": 2223,
      "負": 2224,
      "責": 2225,
      "費": 2226,
      "貿": 2227,
      "資": 2228,
      "賑": 2229,
      "賬": 2230,
      "購": 2231,
      "贝": 2232,
      "负": 2233,
      "财": 2234,
      "责": 2235,
      "账": 2236,
      "货": 2237,
      "质": 2238,
      "贩": 2239,
      "贫": 2240,
      "购": 2241,
      "贴": 2242,
      "贷": 2243,
      "贸": 2244,
      "费": 2245,
      "资": 2246,
      "赈": 2247,
      "赔": 2248,
      "赖": 2249,
      "赛": 2250,
      "赞": 2251,
      "赠": 2252,
      "赵": 2253,
      "起": 2254,
      "越": 2255,
      "趋": 2256,
      "跃": 2257,
      "距": 2258,
      "跟": 2259,
      "路": 2260,
      "跳": 2261,
      "踪": 2262,
      "身": 2263,
      "車": 2264,
      "軍": 2265,
      "车": 2266,
      "轩": 2267,
      "转": 2268,
      "软": 2269,
      "轻": 2270,
      "载": 2271,
      "较": 2272,
      "辅": 2273,
      "辆": 2274,
      "辑": 2275,
      "输": 2276,
      "農": 2277,
      "边": 2278,
      "达": 2279,
      "迁": 2280,
      "迅": 2281,
      "过": 2282,
      "迈": 2283,
      "迎": 2284,
      "运": 2285,
      "近": 2286,
      "还": 2287,
      "这": 2288,
      "进": 2289,
      "远": 2290,
      "违": 2291,
      "连": 2292,
      "迟": 2293,
      "迪": 2294,
      "退": 2295,
      "送": 2296,
      "适": 2297,
      "选": 2298,
      "逊": 2299,
      "透": 2300,
      "逐": 2301,
      "递": 2302,
      "通": 2303,
      "速": 2304,
      "造": 2305,
      "逻": 2306,
      "遇": 2307,
      "道": 2308,
      "達": 2309,
      "遗": 2310,
      "選": 2311,
      "避": 2312,
      "那": 2313,
      "邦": 2314,
      "邮": 2315,
      "部": 2316,
      "都": 2317,
      "酋": 2318,
      "配": 2319,
      "酒": 2320,
      "酸": 2321,
      "醫": 2322,
      "采": 2323,
      "释": 2324,
      "里": 2325,
      "重": 2326,
      "野": 2327,
      "量": 2328,
      "金": 2329,
      "釣": 2330,
      "鉴": 2331,
      "銀": 2332,
      "鑒": 2333,
      "针": 2334,
      "钓": 2335,
      "银": 2336,
      "链": 2337,
      "销": 2338,
      "键": 2339,
      "長": 2340,
      "长": 2341,
      "門": 2342,
      "開": 2343,
      "関": 2344,
      "閣": 2345,
      "门": 2346,
      "问": 2347,
      "间": 2348,
      "闻": 2349,
      "阅": 2350,
      "防": 2351,
      "阳": 2352,
      "阿": 2353,
      "陀": 2354,
      "附": 2355,
      "际": 2356,
      "陈": 2357,
      "降": 2358,
      "限": 2359,
      "院": 2360,
      "除": 2361,
      "险": 2362,
      "陶": 2363,
      "隆": 2364,
      "随": 2365,
      "際": 2366,
      "障": 2367,
      "險": 2368,
      "难": 2369,
      "集": 2370,
      "雇": 2371,
      "雪": 2372,
      "零": 2373,
      "雷": 2374,
      "電": 2375,
      "需": 2376,
      "霍": 2377,
      "青": 2378,
      "非": 2379,
      "靠": 2380,
      "面": 2381,
      "革": 2382,
      "鞋": 2383,
      "韦": 2384,
      "韩": 2385,
      "音": 2386,
      "類": 2387,
      "顮": 2388,
      "页": 2389,
      "顶": 2390,
      "项": 2391,
      "顺": 2392,
      "须": 2393,
      "顾": 2394,
      "顿": 2395,
      "预": 2396,
      "领": 2397,
      "频": 2398,
      "题": 2399,
      "额": 2400,
      "颠": 2401,
      "风": 2402,
      "馆": 2403,
      "首": 2404,
      "香": 2405,
      "駕": 2406,
      "駛": 2407,
      "马": 2408,
      "驶": 2409,
      "驻": 2410,
      "驾": 2411,
      "验": 2412,
      "高": 2413,
      "髻": 2414,
      "魁": 2415,
      "魚": 2416,
      "鱼": 2417,
      "鲁": 2418,
      "麦": 2419,
      "黎": 2420,
      "黑": 2421,
      "鼓": 2422,
      "꣨": 2423,
      "가": 2424,
      "개": 2425,
      "거": 2426,
      "검": 2427,
      "게": 2428,
      "결": 2429,
      "경": 2430,
      "계": 2431,
      "고": 2432,
      "공": 2433,
      "과": 2434,
      "관": 2435,
      "교": 2436,
      "국": 2437,
      "군": 2438,
      "권": 2439,
      "규": 2440,
      "글": 2441,
      "금": 2442,
      "급": 2443,
      "기": 2444,
      "나": 2445,
      "납": 2446,
      "내": 2447,
      "년": 2448,
      "념": 2449,
      "뉴": 2450,
      "는": 2451,
      "능": 2452,
      "니": 2453,
      "다": 2454,
      "단": 2455,
      "달": 2456,
      "당": 2457,
      "대": 2458,
      "도": 2459,
      "되": 2460,
      "된": 2461,
      "됩": 2462,
      "등": 2463,
      "따": 2464,
      "라": 2465,
      "란": 2466,
      "랍": 2467,
      "래": 2468,
      "러": 2469,
      "레": 2470,
      "력": 2471,
      "련": 2472,
      "로": 2473,
      "록": 2474,
      "료": 2475,
      "류": 2476,
      "를": 2477,
      "름": 2478,
      "리": 2479,
      "만": 2480,
      "망": 2481,
      "매": 2482,
      "며": 2483,
      "면": 2484,
      "명": 2485,
      "무": 2486,
      "문": 2487,
      "미": 2488,
      "민": 2489,
      "및": 2490,
      "바": 2491,
      "발": 2492,
      "번": 2493,
      "범": 2494,
      "벽": 2495,
      "병": 2496,
      "보": 2497,
      "본": 2498,
      "봉": 2499,
      "부": 2500,
      "분": 2501,
      "불": 2502,
      "비": 2503,
      "사": 2504,
      "상": 2505,
      "서": 2506,
      "성": 2507,
      "소": 2508,
      "속": 2509,
      "송": 2510,
      "수": 2511,
      "술": 2512,
      "스": 2513,
      "습": 2514,
      "시": 2515,
      "신": 2516,
      "실": 2517,
      "안": 2518,
      "액": 2519,
      "야": 2520,
      "어": 2521,
      "업": 2522,
      "에": 2523,
      "여": 2524,
      "역": 2525,
      "영": 2526,
      "와": 2527,
      "완": 2528,
      "외": 2529,
      "요": 2530,
      "용": 2531,
      "우": 2532,
      "원": 2533,
      "월": 2534,
      "위": 2535,
      "유": 2536,
      "율": 2537,
      "은": 2538,
      "을": 2539,
      "음": 2540,
      "의": 2541,
      "이": 2542,
      "인": 2543,
      "일": 2544,
      "입": 2545,
      "있": 2546,
      "자": 2547,
      "작": 2548,
      "장": 2549,
      "재": 2550,
      "적": 2551,
      "전": 2552,
      "절": 2553,
      "접": 2554,
      "정": 2555,
      "제": 2556,
      "족": 2557,
      "졸": 2558,
      "좌": 2559,
      "죄": 2560,
      "주": 2561,
      "증": 2562,
      "지": 2563,
      "직": 2564,
      "진": 2565,
      "착": 2566,
      "채": 2567,
      "천": 2568,
      "첨": 2569,
      "청": 2570,
      "체": 2571,
      "초": 2572,
      "최": 2573,
      "출": 2574,
      "충": 2575,
      "치": 2576,
      "캐": 2577,
      "콩": 2578,
      "크": 2579,
      "타": 2580,
      "터": 2581,
      "통": 2582,
      "퇴": 2583,
      "투": 2584,
      "트": 2585,
      "포": 2586,
      "표": 2587,
      "하": 2588,
      "학": 2589,
      "한": 2590,
      "할": 2591,
      "함": 2592,
      "합": 2593,
      "해": 2594,
      "행": 2595,
      "허": 2596,
      "호": 2597,
      "혼": 2598,
      "홍": 2599,
      "화": 2600,
      "환": 2601,
      "회": 2602,
      "효": 2603,
      "휴": 2604,
      "ퟒ": 2605,
      "": 2606,
      "": 2607,
      "": 2608,
      "": 2609,
      "": 2610,
      "": 2611,
      "": 2612,
      "": 2613,
      "": 2614,
      "": 2615,
      "": 2616,
      "": 2617,
      "": 2618,
      "": 2619,
      "": 2620,
      "": 2621,
      "": 2622,
      "": 2623,
      "": 2624,
      "": 2625,
      "": 2626,
      "": 2627,
      "": 2628,
      "": 2629,
      "": 2630,
      "": 2631,
      "": 2632,
      "": 2633,
      "": 2634,
      "": 2635,
      "": 2636,
      "": 2637,
      "": 2638,
      "": 2639,
      "": 2640,
      "": 2641,
      "": 2642,
      "": 2643,
      "": 2644,
      "": 2645,
      "": 2646,
      "": 2647,
      "": 2648,
      "": 2649,
      "": 2650,
      "": 2651,
      "": 2652,
      "": 2653,
      "": 2654,
      "": 2655,
      "": 2656,
      "": 2657,
      "": 2658,
      "": 2659,
      "": 2660,
      "": 2661,
      "": 2662,
      "": 2663,
      "": 2664,
      "": 2665,
      "": 2666,
      "": 2667,
      "": 2668,
      "": 2669,
      "": 2670,
      "": 2671,
      "": 2672,
      "": 2673,
      "": 2674,
      "": 2675,
      "": 2676,
      "": 2677,
      "": 2678,
      "": 2679,
      "": 2680,
      "": 2681,
      "": 2682,
      "": 2683,
      "": 2684,
      "": 2685,
      "": 2686,
      "": 2687,
      "": 2688,
      "": 2689,
      "": 2690,
      "": 2691,
      "": 2692,
      "": 2693,
      "": 2694,
      "": 2695,
      "": 2696,
      "": 2697,
      "": 2698,
      "": 2699,
      "": 2700,
      "": 2701,
      "": 2702,
      "": 2703,
      "": 2704,
      "": 2705,
      "": 2706,
      "": 2707,
      "": 2708,
      "": 2709,
      "": 2710,
      "": 2711,
      "": 2712,
      "": 2713,
      "": 2714,
      "": 2715,
      "": 2716,
      "": 2717,
      "": 2718,
      "": 2719,
      "": 2720,
      "": 2721,
      "": 2722,
      "": 2723,
      "": 2724,
      "": 2725,
      "": 2726,
      "": 2727,
      "": 2728,
      "": 2729,
      "": 2730,
      "": 2731,
      "": 2732,
      "": 2733,
      "": 2734,
      "": 2735,
      "": 2736,
      "": 2737,
      "": 2738,
      "": 2739,
      "": 2740,
      "": 2741,
      "": 2742,
      "": 2743,
      "": 2744,
      "": 2745,
      "": 2746,
      "": 2747,
      "": 2748,
      "": 2749,
      "": 2750,
      "": 2751,
      "": 2752,
      "": 2753,
      "": 2754,
      "": 2755,
      "": 2756,
      "": 2757,
      "": 2758,
      "": 2759,
      "": 2760,
      "": 2761,
      "": 2762,
      "": 2763,
      "": 2764,
      "": 2765,
      "": 2766,
      "": 2767,
      "": 2768,
      "": 2769,
      "": 2770,
      "": 2771,
      "": 2772,
      "": 2773,
      "": 2774,
      "": 2775,
      "": 2776,
      "": 2777,
      "": 2778,
      "": 2779,
      "": 2780,
      "": 2781,
      "": 2782,
      "": 2783,
      "": 2784,
      "": 2785,
      "": 2786,
      "": 2787,
      "": 2788,
      "": 2789,
      "": 2790,
      "": 2791,
      "": 2792,
      "": 2793,
      "": 2794,
      "": 2795,
      "": 2796,
      "": 2797,
      "": 2798,
      "": 2799,
      "": 2800,
      "": 2801,
      "": 2802,
      "": 2803,
      "": 2804,
      "": 2805,
      "": 2806,
      "": 2807,
      "": 2808,
      "": 2809,
      "": 2810,
      "": 2811,
      "": 2812,
      "": 2813,
      "": 2814,
      "": 2815,
      "": 2816,
      "": 2817,
      "": 2818,
      "": 2819,
      "": 2820,
      "": 2821,
      "": 2822,
      "": 2823,
      "": 2824,
      "": 2825,
      "": 2826,
      "": 2827,
      "": 2828,
      "": 2829,
      "": 2830,
      "": 2831,
      "": 2832,
      "": 2833,
      "": 2834,
      "": 2835,
      "": 2836,
      "": 2837,
      "": 2838,
      "": 2839,
      "": 2840,
      "": 2841,
      "": 2842,
      "": 2843,
      "": 2844,
      "": 2845,
      "": 2846,
      "": 2847,
      "": 2848,
      "": 2849,
      "": 2850,
      "": 2851,
      "": 2852,
      "": 2853,
      "": 2854,
      "": 2855,
      "": 2856,
      "": 2857,
      "": 2858,
      "": 2859,
      "": 2860,
      "": 2861,
      "": 2862,
      "": 2863,
      "": 2864,
      "": 2865,
      "": 2866,
      "": 2867,
      "": 2868,
      "": 2869,
      "": 2870,
      "": 2871,
      "": 2872,
      "": 2873,
      "": 2874,
      "": 2875,
      "": 2876,
      "": 2877,
      "": 2878,
      "": 2879,
      "": 2880,
      "": 2881,
      "": 2882,
      "": 2883,
      "": 2884,
      "": 2885,
      "": 2886,
      "": 2887,
      "": 2888,
      "": 2889,
      "": 2890,
      "": 2891,
      "": 2892,
      "": 2893,
      "": 2894,
      "": 2895,
      "": 2896,
      "": 2897,
      "": 2898,
      "": 2899,
      "": 2900,
      "": 2901,
      "": 2902,
      "": 2903,
      "": 2904,
      "": 2905,
      "": 2906,
      "": 2907,
      "": 2908,
      "": 2909,
      "": 2910,
      "": 2911,
      "": 2912,
      "": 2913,
      "": 2914,
      "": 2915,
      "": 2916,
      "": 2917,
      "": 2918,
      "": 2919,
      "": 2920,
      "": 2921,
      "": 2922,
      "": 2923,
      "": 2924,
      "": 2925,
      "": 2926,
      "": 2927,
      "": 2928,
      "": 2929,
      "": 2930,
      "": 2931,
      "": 2932,
      "": 2933,
      "": 2934,
      "": 2935,
      "": 2936,
      "": 2937,
      "": 2938,
      "": 2939,
      "": 2940,
      "": 2941,
      "": 2942,
      "": 2943,
      "": 2944,
      "": 2945,
      "": 2946,
      "": 2947,
      "": 2948,
      "": 2949,
      "": 2950,
      "": 2951,
      "": 2952,
      "": 2953,
      "": 2954,
      "": 2955,
      "": 2956,
      "": 2957,
      "": 2958,
      "": 2959,
      "": 2960,
      "": 2961,
      "": 2962,
      "": 2963,
      "": 2964,
      "": 2965,
      "": 2966,
      "": 2967,
      "": 2968,
      "": 2969,
      "": 2970,
      "": 2971,
      "": 2972,
      "": 2973,
      "": 2974,
      "": 2975,
      "": 2976,
      "": 2977,
      "": 2978,
      "": 2979,
      "": 2980,
      "": 2981,
      "": 2982,
      "": 2983,
      "": 2984,
      "ﬀ": 2985,
      "ﬁ": 2986,
      "ﬂ": 2987,
      "ﬃ": 2988,
      "ﬄ": 2989,
      "ﭧ": 2990,
      "ﭩ": 2991,
      "ﭼ": 2992,
      "ﮉ": 2993,
      "ﮍ": 2994,
      "ﮐ": 2995,
      "ﮑ": 2996,
      "ﮦ": 2997,
      "ﮨ": 2998,
      "ﮫ": 2999,
      "ﮯ": 3000,
      "ﯼ": 3001,
      "ﯽ": 3002,
      "ﯾ": 3003,
      "ﯿ": 3004,
      "ﰐ": 3005,
      "ﰲ": 3006,
      "ﱂ": 3007,
      "ﱃ": 3008,
      "ﱄ": 3009,
      "ﱐ": 3010,
      "ﱘ": 3011,
      "ﱠ": 3012,
      "ﱢ": 3013,
      "ﱪ": 3014,
      "ﱯ": 3015,
      "ﱰ": 3016,
      "ﱴ": 3017,
      "ﱵ": 3018,
      "ﲎ": 3019,
      "ﲑ": 3020,
      "ﲔ": 3021,
      "ﲜ": 3022,
      "ﲞ": 3023,
      "ﲟ": 3024,
      "ﲡ": 3025,
      "ﲢ": 3026,
      "ﲣ": 3027,
      "ﲤ": 3028,
      "ﲨ": 3029,
      "ﲬ": 3030,
      "ﲰ": 3031,
      "ﳉ": 3032,
      "ﳊ": 3033,
      "ﳋ": 3034,
      "ﳌ": 3035,
      "ﳍ": 3036,
      "ﳎ": 3037,
      "ﳏ": 3038,
      "ﳐ": 3039,
      "ﳑ": 3040,
      "ﳒ": 3041,
      "ﳓ": 3042,
      "ﳔ": 3043,
      "ﳕ": 3044,
      "ﳘ": 3045,
      "ﳚ": 3046,
      "ﳝ": 3047,
      "ﶈ": 3048,
      "﷓": 3049,
      "ﹰ": 3050,
      "ﹶ": 3051,
      "ﹸ": 3052,
      "ﹼ": 3053,
      "ﺀ": 3054,
      "ﺁ": 3055,
      "ﺂ": 3056,
      "ﺃ": 3057,
      "ﺄ": 3058,
      "ﺅ": 3059,
      "ﺆ": 3060,
      "ﺇ": 3061,
      "ﺈ": 3062,
      "ﺉ": 3063,
      "ﺊ": 3064,
      "ﺋ": 3065,
      "ﺌ": 3066,
      "ﺍ": 3067,
      "ﺎ": 3068,
      "ﺏ": 3069,
      "ﺐ": 3070,
      "ﺑ": 3071,
      "ﺒ": 3072,
      "ﺓ": 3073,
      "ﺔ": 3074,
      "ﺕ": 3075,
      "ﺖ": 3076,
      "ﺗ": 3077,
      "ﺘ": 3078,
      "ﺙ": 3079,
      "ﺚ": 3080,
      "ﺛ": 3081,
      "ﺜ": 3082,
      "ﺝ": 3083,
      "ﺞ": 3084,
      "ﺟ": 3085,
      "ﺠ": 3086,
      "ﺡ": 3087,
      "ﺢ": 3088,
      "ﺣ": 3089,
      "ﺤ": 3090,
      "ﺦ": 3091,
      "ﺧ": 3092,
      "ﺨ": 3093,
      "ﺩ": 3094,
      "ﺪ": 3095,
      "ﺫ": 3096,
      "ﺬ": 3097,
      "ﺭ": 3098,
      "ﺮ": 3099,
      "ﺯ": 3100,
      "ﺰ": 3101,
      "ﺱ": 3102,
      "ﺲ": 3103,
      "ﺳ": 3104,
      "ﺴ": 3105,
      "ﺵ": 3106,
      "ﺶ": 3107,
      "ﺷ": 3108,
      "ﺸ": 3109,
      "ﺹ": 3110,
      "ﺺ": 3111,
      "ﺻ": 3112,
      "ﺼ": 3113,
      "ﺽ": 3114,
      "ﺾ": 3115,
      "ﺿ": 3116,
      "ﻀ": 3117,
      "ﻁ": 3118,
      "ﻂ": 3119,
      "ﻃ": 3120,
      "ﻄ": 3121,
      "ﻅ": 3122,
      "ﻆ": 3123,
      "ﻇ": 3124,
      "ﻈ": 3125,
      "ﻉ": 3126,
      "ﻊ": 3127,
      "ﻋ": 3128,
      "ﻌ": 3129,
      "ﻍ": 3130,
      "ﻎ": 3131,
      "ﻏ": 3132,
      "ﻐ": 3133,
      "ﻑ": 3134,
      "ﻒ": 3135,
      "ﻓ": 3136,
      "ﻔ": 3137,
      "ﻕ": 3138,
      "ﻖ": 3139,
      "ﻗ": 3140,
      "ﻘ": 3141,
      "ﻙ": 3142,
      "ﻚ": 3143,
      "ﻛ": 3144,
      "ﻜ": 3145,
      "ﻝ": 3146,
      "ﻞ": 3147,
      "ﻟ": 3148,
      "ﻠ": 3149,
      "ﻡ": 3150,
      "ﻢ": 3151,
      "ﻣ": 3152,
      "ﻤ": 3153,
      "ﻥ": 3154,
      "ﻦ": 3155,
      "ﻧ": 3156,
      "ﻨ": 3157,
      "ﻩ": 3158,
      "ﻪ": 3159,
      "ﻫ": 3160,
      "ﻬ": 3161,
      "ﻭ": 3162,
      "ﻮ": 3163,
      "ﻯ": 3164,
      "ﻰ": 3165,
      "ﻱ": 3166,
      "ﻲ": 3167,
      "ﻳ": 3168,
      "ﻴ": 3169,
      "ﻵ": 3170,
      "ﻶ": 3171,
      "ﻷ": 3172,
      "ﻸ": 3173,
      "ﻹ": 3174,
      "ﻺ": 3175,
      "ﻻ": 3176,
      "ﻼ": 3177,
      "（": 3178,
      "）": 3179,
      "，": 3180,
      "－": 3181,
      "０": 3182,
      "１": 3183,
      "２": 3184,
      "４": 3185,
      "６": 3186,
      "：": 3187,
      "；": 3188,
      "？": 3189,
      "［": 3190,
      "～": 3191,
      "ｷ": 3192,
      "ﾔ": 3193,
      "ﾩ": 3194,
      "￼": 3195,
      "�": 3196,
      "es": 3197,
      "on": 3198,
      "en": 3199,
      "ti": 3200,
      "an": 3201,
      "er": 3202,
      "in": 3203,
      "re": 3204,
      "th": 3205,
      "de": 3206,
      "tion": 3207,
      "or": 3208,
      "is": 3209,
      "ent": 3210,
      "le": 3211,
      "ou": 3212,
      "al": 3213,
      "ar": 3214,
      "the": 3215,
      "it": 3216,
      "la": 3217,
      "pr": 3218,
      "qu": 3219,
      "te": 3220,
      "et": 3221,
      "ation": 3222,
      "om": 3223,
      "ur": 3224,
      "of": 3225,
      "ic": 3226,
      "ment": 3227,
      "and": 3228,
      "tr": 3229,
      "as": 3230,
      "au": 3231,
      "les": 3232,
      "un": 3233,
      "at": 3234,
      "des": 3235,
      "ce": 3236,
      "to": 3237,
      "il": 3238,
      "se": 3239,
      "du": 3240,
      "ch": 3241,
      "con": 3242,
      "ve": 3243,
      "si": 3244,
      "pro": 3245,
      "ad": 3246,
      "ac": 3247,
      "ing": 3248,
      "our": 3249,
      "for": 3250,
      "ant": 3251,
      "ir": 3252,
      "ne": 3253,
      "par": 3254,
      "li": 3255,
      "me": 3256,
      "que": 3257,
      "com": 3258,
      "ra": 3259,
      "su": 3260,
      "00": 3261,
      "ter": 3262,
      "ta": 3263,
      "lo": 3264,
      "ci": 3265,
      "di": 3266,
      "po": 3267,
      "pe": 3268,
      "ans": 3269,
      "ag": 3270,
      "ed": 3271,
      "és": 3272,
      "us": 3273,
      "res": 3274,
      "ver": 3275,
      "ex": 3276,
      "dé": 3277,
      "ap": 3278,
      "ces": 3279,
      "por": 3280,
      "he": 3281,
      "ré": 3282,
      "ri": 3283,
      "per": 3284,
      "ol": 3285,
      "be": 3286,
      "ma": 3287,
      "anad": 3288,
      "ro": 3289,
      "pl": 3290,
      "200": 3291,
      "ct": 3292,
      "st": 3293,
      "ab": 3294,
      "el": 3295,
      "est": 3296,
      "sur": 3297,
      "no": 3298,
      "im": 3299,
      "ont": 3300,
      "aux": 3301,
      "ff": 3302,
      "vi": 3303,
      "pour": 3304,
      "Canad": 3305,
      "une": 3306,
      "ate": 3307,
      "ire": 3308,
      "ction": 3309,
      "té": 3310,
      "am": 3311,
      "mo": 3312,
      "ations": 3313,
      "port": 3314,
      "tre": 3315,
      "ly": 3316,
      "sion": 3317,
      "dans": 3318,
      "av": 3319,
      "tin": 3320,
      "tu": 3321,
      "cu": 3322,
      "In": 3323,
      "ig": 3324,
      "ser": 3325,
      "that": 3326,
      "co": 3327,
      "ité": 3328,
      "min": 3329,
      "ion": 3330,
      "mb": 3331,
      "ers": 3332,
      "so": 3333,
      "ments": 3334,
      "form": 3335,
      "pu": 3336,
      "qui": 3337,
      "are": 3338,
      "The": 3339,
      "Canada": 3340,
      "ith": 3341,
      "ance": 3342,
      "tions": 3343,
      "ques": 3344,
      "ten": 3345,
      "ie": 3346,
      "ity": 3347,
      "19": 3348,
      "comm": 3349,
      "né": 3350,
      "ts": 3351,
      "with": 3352,
      "age": 3353,
      "ous": 3354,
      "mp": 3355,
      "op": 3356,
      "ence": 3357,
      "tive": 3358,
      "end": 3359,
      "fic": 3360,
      "ted": 3361,
      "ge": 3362,
      "ins": 3363,
      "der": 3364,
      "mes": 3365,
      "urs": 3366,
      "wh": 3367,
      "gra": 3368,
      "lu": 3369,
      "Com": 3370,
      "bl": 3371,
      "mis": 3372,
      "by": 3373,
      "__": 3374,
      "ay": 3375,
      "ul": 3376,
      "ting": 3377,
      "ave": 3378,
      "fr": 3379,
      "vic": 3380,
      "ther": 3381,
      "lement": 3382,
      "oun": 3383,
      "do": 3384,
      "man": 3385,
      "dis": 3386,
      "str": 3387,
      "son": 3388,
      "ill": 3389,
      "fin": 3390,
      "its": 3391,
      "bu": 3392,
      "inter": 3393,
      "ni": 3394,
      "parti": 3395,
      "tiv": 3396,
      "tic": 3397,
      "ait": 3398,
      "ob": 3399,
      "id": 3400,
      "ses": 3401,
      "comp": 3402,
      "ven": 3403,
      "ure": 3404,
      "vis": 3405,
      "gr": 3406,
      "ée": 3407,
      "gu": 3408,
      "fi": 3409,
      "cer": 3410,
      "out": 3411,
      "Re": 3412,
      "Le": 3413,
      "all": 3414,
      "nation": 3415,
      "ine": 3416,
      "air": 3417,
      "ble": 3418,
      "ère": 3419,
      "che": 3420,
      "gram": 3421,
      "ph": 3422,
      "sh": 3423,
      "pas": 3424,
      "ies": 3425,
      "ale": 3426,
      "ér": 3427,
      "mar": 3428,
      "ard": 3429,
      "pos": 3430,
      "je": 3431,
      "aire": 3432,
      "iti": 3433,
      "ien": 3434,
      "able": 3435,
      "vo": 3436,
      "pré": 3437,
      "ants": 3438,
      "pon": 3439,
      "ord": 3440,
      "ist": 3441,
      "produ": 3442,
      "Con": 3443,
      "formation": 3444,
      "entre": 3445,
      "ear": 3446,
      "ite": 3447,
      "ég": 3448,
      "199": 3449,
      "ain": 3450,
      "plus": 3451,
      "ld": 3452,
      "ere": 3453,
      "emp": 3454,
      "ées": 3455,
      "servic": 3456,
      "inc": 3457,
      "velo": 3458,
      "ai": 3459,
      "cial": 3460,
      "..": 3461,
      "enti": 3462,
      "Les": 3463,
      "été": 3464,
      "val": 3465,
      "Pro": 3466,
      "contr": 3467,
      "sont": 3468,
      "from": 3469,
      "ari": 3470,
      "La": 3471,
      "not": 3472,
      "mé": 3473,
      "En": 3474,
      "pre": 3475,
      "pri": 3476,
      "De": 3477,
      "tat": 3478,
      "velop": 3479,
      "gh": 3480,
      "ux": 3481,
      "gan": 3482,
      "eff": 3483,
      "acc": 3484,
      "ich": 3485,
      "ue": 3486,
      "ures": 3487,
      "mission": 3488,
      "vent": 3489,
      "national": 3490,
      "ork": 3491,
      "cip": 3492,
      "program": 3493,
      "over": 3494,
      "we": 3495,
      "sa": 3496,
      "fo": 3497,
      "mon": 3498,
      "person": 3499,
      "part": 3500,
      "was": 3501,
      ").": 3502,
      "od": 3503,
      "titu": 3504,
      "nement": 3505,
      "ors": 3506,
      "cess": 3507,
      "lar": 3508,
      "ren": 3509,
      "ary": 3510,
      "éri": 3511,
      "blic": 3512,
      "rec": 3513,
      "sy": 3514,
      "pres": 3515,
      "ités": 3516,
      "éta": 3517,
      "aires": 3518,
      "commun": 3519,
      "tes": 3520,
      "Th": 3521,
      "ase": 3522,
      "lle": 3523,
      "ould": 3524,
      "nu": 3525,
      "ès": 3526,
      "ke": 3527,
      "log": 3528,
      "ents": 3529,
      "this": 3530,
      "nes": 3531,
      "prés": 3532,
      "),": 3533,
      "Par": 3534,
      "vir": 3535,
      "____": 3536,
      "10": 3537,
      "sub": 3538,
      "fe": 3539,
      "tif": 3540,
      "til": 3541,
      "trans": 3542,
      "one": 3543,
      "pla": 3544,
      "ded": 3545,
      "fer": 3546,
      "ges": 3547,
      "work": 3548,
      "organ": 3549,
      "rela": 3550,
      "will": 3551,
      "tres": 3552,
      "act": 3553,
      "ut": 3554,
      "bil": 3555,
      "ines": 3556,
      "cons": 3557,
      "ON": 3558,
      "information": 3559,
      "mber": 3560,
      "cur": 3561,
      "jet": 3562,
      "posi": 3563,
      "rap": 3564,
      "ique": 3565,
      "ouver": 3566,
      "soci": 3567,
      "avec": 3568,
      "chan": 3569,
      "emplo": 3570,
      "présent": 3571,
      "use": 3572,
      "cour": 3573,
      "have": 3574,
      "ise": 3575,
      "ons": 3576,
      "which": 3577,
      "reg": 3578,
      "services": 3579,
      "être": 3580,
      "dic": 3581,
      "low": 3582,
      "eur": 3583,
      "don": 3584,
      "ding": 3585,
      "sta": 3586,
      "ish": 3587,
      "lation": 3588,
      "gé": 3589,
      "ette": 3590,
      "Ch": 3591,
      "mi": 3592,
      "ach": 3593,
      "ail": 3594,
      "ls": 3595,
      "viron": 3596,
      "plic": 3597,
      "ty": 3598,
      "ouve": 3599,
      "cri": 3600,
      "has": 3601,
      "elle": 3602,
      "bre": 3603,
      "ated": 3604,
      "minis": 3605,
      "Un": 3606,
      "gen": 3607,
      "ian": 3608,
      "tis": 3609,
      "sup": 3610,
      "um": 3611,
      "ew": 3612,
      "col": 3613,
      "isation": 3614,
      "lan": 3615,
      "public": 3616,
      "ibu": 3617,
      "ient": 3618,
      "tives": 3619,
      "non": 3620,
      "rit": 3621,
      "iz": 3622,
      "ves": 3623,
      "sul": 3624,
      "tique": 3625,
      "oc": 3626,
      "lic": 3627,
      "cis": 3628,
      "vers": 3629,
      "fon": 3630,
      "pay": 3631,
      "ais": 3632,
      "met": 3633,
      "ES": 3634,
      "cent": 3635,
      "alth": 3636,
      "requ": 3637,
      "Se": 3638,
      "mil": 3639,
      "rou": 3640,
      "other": 3641,
      "diff": 3642,
      "spe": 3643,
      "sp": 3644,
      "respon": 3645,
      "appro": 3646,
      "aut": 3647,
      "12": 3648,
      "valu": 3649,
      "sou": 3650,
      "ong": 3651,
      "ip": 3652,
      "import": 3653,
      "ens": 3654,
      "lec": 3655,
      "AN": 3656,
      "can": 3657,
      "int": 3658,
      "TI": 3659,
      "rég": 3660,
      "their": 3661,
      "ture": 3662,
      "cas": 3663,
      "provi": 3664,
      "tra": 3665,
      "cher": 3666,
      "car": 3667,
      "sig": 3668,
      "mit": 3669,
      "Ar": 3670,
      "bor": 3671,
      "under": 3672,
      "igh": 3673,
      "lé": 3674,
      "nom": 3675,
      "inclu": 3676,
      "ities": 3677,
      "teur": 3678,
      "trav": 3679,
      "On": 3680,
      "20": 3681,
      "sé": 3682,
      "ow": 3683,
      "conom": 3684,
      "fication": 3685,
      "ree": 3686,
      "Commission": 3687,
      "leur": 3688,
      "overn": 3689,
      "ru": 3690,
      "ales": 3691,
      "As": 3692,
      "dro": 3693,
      "cep": 3694,
      "tiques": 3695,
      "cts": 3696,
      "eral": 3697,
      "employ": 3698,
      "ères": 3699,
      "autres": 3700,
      "ions": 3701,
      "mer": 3702,
      "11": 3703,
      "ris": 3704,
      "cé": 3705,
      "ticle": 3706,
      "ste": 3707,
      "ice": 3708,
      "Eur": 3709,
      "concer": 3710,
      "Canadian": 3711,
      "exp": 3712,
      "EN": 3713,
      "canad": 3714,
      "ress": 3715,
      "cy": 3716,
      "lig": 3717,
      "IN": 3718,
      "applic": 3719,
      "tech": 3720,
      "lles": 3721,
      "cla": 3722,
      "men": 3723,
      "cre": 3724,
      "go": 3725,
      "ources": 3726,
      "util": 3727,
      "were": 3728,
      "No": 3729,
      "ial": 3730,
      "sant": 3731,
      "ical": 3732,
      "bo": 3733,
      "Euro": 3734,
      "memb": 3735,
      "pris": 3736,
      "ust": 3737,
      "environ": 3738,
      "ww": 3739,
      "tain": 3740,
      "13": 3741,
      "An": 3742,
      "grou": 3743,
      "ms": 3744,
      "year": 3745,
      "ner": 3746,
      "ide": 3747,
      "nées": 3748,
      "led": 3749,
      "ils": 3750,
      "canadien": 3751,
      "imp": 3752,
      "ER": 3753,
      "tro": 3754,
      "ative": 3755,
      "tats": 3756,
      "ese": 3757,
      "mun": 3758,
      "tal": 3759,
      "15": 3760,
      "For": 3761,
      "Europe": 3762,
      "dustr": 3763,
      "effe": 3764,
      "ences": 3765,
      "exam": 3766,
      "activ": 3767,
      "bas": 3768,
      "any": 3769,
      "cap": 3770,
      "bli": 3771,
      "ome": 3772,
      "indi": 3773,
      "2006": 3774,
      "teurs": 3775,
      "ties": 3776,
      "ds": 3777,
      "ca": 3778,
      "iv": 3779,
      "plan": 3780,
      "2005": 3781,
      "olu": 3782,
      "vin": 3783,
      "abil": 3784,
      "ran": 3785,
      "cal": 3786,
      "qual": 3787,
      "termin": 3788,
      "sed": 3789,
      "gouver": 3790,
      "been": 3791,
      "develop": 3792,
      "inté": 3793,
      "aff": 3794,
      "Res": 3795,
      "leurs": 3796,
      "more": 3797,
      "fac": 3798,
      "main": 3799,
      "ll": 3800,
      "géné": 3801,
      "also": 3802,
      "ssi": 3803,
      "cette": 3804,
      "Au": 3805,
      "ème": 3806,
      "nouve": 3807,
      "....": 3808,
      "pa": 3809,
      "pend": 3810,
      "finan": 3811,
      "cor": 3812,
      "ires": 3813,
      "tari": 3814,
      "mat": 3815,
      "poli": 3816,
      "fa": 3817,
      "ved": 3818,
      "ctive": 3819,
      "prin": 3820,
      "fait": 3821,
      "iques": 3822,
      "ille": 3823,
      "ef": 3824,
      "000": 3825,
      "Il": 3826,
      "tout": 3827,
      "particip": 3828,
      "ory": 3829,
      "comme": 3830,
      "mand": 3831,
      "Ser": 3832,
      "2004": 3833,
      "Min": 3834,
      "agement": 3835,
      "up": 3836,
      "consi": 3837,
      "ju": 3838,
      "coun": 3839,
      "overnment": 3840,
      "position": 3841,
      "docu": 3842,
      "ances": 3843,
      "earch": 3844,
      "travail": 3845,
      "ks": 3846,
      "bles": 3847,
      "ctions": 3848,
      "ense": 3849,
      "cul": 3850,
      "14": 3851,
      "Ex": 3852,
      "18": 3853,
      "Inter": 3854,
      "2007": 3855,
      "He": 3856,
      "eu": 3857,
      "dent": 3858,
      "jour": 3859,
      "ia": 3860,
      "tho": 3861,
      "eng": 3862,
      "new": 3863,
      "hu": 3864,
      "particu": 3865,
      "ral": 3866,
      "duc": 3867,
      "30": 3868,
      "prof": 3869,
      "view": 3870,
      "ss": 3871,
      "oper": 3872,
      "ber": 3873,
      "ages": 3874,
      "projet": 3875,
      "ign": 3876,
      "tru": 3877,
      "santé": 3878,
      "organis": 3879,
      "EC": 3880,
      "four": 3881,
      "stru": 3882,
      "personne": 3883,
      "sus": 3884,
      "io": 3885,
      "but": 3886,
      "cré": 3887,
      "sit": 3888,
      "vision": 3889,
      "dur": 3890,
      "may": 3891,
      "dom": 3892,
      "time": 3893,
      "Me": 3894,
      "clu": 3895,
      "cherche": 3896,
      "tifs": 3897,
      "ound": 3898,
      "This": 3899,
      "oi": 3900,
      "ctor": 3901,
      "près": 3902,
      "ports": 3903,
      "Servic": 3904,
      "AR": 3905,
      "vention": 3906,
      "prote": 3907,
      "16": 3908,
      "king": 3909,
      "ess": 3910,
      "Ac": 3911,
      "labor": 3912,
      "èg": 3913,
      "pen": 3914,
      "ets": 3915,
      "2003": 3916,
      "sible": 3917,
      "if": 3918,
      "appe": 3919,
      "change": 3920,
      "offic": 3921,
      "ates": 3922,
      "elles": 3923,
      "________": 3924,
      "isse": 3925,
      "ally": 3926,
      "peut": 3927,
      "ang": 3928,
      "international": 3929,
      "nolog": 3930,
      "provin": 3931,
      "industr": 3932,
      "than": 3933,
      "25": 3934,
      "place": 3935,
      "deux": 3936,
      "AC": 3937,
      "ational": 3938,
      "sel": 3939,
      "princip": 3940,
      "service": 3941,
      "contribu": 3942,
      "Co": 3943,
      "identi": 3944,
      "action": 3945,
      "Al": 3946,
      "dev": 3947,
      "contin": 3948,
      "bet": 3949,
      "dition": 3950,
      "pement": 3951,
      "require": 3952,
      "valuation": 3953,
      "lations": 3954,
      "ile": 3955,
      "should": 3956,
      "Qu": 3957,
      "gouvernement": 3958,
      "cision": 3959,
      "such": 3960,
      "pays": 3961,
      "polic": 3962,
      "ass": 3963,
      "initi": 3964,
      "DE": 3965,
      "ition": 3966,
      "ject": 3967,
      "nements": 3968,
      "inv": 3969,
      "adminis": 3970,
      "acti": 3971,
      "Mar": 3972,
      "aly": 3973,
      "rais": 3974,
      "char": 3975,
      "gestion": 3976,
      "Program": 3977,
      "respe": 3978,
      "ante": 3979,
      "OR": 3980,
      "now": 3981,
      "2002": 3982,
      "reas": 3983,
      "ton": 3984,
      "group": 3985,
      "IC": 3986,
      "direc": 3987,
      "IS": 3988,
      "concern": 3989,
      "cau": 3990,
      "déc": 3991,
      "land": 3992,
      "dévelop": 3993,
      "pli": 3994,
      "vé": 3995,
      "oir": 3996,
      "alement": 3997,
      "dire": 3998,
      "fir": 3999,
      "17": 4000,
      "jec": 4001,
      "syste": 4002,
      "rough": 4003,
      "fé": 4004,
      "trait": 4005,
      "voir": 4006,
      "who": 4007,
      "fun": 4008,
      "sure": 4009,
      "ature": 4010,
      "anti": 4011,
      "syst": 4012,
      "there": 4013,
      "peu": 4014,
      "milli": 4015,
      "publi": 4016,
      "these": 4017,
      "--": 4018,
      "opé": 4019,
      "sions": 4020,
      "rés": 4021,
      "they": 4022,
      "ême": 4023,
      "seil": 4024,
      "AL": 4025,
      "dit": 4026,
      "sous": 4027,
      "leg": 4028,
      "tant": 4029,
      "nombre": 4030,
      "tent": 4031,
      "issu": 4032,
      "étu": 4033,
      "would": 4034,
      "Dire": 4035,
      "mais": 4036,
      "cours": 4037,
      "prom": 4038,
      "programme": 4039,
      "aient": 4040,
      "tou": 4041,
      "tur": 4042,
      "utilis": 4043,
      "als": 4044,
      "cad": 4045,
      "Off": 4046,
      "health": 4047,
      "present": 4048,
      "lin": 4049,
      "inte": 4050,
      "cus": 4051,
      "jus": 4052,
      "ud": 4053,
      "TION": 4054,
      "née": 4055,
      "avant": 4056,
      "Act": 4057,
      "tribu": 4058,
      "ister": 4059,
      "Man": 4060,
      "ater": 4061,
      "nor": 4062,
      "vre": 4063,
      "atég": 4064,
      "ainsi": 4065,
      "ollow": 4066,
      "ric": 4067,
      "na": 4068,
      "sibil": 4069,
      "RE": 4070,
      "peri": 4071,
      "ple": 4072,
      "blish": 4073,
      "ell": 4074,
      "CE": 4075,
      "parag": 4076,
      "march": 4077,
      "technolog": 4078,
      "198": 4079,
      "ats": 4080,
      "2001": 4081,
      "mental": 4082,
      "cho": 4083,
      "speci": 4084,
      "loc": 4085,
      "50": 4086,
      "commer": 4087,
      "faire": 4088,
      "CO": 4089,
      "point": 4090,
      "bien": 4091,
      "Ad": 4092,
      "rent": 4093,
      "enne": 4094,
      "article": 4095,
      "mande": 4096,
      "ho": 4097,
      "nous": 4098,
      "recherche": 4099,
      "tric": 4100,
      "iss": 4101,
      "popu": 4102,
      "fore": 4103,
      "net": 4104,
      "you": 4105,
      "mati": 4106,
      "ween": 4107,
      "institu": 4108,
      "ful": 4109,
      "mark": 4110,
      "It": 4111,
      "Commun": 4112,
      "24": 4113,
      "application": 4114,
      "II": 4115,
      "2000": 4116,
      ".,": 4117,
      "ateg": 4118,
      "mise": 4119,
      "consul": 4120,
      "countr": 4121,
      "follow": 4122,
      "suiv": 4123,
      "tation": 4124,
      "ali": 4125,
      "wo": 4126,
      "rapport": 4127,
      "hip": 4128,
      "nex": 4129,
      "We": 4130,
      "ards": 4131,
      "ables": 4132,
      "very": 4133,
      "ning": 4134,
      "membres": 4135,
      "développement": 4136,
      "avoir": 4137,
      "Or": 4138,
      "between": 4139,
      "protection": 4140,
      "serv": 4141,
      "way": 4142,
      "section": 4143,
      "ating": 4144,
      "Coun": 4145,
      "Bo": 4146,
      "europé": 4147,
      "thor": 4148,
      "stand": 4149,
      "fonction": 4150,
      "économ": 4151,
      "ght": 4152,
      "même": 4153,
      "analy": 4154,
      "long": 4155,
      "development": 4156,
      "through": 4157,
      "communic": 4158,
      "site": 4159,
      "Su": 4160,
      "Health": 4161,
      "ned": 4162,
      "pur": 4163,
      "Des": 4164,
      "Ag": 4165,
      "vous": 4166,
      "cadre": 4167,
      "leve": 4168,
      "had": 4169,
      "European": 4170,
      "IT": 4171,
      "situ": 4172,
      "To": 4173,
      "demande": 4174,
      "prior": 4175,
      "get": 4176,
      "règ": 4177,
      "resul": 4178,
      "activités": 4179,
      "into": 4180,
      "produits": 4181,
      "nal": 4182,
      "ht": 4183,
      "AT": 4184,
      "red": 4185,
      "ital": 4186,
      "important": 4187,
      "eurs": 4188,
      "Conseil": 4189,
      "assur": 4190,
      "af": 4191,
      "accord": 4192,
      "22": 4193,
      "els": 4194,
      "tous": 4195,
      "prises": 4196,
      "fied": 4197,
      "objec": 4198,
      "données": 4199,
      "ced": 4200,
      "ack": 4201,
      "sec": 4202,
      "cli": 4203,
      "tement": 4204,
      "Ontari": 4205,
      "ditions": 4206,
      "Ontario": 4207,
      "prend": 4208,
      "effic": 4209,
      "recomm": 4210,
      "crip": 4211,
      "day": 4212,
      "Ce": 4213,
      "premi": 4214,
      "date": 4215,
      "permet": 4216,
      "UR": 4217,
      "établ": 4218,
      "fourn": 4219,
      "vari": 4220,
      "cle": 4221,
      "23": 4222,
      "éli": 4223,
      "Pr": 4224,
      "www": 4225,
      "temp": 4226,
      "tax": 4227,
      "cture": 4228,
      "rait": 4229,
      "Tr": 4230,
      "cil": 4231,
      "demand": 4232,
      "Loi": 4233,
      "cro": 4234,
      "doit": 4235,
      "high": 4236,
      "ild": 4237,
      "need": 4238,
      "également": 4239,
      "proces": 4240,
      "Mo": 4241,
      "tee": 4242,
      "tration": 4243,
      "programmes": 4244,
      "Ap": 4245,
      "comple": 4246,
      "gi": 4247,
      "Wh": 4248,
      "fu": 4249,
      "Sta": 4250,
      "modi": 4251,
      "mbre": 4252,
      "fact": 4253,
      "government": 4254,
      "ety": 4255,
      "forme": 4256,
      "research": 4257,
      "adop": 4258,
      "Pour": 4259,
      "ignements": 4260,
      "01": 4261,
      "question": 4262,
      "résul": 4263,
      "usines": 4264,
      "ément": 4265,
      "dont": 4266,
      "Article": 4267,
      "where": 4268,
      "some": 4269,
      "Dé": 4270,
      "indic": 4271,
      "ues": 4272,
      "lev": 4273,
      "iste": 4274,
      "lection": 4275,
      "ctu": 4276,
      "document": 4277,
      "come": 4278,
      "personnes": 4279,
      "Dans": 4280,
      "atives": 4281,
      "ib": 4282,
      "duction": 4283,
      "ata": 4284,
      "Pu": 4285,
      "lors": 4286,
      "rense": 4287,
      "bes": 4288,
      "ited": 4289,
      "certa": 4290,
      "Po": 4291,
      "opér": 4292,
      "autre": 4293,
      "must": 4294,
      "support": 4295,
      "mal": 4296,
      "2008": 4297,
      "tex": 4298,
      "SC": 4299,
      "semb": 4300,
      "Stat": 4301,
      "rece": 4302,
      "aussi": 4303,
      "matière": 4304,
      "shall": 4305,
      "only": 4306,
      "hy": 4307,
      "langu": 4308,
      "fois": 4309,
      "vidu": 4310,
      "tenir": 4311,
      "afin": 4312,
      "nive": 4313,
      "AD": 4314,
      "production": 4315,
      "ck": 4316,
      "PR": 4317,
      "spé": 4318,
      "appli": 4319,
      "ches": 4320,
      "off": 4321,
      "26": 4322,
      "40": 4323,
      "well": 4324,
      "ier": 4325,
      "moins": 4326,
      "28": 4327,
      "cou": 4328,
      "ration": 4329,
      "Uni": 4330,
      "bec": 4331,
      "environnement": 4332,
      "21": 4333,
      "31": 4334,
      "représent": 4335,
      "conditions": 4336,
      "moy": 4337,
      "ession": 4338,
      "tés": 4339,
      "sci": 4340,
      "ST": 4341,
      "actu": 4342,
      "table": 4343,
      "autor": 4344,
      "mu": 4345,
      "LE": 4346,
      "partie": 4347,
      "élé": 4348,
      "row": 4349,
      "used": 4350,
      "questions": 4351,
      "number": 4352,
      "made": 4353,
      "exemp": 4354,
      "nécess": 4355,
      "antes": 4356,
      "associ": 4357,
      "fam": 4358,
      "rale": 4359,
      "fér": 4360,
      "soit": 4361,
      "two": 4362,
      "constitu": 4363,
      "nature": 4364,
      "région": 4365,
      "27": 4366,
      "individu": 4367,
      "Council": 4368,
      "ast": 4369,
      "graph": 4370,
      "lég": 4371,
      "après": 4372,
      "igin": 4373,
      "ôle": 4374,
      "ry": 4375,
      "dre": 4376,
      "nationale": 4377,
      "renseignements": 4378,
      "répon": 4379,
      "évaluation": 4380,
      "cause": 4381,
      "inves": 4382,
      "process": 4383,
      "esta": 4384,
      "consider": 4385,
      "peti": 4386,
      "ban": 4387,
      "èmes": 4388,
      "stitu": 4389,
      "curité": 4390,
      "contre": 4391,
      "peuvent": 4392,
      "cha": 4393,
      "New": 4394,
      "years": 4395,
      "about": 4396,
      "1999": 4397,
      "collec": 4398,
      "était": 4399,
      "capac": 4400,
      "ben": 4401,
      "Te": 4402,
      "Commit": 4403,
      "Tra": 4404,
      "within": 4405,
      "particuli": 4406,
      "ger": 4407,
      "including": 4408,
      "system": 4409,
      "vue": 4410,
      "mul": 4411,
      "sess": 4412,
      "équ": 4413,
      "tical": 4414,
      "04": 4415,
      "os": 4416,
      "Ré": 4417,
      "ducation": 4418,
      "management": 4419,
      "old": 4420,
      "fédé": 4421,
      "vities": 4422,
      "respect": 4423,
      "author": 4424,
      "econom": 4425,
      "total": 4426,
      "ply": 4427,
      "istère": 4428,
      "esti": 4429,
      "États": 4430,
      "social": 4431,
      "positions": 4432,
      "establish": 4433,
      "Minister": 4434,
      "Cour": 4435,
      "IP": 4436,
      "propos": 4437,
      "jo": 4438,
      "order": 4439,
      "où": 4440,
      "mment": 4441,
      "those": 4442,
      "29": 4443,
      "Mr": 4444,
      "set": 4445,
      "mesures": 4446,
      "jur": 4447,
      "provide": 4448,
      "rê": 4449,
      "amp": 4450,
      "inf": 4451,
      "ederal": 4452,
      "financi": 4453,
      "organiz": 4454,
      "AP": 4455,
      "rad": 4456,
      "AS": 4457,
      "usiness": 4458,
      "promo": 4459,
      "droits": 4460,
      "publique": 4461,
      "crit": 4462,
      "exer": 4463,
      "pose": 4464,
      "possible": 4465,
      "line": 4466,
      "lui": 4467,
      "clo": 4468,
      "droit": 4469,
      "prise": 4470,
      "ENT": 4471,
      "meas": 4472,
      "cost": 4473,
      "Public": 4474,
      "pou": 4475,
      "most": 4476,
      "respons": 4477,
      "........": 4478,
      "Fin": 4479,
      "ods": 4480,
      "MP": 4481,
      "gment": 4482,
      "sive": 4483,
      "lectr": 4484,
      "cond": 4485,
      "compte": 4486,
      "conclu": 4487,
      "ivent": 4488,
      "annu": 4489,
      "his": 4490,
      "Services": 4491,
      "know": 4492,
      "vie": 4493,
      "aila": 4494,
      "Pre": 4495,
      "différ": 4496,
      "améli": 4497,
      "dement": 4498,
      "ners": 4499,
      "appropri": 4500,
      "péri": 4501,
      "Gen": 4502,
      "système": 4503,
      "plu": 4504,
      "détermin": 4505,
      "tien": 4506,
      "regis": 4507,
      "stratég": 4508,
      "sécurité": 4509,
      "puis": 4510,
      "ATION": 4511,
      "ordin": 4512,
      "olution": 4513,
      "At": 4514,
      "RC": 4515,
      "ount": 4516,
      "bal": 4517,
      "Office": 4518,
      "profession": 4519,
      "ressources": 4520,
      "ters": 4521,
      "signi": 4522,
      "dence": 4523,
      "ving": 4524,
      "Nor": 4525,
      "100": 4526,
      "amélior": 4527,
      "Committee": 4528,
      "territ": 4529,
      "gency": 4530,
      "inten": 4531,
      "continu": 4532,
      "bon": 4533,
      "iter": 4534,
      "States": 4535,
      "az": 4536,
      "population": 4537,
      "ask": 4538,
      "when": 4539,
      "ref": 4540,
      "partment": 4541,
      "based": 4542,
      "policy": 4543,
      "National": 4544,
      "Environ": 4545,
      "cription": 4546,
      "quel": 4547,
      "conn": 4548,
      "Reg": 4549,
      "see": 4550,
      "following": 4551,
      "report": 4552,
      "Col": 4553,
      "addition": 4554,
      "force": 4555,
      "availa": 4556,
      "gc": 4557,
      "reven": 4558,
      "mor": 4559,
      "ource": 4560,
      "beso": 4561,
      "mont": 4562,
      "processus": 4563,
      "activities": 4564,
      "ople": 4565,
      "pte": 4566,
      "//": 4567,
      "ak": 4568,
      "her": 4569,
      "sans": 4570,
      "cted": 4571,
      "pério": 4572,
      "60": 4573,
      "temps": 4574,
      "each": 4575,
      "tp": 4576,
      "St": 4577,
      "année": 4578,
      "résultats": 4579,
      "ace": 4580,
      "exig": 4581,
      "uni": 4582,
      "Centre": 4583,
      "procé": 4584,
      "sen": 4585,
      "doivent": 4586,
      "politique": 4587,
      "actions": 4588,
      "ament": 4589,
      "tice": 4590,
      "alis": 4591,
      "derni": 4592,
      "base": 4593,
      "quer": 4594,
      "toute": 4595,
      "://": 4596,
      "let": 4597,
      "http": 4598,
      "conform": 4599,
      "03": 4600,
      "culture": 4601,
      "05": 4602,
      "jor": 4603,
      "differ": 4604,
      "train": 4605,
      "facil": 4606,
      "pendant": 4607,
      "surve": 4608,
      "hel": 4609,
      "Service": 4610,
      "ente": 4611,
      "data": 4612,
      "So": 4613,
      "first": 4614,
      "UN": 4615,
      "pes": 4616,
      "gar": 4617,
      "hab": 4618,
      "laboration": 4619,
      "raphe": 4620,
      "faç": 4621,
      "ax": 4622,
      "inst": 4623,
      "ings": 4624,
      "bud": 4625,
      "aine": 4626,
      "concernant": 4627,
      "impro": 4628,
      "niveau": 4629,
      "dra": 4630,
      "provided": 4631,
      "effor": 4632,
      "issement": 4633,
      "aiss": 4634,
      "Dis": 4635,
      "traite": 4636,
      "lementation": 4637,
      "trois": 4638,
      "vale": 4639,
      "US": 4640,
      "Trans": 4641,
      "nent": 4642,
      "ler": 4643,
      "CI": 4644,
      "taux": 4645,
      "them": 4646,
      "less": 4647,
      "active": 4648,
      "Ro": 4649,
      "level": 4650,
      "02": 4651,
      "pi": 4652,
      "documents": 4653,
      "aw": 4654,
      "loy": 4655,
      "International": 4656,
      "particular": 4657,
      "selon": 4658,
      "Union": 4659,
      "limit": 4660,
      "ET": 4661,
      "ints": 4662,
      "br": 4663,
      "ôt": 4664,
      "Government": 4665,
      "oblig": 4666,
      "ateurs": 4667,
      "stat": 4668,
      "tenu": 4669,
      "politiques": 4670,
      "ability": 4671,
      "prim": 4672,
      "law": 4673,
      "andid": 4674,
      "raph": 4675,
      "mig": 4676,
      "after": 4677,
      "nov": 4678,
      "both": 4679,
      "vol": 4680,
      "pra": 4681,
      "Regu": 4682,
      "explo": 4683,
      "priv": 4684,
      "review": 4685,
      "reement": 4686,
      "ural": 4687,
      "countries": 4688,
      "available": 4689,
      "Di": 4690,
      "instru": 4691,
      "canadienne": 4692,
      "wever": 4693,
      "period": 4694,
      "secteur": 4695,
      "Tri": 4696,
      "being": 4697,
      "tern": 4698,
      "Pol": 4699,
      "entreprises": 4700,
      "laire": 4701,
      "œu": 4702,
      "ince": 4703,
      "sement": 4704,
      "personnel": 4705,
      "CR": 4706,
      "examin": 4707,
      "conf": 4708,
      "bé": 4709,
      "regu": 4710,
      "famil": 4711,
      "lead": 4712,
      "determin": 4713,
      "uses": 4714,
      "refer": 4715,
      "ight": 4716,
      "increas": 4717,
      "har": 4718,
      "subst": 4719,
      "unal": 4720,
      "Gu": 4721,
      "parties": 4722,
      "1998": 4723,
      "relative": 4724,
      "candid": 4725,
      "déclar": 4726,
      "façon": 4727,
      "bi": 4728,
      "suc": 4729,
      "inform": 4730,
      "people": 4731,
      "major": 4732,
      "parten": 4733,
      "lè": 4734,
      "enf": 4735,
      "Ho": 4736,
      "seu": 4737,
      "iens": 4738,
      "cra": 4739,
      "road": 4740,
      "bility": 4741,
      "certain": 4742,
      "Cor": 4743,
      "06": 4744,
      "habit": 4745,
      "missions": 4746,
      "comb": 4747,
      "dou": 4748,
      "35": 4749,
      "équi": 4750,
      "bio": 4751,
      "care": 4752,
      "mod": 4753,
      "prendre": 4754,
      "compé": 4755,
      "ancement": 4756,
      "pé": 4757,
      "cir": 4758,
      "posed": 4759,
      ");": 4760,
      "paragraphe": 4761,
      "accep": 4762,
      "reat": 4763,
      "coû": 4764,
      "considé": 4765,
      "add": 4766,
      "tenti": 4767,
      "Univers": 4768,
      "your": 4769,
      "signific": 4770,
      "discus": 4771,
      "case": 4772,
      "Grou": 4773,
      "commit": 4774,
      "TH": 4775,
      "Institu": 4776,
      "général": 4777,
      "tor": 4778,
      "issues": 4779,
      "could": 4780,
      "ys": 4781,
      "défin": 4782,
      "Mon": 4783,
      "during": 4784,
      "ellement": 4785,
      "communau": 4786,
      "gran": 4787,
      "specific": 4788,
      "dol": 4789,
      "medi": 4790,
      "situation": 4791,
      "assess": 4792,
      "Jo": 4793,
      "atten": 4794,
      "aide": 4795,
      "project": 4796,
      "cl": 4797,
      "opération": 4798,
      "water": 4799,
      "Develop": 4800,
      "cue": 4801,
      "cisions": 4802,
      "affe": 4803,
      "sal": 4804,
      "emploi": 4805,
      "nel": 4806,
      "Board": 4807,
      "Agency": 4808,
      "Plan": 4809,
      "PC": 4810,
      "icul": 4811,
      "wa": 4812,
      "raison": 4813,
      "constru": 4814,
      "téri": 4815,
      "related": 4816,
      "groupe": 4817,
      "istance": 4818,
      "strateg": 4819,
      "dollar": 4820,
      "omen": 4821,
      "ours": 4822,
      "eau": 4823,
      "oire": 4824,
      "ick": 4825,
      "période": 4826,
      "transport": 4827,
      "utilisation": 4828,
      "nota": 4829,
      "Une": 4830,
      "99": 4831,
      "UE": 4832,
      "mesure": 4833,
      "augment": 4834,
      "ensure": 4835,
      "ghts": 4836,
      "ception": 4837,
      "olog": 4838,
      "fur": 4839,
      "sera": 4840,
      "iginal": 4841,
      "avait": 4842,
      "ici": 4843,
      "suff": 4844,
      "distribu": 4845,
      "many": 4846,
      "lectron": 4847,
      "grand": 4848,
      "cop": 4849,
      "relations": 4850,
      "________________": 4851,
      "occu": 4852,
      "benef": 4853,
      "orld": 4854,
      "second": 4855,
      "toutes": 4856,
      "required": 4857,
      "penses": 4858,
      "potenti": 4859,
      "médi": 4860,
      "ii": 4861,
      "Information": 4862,
      "participation": 4863,
      "employe": 4864,
      "marché": 4865,
      "current": 4866,
      "Cette": 4867,
      "pren": 4868,
      "general": 4869,
      "dies": 4870,
      "Si": 4871,
      "agric": 4872,
      "anc": 4873,
      "LA": 4874,
      "projets": 4875,
      "ME": 4876,
      "esp": 4877,
      "suite": 4878,
      "itation": 4879,
      "ok": 4880,
      "accès": 4881,
      "market": 4882,
      "invol": 4883,
      "cr": 4884,
      "eting": 4885,
      "lieu": 4886,
      "décision": 4887,
      "members": 4888,
      "examen": 4889,
      "mettre": 4890,
      "chaque": 4891,
      "PS": 4892,
      "33": 4893,
      "business": 4894,
      "General": 4895,
      "exper": 4896,
      "med": 4897,
      "post": 4898,
      "tta": 4899,
      "jects": 4900,
      "Sy": 4901,
      "gue": 4902,
      "nique": 4903,
      "economic": 4904,
      "local": 4905,
      "ible": 4906,
      "access": 4907,
      "CC": 4908,
      "inde": 4909,
      "region": 4910,
      "curity": 4911,
      "human": 4912,
      "ministre": 4913,
      "fem": 4914,
      "raient": 4915,
      "stud": 4916,
      "ped": 4917,
      "férence": 4918,
      "commercial": 4919,
      "rée": 4920,
      "Str": 4921,
      "sujet": 4922,
      "appu": 4923,
      "OF": 4924,
      "acts": 4925,
      "fier": 4926,
      "acqu": 4927,
      "IR": 4928,
      "represent": 4929,
      "page": 4930,
      "community": 4931,
      "connaiss": 4932,
      "EU": 4933,
      "TR": 4934,
      "fil": 4935,
      "sis": 4936,
      "test": 4937,
      "paragraph": 4938,
      "recei": 4939,
      "direct": 4940,
      "operation": 4941,
      "45": 4942,
      "Member": 4943,
      "voy": 4944,
      "jou": 4945,
      "federal": 4946,
      "Trib": 4947,
      "Ces": 4948,
      "infr": 4949,
      "tak": 4950,
      "nels": 4951,
      "07": 4952,
      "Research": 4953,
      "financial": 4954,
      "portun": 4955,
      "effective": 4956,
      "perform": 4957,
      "aur": 4958,
      "cin": 4959,
      "type": 4960,
      "crimin": 4961,
      "control": 4962,
      "européenne": 4963,
      "essenti": 4964,
      "fav": 4965,
      "mate": 4966,
      "Do": 4967,
      "gation": 4968,
      "ft": 4969,
      "sieurs": 4970,
      "own": 4971,
      "found": 4972,
      "avis": 4973,
      "entes": 4974,
      "hom": 4975,
      "take": 4976,
      "Tribunal": 4977,
      "repor": 4978,
      "ête": 4979,
      "vertu": 4980,
      "œuvre": 4981,
      "Air": 4982,
      "organismes": 4983,
      "1997": 4984,
      "ttawa": 4985,
      "va": 4986,
      "érie": 4987,
      "appel": 4988,
      "three": 4989,
      "training": 4990,
      "ateur": 4991,
      "then": 4992,
      "abilité": 4993,
      "tour": 4994,
      "années": 4995,
      "institutions": 4996,
      "probl": 4997,
      "Ottawa": 4998,
      "Ter": 4999,
      "ories": 5000,
      "notamment": 5001,
      "jours": 5002,
      "Comité": 5003,
      "étr": 5004,
      "qualité": 5005,
      "exis": 5006,
      "multi": 5007,
      "million": 5008,
      "unes": 5009,
      "intérê": 5010,
      "rési": 5011,
      "08": 5012,
      "allow": 5013,
      "range": 5014,
      "Qué": 5015,
      "exerc": 5016,
      "MENT": 5017,
      "Fr": 5018,
      "Is": 5019,
      "initiatives": 5020,
      "fra": 5021,
      "areas": 5022,
      "fications": 5023,
      "dollars": 5024,
      "Pri": 5025,
      "Associ": 5026,
      "pare": 5027,
      "tification": 5028,
      "dure": 5029,
      "Development": 5030,
      "Organ": 5031,
      "child": 5032,
      "Department": 5033,
      "loi": 5034,
      "Programme": 5035,
      "SI": 5036,
      "glo": 5037,
      "make": 5038,
      "programs": 5039,
      "avi": 5040,
      "large": 5041,
      "era": 5042,
      "right": 5043,
      "divers": 5044,
      "arm": 5045,
      "ization": 5046,
      "ps": 5047,
      "toch": 5048,
      "sector": 5049,
      "chi": 5050,
      "CH": 5051,
      "islation": 5052,
      "quent": 5053,
      "PE": 5054,
      "interest": 5055,
      "évalu": 5056,
      "pass": 5057,
      "Im": 5058,
      "Québec": 5059,
      "trad": 5060,
      "Web": 5061,
      "visions": 5062,
      "include": 5063,
      "vant": 5064,
      "ensemb": 5065,
      "products": 5066,
      "ough": 5067,
      "véri": 5068,
      "ze": 5069,
      "ites": 5070,
      "mation": 5071,
      "wn": 5072,
      "art": 5073,
      "resid": 5074,
      "propri": 5075,
      "95": 5076,
      "sol": 5077,
      "porte": 5078,
      "tural": 5079,
      "cet": 5080,
      "administration": 5081,
      "ED": 5082,
      "area": 5083,
      "tics": 5084,
      "qué": 5085,
      "reco": 5086,
      "197": 5087,
      "offer": 5088,
      "decision": 5089,
      "assurer": 5090,
      "écu": 5091,
      "regard": 5092,
      "practi": 5093,
      "Inc": 5094,
      "fy": 5095,
      "Date": 5096,
      "communication": 5097,
      "Br": 5098,
      "grow": 5099,
      "effectu": 5100,
      "auc": 5101,
      "quality": 5102,
      "tée": 5103,
      "ième": 5104,
      "éch": 5105,
      "sum": 5106,
      "core": 5107,
      "produc": 5108,
      "spéci": 5109,
      "exemple": 5110,
      "rights": 5111,
      "lines": 5112,
      "règlement": 5113,
      "ensemble": 5114,
      "due": 5115,
      "1996": 5116,
      "sc": 5117,
      "efforts": 5118,
      "mic": 5119,
      "proper": 5120,
      "fis": 5121,
      "Fo": 5122,
      "liament": 5123,
      "ime": 5124,
      "compl": 5125,
      "millions": 5126,
      "United": 5127,
      "Nu": 5128,
      "SE": 5129,
      "télé": 5130,
      "présente": 5131,
      "ot": 5132,
      "same": 5133,
      "arri": 5134,
      "étaient": 5135,
      "key": 5136,
      "transfer": 5137,
      "scienti": 5138,
      "nos": 5139,
      "très": 5140,
      "économique": 5141,
      "opportun": 5142,
      "sk": 5143,
      "Nations": 5144,
      "36": 5145,
      "ized": 5146,
      "read": 5147,
      "ati": 5148,
      "provincial": 5149,
      "ling": 5150,
      "titre": 5151,
      "OC": 5152,
      "compar": 5153,
      "ledge": 5154,
      "37": 5155,
      "Fir": 5156,
      "changes": 5157,
      "certains": 5158,
      "importance": 5159,
      "sources": 5160,
      "Per": 5161,
      "AM": 5162,
      "clear": 5163,
      "face": 5164,
      "defin": 5165,
      "mention": 5166,
      "sor": 5167,
      "how": 5168,
      "09": 5169,
      "isme": 5170,
      "participants": 5171,
      "There": 5172,
      "risk": 5173,
      "béné": 5174,
      "encour": 5175,
      "compris": 5176,
      "eux": 5177,
      "results": 5178,
      "Table": 5179,
      "atte": 5180,
      "bour": 5181,
      "ager": 5182,
      "These": 5183,
      "iser": 5184,
      "quelle": 5185,
      "recommand": 5186,
      "concent": 5187,
      "34": 5188,
      "satis": 5189,
      "mater": 5190,
      "ians": 5191,
      "vement": 5192,
      "chez": 5193,
      "Alber": 5194,
      "plusieurs": 5195,
      "cies": 5196,
      "prest": 5197,
      "ière": 5198,
      "ayant": 5199,
      "again": 5200,
      "Bure": 5201,
      "phone": 5202,
      "rate": 5203,
      "dép": 5204,
      "innov": 5205,
      "imum": 5206,
      "what": 5207,
      "resources": 5208,
      "appr": 5209,
      "étrang": 5210,
      "plans": 5211,
      "femmes": 5212,
      "astru": 5213,
      "acy": 5214,
      "before": 5215,
      "possibil": 5216,
      "budget": 5217,
      "If": 5218,
      "ica": 5219,
      "médic": 5220,
      "communications": 5221,
      "conse": 5222,
      "société": 5223,
      "IV": 5224,
      "First": 5225,
      "gy": 5226,
      "Nous": 5227,
      "whe": 5228,
      "Community": 5229,
      "partners": 5230,
      "necess": 5231,
      "impact": 5232,
      ".)": 5233,
      "Management": 5234,
      "exclu": 5235,
      "try": 5236,
      "aines": 5237,
      "38": 5238,
      "Bureau": 5239,
      "TA": 5240,
      "cont": 5241,
      "approach": 5242,
      "help": 5243,
      "measures": 5244,
      "hau": 5245,
      "requirements": 5246,
      "ID": 5247,
      "reç": 5248,
      "taire": 5249,
      "cord": 5250,
      "till": 5251,
      "Ban": 5252,
      "lat": 5253,
      "Am": 5254,
      "milit": 5255,
      "Bri": 5256,
      "Que": 5257,
      "dents": 5258,
      "itor": 5259,
      "tenant": 5260,
      "country": 5261,
      "TO": 5262,
      "rer": 5263,
      "métho": 5264,
      "moyen": 5265,
      "ath": 5266,
      "tient": 5267,
      "significant": 5268,
      "Cont": 5269,
      "Industr": 5270,
      "Contr": 5271,
      "nouveau": 5272,
      "mework": 5273,
      "groupes": 5274,
      "ises": 5275,
      "incre": 5276,
      "organisation": 5277,
      "institution": 5278,
      "objectifs": 5279,
      "ship": 5280,
      "huma": 5281,
      "Spe": 5282,
      "meeting": 5283,
      "AU": 5284,
      "fs": 5285,
      "consom": 5286,
      "prév": 5287,
      "rédu": 5288,
      ".\"": 5289,
      "administra": 5290,
      "effet": 5291,
      "39": 5292,
      "européen": 5293,
      "ward": 5294,
      "Work": 5295,
      "relev": 5296,
      "tré": 5297,
      "DU": 5298,
      "valeur": 5299,
      "llu": 5300,
      "observ": 5301,
      "Sub": 5302,
      "trade": 5303,
      "hic": 5304,
      "votre": 5305,
      "continue": 5306,
      "life": 5307,
      "appropriate": 5308,
      "industry": 5309,
      "Convention": 5310,
      "nexe": 5311,
      "sign": 5312,
      "does": 5313,
      "fish": 5314,
      "rique": 5315,
      "devrait": 5316,
      "laires": 5317,
      "eld": 5318,
      "ministère": 5319,
      "75": 5320,
      "gre": 5321,
      "alité": 5322,
      "mploy": 5323,
      "tones": 5324,
      "études": 5325,
      "év": 5326,
      "tte": 5327,
      "iller": 5328,
      "chool": 5329,
      "Fe": 5330,
      "expres": 5331,
      "générale": 5332,
      "enfants": 5333,
      "Aff": 5334,
      "points": 5335,
      "mode": 5336,
      "domaine": 5337,
      "nouvelles": 5338,
      "IL": 5339,
      "Association": 5340,
      "CF": 5341,
      "fix": 5342,
      "financement": 5343,
      "……": 5344,
      "seront": 5345,
      "occup": 5346,
      "interven": 5347,
      "Indi": 5348,
      "EL": 5349,
      "44": 5350,
      "mall": 5351,
      "bilité": 5352,
      "ade": 5353,
      "Canadians": 5354,
      "role": 5355,
      "wer": 5356,
      "further": 5357,
      "produit": 5358,
      "èrement": 5359,
      "ieux": 5360,
      "mois": 5361,
      "lements": 5362,
      "xi": 5363,
      "Char": 5364,
      "Car": 5365,
      "illance": 5366,
      "ticles": 5367,
      "enqu": 5368,
      "lim": 5369,
      "nelle": 5370,
      "égard": 5371,
      "ceux": 5372,
      "enregis": 5373,
      "sto": 5374,
      "méro": 5375,
      "fran": 5376,
      "étude": 5377,
      "PA": 5378,
      "amount": 5379,
      "Abor": 5380,
      "intégr": 5381,
      "intro": 5382,
      "structure": 5383,
      "alo": 5384,
      "ron": 5385,
      "term": 5386,
      "besoins": 5387,
      "État": 5388,
      "AND": 5389,
      "sug": 5390,
      "Eng": 5391,
      "tochtones": 5392,
      "PO": 5393,
      "dispositions": 5394,
      "offici": 5395,
      "investis": 5396,
      "Alberta": 5397,
      "ouse": 5398,
      "sing": 5399,
      "ross": 5400,
      "basis": 5401,
      "sse": 5402,
      "increase": 5403,
      "traitement": 5404,
      "industrie": 5405,
      "hist": 5406,
      "different": 5407,
      "acces": 5408,
      "réun": 5409,
      "month": 5410,
      "anim": 5411,
      "activité": 5412,
      "cover": 5413,
      "invest": 5414,
      "systèmes": 5415,
      "ort": 5416,
      "und": 5417,
      "Je": 5418,
      "Director": 5419,
      "dépenses": 5420,
      "jusqu": 5421,
      "Rap": 5422,
      "éle": 5423,
      "erve": 5424,
      "tem": 5425,
      "Unis": 5426,
      "entreprise": 5427,
      "However": 5428,
      "rier": 5429,
      "Aboriginal": 5430,
      "systems": 5431,
      "projects": 5432,
      "»,": 5433,
      "notre": 5434,
      "taken": 5435,
      "women": 5436,
      "ouv": 5437,
      "Hu": 5438,
      "48": 5439,
      "ones": 5440,
      "90": 5441,
      "contex": 5442,
      "deli": 5443,
      "nationaux": 5444,
      "employés": 5445,
      "expe": 5446,
      "rôle": 5447,
      "March": 5448,
      "niques": 5449,
      "Internet": 5450,
      "ual": 5451,
      "jeunes": 5452,
      "ître": 5453,
      "Parliament": 5454,
      "rug": 5455,
      "hold": 5456,
      "enter": 5457,
      "tradition": 5458,
      "inci": 5459,
      "lated": 5460,
      "omb": 5461,
      "prog": 5462,
      "OM": 5463,
      "ases": 5464,
      "espè": 5465,
      "contrôle": 5466,
      "onto": 5467,
      "initiative": 5468,
      "objet": 5469,
      "capital": 5470,
      "ference": 5471,
      "anté": 5472,
      "PD": 5473,
      "working": 5474,
      "hand": 5475,
      "vil": 5476,
      "fig": 5477,
      "réalis": 5478,
      "proce": 5479,
      "ely": 5480,
      "spécial": 5481,
      "adap": 5482,
      "66": 5483,
      "Total": 5484,
      "----": 5485,
      "sex": 5486,
      "nouveaux": 5487,
      "ators": 5488,
      "Comp": 5489,
      "emb": 5490,
      "ator": 5491,
      "influ": 5492,
      "staff": 5493,
      "obtenir": 5494,
      "because": 5495,
      "dispon": 5496,
      "wan": 5497,
      "ordon": 5498,
      "exécu": 5499,
      "needs": 5500,
      "environmental": 5501,
      "grande": 5502,
      "fais": 5503,
      "visant": 5504,
      "DI": 5505,
      "analyse": 5506,
      "prix": 5507,
      "savoir": 5508,
      "charge": 5509,
      "éco": 5510,
      "issue": 5511,
      "ily": 5512,
      "whether": 5513,
      "sites": 5514,
      "Section": 5515,
      "hol": 5516,
      "eness": 5517,
      "Polic": 5518,
      "stu": 5519,
      "Jan": 5520,
      "mondi": 5521,
      "design": 5522,
      "my": 5523,
      "Canadiens": 5524,
      "Tor": 5525,
      "ga": 5526,
      "portion": 5527,
      "prési": 5528,
      "against": 5529,
      "special": 5530,
      "Premi": 5531,
      "construction": 5532,
      "costs": 5533,
      "future": 5534,
      "equi": 5535,
      "ond": 5536,
      "airs": 5537,
      "soins": 5538,
      "som": 5539,
      "aliment": 5540,
      "Oc": 5541,
      "risque": 5542,
      "vious": 5543,
      "déta": 5544,
      "CAN": 5545,
      "contribution": 5546,
      "1995": 5547,
      "Part": 5548,
      "tend": 5549,
      "ism": 5550,
      "Règ": 5551,
      "relatives": 5552,
      "necessary": 5553,
      "faut": 5554,
      "cueil": 5555,
      "Offic": 5556,
      "collectiv": 5557,
      "fond": 5558,
      "Amer": 5559,
      "ency": 5560,
      "Ju": 5561,
      "étudi": 5562,
      "diver": 5563,
      "80": 5564,
      "Jus": 5565,
      "funding": 5566,
      "dec": 5567,
      "redu": 5568,
      "security": 5569,
      "première": 5570,
      "favor": 5571,
      "circu": 5572,
      "formu": 5573,
      "conséqu": 5574,
      "groups": 5575,
      "destin": 5576,
      "aspe": 5577,
      "knowledge": 5578,
      "organisations": 5579,
      "result": 5580,
      "compéten": 5581,
      "iné": 5582,
      "achie": 5583,
      "value": 5584,
      "using": 5585,
      "claim": 5586,
      "seulement": 5587,
      "sti": 5588,
      "GR": 5589,
      "vidence": 5590,
      "while": 5591,
      "manu": 5592,
      "mom": 5593,
      "ograph": 5594,
      "State": 5595,
      "fonds": 5596,
      "pouvoir": 5597,
      "ieu": 5598,
      "Ministère": 5599,
      "six": 5600,
      "bur": 5601,
      "province": 5602,
      "fab": 5603,
      "lis": 5604,
      "Gr": 5605,
      "treat": 5606,
      "subject": 5607,
      "competi": 5608,
      "instal": 5609,
      "uring": 5610,
      "ification": 5611,
      "proble": 5612,
      "Assemb": 5613,
      "Regulations": 5614,
      "cell": 5615,
      "Sur": 5616,
      "investi": 5617,
      "oth": 5618,
      "University": 5619,
      "rése": 5620,
      "èle": 5621,
      "premier": 5622,
      "soutien": 5623,
      "posé": 5624,
      "issance": 5625,
      "éléments": 5626,
      "condu": 5627,
      "tar": 5628,
      "performance": 5629,
      "tained": 5630,
      "ilding": 5631,
      "material": 5632,
      "terme": 5633,
      "tel": 5634,
      "65": 5635,
      "SA": 5636,
      "Ou": 5637,
      "infrastru": 5638,
      "real": 5639,
      "provides": 5640,
      "expéri": 5641,
      "67": 5642,
      "study": 5643,
      "dy": 5644,
      "oires": 5645,
      "32": 5646,
      "experi": 5647,
      "correspon": 5648,
      "CN": 5649,
      "frais": 5650,
      "améliorer": 5651,
      "fau": 5652,
      "govern": 5653,
      "judic": 5654,
      "gni": 5655,
      "bénéfic": 5656,
      "assistance": 5657,
      "47": 5658,
      "among": 5659,
      "nie": 5660,
      "given": 5661,
      "laquelle": 5662,
      "ased": 5663,
      "education": 5664,
      "lais": 5665,
      "Nouve": 5666,
      "49": 5667,
      "coordin": 5668,
      "address": 5669,
      "soli": 5670,
      "example": 5671,
      "porter": 5672,
      "ligne": 5673,
      "comment": 5674,
      "mars": 5675,
      "lor": 5676,
      "internationale": 5677,
      "prépar": 5678,
      "export": 5679,
      "isla": 5680,
      "tariat": 5681,
      "amen": 5682,
      "coûts": 5683,
      "implementation": 5684,
      "depart": 5685,
      "encore": 5686,
      "recommend": 5687,
      "avons": 5688,
      "sau": 5689,
      "manière": 5690,
      "naires": 5691,
      "she": 5692,
      "side": 5693,
      "promotion": 5694,
      "efficac": 5695,
      "88": 5696,
      "did": 5697,
      "lit": 5698,
      "May": 5699,
      "assessment": 5700,
      "Tech": 5701,
      "radio": 5702,
      "eter": 5703,
      "June": 5704,
      "Cla": 5705,
      "atre": 5706,
      "Report": 5707,
      "Be": 5708,
      "world": 5709,
      "THE": 5710,
      "donc": 5711,
      "Dr": 5712,
      "environment": 5713,
      "hib": 5714,
      "ission": 5715,
      "revenu": 5716,
      "without": 5717,
      "goods": 5718,
      "self": 5719,
      "technologies": 5720,
      "55": 5721,
      "pourrait": 5722,
      "Toronto": 5723,
      "gie": 5724,
      "proposed": 5725,
      "Other": 5726,
      "certaines": 5727,
      "Sask": 5728,
      "communities": 5729,
      "ness": 5730,
      "note": 5731,
      "endre": 5732,
      "means": 5733,
      "nouvelle": 5734,
      "Lab": 5735,
      "fique": 5736,
      "hal": 5737,
      "conformément": 5738,
      "organizations": 5739,
      "North": 5740,
      "concerne": 5741,
      "Parti": 5742,
      "ep": 5743,
      "levels": 5744,
      "celle": 5745,
      "employment": 5746,
      "small": 5747,
      "coup": 5748,
      "attribu": 5749,
      "Santé": 5750,
      "Elle": 5751,
      "endment": 5752,
      "provinces": 5753,
      "yl": 5754,
      "cases": 5755,
      "ergy": 5756,
      "Nord": 5757,
      "intéri": 5758,
      "univers": 5759,
      "atory": 5760,
      "TE": 5761,
      "mag": 5762,
      "back": 5763,
      "considered": 5764,
      "joint": 5765,
      "déce": 5766,
      "surveillance": 5767,
      "oeu": 5768,
      "individual": 5769,
      "capacité": 5770,
      "depuis": 5771,
      "nécessaire": 5772,
      "matéri": 5773,
      "established": 5774,
      "jan": 5775,
      "FC": 5776,
      "malad": 5777,
      "1994": 5778,
      "lear": 5779,
      "soient": 5780,
      "moment": 5781,
      "effets": 5782,
      "PP": 5783,
      "quant": 5784,
      "fai": 5785,
      "relevant": 5786,
      "ène": 5787,
      "bure": 5788,
      "tific": 5789,
      "meth": 5790,
      "ox": 5791,
      "poration": 5792,
      "MA": 5793,
      "pan": 5794,
      "VI": 5795,
      "llectu": 5796,
      "event": 5797,
      "Policy": 5798,
      "unique": 5799,
      "tage": 5800,
      "Af": 5801,
      "juin": 5802,
      "types": 5803,
      "curr": 5804,
      "».": 5805,
      "ulture": 5806,
      "member": 5807,
      "difficul": 5808,
      "state": 5809,
      "fins": 5810,
      "CON": 5811,
      "rapports": 5812,
      "sever": 5813,
      "food": 5814,
      "abo": 5815,
      "icip": 5816,
      "guide": 5817,
      "istes": 5818,
      "NE": 5819,
      "précis": 5820,
      "income": 5821,
      "distribution": 5822,
      "idi": 5823,
      "montant": 5824,
      "sui": 5825,
      "apply": 5826,
      "rele": 5827,
      "commerce": 5828,
      "sais": 5829,
      "lée": 5830,
      "bed": 5831,
      "direction": 5832,
      ")(": 5833,
      "canadiennes": 5834,
      "exigences": 5835,
      "max": 5836,
      "venir": 5837,
      "request": 5838,
      "received": 5839,
      "sw": 5840,
      "613": 5841,
      "enh": 5842,
      "Saskat": 5843,
      "risques": 5844,
      "Employ": 5845,
      "sein": 5846,
      "COM": 5847,
      "quanti": 5848,
      "Ver": 5849,
      "orient": 5850,
      "version": 5851,
      "collaboration": 5852,
      "standing": 5853,
      "ird": 5854,
      "ril": 5855,
      "état": 5856,
      "éner": 5857,
      "ics": 5858,
      "suppl": 5859,
      "head": 5860,
      "show": 5861,
      "normes": 5862,
      "consultation": 5863,
      "since": 5864,
      "ged": 5865,
      "success": 5866,
      "minu": 5867,
      "super": 5868,
      "permis": 5869,
      "clients": 5870,
      "making": 5871,
      "uk": 5872,
      "Dece": 5873,
      "vier": 5874,
      "tle": 5875,
      "pratiques": 5876,
      "broad": 5877,
      "improve": 5878,
      "fédéral": 5879,
      "gin": 5880,
      "develo": 5881,
      "établi": 5882,
      "Court": 5883,
      "technology": 5884,
      "Ne": 5885,
      "proté": 5886,
      "December": 5887,
      "simp": 5888,
      "pat": 5889,
      "pt": 5890,
      "hn": 5891,
      "record": 5892,
      "official": 5893,
      "hé": 5894,
      "exercice": 5895,
      "etc": 5896,
      "demandes": 5897,
      "agreement": 5898,
      "da": 5899,
      "potential": 5900,
      "Group": 5901,
      "nat": 5902,
      "bac": 5903,
      "donné": 5904,
      "increased": 5905,
      "autom": 5906,
      "ussi": 5907,
      "pê": 5908,
      "saf": 5909,
      "NO": 5910,
      "dépend": 5911,
      "Sup": 5912,
      "legal": 5913,
      "particulier": 5914,
      "perman": 5915,
      "oute": 5916,
      "affaires": 5917,
      "itob": 5918,
      "tish": 5919,
      "sibles": 5920,
      "lorsque": 5921,
      "employees": 5922,
      "techniques": 5923,
      "................": 5924,
      "late": 5925,
      "85": 5926,
      "abs": 5927,
      "licence": 5928,
      "gueur": 5929,
      "Agreement": 5930,
      "fournir": 5931,
      "Ob": 5932,
      "benefits": 5933,
      "tées": 5934,
      "aving": 5935,
      "problèmes": 5936,
      "arch": 5937,
      "raux": 5938,
      "déterminer": 5939,
      "46": 5940,
      "HR": 5941,
      "ared": 5942,
      "41": 5943,
      "naire": 5944,
      "Agence": 5945,
      "provisions": 5946,
      "carri": 5947,
      "regional": 5948,
      "deta": 5949,
      "électron": 5950,
      "aci": 5951,
      "Ph": 5952,
      "Human": 5953,
      "tations": 5954,
      "Apr": 5955,
      "condition": 5956,
      "aged": 5957,
      "developed": 5958,
      "rendement": 5959,
      "opin": 5960,
      "zone": 5961,
      "children": 5962,
      "responsibil": 5963,
      "Quebec": 5964,
      "phy": 5965,
      "Septe": 5966,
      "hor": 5967,
      "percent": 5968,
      "Règlement": 5969,
      "Region": 5970,
      "celles": 5971,
      "celui": 5972,
      "preu": 5973,
      "servation": 5974,
      "outre": 5975,
      "bri": 5976,
      "complex": 5977,
      "affect": 5978,
      "Description": 5979,
      "ways": 5980,
      "mitted": 5981,
      "Accord": 5982,
      "plain": 5983,
      "Manitob": 5984,
      "ustom": 5985,
      "poste": 5986,
      "htm": 5987,
      "décembre": 5988,
      "common": 5989,
      "accoun": 5990,
      "bar": 5991,
      "Sci": 5992,
      "British": 5993,
      "language": 5994,
      "\".": 5995,
      "source": 5996,
      "effect": 5997,
      "SO": 5998,
      "intérêt": 5999,
      "property": 6000,
      "aper": 6001,
      "70": 6002,
      "DES": 6003,
      "paie": 6004,
      "All": 6005,
      "issent": 6006,
      "Manitoba": 6007,
      "ey": 6008,
      "framework": 6009,
      "pment": 6010,
      "limin": 6011,
      "suit": 6012,
      "ili": 6013,
      "Division": 6014,
      "like": 6015,
      "rées": 6016,
      "étés": 6017,
      "policies": 6018,
      "TC": 6019,
      "Mc": 6020,
      "nelles": 6021,
      "travaux": 6022,
      "avantage": 6023,
      "conta": 6024,
      "ican": 6025,
      "croissance": 6026,
      "terms": 6027,
      "occas": 6028,
      "asse": 6029,
      "reli": 6030,
      "cure": 6031,
      "trim": 6032,
      "établissement": 6033,
      "exist": 6034,
      "Code": 6035,
      "tection": 6036,
      "Soci": 6037,
      "élabor": 6038,
      "IM": 6039,
      "down": 6040,
      "auprès": 6041,
      "1990": 6042,
      "September": 6043,
      "safety": 6044,
      "liv": 6045,
      "put": 6046,
      "final": 6047,
      "poses": 6048,
      "Docu": 6049,
      "obser": 6050,
      "fiques": 6051,
      "admis": 6052,
      "articles": 6053,
      "ole": 6054,
      "informations": 6055,
      "besoin": 6056,
      "stain": 6057,
      "April": 6058,
      "pati": 6059,
      "various": 6060,
      "confir": 6061,
      "den": 6062,
      "PRO": 6063,
      "coopération": 6064,
      "activity": 6065,
      "stances": 6066,
      "recogni": 6067,
      "SP": 6068,
      "discrimin": 6069,
      "aver": 6070,
      "just": 6071,
      "itre": 6072,
      "assurance": 6073,
      "dée": 6074,
      "ustr": 6075,
      "inspe": 6076,
      "growth": 6077,
      "light": 6078,
      "product": 6079,
      "ills": 6080,
      "septe": 6081,
      "oy": 6082,
      "Produ": 6083,
      "Communic": 6084,
      "focus": 6085,
      "classi": 6086,
      "contract": 6087,
      "septembre": 6088,
      "thern": 6089,
      "statis": 6090,
      "étant": 6091,
      "gues": 6092,
      "atta": 6093,
      "resident": 6094,
      "reason": 6095,
      "Initi": 6096,
      "Her": 6097,
      "supplément": 6098,
      "yer": 6099,
      "nical": 6100,
      "infe": 6101,
      "audi": 6102,
      "Parlement": 6103,
      "rations": 6104,
      "nés": 6105,
      "Adminis": 6106,
      "aider": 6107,
      "male": 6108,
      "élaboration": 6109,
      "ination": 6110,
      "bru": 6111,
      "minor": 6112,
      "species": 6113,
      "John": 6114,
      "location": 6115,
      "prob": 6116,
      "here": 6117,
      "migration": 6118,
      "remp": 6119,
      "allen": 6120,
      "medic": 6121,
      "experience": 6122,
      "turn": 6123,
      "jà": 6124,
      "mail": 6125,
      "hen": 6126,
      "97": 6127,
      "evidence": 6128,
      "98": 6129,
      "offr": 6130,
      "vient": 6131,
      "aliné": 6132,
      "eth": 6133,
      "BC": 6134,
      "uary": 6135,
      "Guide": 6136,
      "dossi": 6137,
      "**": 6138,
      "included": 6139,
      "autochtones": 6140,
      "ror": 6141,
      "FOR": 6142,
      "déjà": 6143,
      "Octo": 6144,
      "ann": 6145,
      "directive": 6146,
      "Atlan": 6147,
      "chedu": 6148,
      "établir": 6149,
      "times": 6150,
      "quali": 6151,
      "avril": 6152,
      "technologie": 6153,
      "exploitation": 6154,
      "ctures": 6155,
      "later": 6156,
      "Secre": 6157,
      "chewan": 6158,
      "reed": 6159,
      "43": 6160,
      "devraient": 6161,
      "%)": 6162,
      "cit": 6163,
      "nove": 6164,
      "FR": 6165,
      "lac": 6166,
      "standards": 6167,
      "régions": 6168,
      "capacity": 6169,
      "mai": 6170,
      "taking": 6171,
      "obligations": 6172,
      "ritan": 6173,
      "quatre": 6174,
      "territor": 6175,
      "portant": 6176,
      "comité": 6177,
      "outh": 6178,
      "cept": 6179,
      "sustain": 6180,
      "resse": 6181,
      "iver": 6182,
      "dés": 6183,
      "ina": 6184,
      "above": 6185,
      "surance": 6186,
      "January": 6187,
      "agree": 6188,
      "Strateg": 6189,
      "oto": 6190,
      "lt": 6191,
      "ging": 6192,
      "Saskatchewan": 6193,
      "full": 6194,
      "fabric": 6195,
      "tran": 6196,
      "monde": 6197,
      "cultural": 6198,
      "oeuvre": 6199,
      "42": 6200,
      "trava": 6201,
      "Ste": 6202,
      "field": 6203,
      "encies": 6204,
      "ctors": 6205,
      "thé": 6206,
      "catég": 6207,
      "Cap": 6208,
      "aspects": 6209,
      "Télé": 6210,
      "NA": 6211,
      "lie": 6212,
      "ilo": 6213,
      "name": 6214,
      "Pe": 6215,
      "analysis": 6216,
      "centre": 6217,
      "canadiens": 6218,
      "syn": 6219,
      "Ma": 6220,
      "secteurs": 6221,
      "held": 6222,
      "ane": 6223,
      "vice": 6224,
      "Trade": 6225,
      "ération": 6226,
      "suppor": 6227,
      "open": 6228,
      "With": 6229,
      "Nove": 6230,
      "Fran": 6231,
      "Lors": 6232,
      "lace": 6233,
      "gal": 6234,
      "Cer": 6235,
      "référence": 6236,
      "LO": 6237,
      "CT": 6238,
      "command": 6239,
      "entra": 6240,
      "October": 6241,
      "rales": 6242,
      "cinq": 6243,
      "partir": 6244,
      "\",": 6245,
      "objectives": 6246,
      "compli": 6247,
      "principal": 6248,
      "applicable": 6249,
      "restric": 6250,
      "additional": 6251,
      "school": 6252,
      "account": 6253,
      "500": 6254,
      "forcement": 6255,
      "anci": 6256,
      "fense": 6257,
      "rant": 6258,
      "GE": 6259,
      "Mme": 6260,
      "atoire": 6261,
      "persons": 6262,
      "alors": 6263,
      "gener": 6264,
      "janvier": 6265,
      "lier": 6266,
      "opérations": 6267,
      "décisions": 6268,
      "trou": 6269,
      "said": 6270,
      "monitor": 6271,
      "membre": 6272,
      "dix": 6273,
      "suffis": 6274,
      "poser": 6275,
      "clin": 6276,
      "pursu": 6277,
      "global": 6278,
      "juridi": 6279,
      "compan": 6280,
      "III": 6281,
      "They": 6282,
      "hon": 6283,
      "liste": 6284,
      "office": 6285,
      "termes": 6286,
      "legislation": 6287,
      "nam": 6288,
      "illet": 6289,
      "président": 6290,
      "Direction": 6291,
      "octo": 6292,
      "changements": 6293,
      "goci": 6294,
      "existing": 6295,
      "issant": 6296,
      "cedures": 6297,
      "élev": 6298,
      "play": 6299,
      "infrastructure": 6300,
      "innovation": 6301,
      "ibles": 6302,
      "descri": 6303,
      "recent": 6304,
      "ols": 6305,
      "1er": 6306,
      "municip": 6307,
      "lon": 6308,
      "ular": 6309,
      "propriété": 6310,
      "indre": 6311,
      "zed": 6312,
      "building": 6313,
      "mieux": 6314,
      "conduc": 6315,
      "minist": 6316,
      "accordance": 6317,
      "trices": 6318,
      "Environment": 6319,
      "compos": 6320,
      "Pers": 6321,
      "Roy": 6322,
      "CS": 6323,
      "Statis": 6324,
      "ders": 6325,
      "Amen": 6326,
      "compla": 6327,
      "fié": 6328,
      "nécessaires": 6329,
      "Econom": 6330,
      "efficace": 6331,
      "proven": 6332,
      "populations": 6333,
      "Transport": 6334,
      "exten": 6335,
      "better": 6336,
      "octobre": 6337,
      "Colu": 6338,
      "identified": 6339,
      "days": 6340,
      "Pl": 6341,
      "histor": 6342,
      "last": 6343,
      "ices": 6344,
      "marchés": 6345,
      "intellectu": 6346,
      "list": 6347,
      "contact": 6348,
      "CD": 6349,
      "treatment": 6350,
      "measure": 6351,
      "sition": 6352,
      "Columb": 6353,
      "milieu": 6354,
      "tele": 6355,
      "Toute": 6356,
      "five": 6357,
      "hydro": 6358,
      "formed": 6359,
      "beau": 6360,
      "font": 6361,
      "dia": 6362,
      "session": 6363,
      "olutions": 6364,
      "taining": 6365,
      "ciaux": 6366,
      "across": 6367,
      "marchand": 6368,
      "personal": 6369,
      "Minis": 6370,
      "TER": 6371,
      "quels": 6372,
      "developing": 6373,
      "acter": 6374,
      "déb": 6375,
      "):": 6376,
      "pertin": 6377,
      "appar": 6378,
      "agent": 6379,
      "comes": 6380,
      "sco": 6381,
      "private": 6382,
      "pression": 6383,
      "acquis": 6384,
      "ritannique": 6385,
      "sements": 6386,
      "ore": 6387,
      "ind": 6388,
      "intention": 6389,
      "compag": 6390,
      "conna": 6391,
      "Directive": 6392,
      "meet": 6393,
      "lish": 6394,
      "création": 6395,
      "serait": 6396,
      "simil": 6397,
      "even": 6398,
      "November": 6399,
      "dant": 6400,
      "mécan": 6401,
      "objectif": 6402,
      "aring": 6403,
      "vigueur": 6404,
      "directeur": 6405,
      "terres": 6406,
      "leaders": 6407,
      "organization": 6408,
      "distin": 6409,
      "cing": 6410,
      "substances": 6411,
      "Mé": 6412,
      "ING": 6413,
      "responsible": 6414,
      "avaient": 6415,
      "consu": 6416,
      "good": 6417,
      "ending": 6418,
      "annexe": 6419,
      "vérification": 6420,
      "uti": 6421,
      "evaluation": 6422,
      "itaire": 6423,
      "Columbia": 6424,
      "aison": 6425,
      "régime": 6426,
      "Colomb": 6427,
      "négoci": 6428,
      "précé": 6429,
      "quar": 6430,
      "ither": 6431,
      "Ab": 6432,
      "implement": 6433,
      "68": 6434,
      "ministères": 6435,
      "Amendement": 6436,
      "communautaire": 6437,
      "autoris": 6438,
      "rain": 6439,
      "authorities": 6440,
      "ground": 6441,
      "organisme": 6442,
      "lik": 6443,
      "Ge": 6444,
      "central": 6445,
      "micro": 6446,
      "aucune": 6447,
      "chap": 6448,
      "wide": 6449,
      "Sel": 6450,
      "fle": 6451,
      "every": 6452,
      "tox": 6453,
      "paid": 6454,
      "half": 6455,
      "effects": 6456,
      "drug": 6457,
      "IPO": 6458,
      "sélection": 6459,
      "dr": 6460,
      "Pa": 6461,
      "origin": 6462,
      "suivants": 6463,
      "several": 6464,
      "suivi": 6465,
      "gré": 6466,
      "contributions": 6467,
      "Sh": 6468,
      "âce": 6469,
      "July": 6470,
      "war": 6471,
      "proportion": 6472,
      "agit": 6473,
      "ventions": 6474,
      "biens": 6475,
      "publication": 6476,
      "job": 6477,
      "numéro": 6478,
      "streng": 6479,
      "tels": 6480,
      "reports": 6481,
      "gest": 6482,
      "éducation": 6483,
      "utiliser": 6484,
      "novembre": 6485,
      "operations": 6486,
      "OS": 6487,
      "...": 6488,
      "mus": 6489,
      "web": 6490,
      "déclaration": 6491,
      "publish": 6492,
      "OU": 6493,
      "Project": 6494,
      "equipment": 6495,
      "CANAD": 6496,
      "Home": 6497,
      "procédure": 6498,
      "previous": 6499,
      "sons": 6500,
      "administr": 6501,
      "ready": 6502,
      "stratégie": 6503,
      "EUR": 6504,
      "1993": 6505,
      "vise": 6506,
      "ior": 6507,
      "ends": 6508,
      "alogue": 6509,
      "sent": 6510,
      "économiques": 6511,
      "erre": 6512,
      "alinéa": 6513,
      "lorsqu": 6514,
      "foreign": 6515,
      "rench": 6516,
      "DA": 6517,
      "partenari": 6518,
      "Med": 6519,
      "approche": 6520,
      "espèces": 6521,
      "domes": 6522,
      "aging": 6523,
      "Net": 6524,
      "kes": 6525,
      "company": 6526,
      "valid": 6527,
      "annual": 6528,
      "Amendment": 6529,
      "enquête": 6530,
      "Ru": 6531,
      "ignement": 6532,
      "1992": 6533,
      "remain": 6534,
      "cat": 6535,
      "77": 6536,
      "mocra": 6537,
      "quelles": 6538,
      "ender": 6539,
      "applications": 6540,
      "purpose": 6541,
      "dits": 6542,
      "Syste": 6543,
      "QU": 6544,
      "identify": 6545,
      "Li": 6546,
      "ailleurs": 6547,
      "France": 6548,
      "voit": 6549,
      "flu": 6550,
      "rates": 6551,
      "similar": 6552,
      "désig": 6553,
      "dures": 6554,
      "depend": 6555,
      "traité": 6556,
      "employee": 6557,
      "facteurs": 6558,
      "dang": 6559,
      "itaires": 6560,
      "Brun": 6561,
      "partnership": 6562,
      "acting": 6563,
      "concurr": 6564,
      "58": 6565,
      "Federal": 6566,
      "usion": 6567,
      "involved": 6568,
      "Tele": 6569,
      "lack": 6570,
      "équipe": 6571,
      "practices": 6572,
      "moder": 6573,
      "latory": 6574,
      "procedures": 6575,
      "tiers": 6576,
      "strong": 6577,
      "Resources": 6578,
      "partenaires": 6579,
      "ecu": 6580,
      "uit": 6581,
      "authority": 6582,
      "feu": 6583,
      "humaines": 6584,
      "expected": 6585,
      "renfor": 6586,
      "response": 6587,
      "sociale": 6588,
      "disposition": 6589,
      "Pay": 6590,
      "works": 6591,
      "marchandises": 6592,
      "biolog": 6593,
      "introdu": 6594,
      "recher": 6595,
      "investment": 6596,
      "subsection": 6597,
      "outil": 6598,
      "domaines": 6599,
      "acté": 6600,
      "gés": 6601,
      "dated": 6602,
      "French": 6603,
      "PAR": 6604,
      "reported": 6605,
      "SU": 6606,
      "souvent": 6607,
      "istent": 6608,
      "compétences": 6609,
      "trop": 6610,
      "viol": 6611,
      "associated": 6612,
      "Colombie": 6613,
      "vul": 6614,
      "nations": 6615,
      "IA": 6616,
      "challen": 6617,
      "Har": 6618,
      "Applic": 6619,
      "Fon": 6620,
      "communi": 6621,
      "provision": 6622,
      "wee": 6623,
      "efficacité": 6624,
      "volu": 6625,
      "client": 6626,
      "providing": 6627,
      "accro": 6628,
      "offre": 6629,
      "orig": 6630,
      "Che": 6631,
      "gent": 6632,
      "aven": 6633,
      "FA": 6634,
      "least": 6635,
      "lands": 6636,
      "Nom": 6637,
      "td": 6638,
      "plupart": 6639,
      "ley": 6640,
      "energy": 6641,
      "another": 6642,
      "connaissances": 6643,
      "civil": 6644,
      "fully": 6645,
      "gement": 6646,
      "opinion": 6647,
      "relation": 6648,
      "benefit": 6649,
      "English": 6650,
      "ût": 6651,
      "political": 6652,
      "érer": 6653,
      "porta": 6654,
      "juillet": 6655,
      "venue": 6656,
      "attention": 6657,
      "audit": 6658,
      "réseau": 6659,
      "Stand": 6660,
      "calcu": 6661,
      "preuve": 6662,
      "rev": 6663,
      "échan": 6664,
      "pension": 6665,
      "monstr": 6666,
      "exter": 6667,
      "tri": 6668,
      "collectivités": 6669,
      "therefore": 6670,
      "anced": 6671,
      "referred": 6672,
      "best": 6673,
      "lect": 6674,
      "franç": 6675,
      "deal": 6676,
      "contrat": 6677,
      "ids": 6678,
      "brev": 6679,
      "occasion": 6680,
      "purposes": 6681,
      "months": 6682,
      "eries": 6683,
      "Op": 6684,
      "aliments": 6685,
      "96": 6686,
      "publics": 6687,
      "Ed": 6688,
      "exception": 6689,
      "oles": 6690,
      "ize": 6691,
      "économie": 6692,
      "prê": 6693,
      "planning": 6694,
      "règles": 6695,
      "agents": 6696,
      "IB": 6697,
      "Environmental": 6698,
      "Institute": 6699,
      "instruments": 6700,
      "enz": 6701,
      "MD": 6702,
      "eria": 6703,
      "planification": 6704,
      "studies": 6705,
      "power": 6706,
      "tenus": 6707,
      "tempor": 6708,
      "TS": 6709,
      "extéri": 6710,
      "grès": 6711,
      "holders": 6712,
      "itage": 6713,
      "rules": 6714,
      "déci": 6715,
      "ury": 6716,
      "titude": 6717,
      "Sco": 6718,
      "effec": 6719,
      "Val": 6720,
      "mandat": 6721,
      "conservation": 6722,
      "however": 6723,
      "Treat": 6724,
      ".-": 6725,
      "phys": 6726,
      "administrative": 6727,
      "56": 6728,
      "pollu": 6729,
      "likely": 6730,
      "habitat": 6731,
      "family": 6732,
      "ront": 6733,
      "beaucoup": 6734,
      "différents": 6735,
      "ville": 6736,
      "Affairs": 6737,
      "cès": 6738,
      "word": 6739,
      "bureau": 6740,
      "financière": 6741,
      "dise": 6742,
      "respective": 6743,
      "agers": 6744,
      "experts": 6745,
      "augmentation": 6746,
      "ranch": 6747,
      "mises": 6748,
      "mary": 6749,
      "police": 6750,
      "priorités": 6751,
      "Technolog": 6752,
      "ights": 6753,
      "fence": 6754,
      "changement": 6755,
      "connaissance": 6756,
      "chives": 6757,
      "itions": 6758,
      "Stu": 6759,
      "Non": 6760,
      "having": 6761,
      "swick": 6762,
      "phase": 6763,
      "57": 6764,
      "includes": 6765,
      "réduire": 6766,
      "tenue": 6767,
      "Britannique": 6768,
      "procédures": 6769,
      "gence": 6770,
      "complete": 6771,
      "mination": 6772,
      "san": 6773,
      "PDF": 6774,
      "Brunswick": 6775,
      "Forces": 6776,
      "opportunities": 6777,
      "enregistre": 6778,
      "liés": 6779,
      "expérience": 6780,
      "valeurs": 6781,
      "échelle": 6782,
      "estion": 6783,
      "avantages": 6784,
      "Document": 6785,
      "mbers": 6786,
      "goti": 6787,
      "Bud": 6788,
      "ancouver": 6789,
      "Cal": 6790,
      "permettre": 6791,
      "chac": 6792,
      "donner": 6793,
      "Fish": 6794,
      "much": 6795,
      "moyens": 6796,
      "mobil": 6797,
      "diffusion": 6798,
      "Amé": 6799,
      "Ms": 6800,
      "agencies": 6801,
      "third": 6802,
      "Vancouver": 6803,
      "vas": 6804,
      "aucun": 6805,
      "arb": 6806,
      "Rapport": 6807,
      "higher": 6808,
      "companies": 6809,
      "Groupe": 6810,
      "suivantes": 6811,
      "ody": 6812,
      "justice": 6813,
      "gether": 6814,
      "trave": 6815,
      "industri": 6816,
      "1991": 6817,
      "Cent": 6818,
      "respec": 6819,
      "WIPO": 6820,
      "forces": 6821,
      ",\"": 6822,
      "Sain": 6823,
      "reporting": 6824,
      "alisation": 6825,
      "ene": 6826,
      "lage": 6827,
      "trouver": 6828,
      "conseil": 6829,
      "cteur": 6830,
      "eded": 6831,
      "ists": 6832,
      "taires": 6833,
      "technique": 6834,
      "patients": 6835,
      "certific": 6836,
      "integr": 6837,
      "far": 6838,
      "departments": 6839,
      "aéri": 6840,
      "sens": 6841,
      "existe": 6842,
      "individuals": 6843,
      "langues": 6844,
      "deb": 6845,
      "commission": 6846,
      "Business": 6847,
      "réglementation": 6848,
      "cs": 6849,
      "ajou": 6850,
      "annon": 6851,
      "free": 6852,
      "caracté": 6853,
      "fournit": 6854,
      "prepare": 6855,
      "langue": 6856,
      "greater": 6857,
      "amér": 6858,
      "ality": 6859,
      "coordination": 6860,
      "entraî": 6861,
      "technical": 6862,
      "adoption": 6863,
      "durée": 6864,
      "lected": 6865,
      "voie": 6866,
      "home": 6867,
      "évaluer": 6868,
      "though": 6869,
      "Bul": 6870,
      "sociétés": 6871,
      "durable": 6872,
      "régu": 6873,
      "bruary": 6874,
      "Number": 6875,
      "February": 6876,
      "responsabil": 6877,
      "front": 6878,
      "formes": 6879,
      "mateurs": 6880,
      "OP": 6881,
      "urer": 6882,
      "matique": 6883,
      "heures": 6884,
      "call": 6885,
      "ète": 6886,
      "What": 6887,
      "suivant": 6888,
      "citoy": 6889,
      "Lan": 6890,
      "appui": 6891,
      "pêche": 6892,
      "discrimination": 6893,
      "évent": 6894,
      "modèle": 6895,
      "Respon": 6896,
      "59": 6897,
      "autorités": 6898,
      "pir": 6899,
      "fiscal": 6900,
      "ming": 6901,
      "modifications": 6902,
      "contrô": 6903,
      "Agr": 6904,
      "increasing": 6905,
      "Law": 6906,
      "PL": 6907,
      "là": 6908,
      "compon": 6909,
      "Prof": 6910,
      "recommandations": 6911,
      "cipe": 6912,
      "tivité": 6913,
      "toujours": 6914,
      "électronique": 6915,
      "rapide": 6916,
      "relativement": 6917,
      "lling": 6918,
      "Lo": 6919,
      "accor": 6920,
      "ars": 6921,
      "World": 6922,
      "aid": 6923,
      "Ger": 6924,
      "87": 6925,
      "progress": 6926,
      "Vo": 6927,
      "obje": 6928,
      "plor": 6929,
      "top": 6930,
      "particularly": 6931,
      "function": 6932,
      "vrier": 6933,
      "transpar": 6934,
      "Provin": 6935,
      "Food": 6936,
      "LES": 6937,
      "porate": 6938,
      "EX": 6939,
      "réser": 6940,
      "Sum": 6941,
      "reference": 6942,
      "Protection": 6943,
      "hui": 6944,
      "Force": 6945,
      "ordre": 6946,
      "nationales": 6947,
      "relationship": 6948,
      "cooperation": 6949,
      "strategy": 6950,
      "intérieur": 6951,
      "Go": 6952,
      "énon": 6953,
      "positive": 6954,
      "camp": 6955,
      "closure": 6956,
      "engagement": 6957,
      "class": 6958,
      "intervention": 6959,
      "wards": 6960,
      "orie": 6961,
      "adu": 6962,
      "diction": 6963,
      "Mal": 6964,
      "CA": 6965,
      "average": 6966,
      "dir": 6967,
      "emer": 6968,
      "Comme": 6969,
      "factors": 6970,
      "pourraient": 6971,
      "énergie": 6972,
      "lib": 6973,
      "domestic": 6974,
      "former": 6975,
      "description": 6976,
      "discussion": 6977,
      "org": 6978,
      "gouvernements": 6979,
      "CB": 6980,
      "decisions": 6981,
      "often": 6982,
      "ame": 6983,
      "émissions": 6984,
      "mechan": 6985,
      "desig": 6986,
      "Regulation": 6987,
      "cô": 6988,
      "érieur": 6989,
      "abilities": 6990,
      "next": 6991,
      "méthodes": 6992,
      "terror": 6993,
      "importants": 6994,
      "close": 6995,
      "minimum": 6996,
      "natural": 6997,
      "origine": 6998,
      "pratique": 6999,
      "Consul": 7000,
      "Russi": 7001,
      "Mont": 7002,
      "Sen": 7003,
      "maximum": 7004,
      "érieure": 7005,
      "lai": 7006,
      "gaz": 7007,
      "responsabilité": 7008,
      "tivity": 7009,
      "DP": 7010,
      "février": 7011,
      "Can": 7012,
      "réglement": 7013,
      "94": 7014,
      "recru": 7015,
      "centres": 7016,
      "register": 7017,
      "début": 7018,
      "still": 7019,
      "importante": 7020,
      "ically": 7021,
      "réponse": 7022,
      "ious": 7023,
      "lections": 7024,
      "problems": 7025,
      "forms": 7026,
      "impôt": 7027,
      "arrange": 7028,
      "nombreux": 7029,
      "concerning": 7030,
      "share": 7031,
      "niveaux": 7032,
      "adopted": 7033,
      "proposition": 7034,
      "department": 7035,
      "facilit": 7036,
      "cipl": 7037,
      "Agricul": 7038,
      "intérêts": 7039,
      "dernier": 7040,
      "noted": 7041,
      "critères": 7042,
      "tary": 7043,
      "principaux": 7044,
      "known": 7045,
      "Under": 7046,
      "Oper": 7047,
      "Yuk": 7048,
      "autés": 7049,
      "Bank": 7050,
      "Toutefois": 7051,
      "Ils": 7052,
      "sses": 7053,
      "determine": 7054,
      "réduction": 7055,
      "plant": 7056,
      "paration": 7057,
      "either": 7058,
      "lois": 7059,
      "together": 7060,
      "qués": 7061,
      "Sal": 7062,
      "cela": 7063,
      "durant": 7064,
      "mean": 7065,
      "mess": 7066,
      "combin": 7067,
      "Author": 7068,
      "copie": 7069,
      "character": 7070,
      "remb": 7071,
      "fut": 7072,
      "aries": 7073,
      "photo": 7074,
      "Chap": 7075,
      "verse": 7076,
      "nit": 7077,
      "exécution": 7078,
      "physi": 7079,
      "AA": 7080,
      "principes": 7081,
      "Win": 7082,
      "commen": 7083,
      "tiveness": 7084,
      "adv": 7085,
      "regarding": 7086,
      "Bu": 7087,
      "Yukon": 7088,
      "Université": 7089,
      "become": 7090,
      "status": 7091,
      "tiz": 7092,
      "incor": 7093,
      "tréal": 7094,
      "ao": 7095,
      "html": 7096,
      "stake": 7097,
      "touch": 7098,
      "Industry": 7099,
      "deuxième": 7100,
      "Selon": 7101,
      "course": 7102,
      "trice": 7103,
      "êtes": 7104,
      "matériel": 7105,
      "amb": 7106,
      "absence": 7107,
      "early": 7108,
      "return": 7109,
      "limited": 7110,
      "Poli": 7111,
      "President": 7112,
      "caractéris": 7113,
      "sph": 7114,
      "Montréal": 7115,
      "already": 7116,
      "garanti": 7117,
      "bonne": 7118,
      "connu": 7119,
      "upon": 7120,
      "Lim": 7121,
      "davantage": 7122,
      "ancial": 7123,
      "stre": 7124,
      "gas": 7125,
      "comprend": 7126,
      "remo": 7127,
      "Social": 7128,
      "ez": 7129,
      "particulièrement": 7130,
      "Lake": 7131,
      "lectronic": 7132,
      "SS": 7133,
      "monitoring": 7134,
      "Review": 7135,
      "Por": 7136,
      "court": 7137,
      "Ltd": 7138,
      "recours": 7139,
      "fédérale": 7140,
      "Fund": 7141,
      "aments": 7142,
      "oung": 7143,
      "ately": 7144,
      "regulations": 7145,
      "financiers": 7146,
      "sema": 7147,
      "em": 7148,
      "MC": 7149,
      "oul": 7150,
      "Territ": 7151,
      "neu": 7152,
      "travailleurs": 7153,
      "liées": 7154,
      "hicu": 7155,
      "rue": 7156,
      "By": 7157,
      "cise": 7158,
      "échantill": 7159,
      "toire": 7160,
      "manufact": 7161,
      "éro": 7162,
      "61": 7163,
      "tw": 7164,
      "solution": 7165,
      "résident": 7166,
      "Economic": 7167,
      "discipl": 7168,
      "reçu": 7169,
      "mondiale": 7170,
      "convention": 7171,
      "répondre": 7172,
      "devant": 7173,
      "lower": 7174,
      "parce": 7175,
      "engage": 7176,
      "64": 7177,
      "Aug": 7178,
      "poly": 7179,
      "affir": 7180,
      "aim": 7181,
      "MR": 7182,
      "jury": 7183,
      "stratégique": 7184,
      "negoti": 7185,
      "Ouest": 7186,
      "states": 7187,
      "conne": 7188,
      "link": 7189,
      "endant": 7190,
      "Imp": 7191,
      "Ass": 7192,
      "thing": 7193,
      "mately": 7194,
      "Tax": 7195,
      "When": 7196,
      "consultations": 7197,
      "code": 7198,
      "Contact": 7199,
      "amélioration": 7200,
      "applicant": 7201,
      "DC": 7202,
      "quo": 7203,
      "perspe": 7204,
      "expli": 7205,
      "recherches": 7206,
      "jourd": 7207,
      "submitted": 7208,
      "mine": 7209,
      "coût": 7210,
      "ciale": 7211,
      "internationales": 7212,
      "permanent": 7213,
      "iving": 7214,
      "Inde": 7215,
      "agreements": 7216,
      "normal": 7217,
      "compens": 7218,
      "Initiative": 7219,
      "marque": 7220,
      "processes": 7221,
      "montr": 7222,
      "tie": 7223,
      "ery": 7224,
      "file": 7225,
      "demonstr": 7226,
      "migr": 7227,
      "Secré": 7228,
      "chim": 7229,
      "publiques": 7230,
      "MS": 7231,
      "strategic": 7232,
      "harmon": 7233,
      "législa": 7234,
      "reach": 7235,
      "proceed": 7236,
      "las": 7237,
      "obligation": 7238,
      "AB": 7239,
      "governments": 7240,
      "issements": 7241,
      "Justice": 7242,
      "intéress": 7243,
      "ink": 7244,
      "recommendations": 7245,
      "moyenne": 7246,
      "team": 7247,
      "ands": 7248,
      "solutions": 7249,
      "grâce": 7250,
      "American": 7251,
      "Rights": 7252,
      "juris": 7253,
      "modification": 7254,
      "Ber": 7255,
      "ium": 7256,
      "estern": 7257,
      "51": 7258,
      "icient": 7259,
      "fournisse": 7260,
      "contexte": 7261,
      "awar": 7262,
      "69": 7263,
      "Over": 7264,
      "consistent": 7265,
      "pois": 7266,
      "funds": 7267,
      "investissement": 7268,
      "Treaty": 7269,
      "Saint": 7270,
      "apprenti": 7271,
      "chois": 7272,
      "elig": 7273,
      "conséquent": 7274,
      "réunion": 7275,
      "Austr": 7276,
      "faible": 7277,
      "ouvoir": 7278,
      "mical": 7279,
      "AG": 7280,
      "trib": 7281,
      "payment": 7282,
      "INC": 7283,
      "const": 7284,
      "custom": 7285,
      "Corporation": 7286,
      "legation": 7287,
      "représentants": 7288,
      "LT": 7289,
      "nance": 7290,
      "suivre": 7291,
      "deme": 7292,
      "DR": 7293,
      "lignes": 7294,
      "compren": 7295,
      "famille": 7296,
      "Afr": 7297,
      "IE": 7298,
      "52": 7299,
      "argu": 7300,
      "copy": 7301,
      "alités": 7302,
      "board": 7303,
      "promote": 7304,
      "cellu": 7305,
      "content": 7306,
      "IG": 7307,
      "lion": 7308,
      "incidence": 7309,
      "étaire": 7310,
      "Du": 7311,
      "Person": 7312,
      "Financial": 7313,
      "ino": 7314,
      "intervenants": 7315,
      "corre": 7316,
      "Rob": 7317,
      "Don": 7318,
      "délég": 7319,
      "proposal": 7320,
      "porteur": 7321,
      "iers": 7322,
      "ash": 7323,
      "budg": 7324,
      "prestation": 7325,
      "Organisation": 7326,
      "oma": 7327,
      "surface": 7328,
      "Eff": 7329,
      "pursuant": 7330,
      "past": 7331,
      "rem": 7332,
      "maire": 7333,
      "dus": 7334,
      "Etats": 7335,
      "signed": 7336,
      "voc": 7337,
      "standard": 7338,
      "oix": 7339,
      "below": 7340,
      "Administration": 7341,
      "workers": 7342,
      "responsable": 7343,
      "lay": 7344,
      "Assess": 7345,
      "MPI": 7346,
      "54": 7347,
      "River": 7348,
      "society": 7349,
      "élevé": 7350,
      "ablement": 7351,
      "icile": 7352,
      "Bar": 7353,
      "criteria": 7354,
      "index": 7355,
      "ciper": 7356,
      "lutte": 7357,
      "model": 7358,
      "sciences": 7359,
      "…………": 7360,
      "maintenant": 7361,
      "fiée": 7362,
      "usage": 7363,
      "différentes": 7364,
      "excell": 7365,
      "signal": 7366,
      "integra": 7367,
      "Rég": 7368,
      "nic": 7369,
      "dirig": 7370,
      "dées": 7371,
      "NG": 7372,
      "telle": 7373,
      "meille": 7374,
      "enregistrement": 7375,
      "véhicu": 7376,
      "nexes": 7377,
      "âge": 7378,
      "fonctions": 7379,
      "vente": 7380,
      "expend": 7381,
      "iso": 7382,
      "employé": 7383,
      "Bien": 7384,
      "option": 7385,
      "installations": 7386,
      "série": 7387,
      "Paci": 7388,
      "overall": 7389,
      "Atlantic": 7390,
      "extr": 7391,
      "survey": 7392,
      "rac": 7393,
      "deci": 7394,
      "ples": 7395,
      "influence": 7396,
      "King": 7397,
      "tures": 7398,
      "ides": 7399,
      "One": 7400,
      "calcul": 7401,
      "assu": 7402,
      "én": 7403,
      "IF": 7404,
      "Ret": 7405,
      "rémun": 7406,
      "OL": 7407,
      "possibilité": 7408,
      "présenter": 7409,
      "volume": 7410,
      "Surve": 7411,
      "More": 7412,
      "values": 7413,
      "Archives": 7414,
      "ief": 7415,
      "gens": 7416,
      "cole": 7417,
      "Premières": 7418,
      "eaux": 7419,
      "tier": 7420,
      "expendit": 7421,
      "ION": 7422,
      "approxi": 7423,
      "Ren": 7424,
      "practice": 7425,
      "bro": 7426,
      "53": 7427,
      "réserve": 7428,
      "63": 7429,
      "credit": 7430,
      "atures": 7431,
      "citiz": 7432,
      "diminu": 7433,
      "currently": 7434,
      "prestations": 7435,
      "sociaux": 7436,
      "regulatory": 7437,
      "reduce": 7438,
      "tention": 7439,
      "estima": 7440,
      "Communications": 7441,
      "supply": 7442,
      "constitue": 7443,
      "itable": 7444,
      "agne": 7445,
      "prévues": 7446,
      "cannot": 7447,
      "délai": 7448,
      "August": 7449,
      "students": 7450,
      "bul": 7451,
      "Regional": 7452,
      "conducted": 7453,
      "mn": 7454,
      "Jour": 7455,
      "Autres": 7456,
      "disponibles": 7457,
      "leadership": 7458,
      "clés": 7459,
      "discussions": 7460,
      "problème": 7461,
      "completed": 7462,
      "priority": 7463,
      "lectric": 7464,
      "according": 7465,
      "indiqué": 7466,
      "seul": 7467,
      "delivery": 7468,
      "vehic": 7469,
      "lot": 7470,
      "chef": 7471,
      "High": 7472,
      "ba": 7473,
      "Est": 7474,
      "ames": 7475,
      "spital": 7476,
      "needed": 7477,
      "Environnement": 7478,
      "single": 7479,
      "êmes": 7480,
      "located": 7481,
      "Tur": 7482,
      "ering": 7483,
      "________________________________": 7484,
      "dépos": 7485,
      "directement": 7486,
      "actuellement": 7487,
      "législation": 7488,
      "91": 7489,
      "evalu": 7490,
      "Chair": 7491,
      "sufficient": 7492,
      "tise": 7493,
      "ministéri": 7494,
      "relating": 7495,
      "Asi": 7496,
      "denti": 7497,
      "Site": 7498,
      "oine": 7499,
      "Assembly": 7500,
      "interpré": 7501,
      "78": 7502,
      "nant": 7503,
      "souh": 7504,
      "carry": 7505,
      "priorities": 7506,
      "arrê": 7507,
      "tence": 7508,
      "Loc": 7509,
      "conseils": 7510,
      "rom": 7511,
      "short": 7512,
      "OMPI": 7513,
      "investig": 7514,
      "étranger": 7515,
      "diverses": 7516,
      "body": 7517,
      "servir": 7518,
      "collabor": 7519,
      "concerned": 7520,
      "ettes": 7521,
      "venu": 7522,
      "fré": 7523,
      "progrès": 7524,
      "ose": 7525,
      "proto": 7526,
      "strengthen": 7527,
      "Budget": 7528,
      "determined": 7529,
      "West": 7530,
      "clé": 7531,
      "agriculture": 7532,
      "dri": 7533,
      "Chan": 7534,
      "médias": 7535,
      "susp": 7536,
      "labour": 7537,
      "context": 7538,
      "medical": 7539,
      "regular": 7540,
      "AF": 7541,
      "others": 7542,
      "plut": 7543,
      "presented": 7544,
      "faisant": 7545,
      "CP": 7546,
      "mas": 7547,
      "violence": 7548,
      "ption": 7549,
      "competition": 7550,
      "suppli": 7551,
      "sustainable": 7552,
      "utilisé": 7553,
      "candidats": 7554,
      "responsibility": 7555,
      "gées": 7556,
      "She": 7557,
      "sts": 7558,
      "Action": 7559,
      "great": 7560,
      "until": 7561,
      "categ": 7562,
      "adresse": 7563,
      "neur": 7564,
      "Cependant": 7565,
      "navi": 7566,
      "utilisés": 7567,
      "placement": 7568,
      "options": 7569,
      "loss": 7570,
      "telles": 7571,
      "dialogue": 7572,
      "Fur": 7573,
      "applied": 7574,
      "chercheurs": 7575,
      "méthode": 7576,
      "Govern": 7577,
      "anglais": 7578,
      "compliance": 7579,
      "finding": 7580,
      "sections": 7581,
      "piè": 7582,
      "participer": 7583,
      "cepti": 7584,
      "champ": 7585,
      "ive": 7586,
      "privé": 7587,
      "independ": 7588,
      "personnels": 7589,
      "ennent": 7590,
      "chedule": 7591,
      "Some": 7592,
      "prévoit": 7593,
      "issued": 7594,
      "ssage": 7595,
      "aurait": 7596,
      "party": 7597,
      "uration": 7598,
      "conclusions": 7599,
      "lequel": 7600,
      "supplémentaires": 7601,
      "ert": 7602,
      "ably": 7603,
      "rÃ": 7604,
      "encourage": 7605,
      "tabl": 7606,
      "quelques": 7607,
      "deliver": 7608,
      "--------": 7609,
      "While": 7610,
      "tableau": 7611,
      "ended": 7612,
      "obst": 7613,
      "learning": 7614,
      "examiner": 7615,
      "Appe": 7616,
      "entrée": 7617,
      "trimoine": 7618,
      "published": 7619,
      "OT": 7620,
      "entit": 7621,
      "voyage": 7622,
      "bis": 7623,
      "consommation": 7624,
      "approved": 7625,
      "directly": 7626,
      "détaill": 7627,
      "science": 7628,
      "Special": 7629,
      "istan": 7630,
      "sensibil": 7631,
      "aqu": 7632,
      "opportunity": 7633,
      "craft": 7634,
      "août": 7635,
      "fair": 7636,
      "entente": 7637,
      "gée": 7638,
      "hommes": 7639,
      "RES": 7640,
      "Assemblée": 7641,
      "CANADA": 7642,
      "prévention": 7643,
      "ecutive": 7644,
      "described": 7645,
      "renforcer": 7646,
      "heure": 7647,
      "transfert": 7648,
      "bénéfici": 7649,
      "objective": 7650,
      "300": 7651,
      "92": 7652,
      "ining": 7653,
      "mates": 7654,
      "might": 7655,
      "possibilités": 7656,
      "collective": 7657,
      "offrir": 7658,
      "VE": 7659,
      "Nation": 7660,
      "circum": 7661,
      "letin": 7662,
      "notes": 7663,
      "Security": 7664,
      "oxy": 7665,
      "gro": 7666,
      "MB": 7667,
      "enseignement": 7668,
      "sugges": 7669,
      "tants": 7670,
      "ret": 7671,
      "principe": 7672,
      "ède": 7673,
      "Ben": 7674,
      "Accueil": 7675,
      "visory": 7676,
      "sequent": 7677,
      "efficient": 7678,
      "quée": 7679,
      "cks": 7680,
      "Ty": 7681,
      "indicated": 7682,
      "maladie": 7683,
      "parts": 7684,
      "Regis": 7685,
      "directrices": 7686,
      "pied": 7687,
      "economy": 7688,
      "publications": 7689,
      "dimen": 7690,
      "consommateurs": 7691,
      "asp": 7692,
      "Company": 7693,
      "original": 7694,
      "shop": 7695,
      "TV": 7696,
      "plutôt": 7697,
      "designed": 7698,
      "Commer": 7699,
      "concentration": 7700,
      "infor": 7701,
      "statut": 7702,
      "sures": 7703,
      "renouve": 7704,
      "ît": 7705,
      "suscepti": 7706,
      "généra": 7707,
      "800": 7708,
      "raisonn": 7709,
      "choix": 7710,
      "defined": 7711,
      "appare": 7712,
      "concentrations": 7713,
      "aujourd": 7714,
      "financier": 7715,
      "coming": 7716,
      "understanding": 7717,
      "maladies": 7718,
      "cross": 7719,
      "ounds": 7720,
      "outside": 7721,
      "communauté": 7722,
      "News": 7723,
      "figur": 7724,
      "cycle": 7725,
      "keting": 7726,
      "structures": 7727,
      "territoire": 7728,
      "media": 7729,
      "Bel": 7730,
      "apprentissage": 7731,
      "mach": 7732,
      "smo": 7733,
      "matter": 7734,
      "intellectuelle": 7735,
      "semble": 7736,
      "zones": 7737,
      "français": 7738,
      "62": 7739,
      "rich": 7740,
      "substance": 7741,
      "demander": 7742,
      "illes": 7743,
      "ster": 7744,
      "principles": 7745,
      "Ital": 7746,
      "Officer": 7747,
      "fall": 7748,
      "communautés": 7749,
      "mg": 7750,
      "house": 7751,
      "Sw": 7752,
      "promouvoir": 7753,
      "DS": 7754,
      "nord": 7755,
      "définition": 7756,
      "communautaires": 7757,
      "mêmes": 7758,
      "déposé": 7759,
      "istant": 7760,
      "ceed": 7761,
      "crédit": 7762,
      "texte": 7763,
      "Bio": 7764,
      "eas": 7765,
      "purch": 7766,
      "And": 7767,
      "provenant": 7768,
      "Decision": 7769,
      "93": 7770,
      "diag": 7771,
      "profit": 7772,
      "professional": 7773,
      "internal": 7774,
      "Fonds": 7775,
      "transition": 7776,
      "announ": 7777,
      "appell": 7778,
      "DG": 7779,
      "compu": 7780,
      "Tel": 7781,
      "créer": 7782,
      "Saf": 7783,
      "rendre": 7784,
      "Nouvelle": 7785,
      "Mac": 7786,
      "skills": 7787,
      "beh": 7788,
      "préoccup": 7789,
      "occur": 7790,
      "laration": 7791,
      "ennes": 7792,
      "vised": 7793,
      "fonctionnement": 7794,
      "candidates": 7795,
      "Republic": 7796,
      "ultural": 7797,
      "accessible": 7798,
      "identification": 7799,
      "permettant": 7800,
      "procedure": 7801,
      "outils": 7802,
      "Agriculture": 7803,
      "Parag": 7804,
      "arily": 7805,
      "cam": 7806,
      "give": 7807,
      "dernière": 7808,
      "writ": 7809,
      "facilities": 7810,
      "Pré": 7811,
      "Prin": 7812,
      "visit": 7813,
      "expertise": 7814,
      "importantes": 7815,
      "acte": 7816,
      "Pres": 7817,
      "placed": 7818,
      "entrepren": 7819,
      "poin": 7820,
      "pilo": 7821,
      "caract": 7822,
      "Tout": 7823,
      "regions": 7824,
      "répond": 7825,
      "parents": 7826,
      "belie": 7827,
      "dernières": 7828,
      "industrial": 7829,
      "amend": 7830,
      "financières": 7831,
      "thè": 7832,
      "claire": 7833,
      "Branch": 7834,
      "substanti": 7835,
      "ched": 7836,
      "Analy": 7837,
      "justi": 7838,
      "rador": 7839,
      "You": 7840,
      "chapitre": 7841,
      "appoint": 7842,
      "Water": 7843,
      "intégration": 7844,
      "matières": 7845,
      "Safety": 7846,
      "materials": 7847,
      "quoi": 7848,
      "ana": 7849,
      "stakeholders": 7850,
      "cancer": 7851,
      "say": 7852,
      "Common": 7853,
      "Jean": 7854,
      "vel": 7855,
      "receive": 7856,
      "connaître": 7857,
      "Gre": 7858,
      "présence": 7859,
      "SER": 7860,
      "Labrador": 7861,
      "applique": 7862,
      "Secretariat": 7863,
      "adequ": 7864,
      "toxic": 7865,
      "élément": 7866,
      "Vous": 7867,
      "selection": 7868,
      "achieve": 7869,
      "interpre": 7870,
      "civi": 7871,
      "donne": 7872,
      "ja": 7873,
      "equal": 7874,
      "System": 7875,
      "Bas": 7876,
      "tance": 7877,
      "profon": 7878,
      "progres": 7879,
      "format": 7880,
      "amples": 7881,
      "ised": 7882,
      "isés": 7883,
      "Main": 7884,
      "homme": 7885,
      "environnementale": 7886,
      "around": 7887,
      "rejet": 7888,
      "faits": 7889,
      "fiés": 7890,
      "règlements": 7891,
      "billion": 7892,
      "évé": 7893,
      "dat": 7894,
      "souhait": 7895,
      "nership": 7896,
      "Prince": 7897,
      "situations": 7898,
      "FO": 7899,
      "lease": 7900,
      "demandé": 7901,
      "bat": 7902,
      "Sud": 7903,
      "load": 7904,
      "youth": 7905,
      "classification": 7906,
      "Employment": 7907,
      "alco": 7908,
      "glob": 7909,
      "postes": 7910,
      "young": 7911,
      "Annex": 7912,
      "cés": 7913,
      "1987": 7914,
      "correspond": 7915,
      "ande": 7916,
      "médicaments": 7917,
      "conclusion": 7918,
      "paiement": 7919,
      "réper": 7920,
      "éth": 7921,
      "revenus": 7922,
      "concerns": 7923,
      "migrants": 7924,
      "tability": 7925,
      "envis": 7926,
      "trouve": 7927,
      "concurrence": 7928,
      "observations": 7929,
      "contenu": 7930,
      "visite": 7931,
      "atteindre": 7932,
      "responsabilités": 7933,
      "military": 7934,
      "tenance": 7935,
      "Inte": 7936,
      "industries": 7937,
      "Version": 7938,
      "Education": 7939,
      "hours": 7940,
      "habitu": 7941,
      "TPS": 7942,
      "bation": 7943,
      "liens": 7944,
      "committee": 7945,
      "orientation": 7946,
      "stated": 7947,
      "pp": 7948,
      "professionnels": 7949,
      "Hon": 7950,
      "dipl": 7951,
      "But": 7952,
      "inspection": 7953,
      "instrument": 7954,
      "Mark": 7955,
      "Nun": 7956,
      "Assessment": 7957,
      "dam": 7958,
      "capacités": 7959,
      "relatifs": 7960,
      "ather": 7961,
      "itu": 7962,
      "uis": 7963,
      "établissements": 7964,
      "Bay": 7965,
      "Fun": 7966,
      "ray": 7967,
      "Audit": 7968,
      "creen": 7969,
      "aisse": 7970,
      "cru": 7971,
      "catégorie": 7972,
      "Sé": 7973,
      "vos": 7974,
      "autorisation": 7975,
      "keep": 7976,
      "agreed": 7977,
      "coordon": 7978,
      "chlor": 7979,
      "Page": 7980,
      "dessus": 7981,
      "Sa": 7982,
      "défense": 7983,
      "tia": 7984,
      "itime": 7985,
      "events": 7986,
      "QUE": 7987,
      "carried": 7988,
      "separ": 7989,
      "èles": 7990,
      "addres": 7991,
      "adul": 7992,
      "acci": 7993,
      "transmission": 7994,
      "Fig": 7995,
      "along": 7996,
      "larg": 7997,
      "juridique": 7998,
      "indépend": 7999,
      "illez": 8000,
      "exchange": 8001,
      "onom": 8002,
      "précédent": 8003,
      "cie": 8004,
      "obstac": 8005,
      "arti": 8006,
      "siè": 8007,
      "Mus": 8008,
      "annuel": 8009,
      "trict": 8010,
      "Institut": 8011,
      "réguli": 8012,
      "invent": 8013,
      "Numéro": 8014,
      "done": 8015,
      "République": 8016,
      "gain": 8017,
      "altern": 8018,
      "extérieur": 8019,
      "ension": 8020,
      "tools": 8021,
      "Where": 8022,
      "Jap": 8023,
      "division": 8024,
      "riel": 8025,
      "continued": 8026,
      "travaill": 8027,
      "comprendre": 8028,
      "conformité": 8029,
      "near": 8030,
      "€™": 8031,
      "reti": 8032,
      "vacc": 8033,
      "alimentaire": 8034,
      "enses": 8035,
      "impos": 8036,
      "él": 8037,
      "ERS": 8038,
      "MO": 8039,
      "compet": 8040,
      "associations": 8041,
      "WH": 8042,
      "colon": 8043,
      "auteur": 8044,
      "serve": 8045,
      "scientifiques": 8046,
      "éventu": 8047,
      "price": 8048,
      "find": 8049,
      "ec": 8050,
      "ix": 8051,
      "puty": 8052,
      "appliquer": 8053,
      "présentation": 8054,
      "effort": 8055,
      "endro": 8056,
      "stratégies": 8057,
      "dge": 8058,
      "espe": 8059,
      "Fax": 8060,
      "parlement": 8061,
      "sin": 8062,
      "tale": 8063,
      "PCT": 8064,
      "produced": 8065,
      "Conference": 8066,
      "letter": 8067,
      "HIV": 8068,
      "came": 8069,
      "Indian": 8070,
      "bel": 8071,
      "payer": 8072,
      "user": 8073,
      "generally": 8074,
      "resource": 8075,
      "explor": 8076,
      "expan": 8077,
      "84": 8078,
      "prepared": 8079,
      "draw": 8080,
      "eco": 8081,
      "electronic": 8082,
      "tine": 8083,
      "Vis": 8084,
      "mping": 8085,
      "links": 8086,
      "assemb": 8087,
      "Avis": 8088,
      "few": 8089,
      "améric": 8090,
      "TIC": 8091,
      "avenir": 8092,
      "centage": 8093,
      "tains": 8094,
      "Wil": 8095,
      "dossier": 8096,
      "Lic": 8097,
      "Publications": 8098,
      "documentation": 8099,
      "conduct": 8100,
      "pouv": 8101,
      "èrent": 8102,
      "draft": 8103,
      "échange": 8104,
      "bou": 8105,
      "vou": 8106,
      "Child": 8107,
      "avez": 8108,
      "1989": 8109,
      "ctoral": 8110,
      "iled": 8111,
      "enda": 8112,
      "tâ": 8113,
      "Further": 8114,
      "bois": 8115,
      "challenges": 8116,
      "eration": 8117,
      "propre": 8118,
      "ché": 8119,
      "matiques": 8120,
      "résor": 8121,
      "ÁÁ": 8122,
      "1A": 8123,
      "toutefois": 8124,
      "sorte": 8125,
      "Treas": 8126,
      "déclaré": 8127,
      "pens": 8128,
      "Application": 8129,
      "fédéraux": 8130,
      "bank": 8131,
      "expression": 8132,
      "appeal": 8133,
      "nombreuses": 8134,
      "extent": 8135,
      "commitment": 8136,
      "dig": 8137,
      "accroître": 8138,
      "élaborer": 8139,
      "ired": 8140,
      "cially": 8141,
      "72": 8142,
      "vote": 8143,
      "notice": 8144,
      "400": 8145,
      "vit": 8146,
      "généralement": 8147,
      "Although": 8148,
      "Amérique": 8149,
      "iency": 8150,
      "minim": 8151,
      "strategies": 8152,
      "89": 8153,
      "faction": 8154,
      "délégation": 8155,
      "vest": 8156,
      "ouverture": 8157,
      "citoyens": 8158,
      "représentant": 8159,
      "Technology": 8160,
      "initial": 8161,
      "cel": 8162,
      "chemin": 8163,
      "judici": 8164,
      "requires": 8165,
      "1985": 8166,
      "accords": 8167,
      "Fra": 8168,
      "esse": 8169,
      "Organization": 8170,
      "paper": 8171,
      "limité": 8172,
      "text": 8173,
      "Priv": 8174,
      "cting": 8175,
      "essential": 8176,
      "Comment": 8177,
      "collection": 8178,
      "internationaux": 8179,
      "disease": 8180,
      "actuelle": 8181,
      "combat": 8182,
      "ctives": 8183,
      "atoires": 8184,
      "contamin": 8185,
      "BR": 8186,
      "intended": 8187,
      "soulig": 8188,
      "tables": 8189,
      "Sus": 8190,
      "rati": 8191,
      "Proto": 8192,
      "reques": 8193,
      "fax": 8194,
      "fail": 8195,
      "propres": 8196,
      "Care": 8197,
      "blement": 8198,
      "Trésor": 8199,
      "gri": 8200,
      "rural": 8201,
      "domin": 8202,
      "approval": 8203,
      "étudiants": 8204,
      "tan": 8205,
      "Nova": 8206,
      "especially": 8207,
      "association": 8208,
      "territorial": 8209,
      "sectors": 8210,
      "existence": 8211,
      "solid": 8212,
      "dite": 8213,
      "Mil": 8214,
      "pendix": 8215,
      "methods": 8216,
      "Mex": 8217,
      "rir": 8218,
      "responsables": 8219,
      "ismes": 8220,
      "pace": 8221,
      "Gestion": 8222,
      "euro": 8223,
      "via": 8224,
      "exposition": 8225,
      "honor": 8226,
      "network": 8227,
      "rembour": 8228,
      "flow": 8229,
      "size": 8230,
      "Strategy": 8231,
      "Secrétariat": 8232,
      "markets": 8233,
      "week": 8234,
      "impacts": 8235,
      "prevent": 8236,
      "démocra": 8237,
      "officielles": 8238,
      "dépôt": 8239,
      "wel": 8240,
      "quence": 8241,
      "%.": 8242,
      "simi": 8243,
      "gary": 8244,
      "Annexe": 8245,
      "diversité": 8246,
      "priorité": 8247,
      "régional": 8248,
      "surtout": 8249,
      "mage": 8250,
      "stock": 8251,
      "CES": 8252,
      "nutr": 8253,
      "specified": 8254,
      "guidelines": 8255,
      "acquisition": 8256,
      "reduction": 8257,
      "1988": 8258,
      "kg": 8259,
      "throughout": 8260,
      "nomination": 8261,
      "COMM": 8262,
      "liber": 8263,
      "zer": 8264,
      "élè": 8265,
      "War": 8266,
      "auté": 8267,
      "Cela": 8268,
      "Ko": 8269,
      "indique": 8270,
      "America": 8271,
      "fort": 8272,
      "nécessité": 8273,
      "dispos": 8274,
      "doc": 8275,
      "stratégiques": 8276,
      "86": 8277,
      "valent": 8278,
      "covered": 8279,
      "Treasury": 8280,
      "clair": 8281,
      "FP": 8282,
      "primary": 8283,
      "Chief": 8284,
      "sud": 8285,
      "Rad": 8286,
      "travel": 8287,
      "portée": 8288,
      "modern": 8289,
      "tenues": 8290,
      "consac": 8291,
      "Parties": 8292,
      "fourni": 8293,
      "problem": 8294,
      "prévu": 8295,
      "Commissioner": 8296,
      "insi": 8297,
      "Contribu": 8298,
      "pau": 8299,
      "rage": 8300,
      "transports": 8301,
      "South": 8302,
      "Island": 8303,
      "longer": 8304,
      "circumstances": 8305,
      "Prior": 8306,
      "suivante": 8307,
      "parmi": 8308,
      "stream": 8309,
      "installation": 8310,
      "Lib": 8311,
      "How": 8312,
      "abord": 8313,
      "lacement": 8314,
      "MAN": 8315,
      "haut": 8316,
      "views": 8317,
      "tente": 8318,
      "Northern": 8319,
      "hér": 8320,
      "approximately": 8321,
      "rempl": 8322,
      "visée": 8323,
      "dep": 8324,
      "espèce": 8325,
      "cumu": 8326,
      "eligible": 8327,
      "him": 8328,
      "évolution": 8329,
      "consideration": 8330,
      "today": 8331,
      "operating": 8332,
      "ev": 8333,
      "GC": 8334,
      "west": 8335,
      "iles": 8336,
      "çu": 8337,
      "added": 8338,
      "vio": 8339,
      "2009": 8340,
      "constitution": 8341,
      "registered": 8342,
      "manif": 8343,
      "oman": 8344,
      "hensive": 8345,
      "mosph": 8346,
      "XX": 8347,
      "Affaires": 8348,
      "grandes": 8349,
      "Langu": 8350,
      "insurance": 8351,
      "fection": 8352,
      "safe": 8353,
      "begin": 8354,
      "propositions": 8355,
      "faciliter": 8356,
      "laté": 8357,
      "investissements": 8358,
      "passe": 8359,
      "engag": 8360,
      "aps": 8361,
      "estime": 8362,
      "Fac": 8363,
      "ministres": 8364,
      "considéra": 8365,
      "farm": 8366,
      "School": 8367,
      "operational": 8368,
      "meetings": 8369,
      "médec": 8370,
      "favour": 8371,
      "interests": 8372,
      "présenté": 8373,
      "ensus": 8374,
      "locaux": 8375,
      "mix": 8376,
      "73": 8377,
      "vide": 8378,
      "83": 8379,
      "band": 8380,
      "isé": 8381,
      "protéger": 8382,
      "hypo": 8383,
      "elements": 8384,
      "Austral": 8385,
      "ATIONS": 8386,
      "xy": 8387,
      "volun": 8388,
      "contain": 8389,
      "lent": 8390,
      "tests": 8391,
      "called": 8392,
      "Accoun": 8393,
      "km": 8394,
      "tom": 8395,
      "liqui": 8396,
      "Are": 8397,
      "dynam": 8398,
      "Ministers": 8399,
      "imes": 8400,
      "contribute": 8401,
      "registration": 8402,
      "Mic": 8403,
      "reasonable": 8404,
      "pollution": 8405,
      "useum": 8406,
      "éché": 8407,
      "representatives": 8408,
      "gene": 8409,
      "76": 8410,
      "fron": 8411,
      "RÉ": 8412,
      "Defence": 8413,
      "comptes": 8414,
      "iii": 8415,
      "requirement": 8416,
      "LI": 8417,
      "payments": 8418,
      "space": 8419,
      "DÉ": 8420,
      "fund": 8421,
      "Stre": 8422,
      "logical": 8423,
      "Products": 8424,
      "towards": 8425,
      "matic": 8426,
      "Note": 8427,
      "WG": 8428,
      "mid": 8429,
      "Scotia": 8430,
      "star": 8431,
      "oing": 8432,
      "Lorsque": 8433,
      "vu": 8434,
      "sam": 8435,
      "behalf": 8436,
      "create": 8437,
      "taxe": 8438,
      "dossiers": 8439,
      "Sk": 8440,
      "usu": 8441,
      "rather": 8442,
      "balance": 8443,
      "immedi": 8444,
      "die": 8445,
      "AV": 8446,
      "écrit": 8447,
      "According": 8448,
      "famili": 8449,
      "traditional": 8450,
      "Appendix": 8451,
      "fri": 8452,
      "directives": 8453,
      "71": 8454,
      "rémunération": 8455,
      "manner": 8456,
      "rol": 8457,
      "territori": 8458,
      "meil": 8459,
      "accompl": 8460,
      "urgence": 8461,
      "teach": 8462,
      "rown": 8463,
      "impor": 8464,
      "Since": 8465,
      "appellant": 8466,
      "avut": 8467,
      "Statistics": 8468,
      "consulta": 8469,
      "iel": 8470,
      "compared": 8471,
      "unit": 8472,
      "animaux": 8473,
      "partenariat": 8474,
      "chacun": 8475,
      "arrangements": 8476,
      "assist": 8477,
      "independent": 8478,
      "concept": 8479,
      "menting": 8480,
      "Perform": 8481,
      "basic": 8482,
      "raisons": 8483,
      "risks": 8484,
      "producteurs": 8485,
      "conflic": 8486,
      "taxes": 8487,
      "decre": 8488,
      "ney": 8489,
      "CIHR": 8490,
      "pap": 8491,
      "chiff": 8492,
      "MI": 8493,
      "advant": 8494,
      "representative": 8495,
      "bs": 8496,
      "lateral": 8497,
      "fusion": 8498,
      "successful": 8499,
      "Fore": 8500,
      "gs": 8501,
      "proposé": 8502,
      "Data": 8503,
      "Up": 8504,
      "written": 8505,
      "ffic": 8506,
      "bring": 8507,
      "responsibilities": 8508,
      "Cli": 8509,
      "reasons": 8510,
      "Partie": 8511,
      "collectivité": 8512,
      "interne": 8513,
      "chau": 8514,
      "sommes": 8515,
      "accueil": 8516,
      "succès": 8517,
      "Président": 8518,
      "constat": 8519,
      "Particip": 8520,
      "Manu": 8521,
      "cussions": 8522,
      "parent": 8523,
      "fabrication": 8524,
      "definition": 8525,
      "renew": 8526,
      "Société": 8527,
      "lait": 8528,
      "lies": 8529,
      "représente": 8530,
      "disponible": 8531,
      "explic": 8532,
      "quées": 8533,
      "dési": 8534,
      "Women": 8535,
      "74": 8536,
      "marks": 8537,
      "confidenti": 8538,
      "languages": 8539,
      "Nat": 8540,
      "equ": 8541,
      "educ": 8542,
      "gative": 8543,
      "amoun": 8544,
      "pointed": 8545,
      "canada": 8546,
      "awareness": 8547,
      "250": 8548,
      "union": 8549,
      "phon": 8550,
      "Inuit": 8551,
      "peg": 8552,
      "pul": 8553,
      "pack": 8554,
      "ulti": 8555,
      "alter": 8556,
      "Order": 8557,
      "introduction": 8558,
      "ford": 8559,
      "supported": 8560,
      "SR": 8561,
      "Limited": 8562,
      "compre": 8563,
      "chron": 8564,
      "militaire": 8565,
      "Science": 8566,
      "hésion": 8567,
      "mutu": 8568,
      "patent": 8569,
      "provinciaux": 8570,
      "tir": 8571,
      "regulation": 8572,
      "MAR": 8573,
      "forward": 8574,
      "hô": 8575,
      "mér": 8576,
      "route": 8577,
      "Justification": 8578,
      "sport": 8579,
      "ico": 8580,
      "2010": 8581,
      "relig": 8582,
      "aircraft": 8583,
      "Canadien": 8584,
      "%,": 8585,
      "Official": 8586,
      "Drug": 8587,
      "particuliers": 8588,
      "scientifique": 8589,
      "physical": 8590,
      "pers": 8591,
      "maintenance": 8592,
      "Relations": 8593,
      "Ris": 8594,
      "dÃ": 8595,
      "scientific": 8596,
      "suring": 8597,
      "fondament": 8598,
      "Cop": 8599,
      "scope": 8600,
      "caractéristiques": 8601,
      "chets": 8602,
      "linguis": 8603,
      "Banque": 8604,
      "communiquer": 8605,
      "fie": 8606,
      "81": 8607,
      "Nunavut": 8608,
      "created": 8609,
      "chemical": 8610,
      "look": 8611,
      "CL": 8612,
      "mm": 8613,
      "convient": 8614,
      "simple": 8615,
      "abin": 8616,
      "Projet": 8617,
      "lande": 8618,
      "ason": 8619,
      "modèles": 8620,
      "figure": 8621,
      "cées": 8622,
      "alle": 8623,
      "Land": 8624,
      "mée": 8625,
      "Pan": 8626,
      "asked": 8627,
      "compétence": 8628,
      "ae": 8629,
      "Evaluation": 8630,
      "logy": 8631,
      "79": 8632,
      "Framework": 8633,
      "Sou": 8634,
      "statement": 8635,
      "stor": 8636,
      "anes": 8637,
      "rappe": 8638,
      "ènes": 8639,
      "ext": 8640,
      "Fisheries": 8641,
      "Annu": 8642,
      "préparation": 8643,
      "Pho": 8644,
      "nav": 8645,
      "records": 8646,
      "IRSC": 8647,
      "Cur": 8648,
      "idance": 8649,
      "vez": 8650,
      "82": 8651,
      "phen": 8652,
      "Mor": 8653,
      "establishment": 8654,
      "lien": 8655,
      "exige": 8656,
      "offices": 8657,
      "opéra": 8658,
      "took": 8659,
      "décrit": 8660,
      "words": 8661,
      "Resul": 8662,
      "Heritage": 8663,
      "frequ": 8664,
      "estimated": 8665,
      "terre": 8666,
      "Contract": 8667,
      "affaire": 8668,
      "Key": 8669,
      "dee": 8670,
      "Nouveau": 8671,
      "diversity": 8672,
      "règle": 8673,
      "civile": 8674,
      "compter": 8675,
      "PM": 8676,
      "formal": 8677,
      "expo": 8678,
      "réparti": 8679,
      "maintain": 8680,
      "Journal": 8681,
      "juste": 8682,
      "reduced": 8683,
      "lesquels": 8684,
      "réseaux": 8685,
      "obtained": 8686,
      "connexes": 8687,
      "Sch": 8688,
      "Transportation": 8689,
      "atmosph": 8690,
      "libre": 8691,
      "Out": 8692,
      "UL": 8693,
      "intes": 8694,
      "counter": 8695,
      "sumé": 8696,
      "Requ": 8697,
      "exprim": 8698,
      "run": 8699,
      "Winni": 8700,
      "sû": 8701,
      "emissions": 8702,
      "gradu": 8703,
      "whole": 8704,
      "Pat": 8705,
      "milliards": 8706,
      "favoriser": 8707,
      "immun": 8708,
      "petites": 8709,
      "adéqu": 8710,
      "ison": 8711,
      "Working": 8712,
      "ceu": 8713,
      "gree": 8714,
      "centrale": 8715,
      "entitled": 8716,
      "marine": 8717,
      "compati": 8718,
      "Head": 8719,
      "advice": 8720,
      "integrated": 8721,
      "principle": 8722,
      "limite": 8723,
      "repres": 8724,
      "affected": 8725,
      "PH": 8726,
      "Winnipeg": 8727,
      "seule": 8728,
      "mandate": 8729,
      "kers": 8730,
      "Som": 8731,
      "proposals": 8732,
      "intitu": 8733,
      "Control": 8734,
      "wor": 8735,
      "FI": 8736,
      "travailler": 8737,
      "leave": 8738,
      "taille": 8739,
      "reste": 8740,
      "principalement": 8741,
      "DO": 8742,
      "history": 8743,
      "faite": 8744,
      "témo": 8745,
      "dumping": 8746,
      "Gra": 8747,
      "Terre": 8748,
      "feed": 8749,
      "classe": 8750,
      "sof": 8751,
      "stitution": 8752,
      "critical": 8753,
      "effectuer": 8754,
      "SH": 8755,
      "serious": 8756,
      "Hist": 8757,
      "Issu": 8758,
      "caractère": 8759,
      "sels": 8760,
      "exportation": 8761,
      "Intro": 8762,
      "TB": 8763,
      "commentaires": 8764,
      "Training": 8765,
      "opti": 8766,
      "follows": 8767,
      "Authority": 8768,
      "vra": 8769,
      "wise": 8770,
      "wish": 8771,
      "employer": 8772,
      "ètres": 8773,
      "nage": 8774,
      "creation": 8775,
      "Foreign": 8776,
      "AID": 8777,
      "Executive": 8778,
      "VIH": 8779,
      "immédi": 8780,
      "filed": 8781,
      "subsi": 8782,
      "envoy": 8783,
      "station": 8784,
      "isent": 8785,
      "satisfaction": 8786,
      "Communauté": 8787,
      "acceptable": 8788,
      "Vic": 8789,
      "Access": 8790,
      "naturelles": 8791,
      "Society": 8792,
      "appuyer": 8793,
      "formulaire": 8794,
      "retour": 8795,
      "étape": 8796,
      "bâ": 8797,
      "automa": 8798,
      "cée": 8799,
      "cession": 8800,
      "numé": 8801,
      "pd": 8802,
      "férences": 8803,
      "gam": 8804,
      "produire": 8805,
      "expenses": 8806,
      "Party": 8807,
      "sauf": 8808,
      "paiements": 8809,
      "oil": 8810,
      "versi": 8811,
      "fisc": 8812,
      "égalité": 8813,
      "Chapter": 8814,
      "psy": 8815,
      "processing": 8816,
      "Arc": 8817,
      "indemn": 8818,
      "ND": 8819,
      "implemented": 8820,
      "prevention": 8821,
      "véhicules": 8822,
      "lood": 8823,
      "marketing": 8824,
      "House": 8825,
      "search": 8826,
      "viennent": 8827,
      "sensi": 8828,
      "étaires": 8829,
      "candidate": 8830,
      "autorité": 8831,
      "POR": 8832,
      "clairement": 8833,
      "pages": 8834,
      "Support": 8835,
      "rc": 8836,
      "aveur": 8837,
      "Royal": 8838,
      "living": 8839,
      "immigration": 8840,
      "omo": 8841,
      "ANT": 8842,
      "lesquelles": 8843,
      "arante": 8844,
      "lined": 8845,
      "conception": 8846,
      "comprehensive": 8847,
      "amment": 8848,
      "Pas": 8849,
      "patient": 8850,
      "During": 8851,
      "mécanismes": 8852,
      "Figure": 8853,
      "See": 8854,
      "ghan": 8855,
      "crime": 8856,
      "clearly": 8857,
      "claims": 8858,
      "Davi": 8859,
      "Cham": 8860,
      "prévue": 8861,
      "commerciaux": 8862,
      "commune": 8863,
      "èque": 8864,
      "aura": 8865,
      "amended": 8866,
      "meilleure": 8867,
      "sales": 8868,
      "adopté": 8869,
      "departmental": 8870,
      "comments": 8871,
      "visé": 8872,
      "aster": 8873,
      "capit": 8874,
      "attend": 8875,
      "broadcas": 8876,
      "pain": 8877,
      "avo": 8878,
      "Mich": 8879,
      "difficult": 8880,
      "passé": 8881,
      "ele": 8882,
      "Laur": 8883,
      "procure": 8884,
      "militaires": 8885,
      "Let": 8886,
      "Neu": 8887,
      "charges": 8888,
      "ares": 8889,
      "refus": 8890,
      "réalisation": 8891,
      "fonctionnaires": 8892,
      "behavi": 8893,
      "users": 8894,
      "Éco": 8895,
      "hors": 8896,
      "actual": 8897,
      "relatif": 8898,
      "vation": 8899,
      "Western": 8900,
      "contribuer": 8901,
      "Park": 8902,
      "Gouver": 8903,
      "Network": 8904,
      "rail": 8905,
      "unité": 8906,
      "Forum": 8907,
      "Ressources": 8908,
      "parta": 8909,
      "ology": 8910,
      "commerciales": 8911,
      "details": 8912,
      "screen": 8913,
      "setting": 8914,
      "agricoles": 8915,
      "tard": 8916,
      "spécifiques": 8917,
      "analyses": 8918,
      "UM": 8919,
      "grands": 8920,
      "mains": 8921,
      "Cre": 8922,
      "réunions": 8923,
      "Dépenses": 8924,
      "NRC": 8925,
      "ka": 8926,
      "faveur": 8927,
      "wat": 8928,
      "brevets": 8929,
      "récent": 8930,
      "principales": 8931,
      "Tari": 8932,
      "foundland": 8933,
      "WA": 8934,
      "del": 8935,
      "passer": 8936,
      "shown": 8937,
      "protect": 8938,
      "stage": 8939,
      "ko": 8940,
      "iation": 8941,
      "clari": 8942,
      "enregistr": 8943,
      "Newfoundland": 8944,
      "selves": 8945,
      "Performance": 8946,
      "Bi": 8947,
      "échantillon": 8948,
      "ép": 8949,
      "amendments": 8950,
      "extra": 8951,
      "juge": 8952,
      "SUR": 8953,
      "accompag": 8954,
      "Sim": 8955,
      "Post": 8956,
      "yle": 8957,
      "bir": 8958,
      "laws": 8959,
      "Meas": 8960,
      "integration": 8961,
      "enable": 8962,
      "aces": 8963,
      "approvision": 8964,
      "aume": 8965,
      "listed": 8966,
      "lementing": 8967,
      "emphas": 8968,
      "composition": 8969,
      "criptions": 8970,
      "handic": 8971,
      "effectiveness": 8972,
      "Glo": 8973,
      "Hel": 8974,
      "exclusive": 8975,
      "vres": 8976,
      "crire": 8977,
      "designated": 8978,
      "matters": 8979,
      "RO": 8980,
      "external": 8981,
      "Pau": 8982,
      "proactive": 8983,
      "islative": 8984,
      "mption": 8985,
      "déliv": 8986,
      "maceu": 8987,
      "examine": 8988,
      "quelque": 8989,
      "Top": 8990,
      "approbation": 8991,
      "ongoing": 8992,
      "gestionnaires": 8993,
      "transactions": 8994,
      "majority": 8995,
      "although": 8996,
      "correc": 8997,
      "quences": 8998,
      "parc": 8999,
      "corporation": 9000,
      "logique": 9001,
      "win": 9002,
      "supérieur": 9003,
      "plas": 9004,
      "hes": 9005,
      "érieurs": 9006,
      "operate": 9007,
      "investigation": 9008,
      "llement": 9009,
      "Bur": 9010,
      "aér": 9011,
      "emplois": 9012,
      "Met": 9013,
      "implic": 9014,
      "constituent": 9015,
      "jud": 9016,
      "room": 9017,
      "proch": 9018,
      "subsequent": 9019,
      "thus": 9020,
      "réponses": 9021,
      "horiz": 9022,
      "suggest": 9023,
      "plement": 9024,
      "TM": 9025,
      "majorité": 9026,
      "requested": 9027,
      "City": 9028,
      "exceed": 9029,
      "takes": 9030,
      "improved": 9031,
      "ensuring": 9032,
      "enhance": 9033,
      "Our": 9034,
      "ago": 9035,
      "conver": 9036,
      "positifs": 9037,
      "grad": 9038,
      "Es": 9039,
      "andis": 9040,
      "fici": 9041,
      "transformation": 9042,
      "attr": 9043,
      "undertaking": 9044,
      "detailed": 9045,
      "Charter": 9046,
      "employeur": 9047,
      "erie": 9048,
      "EA": 9049,
      "cret": 9050,
      "danger": 9051,
      "depos": 9052,
      "jected": 9053,
      "citizens": 9054,
      "Après": 9055,
      "Autochtones": 9056,
      "itement": 9057,
      "électr": 9058,
      "rement": 9059,
      "cueill": 9060,
      "aller": 9061,
      "Recherche": 9062,
      "consiste": 9063,
      "climate": 9064,
      "Deputy": 9065,
      "aise": 9066,
      "sold": 9067,
      "itself": 9068,
      "duties": 9069,
      "incorpor": 9070,
      "Princip": 9071,
      "limites": 9072,
      "amounts": 9073,
      "zation": 9074,
      "Slo": 9075,
      "intermédi": 9076,
      "method": 9077,
      "Africa": 9078,
      "étro": 9079,
      "atell": 9080,
      "whose": 9081,
      "rédi": 9082,
      "carb": 9083,
      "exercise": 9084,
      "enforcement": 9085,
      "alk": 9086,
      "dû": 9087,
      "impli": 9088,
      "Sous": 9089,
      "once": 9090,
      "Disclosure": 9091,
      "assets": 9092,
      "juridiques": 9093,
      "ibility": 9094,
      "essentiel": 9095,
      "AIDS": 9096,
      "isms": 9097,
      "El": 9098,
      "lettre": 9099,
      "fournisseurs": 9100,
      "Div": 9101,
      "usinesses": 9102,
      "Meeting": 9103,
      "researchers": 9104,
      "roy": 9105,
      "VIC": 9106,
      "waste": 9107,
      "catégories": 9108,
      "ouest": 9109,
      "wood": 9110,
      "ute": 9111,
      "isant": 9112,
      "aéro": 9113,
      "sibilité": 9114,
      "interventions": 9115,
      "money": 9116,
      "Custom": 9117,
      "gène": 9118,
      "enfant": 9119,
      "porting": 9120,
      "ducing": 9121,
      "uniquement": 9122,
      "compensation": 9123,
      "pdf": 9124,
      "going": 9125,
      "appear": 9126,
      "expect": 9127,
      "That": 9128,
      "interes": 9129,
      "Politique": 9130,
      "variety": 9131,
      "Delegation": 9132,
      "ength": 9133,
      "asses": 9134,
      "alternative": 9135,
      "utilisées": 9136,
      "Ministry": 9137,
      "uits": 9138,
      "éten": 9139,
      "ensuite": 9140,
      "préci": 9141,
      "commerciale": 9142,
      "dues": 9143,
      "marques": 9144,
      "Proper": 9145,
      "jointe": 9146,
      "dimension": 9147,
      "consulter": 9148,
      "testing": 9149,
      "permettent": 9150,
      "retraite": 9151,
      "auto": 9152,
      "engagements": 9153,
      "physique": 9154,
      "gn": 9155,
      "image": 9156,
      "Street": 9157,
      "Of": 9158,
      "150": 9159,
      "préal": 9160,
      "rapidement": 9161,
      "Type": 9162,
      "David": 9163,
      "déchets": 9164,
      "équipement": 9165,
      "bodies": 9166,
      "election": 9167,
      "Media": 9168,
      "ibilité": 9169,
      "move": 9170,
      "restrictions": 9171,
      "Results": 9172,
      "Schedule": 9173,
      "tiennent": 9174,
      "adequate": 9175,
      "més": 9176,
      "K1A": 9177,
      "immobil": 9178,
      "contenant": 9179,
      "perspective": 9180,
      "garde": 9181,
      "istics": 9182,
      "Pur": 9183,
      "series": 9184,
      "utilisateurs": 9185,
      "propose": 9186,
      "resolution": 9187,
      "discu": 9188,
      "expos": 9189,
      "noti": 9190,
      "understand": 9191,
      "conférence": 9192,
      "border": 9193,
      "laun": 9194,
      "affich": 9195,
      "Cy": 9196,
      "prices": 9197,
      "Ainsi": 9198,
      "expressed": 9199,
      "reflect": 9200,
      "Introduction": 9201,
      "ruption": 9202,
      "China": 9203,
      "transportation": 9204,
      "SOC": 9205,
      "peup": 9206,
      "Source": 9207,
      "1980": 9208,
      "lege": 9209,
      "ancing": 9210,
      "informed": 9211,
      "rempla": 9212,
      "Directeur": 9213,
      "Directorate": 9214,
      "comporte": 9215,
      "Tous": 9216,
      "wers": 9217,
      "book": 9218,
      "Royaume": 9219,
      "Calgary": 9220,
      "porté": 9221,
      "exposure": 9222,
      "OH": 9223,
      "tirer": 9224,
      "arbit": 9225,
      "Summary": 9226,
      "addressed": 9227,
      "contrats": 9228,
      "éviter": 9229,
      "GH": 9230,
      "municipal": 9231,
      "Alle": 9232,
      "subventions": 9233,
      "tière": 9234,
      "gouvernementaux": 9235,
      "Afghan": 9236,
      "explain": 9237,
      "bord": 9238,
      "Central": 9239,
      "essais": 9240,
      "Mes": 9241,
      "présentée": 9242,
      "ping": 9243,
      "tariff": 9244,
      "distance": 9245,
      "adaptation": 9246,
      "régionaux": 9247,
      "participate": 9248,
      "andon": 9249,
      "spect": 9250,
      "magne": 9251,
      "pouvoirs": 9252,
      "familles": 9253,
      "contained": 9254,
      "indicate": 9255,
      "hard": 9256,
      "phones": 9257,
      "admissibles": 9258,
      "cles": 9259,
      "défis": 9260,
      "continuer": 9261,
      "difficile": 9262,
      "Case": 9263,
      "formul": 9264,
      "forest": 9265,
      "Cri": 9266,
      "iries": 9267,
      "param": 9268,
      "Lu": 9269,
      "reedom": 9270,
      "privée": 9271,
      "families": 9272,
      "officer": 9273,
      "1986": 9274,
      "cultures": 9275,
      "facilitate": 9276,
      "locales": 9277,
      "Use": 9278,
      "GI": 9279,
      "Pra": 9280,
      "Cro": 9281,
      "ulgation": 9282,
      "Day": 9283,
      "SION": 9284,
      "release": 9285,
      "blioth": 9286,
      "Depuis": 9287,
      "partenariats": 9288,
      "Photo": 9289,
      "Mrs": 9290,
      "ived": 9291,
      "rend": 9292,
      "scale": 9293,
      "concep": 9294,
      "essai": 9295,
      "ham": 9296,
      "Revenue": 9297,
      "relè": 9298,
      "degree": 9299,
      "terrain": 9300,
      "build": 9301,
      "commod": 9302,
      "Notice": 9303,
      "CRTC": 9304,
      "arts": 9305,
      "confi": 9306,
      "vices": 9307,
      "struct": 9308,
      "Oce": 9309,
      "survi": 9310,
      "mol": 9311,
      "ignant": 9312,
      "=\"": 9313,
      "consis": 9314,
      "visés": 9315,
      "cup": 9316,
      "submit": 9317,
      "rep": 9318,
      "claration": 9319,
      "étrangères": 9320,
      "Plus": 9321,
      "consumer": 9322,
      "supporting": 9323,
      "Dur": 9324,
      "chimiques": 9325,
      "plants": 9326,
      "trial": 9327,
      "agricole": 9328,
      "partner": 9329,
      "çant": 9330,
      "Afrique": 9331,
      "observation": 9332,
      "veloppement": 9333,
      "brevet": 9334,
      "ÉR": 9335,
      "Appro": 9336,
      "Unies": 9337,
      "licences": 9338,
      "ousing": 9339,
      "troisième": 9340,
      "Annual": 9341,
      "guerre": 9342,
      "sumers": 9343,
      "Members": 9344,
      "Back": 9345,
      "sembla": 9346,
      "dès": 9347,
      "component": 9348,
      "sexu": 9349,
      "professionnelle": 9350,
      "handicap": 9351,
      "differences": 9352,
      "lang": 9353,
      "ATE": 9354,
      "tentes": 9355,
      "isations": 9356,
      "Entre": 9357,
      "pourcentage": 9358,
      "Secretary": 9359,
      "granted": 9360,
      "dessous": 9361,
      "pending": 9362,
      "fla": 9363,
      "Mission": 9364,
      "ological": 9365,
      "générales": 9366,
      "leading": 9367,
      "managers": 9368,
      "MIN": 9369,
      "Hali": 9370,
      "Écosse": 9371,
      "manque": 9372,
      "jeux": 9373,
      "too": 9374,
      "ring": 9375,
      "infection": 9376,
      "dispar": 9377,
      "norme": 9378,
      "statistiques": 9379,
      "négociations": 9380,
      "datab": 9381,
      "sett": 9382,
      "quantité": 9383,
      "pard": 9384,
      "live": 9385,
      "lymp": 9386,
      "mentioned": 9387,
      "résultat": 9388,
      "cut": 9389,
      "ouvez": 9390,
      "Year": 9391,
      "maintien": 9392,
      "importe": 9393,
      "Search": 9394,
      "ildlife": 9395,
      "efficaces": 9396,
      "légu": 9397,
      "tait": 9398,
      "hospital": 9399,
      "bound": 9400,
      "importation": 9401,
      "barri": 9402,
      "ns": 9403,
      "Lead": 9404,
      "empê": 9405,
      "tiqu": 9406,
      "Articles": 9407,
      "autonom": 9408,
      "répercussions": 9409,
      "committed": 9410,
      "tas": 9411,
      "compéti": 9412,
      "aque": 9413,
      "contracts": 9414,
      "yond": 9415,
      "histoire": 9416,
      "From": 9417,
      "RS": 9418,
      "permit": 9419,
      "tees": 9420,
      "Effe": 9421,
      "cependant": 9422,
      "................................": 9423,
      "pil": 9424,
      "themselves": 9425,
      "principale": 9426,
      "STR": 9427,
      "rencontr": 9428,
      "implementing": 9429,
      "Proactive": 9430,
      "observed": 9431,
      "comprennent": 9432,
      "agir": 9433,
      "interprétation": 9434,
      "acted": 9435,
      "death": 9436,
      "subvention": 9437,
      "actuel": 9438,
      "Hy": 9439,
      "genre": 9440,
      "accent": 9441,
      "géograph": 9442,
      "fee": 9443,
      "businesses": 9444,
      "rid": 9445,
      "expansion": 9446,
      "Dom": 9447,
      "concours": 9448,
      "sociales": 9449,
      "maintenir": 9450,
      "isée": 9451,
      "cotis": 9452,
      "augmenter": 9453,
      "Natural": 9454,
      "zing": 9455,
      "Auc": 9456,
      "fondée": 9457,
      "ying": 9458,
      "cular": 9459,
      "600": 9460,
      "Indic": 9461,
      "van": 9462,
      "Second": 9463,
      "opposition": 9464,
      "obtain": 9465,
      "résolution": 9466,
      "tail": 9467,
      "recognized": 9468,
      "spor": 9469,
      "rought": 9470,
      "quand": 9471,
      "abinet": 9472,
      "hearing": 9473,
      "Halifax": 9474,
      "Property": 9475,
      "Name": 9476,
      "permettra": 9477,
      "rect": 9478,
      "goals": 9479,
      "mortal": 9480,
      "ha": 9481,
      "prêts": 9482,
      "perfection": 9483,
      "prohib": 9484,
      "Recomm": 9485,
      "Mat": 9486,
      "chement": 9487,
      "Insurance": 9488,
      "corporate": 9489,
      "($": 9490,
      "Parks": 9491,
      "jurisdiction": 9492,
      "Commerce": 9493,
      "OSCE": 9494,
      "territoires": 9495,
      "Strategic": 9496,
      "significantly": 9497,
      "SEC": 9498,
      "EE": 9499,
      "Téléphone": 9500,
      "isées": 9501,
      "prac": 9502,
      "constances": 9503,
      "Lis": 9504,
      "components": 9505,
      "About": 9506,
      "Divulgation": 9507,
      "deur": 9508,
      "artis": 9509,
      "étrangers": 9510,
      "disciplin": 9511,
      "agency": 9512,
      "obstacles": 9513,
      "carbon": 9514,
      "instance": 9515,
      "ald": 9516,
      "mograph": 9517,
      "temper": 9518,
      "cade": 9519,
      "Syst": 9520,
      "officers": 9521,
      "urban": 9522,
      "biling": 9523,
      "poids": 9524,
      "Voir": 9525,
      "Esti": 9526,
      "payable": 9527,
      "bene": 9528,
      "guarante": 9529,
      "spec": 9530,
      "intég": 9531,
      "actifs": 9532,
      "participant": 9533,
      "ising": 9534,
      "Instru": 9535,
      "gare": 9536,
      "supports": 9537,
      "factor": 9538,
      "meaning": 9539,
      "circonstances": 9540,
      "titulaire": 9541,
      "évaluations": 9542,
      "imposition": 9543,
      "authorized": 9544,
      "monton": 9545,
      "Gé": 9546,
      "York": 9547,
      "indicateurs": 9548,
      "Survey": 9549,
      "Cet": 9550,
      "fees": 9551,
      "Fam": 9552,
      "flex": 9553,
      "ologie": 9554,
      "Industrie": 9555,
      "rivi": 9556,
      "incen": 9557,
      "modifier": 9558,
      "oise": 9559,
      "Consi": 9560,
      "associés": 9561,
      "accur": 9562,
      "combus": 9563,
      "endu": 9564,
      "complaint": 9565,
      "enquêtes": 9566,
      "commiss": 9567,
      "VER": 9568,
      "jamais": 9569,
      "Pacific": 9570,
      "tone": 9571,
      "Edmonton": 9572,
      "TP": 9573,
      "bate": 9574,
      "dail": 9575,
      "Rich": 9576,
      "improving": 9577,
      "Mer": 9578,
      "Communication": 9579,
      "Invest": 9580,
      "anticip": 9581,
      "forum": 9582,
      "loo": 9583,
      "publié": 9584,
      "establishing": 9585,
      "Stratég": 9586,
      "discussed": 9587,
      "{\\": 9588,
      "target": 9589,
      "double": 9590,
      "seraient": 9591,
      "totale": 9592,
      "Not": 9593,
      "officials": 9594,
      "bag": 9595,
      "Ca": 9596,
      "sauv": 9597,
      "SD": 9598,
      "audience": 9599,
      "plainte": 9600,
      "soumis": 9601,
      "haute": 9602,
      "écar": 9603,
      "tically": 9604,
      "bureaux": 9605,
      "Programs": 9606,
      "Port": 9607,
      "recommended": 9608,
      "Inves": 9609,
      "ked": 9610,
      "fournis": 9611,
      "obtenu": 9612,
      "selected": 9613,
      "fel": 9614,
      "dispu": 9615,
      "mechanisms": 9616,
      "suis": 9617,
      "Nombre": 9618,
      "Neuve": 9619,
      "Esp": 9620,
      "modes": 9621,
      "outcomes": 9622,
      "utilisée": 9623,
      "proceedings": 9624,
      "Victor": 9625,
      "dose": 9626,
      "financing": 9627,
      "crits": 9628,
      "copies": 9629,
      "employed": 9630,
      "professionnel": 9631,
      "alli": 9632,
      "please": 9633,
      "pouvez": 9634,
      "achieved": 9635,
      "Add": 9636,
      "osph": 9637,
      "complète": 9638,
      "spécifique": 9639,
      "except": 9640,
      "norm": 9641,
      "pleine": 9642,
      "forte": 9643,
      "applicables": 9644,
      "sujets": 9645,
      "produce": 9646,
      "crédits": 9647,
      "growing": 9648,
      "visées": 9649,
      "holder": 9650,
      "minutes": 9651,
      "raisonnable": 9652,
      "schedu": 9653,
      "Super": 9654,
      "seen": 9655,
      "susceptibles": 9656,
      "applies": 9657,
      "remboursement": 9658,
      "pulation": 9659,
      "ceptions": 9660,
      "website": 9661,
      "120": 9662,
      "ourable": 9663,
      "Reference": 9664,
      "traités": 9665,
      "adver": 9666,
      "trust": 9667,
      "IRE": 9668,
      "montre": 9669,
      "fire": 9670,
      "Ke": 9671,
      "maritime": 9672,
      "ANS": 9673,
      "prévus": 9674,
      "expenditures": 9675,
      "want": 9676,
      "Atlantique": 9677,
      "little": 9678,
      "numbers": 9679,
      "conven": 9680,
      "perte": 9681,
      "prescri": 9682,
      "appointment": 9683,
      "satell": 9684,
      "duty": 9685,
      "reser": 9686,
      "Recommend": 9687,
      "reviewed": 9688,
      "announced": 9689,
      "step": 9690,
      "soutenir": 9691,
      "resulting": 9692,
      "Aut": 9693,
      "tabac": 9694,
      "ouvert": 9695,
      "lus": 9696,
      "révision": 9697,
      "préhen": 9698,
      "nomin": 9699,
      "adjust": 9700,
      "circulation": 9701,
      "titudes": 9702,
      "rapid": 9703,
      "Défense": 9704,
      "makes": 9705,
      "Speci": 9706,
      "efficiency": 9707,
      "governmental": 9708,
      "presence": 9709,
      "ouvé": 9710,
      "containing": 9711,
      "généraux": 9712,
      "maje": 9713,
      "funded": 9714,
      "film": 9715,
      "KB": 9716,
      "Risk": 9717,
      "Afghanistan": 9718,
      "respecter": 9719,
      "mac": 9720,
      "tandis": 9721,
      "certification": 9722,
      "entry": 9723,
      "ield": 9724,
      "Innov": 9725,
      "tonnes": 9726,
      "always": 9727,
      "length": 9728,
      "Youth": 9729,
      "utile": 9730,
      "logie": 9731,
      "aérone": 9732,
      "sif": 9733,
      "Energy": 9734,
      "semaine": 9735,
      "bin": 9736,
      "Identi": 9737,
      "tempér": 9738,
      "Objec": 9739,
      "gouvernementales": 9740,
      "augmenté": 9741,
      "atifs": 9742,
      "actif": 9743,
      "lets": 9744,
      "ower": 9745,
      "affili": 9746,
      "presse": 9747,
      "participating": 9748,
      "producers": 9749,
      "traffic": 9750,
      "facture": 9751,
      "supplémentaire": 9752,
      "eure": 9753,
      "Gaz": 9754,
      "agricultural": 9755,
      "weight": 9756,
      "allocation": 9757,
      "TIONS": 9758,
      "locations": 9759,
      "pétro": 9760,
      "competitive": 9761,
      "sole": 9762,
      "stress": 9763,
      "Modi": 9764,
      "exploit": 9765,
      "BL": 9766,
      "renforcement": 9767,
      "approaches": 9768,
      "Rail": 9769,
      "atif": 9770,
      "Tableau": 9771,
      "FIN": 9772,
      "rables": 9773,
      "cm": 9774,
      "offered": 9775,
      "BE": 9776,
      "otherwise": 9777,
      "continues": 9778,
      "chargé": 9779,
      "congé": 9780,
      "importations": 9781,
      "portent": 9782,
      "ttes": 9783,
      "ierre": 9784,
      "recettes": 9785,
      "événements": 9786,
      "zo": 9787,
      "expir": 9788,
      "thodo": 9789,
      "examination": 9790,
      "ache": 9791,
      "entire": 9792,
      "autant": 9793,
      "cents": 9794,
      "drogues": 9795,
      "garantir": 9796,
      "facility": 9797,
      "Museum": 9798,
      "units": 9799,
      "Dro": 9800,
      "ITY": 9801,
      "items": 9802,
      "franco": 9803,
      "humaine": 9804,
      "After": 9805,
      "NATION": 9806,
      "nutrition": 9807,
      "].": 9808,
      "entend": 9809,
      "représentent": 9810,
      "findings": 9811,
      "earlier": 9812,
      "ienne": 9813,
      "PER": 9814,
      "développer": 9815,
      "raine": 9816,
      "igne": 9817,
      "socio": 9818,
      "ik": 9819,
      "aix": 9820,
      "entretien": 9821,
      "animal": 9822,
      "UK": 9823,
      "Chine": 9824,
      "East": 9825,
      "threat": 9826,
      "senior": 9827,
      "réaliser": 9828,
      "approvisionnement": 9829,
      "assis": 9830,
      "Four": 9831,
      "separate": 9832,
      "useful": 9833,
      "Chris": 9834,
      "liminary": 9835,
      "puisse": 9836,
      "prison": 9837,
      "exclusion": 9838,
      "visu": 9839,
      "yet": 9840,
      "CEE": 9841,
      "semaines": 9842,
      "requis": 9843,
      "défini": 9844,
      "mondial": 9845,
      "culturelles": 9846,
      "effectively": 9847,
      "Cré": 9848,
      "lieux": 9849,
      "start": 9850,
      "Deux": 9851,
      "Mad": 9852,
      "virus": 9853,
      "Index": 9854,
      "reconnaissance": 9855,
      "appliquent": 9856,
      "fiées": 9857,
      "cris": 9858,
      "copieur": 9859,
      "territory": 9860,
      "veu": 9861,
      "diagnos": 9862,
      "insta": 9863,
      "reform": 9864,
      "lits": 9865,
      "Reports": 9866,
      "Institution": 9867,
      "FIC": 9868,
      "acid": 9869,
      "bid": 9870,
      "gets": 9871,
      "Partnership": 9872,
      "adopter": 9873,
      "plein": 9874,
      "Promo": 9875,
      "ém": 9876,
      "Développement": 9877,
      "inscrit": 9878,
      "réforme": 9879,
      "Finance": 9880,
      "alimentaires": 9881,
      "rig": 9882,
      "SERVIC": 9883,
      "amendment": 9884,
      "conforme": 9885,
      "premiers": 9886,
      "aj": 9887,
      "aria": 9888,
      "cemment": 9889,
      "meu": 9890,
      "pouvant": 9891,
      "hausse": 9892,
      "amén": 9893,
      "ung": 9894,
      "item": 9895,
      "départ": 9896,
      "calend": 9897,
      "BO": 9898,
      "orge": 9899,
      "communes": 9900,
      "flo": 9901,
      "stocks": 9902,
      "sensibilisation": 9903,
      "SAR": 9904,
      "Found": 9905,
      "py": 9906,
      "Advisory": 9907,
      "dirige": 9908,
      "maxim": 9909,
      "))": 9910,
      "argent": 9911,
      "enseignements": 9912,
      "Conclu": 9913,
      "complément": 9914,
      "etary": 9915,
      "quit": 9916,
      "Mais": 9917,
      "beyond": 9918,
      "Den": 9919,
      "quarter": 9920,
      "apporter": 9921,
      "Robert": 9922,
      "stable": 9923,
      "asing": 9924,
      "followed": 9925,
      "confiance": 9926,
      "consumers": 9927,
      "effectué": 9928,
      "avoc": 9929,
      "simpli": 9930,
      "différences": 9931,
      "correction": 9932,
      "Marine": 9933,
      "tidi": 9934,
      "iring": 9935,
      "Class": 9936,
      "mations": 9937,
      "ished": 9938,
      "patrimoine": 9939,
      "régionale": 9940,
      "Infr": 9941,
      "gender": 9942,
      "contient": 9943,
      "codes": 9944,
      "érieures": 9945,
      "paign": 9946,
      "Germany": 9947,
      "gains": 9948,
      "Etat": 9949,
      "instructions": 9950,
      "spon": 9951,
      "Guidelines": 9952,
      "remains": 9953,
      "ACT": 9954,
      "workshop": 9955,
      "Paris": 9956,
      "bâti": 9957,
      "entrepreneurs": 9958,
      "aking": 9959,
      "liberté": 9960,
      "HO": 9961,
      "rur": 9962,
      "Building": 9963,
      "secondary": 9964,
      "Vol": 9965,
      "divi": 9966,
      "recommandation": 9967,
      "Provincial": 9968,
      "répondants": 9969,
      "INT": 9970,
      "icains": 9971,
      "answer": 9972,
      "ara": 9973,
      "ently": 9974,
      "notification": 9975,
      "Dan": 9976,
      "édition": 9977,
      "goal": 9978,
      "partage": 9979,
      "IST": 9980,
      "reconnu": 9981,
      "mière": 9982,
      "Customs": 9983,
      "potentiel": 9984,
      "Coordin": 9985,
      "introduced": 9986,
[...]
