{
  "version": "1.0",
  "truncation": null,
  "padding": null,
  "added_tokens": [
    {
      "id": 0,
      "content": "<pad>",
      "single_word": false,
      "lstrip": false,
      "rstrip": false,
      "normalized": false,
      "special": true
    },
    {
      "id": 1,
      "content": "<bos>",
      "single_word": false,
      "lstrip": false,
      "rstrip": false,
      "normalized": false,
      "special": true
    },
    {
      "id": 2,
      "content": "<eos>",
      "single_word": false,
      "lstrip": false,
      "rstrip": false,
      "normalized": false,
      "special": true
    },
    {
      "id": 3,
      "content": "<unk>",
      "single_word": false,
      "lstrip": false,
      "rstrip": false,
      "normalized": false,
      "special": true
    }
  ],
  "normalizer": {
    "type": "Lowercase"
  },
  "pre_tokenizer": {
    "type": "ByteLevel",
    "add_prefix_space": true,
    "trim_offsets": true,
    "use_regex": true
  },
  "post_processor": null,
  "decoder": null,
  "model": {
    "type": "BPE",
    "dropout": null,
    "unk_token": "<unk>",
    "continuing_subword_prefix": null,
    "end_of_word_suffix": null,
    "fuse_unk": false,
    "byte_fallback": false,
    "ignore_merges": false,
    "vocab": {
      "<pad>": 0,
      "<bos>": 1,
      "<eos>": 2,
      "<unk>": 3,
      "!": 4,
      "\"": 5,
      "#": 6,
      "%": 7,
      "&": 8,
      "'": 9,
      "(": 10,
      ")": 11,
      "*": 12,
      ",": 13,
      "-": 14,
      ".": 15,
      "/": 16,
      "0": 17,
      "1": 18,
      "2": 19,
      "3": 20,
      "4": 21,
      "5": 22,
      "6": 23,
      "7": 24,
      "8": 25,
      "9": 26,
      ":": 27,
      ";": 28,
      "?": 29,
      "@": 30,
      "[": 31,
      "\\": 32,
      "]": 33,
      "_": 34,
      "a": 35,
      "b": 36,
      "c": 37,
      "d": 38,
      "e": 39,
      "f": 40,
      "g": 41,
      "h": 42,
      "i": 43,
      "j": 44,
      "k": 45,
      "l": 46,
      "m": 47,
      "n": 48,
      "o": 49,
      "p": 50,
      "q": 51,
      "r": 52,
      "s": 53,
      "t": 54,
      "u": 55,
      "v": 56,
      "w": 57,
      "x": 58,
      "y": 59,
      "z": 60,
      "{": 61,
      "}": 62,
      "¡": 63,
      "¢": 64,
      "£": 65,
      "¤": 66,
      "¥": 67,
      "¦": 68,
      "§": 69,
      "¨": 70,
      "©": 71,
      "ª": 72,
      "«": 73,
      "¬": 74,
      "®": 75,
      "¯": 76,
      "°": 77,
      "±": 78,
      "²": 79,
      "³": 80,
      "´": 81,
      "µ": 82,
      "¶": 83,
      "·": 84,
      "¸": 85,
      "¹": 86,
      "º": 87,
      "»": 88,
      "¼": 89,
      "½": 90,
      "¾": 91,
      "¿": 92,
      "Â": 93,
      "Ã": 94,
      "Ä": 95,
      "Å": 96,
      "Æ": 97,
      "Ç": 98,
      "È": 99,
      "É": 100,
      "Ê": 101,
      "Ì": 102,
      "Í": 103,
      "Î": 104,
      "Ù": 105,
      "Ü": 106,
      "á": 107,
      "â": 108,
      "ã": 109,
      "ï": 110,
      "Ġ": 111,
      "Ģ": 112,
      "ģ": 113,
      "Ĥ": 114,
      "ĥ": 115,
      "Ħ": 116,
      "ħ": 117,
      "Ĩ": 118,
      "ĩ": 119,
      "Ī": 120,
      "ī": 121,
      "Ĭ": 122,
      "ĭ": 123,
      "Į": 124,
      "į": 125,
      "İ": 126,
      "ı": 127,
      "Ĳ": 128,
      "ĳ": 129,
      "Ĵ": 130,
      "ĵ": 131,
      "Ķ": 132,
      "ķ": 133,
      "ĸ": 134,
      "Ĺ": 135,
      "ĺ": 136,
      "Ļ": 137,
      "ļ": 138,
      "Ľ": 139,
      "ľ": 140,
      "Ŀ": 141,
      "ŀ": 142,
      "Ł": 143,
      "ł": 144,
      "Ń": 145,
      "es": 146,
      "Ġd": 147,
      "on": 148,
      "Ġa": 149,
      "en": 150,
      "Ġt": 151,
      "ti": 152,
      "Ġl": 153,
      "Ã©": 154,
      "Ġp": 155,
      "Ġc": 156,
      "in": 157,
      "er": 158,
      "Ġs": 159,
      "re": 160,
      "an": 161,
      "Ġth": 162,
      "Ġde": 163,
      "tion": 164,
      "or": 165,
      "is": 166,
      "ent": 167,
      "ou": 168,
      "it": 169,
      "Ġthe": 170,
      "Ġe": 171,
      "al": 172,
      "Ġm": 173,
      "ar": 174,
      "Ġf": 175,
      "Ġo": 176,
      "Ġin": 177,
      "qu": 178,
      "ro": 179,
      "ation": 180,
      "at": 181,
      "Ġb": 182,
      "le": 183,
      "ic": 184,
      "ment": 185,
      "Ġan": 186,
      "Ġof": 187,
      "Ġn": 188,
      "Ġla": 189,
      "ur": 190,
      "âĢ": 191,
      "un": 192,
      "Ġr": 193,
      "om": 194,
      "ed": 195,
      "Ġw": 196,
      "il": 197,
      "Ġdes": 198,
      "Ġre": 199,
      "Ġand": 200,
      "Ġet": 201,
      "el": 202,
      "Ġle": 203,
      "âĢĻ": 204,
      "Ġpro": 205,
      "Ġles": 206,
      "Ġcon": 207,
      "Ġto": 208,
      "as": 209,
      "ec": 210,
      "ce": 211,
      "us": 212,
      "ra": 213,
      "Ġqu": 214,
      "ĠÃ": 215,
      "Ġh": 216,
      "ing": 217,
      "Ġen": 218,
      "Ġg": 219,
      "ant": 220,
      "our": 221,
      "ĠÃł": 222,
      "Ġcom": 223,
      "si": 224,
      "te": 225,
      "ir": 226,
      "Ġun": 227,
      "ri": 228,
      "Ġau": 229,
      "ad": 230,
      "Ġv": 231,
      "Ġpar": 232,
      "et": 233,
      "ol": 234,
      "ch": 235,
      "Ġ(": 236,
      "ve": 237,
      "Ġdu": 238,
      "ul": 239,
      "Ã¨": 240,
      "Ã©s": 241,
      "pp": 242,
      "ci": 243,
      "ta": 244,
      "Ġfor": 245,
      "Ġ1": 246,
      "ter": 247,
      "ans": 248,
      "ĠÃ©": 249,
      "im": 250,
      "ement": 251,
      "tr": 252,
      "Ġon": 253,
      "ers": 254,
      "os": 255,
      "ig": 256,
      "Ġ2": 257,
      "au": 258,
      "id": 259,
      "00": 260,
      "Ġcan": 261,
      "ag": 262,
      "ac": 263,
      "th": 264,
      "Ġpr": 265,
      "ire": 266,
      "Ġex": 267,
      "me": 268,
      "ess": 269,
      "est": 270,
      "Ġsu": 271,
      "ĠdÃ©": 272,
      "ort": 273,
      "ab": 274,
      "Ġac": 275,
      "ff": 276,
      "Ġpour": 277,
      "Ġas": 278,
      "Ġcanad": 279,
      "ations": 280,
      "tu": 281,
      "Ġch": 282,
      "Ġor": 283,
      "ver": 284,
      "Ġbe": 285,
      "bl": 286,
      "em": 287,
      "Ġis": 288,
      "Ġpl": 289,
      "ie": 290,
      "que": 291,
      "Ġdans": 292,
      "Ġsur": 293,
      "Ġcomm": 294,
      "ion": 295,
      "and": 296,
      "ati": 297,
      "tÃ©": 298,
      "pl": 299,
      "ate": 300,
      "di": 301,
      "Ġj": 302,
      "du": 303,
      "Ġque": 304,
      "ĠrÃ©": 305,
      "ts": 306,
      "Ġthat": 307,
      "Ġno": 308,
      "op": 309,
      "tre": 310,
      "ĠâĢ": 311,
      "itÃ©": 312,
      "end": 313,
      "Ġal": 314,
      "Ġres": 315,
      "Ġou": 316,
      "iv": 317,
      "ont": 318,
      "Ġcomp": 319,
      "sion": 320,
      "am": 321,
      "ith": 322,
      "Ġmo": 323,
      "ly": 324,
      "tin": 325,
      "se": 326,
      "Ġwh": 327,
      "Ġapp": 328,
      "ces": 329,
      "for": 330,
      "Ã©r": 331,
      "ay": 332,
      "Ġune": 333,
      "tions": 334,
      "ance": 335,
      "ity": 336,
      "Ġwith": 337,
      "Ġ200": 338,
      "Ġser": 339,
      "onn": 340,
      "iti": 341,
      "um": 342,
      "fic": 343,
      "Ġne": 344,
      "ill": 345,
      "Ã©e": 346,
      "Ġse": 347,
      "ous": 348,
      "oc": 349,
      "Ġav": 350,
      "Ġcanada": 351,
      "urs": 352,
      "ence": 353,
      "vel": 354,
      "Ġqui": 355,
      "Ġim": 356,
      "res": 357,
      "Ġad": 358,
      "Ã©es": 359,
      "Ġtra": 360,
      "tic": 361,
      "ure": 362,
      "les": 363,
      "ain": 364,
      "ow": 365,
      "form": 366,
      "Ġit": 367,
      "de": 368,
      "port": 369,
      "Ġby": 370,
      "Ġare": 371,
      "st": 372,
      "Ġinter": 373,
      "ist": 374,
      "ut": 375,
      "ques": 376,
      "Ġtr": 377,
      "Ġaux": 378,
      "Ġest": 379,
      "cl": 380,
      "Ġat": 381,
      "ĠâĢ¢": 382,
      "oun": 383,
      "Ġy": 384,
      "ap": 385,
      "ne": 386,
      "Ġcons": 387,
      "Ġfa": 388,
      "Ġserv": 389,
      "gra": 390,
      "ale": 391,
      "ction": 392,
      "Ġ19": 393,
      "ere": 394,
      "Ġso": 395,
      "ct": 396,
      "Ġper": 397,
      "ten": 398,
      "ang": 399,
      "Ġdis": 400,
      "ue": 401,
      "Ġst": 402,
      "able": 403,
      "__": 404,
      "pr": 405,
      "der": 406,
      "ments": 407,
      "Ġservic": 408,
      "age": 409,
      "aux": 410,
      "ient": 411,
      "Ġpu": 412,
      "pec": 413,
      "ign": 414,
      "Ġco": 415,
      "Ã¨re": 416,
      "mes": 417,
      "ien": 418,
      "ies": 419,
      "ting": 420,
      "ais": 421,
      "ble": 422,
      "tiv": 423,
      "Ġce": 424,
      "Ġsec": 425,
      "Ġ3": 426,
      "Ġsh": 427,
      "Ġpas": 428,
      "ational": 429,
      "Ġprov": 430,
      "ires": 431,
      "pe": 432,
      "min": 433,
      "ard": 434,
      "Ġmar": 435,
      "elle": 436,
      "Ġplus": 437,
      "Ġgr": 438,
      "gram": 439,
      "Ġag": 440,
      "ique": 441,
      "og": 442,
      "Ġpe": 443,
      "Ġthis": 444,
      "Ġprogram": 445,
      "Ġar": 446,
      "ons": 447,
      "app": 448,
      "Ġfin": 449,
      "Ã©c": 450,
      "rom": 451,
      "Ãª": 452,
      "Ġil": 453,
      "ants": 454,
      "Ġcl": 455,
      "ven": 456,
      "Ġ-": 457,
      "Ġrec": 458,
      "Ġmin": 459,
      "per": 460,
      "ord": 461,
      "Ġpol": 462,
      "Ġparti": 463,
      "aire": 464,
      "entre": 465,
      "Ġacc": 466,
      "Ġprodu": 467,
      "ux": 468,
      "Ġpubl": 469,
      "ber": 470,
      "Ġass": 471,
      "oul": 472,
      "ex": 473,
      "Ġcommun": 474,
      "Ġman": 475,
      "od": 476,
      "ins": 477,
      "plo": 478,
      "Ġnot": 479,
      "ated": 480,
      "Ġsont": 481,
      "Ġhe": 482,
      "Ġk": 483,
      "Ġreg": 484,
      "Ġam": 485,
      "ission": 486,
      "ond": 487,
      "par": 488,
      "Ġi": 489,
      "pos": 490,
      "Ġeff": 491,
      "ite": 492,
      "ĠÂ": 493,
      "ph": 494,
      "Ġpers": 495,
      "Ġpo": 496,
      "ision": 497,
      "ich": 498,
      "tive": 499,
      "Ġfrom": 500,
      "tri": 501,
      "li": 502,
      "tif": 503,
      "its": 504,
      "ge": 505,
      "Ã©n": 506,
      "une": 507,
      "Ġont": 508,
      "Ġdi": 509,
      "vern": 510,
      "Ġpre": 511,
      "ens": 512,
      "..": 513,
      "out": 514,
      "ures": 515,
      "ine": 516,
      "all": 517,
      "ise": 518,
      "ther": 519,
      "aires": 520,
      "Ã©g": 521,
      "gan": 522,
      "Ġus": 523,
      "ult": 524,
      "Ġem": 525,
      "ear": 526,
      "av": 527,
      "ari": 528,
      "Ġeu": 529,
      "Ġtrans": 530,
      "Ġwas": 531,
      "ork": 532,
      "lement": 533,
      "ors": 534,
      "formation": 535,
      "Ġproc": 536,
      "ud": 537,
      "igh": 538,
      "itÃ©s": 539,
      "jec": 540,
      "Ġrel": 541,
      "cip": 542,
      "cial": 543,
      "Ġstr": 544,
      "Ġsy": 545,
      "ail": 546,
      "Ã©ri": 547,
      "Ġsub": 548,
      "Ġu": 549,
      "ould": 550,
      "Ġdire": 551,
      ").": 552,
      "ary": 553,
      "Ġha": 554,
      "Ġins": 555,
      "Ġ:": 556,
      "Ã¨s": 557,
      "Ġ4": 558,
      "Ġservices": 559,
      "til": 560,
      "Ġter": 561,
      "Ġconc": 562,
      "Ġob": 563,
      "ves": 564,
      "Ġdo": 565,
      "ĠprÃ©": 566,
      "Ġ199": 567,
      "bre": 568,
      "Ġpri": 569,
      "Ġall": 570,
      "ements": 571,
      "Ġgo": 572,
      "ip": 573,
      "Ġwill": 574,
      "Ġintern": 575,
      "ase": 576,
      "Ġme": 577,
      "Ġcol": 578,
      "iss": 579,
      "Ġmem": 580,
      "ture": 581,
      "ats": 582,
      "ities": 583,
      "che": 584,
      "ak": 585,
      "Ġ\"": 586,
      "titu": 587,
      "Ã©d": 588,
      "Ġind": 589,
      "Ġ5": 590,
      "ide": 591,
      "),": 592,
      "ell": 593,
      "Ġab": 594,
      "iz": 595,
      "Ã©sent": 596,
      "ĠÃ©tÃ©": 597,
      "Ġpublic": 598,
      "ier": 599,
      "Ġpos": 600,
      "Ġhave": 601,
      "Ġcet": 602,
      "ents": 603,
      "ted": 604,
      "Ġeuro": 605,
      "Ġavec": 606,
      "Ġorgan": 607,
      "tres": 608,
      "ait": 609,
      "Ġwhich": 610,
      "mand": 611,
      "Ġimp": 612,
      "Ġli": 613,
      "Ġinc": 614,
      "ace": 615,
      "Ġsa": 616,
      "jet": 617,
      "olog": 618,
      "hn": 619,
      "Ġmon": 620,
      "val": 621,
      "Ġentre": 622,
      "tain": 623,
      "to": 624,
      "Ġcour": 625,
      "velop": 626,
      "ern": 627,
      "iques": 628,
      "oir": 629,
      "Ã´": 630,
      "bil": 631,
      "Ġform": 632,
      "ore": 633,
      "ploy": 634,
      "lic": 635,
      "Ġdevelop": 636,
      "ish": 637,
      "ĠrÃ©g": 638,
      "isation": 639,
      "ative": 640,
      "Ġces": 641,
      "con": 642,
      "els": 643,
      "vir": 644,
      "Ġhas": 645,
      "Ġrequ": 646,
      "Ġes": 647,
      "are": 648,
      "Ġwe": 649,
      "tes": 650,
      "____": 651,
      "Ġpersonn": 652,
      "Ġwork": 653,
      "ong": 654,
      "ass": 655,
      "tabl": 656,
      "Ġsupp": 657,
      "fin": 658,
      "ĠÃª": 659,
      "Ġpay": 660,
      "ues": 661,
      "rÃ©": 662,
      "ates": 663,
      "fer": 664,
      "ĠrÃ©s": 665,
      "gh": 666,
      "estion": 667,
      "rit": 668,
      "ian": 669,
      "tem": 670,
      "ial": 671,
      "tis": 672,
      "Ġbo": 673,
      "ĠÃªtre": 674,
      "Ġtheir": 675,
      "Ġpart": 676,
      "Ġdiff": 677,
      "ach": 678,
      "Ġinformation": 679,
      "ob": 680,
      "Ġren": 681,
      "Ġtrav": 682,
      "Ġother": 683,
      "Ġcoun": 684,
      "ice": 685,
      "Ġsou": 686,
      "Ġactiv": 687,
      "Ġgrou": 688,
      "po": 689,
      "Ġcommission": 690,
      "Ġ6": 691,
      "elles": 692,
      "Ġcer": 693,
      "Ġcette": 694,
      "Ġresp": 695,
      "Ġsi": 696,
      "Ġits": 697,
      "ps": 698,
      "echn": 699,
      "ical": 700,
      "bu": 701,
      "pÃ©": 702,
      "Ġcar": 703,
      "lec": 704,
      "ome": 705,
      "Ġappro": 706,
      "tra": 707,
      "Ġlo": 708,
      "Ġimport": 709,
      "'s": 710,
      "mo": 711,
      "Ġnom": 712,
      "vent": 713,
      "tor": 714,
      "Ġincl": 715,
      "Ġcanadien": 716,
      "alth": 717,
      "Ġnational": 718,
      "Ġnon": 719,
      "fication": 720,
      "Ġplan": 721,
      "ĠÂ«": 722,
      "int": 723,
      "Ġdemand": 724,
      "Ġfac": 725,
      "eral": 726,
      "ile": 727,
      "gr": 728,
      "Ġtechn": 729,
      "Ġel": 730,
      "Ġnew": 731,
      "uation": 732,
      "por": 733,
      "Ã¨res": 734,
      "ĠâĢĵ": 735,
      "Ġann": 736,
      "tru": 737,
      "Ã§": 738,
      "ticle": 739,
      "so": 740,
      "cep": 741,
      "Ġemploy": 742,
      "Ġoffic": 743,
      "ection": 744,
      "enti": 745,
      "Ġhealth": 746,
      "ĠprÃ©sent": 747,
      "Ġrapp": 748,
      "ia": 749,
      "Ġcap": 750,
      "Ġwere": 751,
      "Ġunder": 752,
      "Ġdonn": 753,
      "Ġperm": 754,
      "Ġph": 755,
      "Ġro": 756,
      "ust": 757,
      "Ġcor": 758,
      "Ġleur": 759,
      "Ġsta": 760,
      "ese": 761,
      "Ġprocess": 762,
      "Ġ.": 763,
      "Ġinternational": 764,
      "Ġservice": 765,
      "teur": 766,
      "Ġenvir": 767,
      "Ġprot": 768,
      "Ġgovern": 769,
      "Ġ7": 770,
      "Ġnou": 771,
      "200": 772,
      "ources": 773,
      "Ġdoc": 774,
      "Ġfinan": 775,
      "ales": 776,
      "Ġprin": 777,
      "ĠdÃ©c": 778,
      "ive": 779,
      "omm": 780,
      "Ġspec": 781,
      "ough": 782,
      "Ġ9": 783,
      "ences": 784,
      "Ġ8": 785,
      "ille": 786,
      "Ġindi": 787,
      "iÃ¨re": 788,
      "sition": 789,
      "Ġcomme": 790,
      "Ġvo": 791,
      "ises": 792,
      "Ġalso": 793,
      "Ġdro": 794,
      "Ġmemb": 795,
      "Ġeffec": 796,
      "Ġpoliti": 797,
      "sid": 798,
      "Ġdev": 799,
      "Ġcanadian": 800,
      "cc": 801,
      "duc": 802,
      "Ġcas": 803,
      "conom": 804,
      "Ġmay": 805,
      "Ġapplic": 806,
      "Ġgen": 807,
      "ĠgÃ©n": 808,
      "Ġthere": 809,
      "Ġvis": 810,
      "Ġthese": 811,
      "Ġma": 812,
      "Ġop": 813,
      "Ġmore": 814,
      "Ġ0": 815,
      "Ġbeen": 816,
      "ivers": 817,
      "dition": 818,
      "Ġparticip": 819,
      "tro": 820,
      "cher": 821,
      "Ã©l": 822,
      "antÃ©": 823,
      "Ġson": 824,
      "Ġdocu": 825,
      "Ġfr": 826,
      "ound": 827,
      "cri": 828,
      "Ġgou": 829,
      "Ġnor": 830,
      "ose": 831,
      "ĠsantÃ©": 832,
      "one": 833,
      "Ġsoci": 834,
      "Ġyear": 835,
      "Ġchang": 836,
      "Ã¨me": 837,
      "Ġrem": 838,
      "ourn": 839,
      "Ġdirec": 840,
      "abil": 841,
      "Ġmes": 842,
      "Ġtout": 843,
      "acc": 844,
      "ticul": 845,
      "Ġminis": 846,
      "cy": 847,
      "Ġpres": 848,
      "ĠÂ»": 849,
      "Ġrapport": 850,
      "Ġprogramme": 851,
      "Ġconcern": 852,
      "ual": 853,
      "Ġconse": 854,
      "Ġdur": 855,
      "if": 856,
      "ater": 857,
      "Ġnum": 858,
      "gal": 859,
      "Ġaff": 860,
      "Ġsign": 861,
      "Ġver": 862,
      "Ġses": 863,
      "Ġmanag": 864,
      "Ġconf": 865,
      "Ġgouvern": 866,
      "ric": 867,
      "Ġout": 868,
      "oci": 869,
      "pri": 870,
      "use": 871,
      "part": 872,
      "Ġbas": 873,
      "pend": 874,
      "Ġthey": 875,
      "Ġreport": 876,
      "ĠÃ©t": 877,
      "Ġparticul": 878,
      "Ġtravail": 879,
      "iew": 880,
      "Ã©t": 881,
      "opp": 882,
      "ances": 883,
      "....": 884,
      "ours": 885,
      "Ġnous": 886,
      "tribu": 887,
      "Ġqual": 888,
      "Ġprojet": 889,
      "Ġinf": 890,
      "Ġmain": 891,
      "Ġmet": 892,
      "stem": 893,
      "istr": 894,
      "ions": 895,
      "Ġdevelopment": 896,
      "erv": 897,
      "Ġeurope": 898,
      "ils": 899,
      "ke": 900,
      "Ġinv": 901,
      "Ġprof": 902,
      "ple": 903,
      "etw": 904,
      "ulation": 905,
      "Ġsit": 906,
      "Ġtou": 907,
      "Ġfait": 908,
      "ime": 909,
      "ot": 910,
      "Ġexam": 911,
      "Ġris": 912,
      "ory": 913,
      "Ġrev": 914,
      "entr": 915,
      "Ġchar": 916,
      "Ã¨g": 917,
      "ouv": 918,
      "ost": 919,
      "Ġ[": 920,
      "ng": 921,
      "oll": 922,
      "Ġmarch": 923,
      "Ġpolic": 924,
      "Ġpra": 925,
      "eu": 926,
      "Ġprovin": 927,
      "Ġdeux": 928,
      "ific": 929,
      "Ġpeut": 930,
      "ks": 931,
      "ind": 932,
      "Ġprovid": 933,
      "sible": 934,
      "termin": 935,
      "Ġrequire": 936,
      "ets": 937,
      "atives": 938,
      "Ġsuch": 939,
      "Ġshould": 940,
      "Ġpays": 941,
      "Ġgu": 942,
      "Ġcontin": 943,
      "Ġloc": 944,
      "Ġpropos": 945,
      "ru": 946,
      "ms": 947,
      "ĠgÃ©nÃ©r": 948,
      "ages": 949,
      "Ġfun": 950,
      "teurs": 951,
      "Ġbut": 952,
      "Ġsystem": 953,
      "ating": 954,
      "vid": 955,
      "Ġhum": 956,
      "velopp": 957,
      "vention": 958,
      "ante": 959,
      "olu": 960,
      "Ġfon": 961,
      "Ġenviron": 962,
      "Ġrep": 963,
      "aly": 964,
      "Ġgovernment": 965,
      "raph": 966,
      "Ġiniti": 967,
      "Ġresear": 968,
      "Ġprem": 969,
      "Ġone": 970,
      "Ġsc": 971,
      "Ġ10": 972,
      "Ġany": 973,
      "Ġresearch": 974,
      "Ġgestion": 975,
      "Ġiss": 976,
      "ois": 977,
      "ĠdÃ©velopp": 978,
      "Ġif": 979,
      "Ġcommit": 980,
      "anc": 981,
      "Ġrecher": 982,
      "Ġutil": 983,
      "Ġpeu": 984,
      "Ġnombre": 985,
      "Ġinstitu": 986,
      "ĠÃ©ta": 987,
      "Ġproduc": 988,
      "Ġain": 989,
      "Ãł": 990,
      "Ġjus": 991,
      "her": 992,
      "Ġyou": 993,
      "Ġid": 994,
      "Ġuse": 995,
      "valuation": 996,
      "ty": 997,
      "ress": 998,
      "eur": 999,
      "abor": 1000,
      "Ġainsi": 1001,
      "ied": 1002,
      "ding": 1003,
      "Ġprojec": 1004,
      "Ġorganis": 1005,
      "Ġindus": 1006,
      "ĠrÃ¨g": 1007,
      "Ġgouvernement": 1008,
      "Ġover": 1009,
      "Ġfir": 1010,
      "agraph": 1011,
      "Ġrespec": 1012,
      "ature": 1013,
      "Ġ%": 1014,
      "Ġobjec": 1015,
      "Ġwould": 1016,
      "hip": 1017,
      "try": 1018,
      "ight": 1019,
      "19": 1020,
      "Ġbien": 1021,
      "Ġsuiv": 1022,
      "Ġsupport": 1023,
      "Ġloi": 1024,
      "Ġprincip": 1025,
      "lev": 1026,
      "ussi": 1027,
      "Ġdom": 1028,
      "Ġinclud": 1029,
      "led": 1030,
      "seign": 1031,
      "rough": 1032,
      "ĠÃ©l": 1033,
      "Ãªme": 1034,
      "ely": 1035,
      "Ġhow": 1036,
      "ax": 1037,
      "Ġdec": 1038,
      "Ġprotection": 1039,
      "Ġcontribu": 1040,
      "ui": 1041,
      "Ã®": 1042,
      "Ġtri": 1043,
      "tique": 1044,
      "Ġthan": 1045,
      "ables": 1046,
      "Ġneed": 1047,
      "ural": 1048,
      "tim": 1049,
      "Ġlim": 1050,
      "Ġlors": 1051,
      "ov": 1052,
      "ree": 1053,
      "Ġleurs": 1054,
      "sibil": 1055,
      "ĠmÃ©": 1056,
      "Ġmais": 1057,
      "tud": 1058,
      "Ġsyst": 1059,
      "Ġparagraph": 1060,
      "Ġtechnolog": 1061,
      "ai": 1062,
      "Ġmanagement": 1063,
      "Ġsous": 1064,
      "aient": 1065,
      "erg": 1066,
      "Ġcommer": 1067,
      "Ġadmin": 1068,
      "ade": 1069,
      "Ġwho": 1070,
      "Ġgroup": 1071,
      "bles": 1072,
      "Ġfond": 1073,
      "atÃ©g": 1074,
      "Ġpop": 1075,
      "ally": 1076,
      "ĠrÃ©p": 1077,
      "ency": 1078,
      "Ġprior": 1079,
      "Ġact": 1080,
      "Ġcad": 1081,
      "ene": 1082,
      "Ã©ment": 1083,
      "Ġfourn": 1084,
      "nes": 1085,
      "tiques": 1086,
      "Ġenvironment": 1087,
      "Ġoper": 1088,
      "Ġje": 1089,
      "ited": 1090,
      "ton": 1091,
      "autres": 1092,
      "Ġval": 1093,
      "________": 1094,
      "Ġlong": 1095,
      "Ġgrand": 1096,
      "Ġaccord": 1097,
      "Ġconseil": 1098,
      "Ġfra": 1099,
      "Ġcro": 1100,
      "Ġens": 1101,
      "ente": 1102,
      "ollow": 1103,
      "een": 1104,
      "ulture": 1105,
      "tifs": 1106,
      "ines": 1107,
      "Ġtous": 1108,
      "Ġent": 1109,
      "Ġfe": 1110,
      "Ġarticle": 1111,
      "Ġfollow": 1112,
      "isions": 1113,
      "Ġmembres": 1114,
      "Ġassoci": 1115,
      "ĠdÃ©veloppement": 1116,
      "Ã©qu": 1117,
      "Ġthrough": 1118,
      "Ġrecherche": 1119,
      "Ġhigh": 1120,
      "cid": 1121,
      "Ġdepart": 1122,
      "act": 1123,
      "Ġincre": 1124,
      "Ã»": 1125,
      "Ġbi": 1126,
      "etween": 1127,
      "tÃ©ri": 1128,
      "Ġmen": 1129,
      "Ġbetween": 1130,
      "Ġfirst": 1131,
      "Ġcompr": 1132,
      "Ġmati": 1133,
      "Ã©tÃ©": 1134,
      "air": 1135,
      "ĠmÃªme": 1136,
      "Ġautres": 1137,
      "Ã©ration": 1138,
      "Ġup": 1139,
      "urr": 1140,
      "entif": 1141,
      "ĠeuropÃ©": 1142,
      "Ġamend": 1143,
      "Ġbr": 1144,
      "iser": 1145,
      "Ġmod": 1146,
      "Ġsel": 1147,
      "rait": 1148,
      "ateg": 1149,
      "Ġdisc": 1150,
      "Ġfonction": 1151,
      "Ġaf": 1152,
      "Ġregul": 1153,
      "Ġsome": 1154,
      "Ġhad": 1155,
      "Ġcours": 1156,
      "Ġminist": 1157,
      "Ġdate": 1158,
      "onnement": 1159,
      "Ġtime": 1160,
      "Ġmark": 1161,
      "Ġsim": 1162,
      "antes": 1163,
      "endre": 1164,
      "Ġauth": 1165,
      "tal": 1166,
      "Ġtak": 1167,
      "Ġtem": 1168,
      "Ġlang": 1169,
      "ateurs": 1170,
      "tives": 1171,
      "Ġfaire": 1172,
      "iers": 1173,
      "Ġsection": 1174,
      "Ġcompl": 1175,
      "Ġcommunic": 1176,
      "Ġtransport": 1177,
      "get": 1178,
      "ood": 1179,
      "ĠÃ©gal": 1180,
      "Ġpermet": 1181,
      "Ġvous": 1182,
      "Ġagre": 1183,
      "ĠdonnÃ©es": 1184,
      "Ġpolicy": 1185,
      "eng": 1186,
      "Ġsci": 1187,
      "Ġdocument": 1188,
      "Ġmat": 1189,
      "Ġcontr": 1190,
      "Ġress": 1191,
      "Ġwhere": 1192,
      "ditions": 1193,
      "Ġgeneral": 1194,
      "Ġdemande": 1195,
      "ards": 1196,
      "Ġelle": 1197,
      "Ġnouvel": 1198,
      "Ġdirect": 1199,
      "ĠdÃ©p": 1200,
      "Ġrepr": 1201,
      "Ġtw": 1202,
      "lu": 1203,
      "Ġ12": 1204,
      "Ġtax": 1205,
      "Ġeng": 1206,
      "Ġfi": 1207,
      "Ġ2005": 1208,
      "Ġ2004": 1209,
      "Ġinto": 1210,
      "ital": 1211,
      "Ġlevel": 1212,
      "Ġquestion": 1213,
      "Ġty": 1214,
      "Ġcertain": 1215,
      "red": 1216,
      ".,": 1217,
      "Ġ20": 1218,
      "Ġrece": 1219,
      "now": 1220,
      "ĠÃ©galement": 1221,
      "Ġcadre": 1222,
      "ann": 1223,
      "information": 1224,
      "Ġeuropean": 1225,
      "aine": 1226,
      "ĠprÃ©v": 1227,
      "Ġdoit": 1228,
      "Ġca": 1229,
      "Ġnumber": 1230,
      "Ġafin": 1231,
      "estions": 1232,
      "Ġprogrammes": 1233,
      "ĠrÃ©sult": 1234,
      "enne": 1235,
      "Ġcomple": 1236,
      "Ġdat": 1237,
      "Ġvari": 1238,
      "Ġeconom": 1239,
      "Ġentrepr": 1240,
      "Ã¢": 1241,
      "Ġsp": 1242,
      "Ġtoute": 1243,
      "aut": 1244,
      "Ġ2006": 1245,
      "vre": 1246,
      "Ġenc": 1247,
      "tern": 1248,
      "lect": 1249,
      "Ġauthor": 1250,
      "Ġorganiz": 1251,
      "Ġsocial": 1252,
      "Ġadv": 1253,
      "Ġair": 1254,
      "prÃ¨s": 1255,
      "Ġnation": 1256,
      "Ġcontra": 1257,
      "arm": 1258,
      "Ġpriv": 1259,
      "Ġten": 1260,
      "Ġcommunity": 1261,
      "ĠactivitÃ©s": 1262,
      "fs": 1263,
      "reat": 1264,
      "Ġrespon": 1265,
      "Ġmil": 1266,
      "Ġproduits": 1267,
      "ption": 1268,
      "ning": 1269,
      "ww": 1270,
      "Ġmust": 1271,
      "ved": 1272,
      "ĠÃ©tabl": 1273,
      "Ġrenseign": 1274,
      "Ġcal": 1275,
      "Ġplace": 1276,
      "Ġ15": 1277,
      "Ġconsi": 1278,
      "Ġaussi": 1279,
      "als": 1280,
      "duction": 1281,
      "Ġconn": 1282,
      "Ġstates": 1283,
      "Ġcommitte": 1284,
      "Ġpoint": 1285,
      "Ġpartie": 1286,
      "Ġref": 1287,
      "Ġanaly": 1288,
      "Ġmodi": 1289,
      "Ġpersonnes": 1290,
      "Ġmak": 1291,
      "Ġmise": 1292,
      "Ġsus": 1293,
      "ĠprÃ©c": 1294,
      "iste": 1295,
      "iter": 1296,
      "Ġconstitu": 1297,
      "Ġ2003": 1298,
      "ild": 1299,
      "Ġconditions": 1300,
      "10": 1301,
      "Ġte": 1302,
      "Ġtro": 1303,
      "Ġnive": 1304,
      "land": 1305,
      "Ġcr": 1306,
      "Ġonly": 1307,
      "Ġquestions": 1308,
      "ĠmatiÃ¨re": 1309,
      "Ġindic": 1310,
      "Ġwhen": 1311,
      "iness": 1312,
      "Ġstat": 1313,
      "Ġexp": 1314,
      "Ġimportant": 1315,
      "Ġtit": 1316,
      "lection": 1317,
      "Ġconcl": 1318,
      "ession": 1319,
      "Ġshall": 1320,
      "article": 1321,
      "Ġsch": 1322,
      "Ġdont": 1323,
      "Ġvi": 1324,
      "Ġwell": 1325,
      "Ã©cess": 1326,
      "Ġavant": 1327,
      "cer": 1328,
      "Ġbus": 1329,
      "Ã´le": 1330,
      "tent": 1331,
      "Ġmed": 1332,
      "Ġju": 1333,
      "ety": 1334,
      "isl": 1335,
      "ters": 1336,
      "Ġconsider": 1337,
      "ĠnÃ©cess": 1338,
      "Ġfam": 1339,
      "Ġutilis": 1340,
      "Ġport": 1341,
      "Ġhel": 1342,
      "tries": 1343,
      "Ġnouve": 1344,
      "Ġobs": 1345,
      "cture": 1346,
      "Ġexper": 1347,
      "Ġtwo": 1348,
      "Ġrespons": 1349,
      "ĠreprÃ©sent": 1350,
      "Ġbec": 1351,
      "ĠspÃ©": 1352,
      "ĠrÃ©gion": 1353,
      "Ġmeas": 1354,
      "Ã©cur": 1355,
      "Ġrenseignements": 1356,
      "Ġ2002": 1357,
      "Ġmoy": 1358,
      "tice": 1359,
      "Ġtotal": 1360,
      "Ġwithin": 1361,
      "ĠstratÃ©g": 1362,
      "tÃ©r": 1363,
      "ner": 1364,
      "Ġ198": 1365,
      "ieu": 1366,
      "sions": 1367,
      "tric": 1368,
      "Ġpat": 1369,
      "Ġpeuvent": 1370,
      "ĠÃ©tats": 1371,
      "Ġ11": 1372,
      "Ġcapac": 1373,
      "Ġpromo": 1374,
      "Ġcoll": 1375,
      "Ġcommittee": 1376,
      "Ġabout": 1377,
      "Ġz": 1378,
      "Ġche": 1379,
      "tablish": 1380,
      "ased": 1381,
      "Ġfed": 1382,
      "Ġmade": 1383,
      "ĠsÃ©cur": 1384,
      "Ġour": 1385,
      "Ã©li": 1386,
      "Ã¨mes": 1387,
      "anti": 1388,
      "Ġconsid": 1389,
      "cil": 1390,
      "Ġindivid": 1391,
      "Ġcollec": 1392,
      "istration": 1393,
      "000": 1394,
      "Ġmesures": 1395,
      "tement": 1396,
      "Ġthose": 1397,
      "position": 1398,
      "Ġrais": 1399,
      "fore": 1400,
      "ament": 1401,
      "Ġstrateg": 1402,
      "Ġsol": 1403,
      "Ã©ra": 1404,
      "ode": 1405,
      "ition": 1406,
      "ivent": 1407,
      "Ġassess": 1408,
      "igin": 1409,
      "nex": 1410,
      "arg": 1411,
      "Ġprovide": 1412,
      "Ġexem": 1413,
      "Ġdepartment": 1414,
      "ches": 1415,
      "Ġgl": 1416,
      "Ġselon": 1417,
      "Ġcompte": 1418,
      "Ġmember": 1419,
      "Ġestablish": 1420,
      "ination": 1421,
      "ack": 1422,
      "Ġsurve": 1423,
      "sitions": 1424,
      "up": 1425,
      "action": 1426,
      "Ġbusiness": 1427,
      "Ġ18": 1428,
      "Ġsite": 1429,
      "ss": 1430,
      "ĠfÃ©d": 1431,
      "Ġinform": 1432,
      "ples": 1433,
      "Ġstand": 1434,
      "Ġproduction": 1435,
      "Ġreview": 1436,
      "Ġadd": 1437,
      "Ġmaj": 1438,
      "urer": 1439,
      "ĠcrÃ©": 1440,
      "Ã¹": 1441,
      "Ġressources": 1442,
      "Ġsoit": 1443,
      "Ġdroits": 1444,
      "Ġcentre": 1445,
      "Ġactu": 1446,
      "ĠdÃ©l": 1447,
      "Ġdist": 1448,
      "Ġequ": 1449,
      "Ġapplication": 1450,
      "mission": 1451,
      "fe": 1452,
      "ario": 1453,
      "clar": 1454,
      "Ġadop": 1455,
      "Ã©lior": 1456,
      "Ġterrit": 1457,
      "pu": 1458,
      "Ġused": 1459,
      "ĠsystÃ¨me": 1460,
      "wn": 1461,
      "ĠÃ©conom": 1462,
      "iqu": 1463,
      "Ġhuman": 1464,
      "ast": 1465,
      "Ġconsult": 1466,
      "ĠdiffÃ©r": 1467,
      "usion": 1468,
      "Ġocc": 1469,
      "Ġprofession": 1470,
      "aiss": 1471,
      "Ġregion": 1472,
      "ĠsÃ©curitÃ©": 1473,
      "Ġmr": 1474,
      "Ġdata": 1475,
      "io": 1476,
      "Ġoff": 1477,
      "aines": 1478,
      "Ġconta": 1479,
      "ĠcomitÃ©": 1480,
      "Ġ2007": 1481,
      "Ġbl": 1482,
      "king": 1483,
      "ĠoÃ¹": 1484,
      "Ġcouncil": 1485,
      "ds": 1486,
      "Ġreven": 1487,
      "Ġactivities": 1488,
      "Ġpolitique": 1489,
      "onc": 1490,
      "ouver": 1491,
      "Ġcoop": 1492,
      "ĠrÃ©sultats": 1493,
      "ining": 1494,
      "ays": 1495,
      "entes": 1496,
      "Ġpass": 1497,
      "ii": 1498,
      "erc": 1499,
      "Ġ2001": 1500,
      "Ġyears": 1501,
      "Ġgra": 1502,
      "ible": 1503,
      "Ġfl": 1504,
      "Ġknow": 1505,
      "Ġdroit": 1506,
      "ights": 1507,
      "Ġproject": 1508,
      "ca": 1509,
      "Ġcha": 1510,
      "Ġjo": 1511,
      "Ġstru": 1512,
      "Ġcri": 1513,
      "ĠministÃ¨re": 1514,
      "Ġcent": 1515,
      "ders": 1516,
      "Ġbes": 1517,
      "Ġ2000": 1518,
      "Ġpopulation": 1519,
      "Ġset": 1520,
      "Ġfacil": 1521,
      "Ġtrib": 1522,
      "ĠgÃ©nÃ©ral": 1523,
      "Ġimpro": 1524,
      "ducation": 1525,
      "Ġeach": 1526,
      "ĠsÃ©": 1527,
      "Ġnature": 1528,
      "Ġaddition": 1529,
      "Ġke": 1530,
      "ĠdÃ©termin": 1531,
      "ange": 1532,
      "Ġbud": 1533,
      "Ġprocessus": 1534,
      "Ġban": 1535,
      "Ġparties": 1536,
      "Ġlab": 1537,
      "Ġdescri": 1538,
      "Ġappropri": 1539,
      "embl": 1540,
      "Ġlic": 1541,
      "Ġans": 1542,
      "Ġess": 1543,
      "Ġfinanci": 1544,
      "Ġidentif": 1545,
      "Ġmal": 1546,
      "Ġmost": 1547,
      "valu": 1548,
      "ule": 1549,
      "Ġpossible": 1550,
      "eau": 1551,
      "Ġfollowing": 1552,
      "Ġpur": 1553,
      "Ġsen": 1554,
      "ib": 1555,
      "olution": 1556,
      "Ġbeso": 1557,
      "arly": 1558,
      "Ġbene": 1559,
      "Ġgro": 1560,
      "Ġcontre": 1561,
      "Ġlaw": 1562,
      "iÃ¨res": 1563,
      "com": 1564,
      "Ġeffic": 1565,
      "Ġperi": 1566,
      "Ġ13": 1567,
      "Ġcontinu": 1568,
      "Ġdiffer": 1569,
      "Ġperson": 1570,
      "Ġ14": 1571,
      "ules": 1572,
      "Ġperform": 1573,
      "ĠpÃ©ri": 1574,
      "Ġmoins": 1575,
      "Ġfederal": 1576,
      "off": 1577,
      "gment": 1578,
      "Ġorder": 1579,
      "Åĵ": 1580,
      "bec": 1581,
      "Ġunivers": 1582,
      "Ġconform": 1583,
      "blig": 1584,
      "Ġincluding": 1585,
      "Ġdivers": 1586,
      "Ġbu": 1587,
      "Ġrepres": 1588,
      "Ġbure": 1589,
      "tien": 1590,
      "tudi": 1591,
      "ld": 1592,
      "graph": 1593,
      "oire": 1594,
      "Ġgroupe": 1595,
      "ft": 1596,
      "Ġopp": 1597,
      "Ġavail": 1598,
      "Ġdoivent": 1599,
      "Ġduring": 1600,
      "Ġcommunau": 1601,
      "Ġperiod": 1602,
      "mment": 1603,
      "eff": 1604,
      "ĠâĢĶ": 1605,
      "Ġstud": 1606,
      "Ġboard": 1607,
      "ople": 1608,
      "go": 1609,
      "Ġimm": 1610,
      "Ġsans": 1611,
      "Ġrefer": 1612,
      "Ġcre": 1613,
      "Ġcel": 1614,
      "Ġbase": 1615,
      "Ġrespect": 1616,
      "Ġaccoun": 1617,
      "Ġher": 1618,
      "Ġfur": 1619,
      "Ġboth": 1620,
      "tenir": 1621,
      "ateur": 1622,
      "ership": 1623,
      "util": 1624,
      "Ġpeople": 1625,
      "tend": 1626,
      "Ġtrois": 1627,
      "Ġimplement": 1628,
      "organ": 1629,
      "Ġformation": 1630,
      "ever": 1631,
      "Ġniveau": 1632,
      "Ġtribun": 1633,
      "........": 1634,
      "Ġtable": 1635,
      "Ġaccess": 1636,
      "Ġmul": 1637,
      "Ã©v": 1638,
      "ude": 1639,
      "ĠlÃ©g": 1640,
      "Ã´t": 1641,
      "Ġlead": 1642,
      "Ġgood": 1643,
      "Ġ30": 1644,
      "Ã©ta": 1645,
      "ellement": 1646,
      "ĠrÃ¨glement": 1647,
      "Ġeconomic": 1648,
      "oy": 1649,
      "ties": 1650,
      "Ġdiv": 1651,
      "tiss": 1652,
      "Ġcountries": 1653,
      "uses": 1654,
      "inter": 1655,
      "ĠfaÃ§": 1656,
      "issement": 1657,
      "Ġculture": 1658,
      "Ġdocuments": 1659,
      "emble": 1660,
      "Ġfinancial": 1661,
      "aboration": 1662,
      "Ġtrait": 1663,
      "mp": 1664,
      "ĠmÃ©d": 1665,
      "Ġnations": 1666,
      "Ġresul": 1667,
      "tention": 1668,
      "co": 1669,
      "Ġpolitiques": 1670,
      "man": 1671,
      "Ġsubst": 1672,
      "--": 1673,
      "Ġrelations": 1674,
      "Ġprac": 1675,
      "Ġcare": 1676,
      "ĠdÃ©clar": 1677,
      "Ġemploye": 1678,
      "fi": 1679,
      "Ġprovided": 1680,
      "ici": 1681,
      "ings": 1682,
      "Ġjur": 1683,
      "Ġ16": 1684,
      "Ġresources": 1685,
      "Ġhowever": 1686,
      "very": 1687,
      "Ġvol": 1688,
      "Ġfem": 1689,
      "Ġrights": 1690,
      "Ġcase": 1691,
      "ren": 1692,
      "ĠÃ©tait": 1693,
      "Ġautre": 1694,
      "Ġcurr": 1695,
      "itation": 1696,
      "Ġissues": 1697,
      "Ġpersonnel": 1698,
      "reg": 1699,
      "Ġdiscus": 1700,
      "Ġconcernant": 1701,
      "Ġsecteur": 1702,
      "igr": 1703,
      "trol": 1704,
      "era": 1705,
      "Ġexig": 1706,
      "01": 1707,
      "Ġcand": 1708,
      "cul": 1709,
      "alis": 1710,
      "Åĵu": 1711,
      "ĠaprÃ¨s": 1712,
      "oura": 1713,
      "Ġils": 1714,
      "Ġmajor": 1715,
      "Ġfu": 1716,
      "sc": 1717,
      "ource": 1718,
      "Ġdesign": 1719,
      "Ġdern": 1720,
      "Ġsep": 1721,
      "gn": 1722,
      "Ġcandid": 1723,
      "Ã©valuation": 1724,
      "Ġhis": 1725,
      "Ġparagraphe": 1726,
      "Ġcerta": 1727,
      "Ġpouv": 1728,
      "Ġsal": 1729,
      "Ġexpl": 1730,
      "ys": 1731,
      "Ġagency": 1732,
      "orte": 1733,
      "Ġinves": 1734,
      "Ġtoutes": 1735,
      "Ġdecision": 1736,
      "Ġweb": 1737,
      "Ġcomb": 1738,
      "Ġcir": 1739,
      "Ġbro": 1740,
      "Ġend": 1741,
      "Ġrad": 1742,
      "ĠdÃ©fin": 1743,
      "Ġeffort": 1744,
      "Ġautor": 1745,
      "ploi": 1746,
      "Ġcanadiens": 1747,
      "Ġtraining": 1748,
      "Ġyour": 1749,
      "positions": 1750,
      "Ġavailable": 1751,
      "Ġinterest": 1752,
      "Ġbel": 1753,
      "ges": 1754,
      "Ġmill": 1755,
      "Ġbenef": 1756,
      "vi": 1757,
      "Ġchaque": 1758,
      "ret": 1759,
      "Ġtribunal": 1760,
      "Ġsituation": 1761,
      "Ġspecific": 1762,
      "Ġpresent": 1763,
      "Ġcould": 1764,
      "Ġcontrol": 1765,
      "Ġcoord": 1766,
      "agn": 1767,
      "Ġdetermin": 1768,
      "Ġmarket": 1769,
      "Ġafter": 1770,
      "cent": 1771,
      "br": 1772,
      "Ġoblig": 1773,
      "Ġindividual": 1774,
      "Ġpa": 1775,
      "Ġaction": 1776,
      "Ġwhat": 1777,
      "Ġ17": 1778,
      "Ġvale": 1779,
      "Ġwor": 1780,
      "Ġensure": 1781,
      "Ġclient": 1782,
      "cal": 1783,
      "tenti": 1784,
      "ĠfaÃ§on": 1785,
      "Ġbeing": 1786,
      "Ġchild": 1787,
      "az": 1788,
      "Ġagreement": 1789,
      "atis": 1790,
      "Ġvers": 1791,
      "Ġinstru": 1792,
      "Ġbureau": 1793,
      "Ġsignific": 1794,
      "pro": 1795,
      "ĠdÃ©cision": 1796,
      "Ġ25": 1797,
      "abit": 1798,
      "Ġparticipation": 1799,
      "ĠtÃ©l": 1800,
      "Ġci": 1801,
      "ily": 1802,
      "Ġenti": 1803,
      "isme": 1804,
      "Ġcompan": 1805,
      "Ġoffice": 1806,
      "mon": 1807,
      "oi": 1808,
      "ĠfÃ©dÃ©r": 1809,
      "Ġrecom": 1810,
      "ints": 1811,
      "Ġsecond": 1812,
      "mar": 1813,
      "ful": 1814,
      "Ġrepresent": 1815,
      "amp": 1816,
      "Ġassist": 1817,
      "Ġtemps": 1818,
      "eration": 1819,
      "Ġcurrent": 1820,
      "Ġve": 1821,
      "Ġsecur": 1822,
      "ĠcoÃ»": 1823,
      "Ġpotenti": 1824,
      "Ġanalys": 1825,
      "mis": 1826,
      "Ġthem": 1827,
      "Ġmesure": 1828,
      "Ġret": 1829,
      "lectr": 1830,
      "12": 1831,
      "nov": 1832,
      "ger": 1833,
      "ĠintÃ©": 1834,
      "Ġmany": 1835,
      "Ġmembers": 1836,
      "ension": 1837,
      "Ġminister": 1838,
      "Ġconvention": 1839,
      "Ġste": 1840,
      "Ġrecommand": 1841,
      "Ġinvol": 1842,
      "ites": 1843,
      "ability": 1844,
      "Ġ1999": 1845,
      "Ġdistri": 1846,
      "ĠmarchÃ©": 1847,
      "iment": 1848,
      "Ġrequired": 1849,
      "Ġvue": 1850,
      "union": 1851,
      "Ġsubs": 1852,
      "enses": 1853,
      "ole": 1854,
      "raient": 1855,
      "Ġproducts": 1856,
      "Ġpersonne": 1857,
      "Ġtrade": 1858,
      "ĠdÃ©f": 1859,
      "Ãªt": 1860,
      "Ġagric": 1861,
      "Ġdou": 1862,
      "atory": 1863,
      "Ġproper": 1864,
      "Ġresults": 1865,
      "Ġprograms": 1866,
      "envir": 1867,
      "Ã©ch": 1868,
      "Ġdra": 1869,
      "tionn": 1870,
      "imin": 1871,
      "ized": 1872,
      "Ġsm": 1873,
      "ect": 1874,
      "Ġfurther": 1875,
      "tamment": 1876,
      "ĠÃ©c": 1877,
      "ok": 1878,
      "cle": 1879,
      "Ġwater": 1880,
      "Ġindustry": 1881,
      "Ġcertains": 1882,
      "Ġparten": 1883,
      "Ġenvironmental": 1884,
      "ick": 1885,
      "Ġrecomm": 1886,
      "Ġtaux": 1887,
      "Ġaid": 1888,
      "Ġcla": 1889,
      "Ġvie": 1890,
      "yl": 1891,
      "Ġpublique": 1892,
      "xim": 1893,
      "Ġarea": 1894,
      "Ġgar": 1895,
      "Ġobserv": 1896,
      "Ġtreat": 1897,
      "ctions": 1898,
      "ĠpÃ©riode": 1899,
      "own": 1900,
      "Ã©ro": 1901,
      "Ġlocal": 1902,
      "ancement": 1903,
      "Ġcommercial": 1904,
      "Ġrecommend": 1905,
      "Ġach": 1906,
      "su": 1907,
      "Ġleg": 1908,
      "omen": 1909,
      "Ġpartn": 1910,
      "iginal": 1911,
      "Ġgre": 1912,
      "Ġinstitutions": 1913,
      "Ġaddress": 1914,
      "ortun": 1915,
      "vement": 1916,
      "Ġbre": 1917,
      "199": 1918,
      "urance": 1919,
      "Ġrend": 1920,
      "13": 1921,
      "ieurs": 1922,
      "Ġprojets": 1923,
      "Ġsin": 1924,
      "quent": 1925,
      "Ġcanadienne": 1926,
      "Ġthree": 1927,
      "nent": 1928,
      "Ġsucc": 1929,
      "hol": 1930,
      "Ġentreprises": 1931,
      "Ġjan": 1932,
      "Ġinst": 1933,
      "Ġful": 1934,
      "Ġsav": 1935,
      "tivitÃ©": 1936,
      "Ġbri": 1937,
      "ĠsociÃ©tÃ©": 1938,
      "Ġareas": 1939,
      "Ġestim": 1940,
      "Ġprobl": 1941,
      "pes": 1942,
      "âĢ¦": 1943,
      "Åĵuvre": 1944,
      "Ġlieu": 1945,
      "Ġfish": 1946,
      "tex": 1947,
      "cem": 1948,
      "Ġhist": 1949,
      "Ġconstru": 1950,
      "ĠvÃ©ri": 1951,
      "Ġcondu": 1952,
      "arge": 1953,
      "gg": 1954,
      "Ġdirection": 1955,
      "Ġcorpor": 1956,
      "af": 1957,
      "ains": 1958,
      "Ġposition": 1959,
      "Ġregulations": 1960,
      "Ġessenti": 1961,
      "dic": 1962,
      "lectron": 1963,
      "Ãªte": 1964,
      "gation": 1965,
      ");": 1966,
      "Ġcommunication": 1967,
      "Ġavoir": 1968,
      "Ġglob": 1969,
      "ĠqualitÃ©": 1970,
      "Ġfil": 1971,
      "Ġsector": 1972,
      "Ġdirective": 1973,
      "Ġinitiatives": 1974,
      "Ġwhile": 1975,
      "Ġregard": 1976,
      "Ġplusieurs": 1977,
      "Ã©rence": 1978,
      "ared": 1979,
      "abilitÃ©": 1980,
      "Ġcle": 1981,
      "ĠeuropÃ©enne": 1982,
      "Ġtype": 1983,
      "work": 1984,
      "11": 1985,
      "Ġbeca": 1986,
      "Ġplans": 1987,
      "Ġbased": 1988,
      "ultural": 1989,
      "Ġstate": 1990,
      "Ġaw": 1991,
      "eting": 1992,
      "Ġsera": 1993,
      "Ġgiv": 1994,
      "Ġworld": 1995,
      "20": 1996,
      "Ġaccep": 1997,
      "ving": 1998,
      "Ġmake": 1999,
      "Ġlangu": 2000,
      "cs": 2001,
      "ense": 2002,
      "endant": 2003,
      "ĠrÃ©f": 2004,
      "bility": 2005,
      "the": 2006,
      "Ġfact": 2007,
      "des": 2008,
      "Ġrisk": 2009,
      "Ġallow": 2010,
      "Ġfound": 2011,
      "Ġcrit": 2012,
      "ariat": 2013,
      "Ġindustri": 2014,
      "Ġfav": 2015,
      "Ġchange": 2016,
      "assi": 2017,
      "irm": 2018,
      "Ġmand": 2019,
      "Ġsecurity": 2020,
      "ĠÃ©ch": 2021,
      "Ġrelative": 2022,
      "Ġagain": 2023,
      "Ġspecial": 2024,
      "but": 2025,
      "Ġnotamment": 2026,
      "Ġcompar": 2027,
      "Ġmission": 2028,
      "ry": 2029,
      "ieux": 2030,
      "Ġciv": 2031,
      "Ġtransfer": 2032,
      "Ġauc": 2033,
      "Ġparticipants": 2034,
      "Ġwomen": 2035,
      "istra": 2036,
      "Ġopportun": 2037,
      "Ġinclude": 2038,
      "Ġhy": 2039,
      "exam": 2040,
      "ĠmÃ©th": 2041,
      "itor": 2042,
      "ception": 2043,
      "ck": 2044,
      "Ġbudget": 2045,
      "isse": 2046,
      "table": 2047,
      "Ġguid": 2048,
      "Ġdiffic": 2049,
      "Ġland": 2050,
      "tical": 2051,
      "Ġprogr": 2052,
      "Ġdisp": 2053,
      "Ġcourt": 2054,
      "Ġmeeting": 2055,
      "Ġfer": 2056,
      "ower": 2057,
      "Ġcentr": 2058,
      "Ġinternation": 2059,
      "Ġenvironnement": 2060,
      "Ġauto": 2061,
      "Ġhelp": 2062,
      "he": 2063,
      "pose": 2064,
      "Ġforce": 2065,
      "inÃ©": 2066,
      "hic": 2067,
      "Ġseptem": 2068,
      "mit": 2069,
      "ask": 2070,
      "ĠannÃ©es": 2071,
      "ĠtrÃ¨s": 2072,
      "Ġmeasures": 2073,
      "unic": 2074,
      "Ġoffer": 2075,
      "Ãªtre": 2076,
      "Ġproced": 2077,
      "ras": 2078,
      "tt": 2079,
      "alitÃ©": 2080,
      "Ġvertu": 2081,
      "wa": 2082,
      "Ġontario": 2083,
      "Ġrequest": 2084,
      "Ġapproach": 2085,
      "atisf": 2086,
      "Ġx": 2087,
      "Ġint": 2088,
      "Ġfood": 2089,
      "Ġrequirements": 2090,
      "Ġadministra": 2091,
      "ories": 2092,
      "Ġrelated": 2093,
      "erve": 2094,
      "islation": 2095,
      "ĠÃ©qu": 2096,
      "Ġcop": 2097,
      "Ġefforts": 2098,
      "Ġrelev": 2099,
      "Ġ31": 2100,
      "Ġkey": 2101,
      "Ġtitre": 2102,
      "Ġoct": 2103,
      "Ġdistribu": 2104,
      "urn": 2105,
      "Ġjour": 2106,
      "Ġcos": 2107,
      "Ġsee": 2108,
      "sive": 2109,
      "Ġquel": 2110,
      "ĠamÃ©lior": 2111,
      "Ġbefore": 2112,
      "till": 2113,
      "vis": 2114,
      "Ġ24": 2115,
      "Ġgrow": 2116,
      "ether": 2117,
      "Ġsubjec": 2118,
      "Ġstaff": 2119,
      "nement": 2120,
      "Ġworking": 2121,
      "pre": 2122,
      "Ġsame": 2123,
      "Ġengag": 2124,
      "Ġinte": 2125,
      "Ġmilit": 2126,
      "Ġprest": 2127,
      "Ġfore": 2128,
      "euro": 2129,
      "ctu": 2130,
      "Ġeducation": 2131,
      "fois": 2132,
      "Ġorganismes": 2133,
      "ecess": 2134,
      "aff": 2135,
      "Ġ21": 2136,
      "place": 2137,
      "Ġconcer": 2138,
      "Ġavait": 2139,
      "ification": 2140,
      "Ġliv": 2141,
      "ĠpremiÃ¨re": 2142,
      "Ġassessment": 2143,
      "Ġnouveau": 2144,
      "utilisation": 2145,
      "pÃ©ri": 2146,
      "ili": 2147,
      "Ġministre": 2148,
      "ĠbÃ©n": 2149,
      "Ġfig": 2150,
      "igne": 2151,
      "Ġparli": 2152,
      "Ġpossibil": 2153,
      "Ġperformance": 2154,
      "environnement": 2155,
      "puis": 2156,
      "Ġstatis": 2157,
      "Ġnouvelle": 2158,
      "Ġmis": 2159,
      "omp": 2160,
      "Ġprovincial": 2161,
      "Ġpendant": 2162,
      "________________": 2163,
      "Ġ100": 2164,
      "Ġlist": 2165,
      "esse": 2166,
      "Ġcountry": 2167,
      "Ġframe": 2168,
      "Ġcomment": 2169,
      "ister": 2170,
      "gc": 2171,
      "Ġexemple": 2172,
      "yant": 2173,
      "art": 2174,
      "Ġcontex": 2175,
      "oph": 2176,
      "Ġnotre": 2177,
      "Ġsurveill": 2178,
      "ĠÅĵuvre": 2179,
      "ledge": 2180,
      "ium": 2181,
      "ĠrÃ©pond": 2182,
      "Ġamoun": 2183,
      "Ġsatisf": 2184,
      "Ġ1998": 2185,
      "sign": 2186,
      "Ġobjectifs": 2187,
      "Ġresult": 2188,
      "Ġeffectu": 2189,
      "Ġdoes": 2190,
      "Ġcode": 2191,
      "Ġesp": 2192,
      "Ġfonds": 2193,
      "Ġreceiv": 2194,
      "occ": 2195,
      "Ġsaf": 2196,
      "Ġsince": 2197,
      "Ġsuff": 2198,
      "oup": 2199,
      "eric": 2200,
      "ars": 2201,
      "vely": 2202,
      "Ġeffective": 2203,
      "Ġpropri": 2204,
      "be": 2205,
      "Ġmu": 2206,
      "Ġemployment": 2207,
      "ism": 2208,
      "Ġinvest": 2209,
      "Ġcompris": 2210,
      "Ġautoch": 2211,
      "Â»": 2212,
      "Ġconsul": 2213,
      "Ġchez": 2214,
      "Ġfemmes": 2215,
      "Ġquality": 2216,
      "Ġintro": 2217,
      "unes": 2218,
      "Ġhabit": 2219,
      "Ġregional": 2220,
      "Ġlorsque": 2221,
      "ustri": 2222,
      "Ġreconn": 2223,
      "Ġvotre": 2224,
      "Ġenf": 2225,
      "Ġparliament": 2226,
      "enci": 2227,
      "Ġrecord": 2228,
      "Ġchap": 2229,
      "Ġcontinue": 2230,
      "Ġ/": 2231,
      "Ġlui": 2232,
      "Ġintegr": 2233,
      "Ġunited": 2234,
      "Ġbecause": 2235,
      "Ġsignificant": 2236,
      "Ġnord": 2237,
      "tification": 2238,
      ".\"": 2239,
      "gu": 2240,
      "ĠrÃ©glement": 2241,
      "ĠcontrÃ´le": 2242,
      "Ġmoyen": 2243,
      "Ġdepuis": 2244,
      "Ġple": 2245,
      "ians": 2246,
      "Ġ22": 2247,
      "oles": 2248,
      "tude": 2249,
      "tudes": 2250,
      "Ġnecess": 2251,
      "Ġtake": 2252,
      "Ġir": 2253,
      "Ġdefin": 2254,
      "Ġreas": 2255,
      "Ġparticular": 2256,
      "Ġdevrait": 2257,
      "vem": 2258,
      "ĠprÃ©sente": 2259,
      "Ġnouvelles": 2260,
      "Ġ2008": 2261,
      "eld": 2262,
      "Ġgroupes": 2263,
      "ĠspÃ©ci": 2264,
      "unis": 2265,
      "Ġabor": 2266,
      "trang": 2267,
      "Ġbar": 2268,
      "Ġsujet": 2269,
      "Ġencoura": 2270,
      "Ġframework": 2271,
      "Ġlet": 2272,
      "Ġceux": 2273,
      "Ã©tat": 2274,
      "uit": 2275,
      "Ġnationale": 2276,
      "Ġown": 2277,
      "Ġcompe": 2278,
      "Ġstructure": 2279,
      "Ġmont": 2280,
      "Ġpage": 2281,
      "Ġarr": 2282,
      "Ġ23": 2283,
      "Ġdem": 2284,
      "ech": 2285,
      "ĠeuropÃ©en": 2286,
      "Ġmeth": 2287,
      "âĢĵ": 2288,
      "ced": 2289,
      "Ġclaim": 2290,
      "emploi": 2291,
      "Ġtex": 2292,
      "Ġtest": 2293,
      "Ġanti": 2294,
      "Ġsafety": 2295,
      "Ġpoints": 2296,
      "Ġdr": 2297,
      "Ġmus": 2298,
      "ool": 2299,
      "Ġur": 2300,
      "ize": 2301,
      "Ġsystems": 2302,
      "quer": 2303,
      "Ġcapital": 2304,
      "Ġfois": 2305,
      "Ġsum": 2306,
      "Ġsk": 2307,
      "Ġaut": 2308,
      "Ġocto": 2309,
      "ĠreÃ§": 2310,
      "vers": 2311,
      "Ġappli": 2312,
      "Ġview": 2313,
      "02": 2314,
      "ervation": 2315,
      "applic": 2316,
      "Ġshe": 2317,
      "Ġconnaiss": 2318,
      "tition": 2319,
      "Ġknowledge": 2320,
      "ĠÃ©conomique": 2321,
      "Ġparlement": 2322,
      "Ġsuper": 2323,
      "Ġdispositions": 2324,
      "ĠspÃ©cial": 2325,
      "Ã©bec": 2326,
      "Ġprojects": 2327,
      "pt": 2328,
      "Ġprovince": 2329,
      "Ġlarge": 2330,
      "Ġfuture": 2331,
      "Ġaud": 2332,
      "Ġdomaine": 2333,
      "Ġexport": 2334,
      "Ġcy": 2335,
      "Ġagainst": 2336,
      "ĠconsidÃ©r": 2337,
      "Ġdifferent": 2338,
      "Ġjud": 2339,
      "Ġprofessionn": 2340,
      "inf": 2341,
      "ĠrÃ´le": 2342,
      "Ġdeli": 2343,
      "nexe": 2344,
      "ĠprÃ©sid": 2345,
      "Ġbesoins": 2346,
      "Ġimpact": 2347,
      "Ġsitu": 2348,
      "ĠÃ©n": 2349,
      "Ġtradition": 2350,
      "Ġaugment": 2351,
      "Ġnovem": 2352,
      "Ġ000": 2353,
      "Ġstudy": 2354,
      "Ġfund": 2355,
      "met": 2356,
      "venir": 2357,
      "Ġofficial": 2358,
      "Ġconst": 2359,
      "ices": 2360,
      "Ġconsomm": 2361,
      "Ġmater": 2362,
      "Ġimplementation": 2363,
      "iÃ¨me": 2364,
      "Ġayant": 2365,
      "taire": 2366,
      "Ġcommunities": 2367,
      "ĠnÃ©g": 2368,
      "Ġdestin": 2369,
      "Ġcommon": 2370,
      "Ġbasis": 2371,
      "rastru": 2372,
      "ouve": 2373,
      "bilitÃ©": 2374,
      ".)": 2375,
      "Ġnos": 2376,
      "ĠrÃ©du": 2377,
      "ĠÃ©taient": 2378,
      "employ": 2379,
      "Ġconcentr": 2380,
      "Ġpremier": 2381,
      "ases": 2382,
      "ression": 2383,
      "uf": 2384,
      "Ġhand": 2385,
      "Ġaur": 2386,
      "aide": 2387,
      "Ġmettre": 2388,
      "Ã©cu": 2389,
      "Ġneeds": 2390,
      "Ġfoc": 2391,
      "Ġgrande": 2392,
      "Ġfix": 2393,
      "ators": 2394,
      "ĠdÃ©penses": 2395,
      "Ġnat": 2396,
      "Ġamong": 2397,
      "Ġpor": 2398,
      "Ġseront": 2399,
      "Ġlog": 2400,
      "Ġseu": 2401,
      "ĠÃ©lev": 2402,
      "Ġsimil": 2403,
      "Ġsugg": 2404,
      "Ġgiven": 2405,
      "admin": 2406,
      "Ã®tre": 2407,
      "Ġwhether": 2408,
      "Ġachie": 2409,
      "Ġrole": 2410,
      "ĠdÃ©ta": 2411,
      "ĠgÃ©nÃ©rale": 2412,
      "Ġinde": 2413,
      "Ã©tabl": 2414,
      "tawa": 2415,
      "Ġcirc": 2416,
      "Ġ1997": 2417,
      "Ã©ments": 2418,
      "Ġsubject": 2419,
      "oires": 2420,
      "tÃ©rieur": 2421,
      "Ġexc": 2422,
      "ame": 2423,
      "Ġprix": 2424,
      "Ġfinancement": 2425,
      "Ġappropriate": 2426,
      "aill": 2427,
      "Ġtraitement": 2428,
      "Ġincrease": 2429,
      "Ġacqu": 2430,
      "Ġcertaines": 2431,
      "import": 2432,
      "Ġlegal": 2433,
      "Ġcanadians": 2434,
      "ĠconsÃ©qu": 2435,
      "application": 2436,
      "Ġforces": 2437,
      "ately": 2438,
      "Ġclass": 2439,
      "industri": 2440,
      "lements": 2441,
      "Ġminim": 2442,
      "Ġrou": 2443,
      "Ġprincipal": 2444,
      "âĢ¦âĢ¦": 2445,
      "Ġmaterial": 2446,
      "Ġii": 2447,
      "ness": 2448,
      "Ġproduit": 2449,
      "Ġelles": 2450,
      "omb": 2451,
      "Ġnouveaux": 2452,
      "Ġgroups": 2453,
      "//": 2454,
      "tones": 2455,
      "ones": 2456,
      "ĠÃ©v": 2457,
      "50": 2458,
      "Ġexpec": 2459,
      "Ġproperty": 2460,
      "Ġrap": 2461,
      "Ġless": 2462,
      "la": 2463,
      "ined": 2464,
      "Ġsem": 2465,
      "isting": 2466,
      "ength": 2467,
      "istre": 2468,
      "ĠÃ©valu": 2469,
      "Ġschool": 2470,
      "Ġpai": 2471,
      "ĠdÃ©pos": 2472,
      "Ġinvesti": 2473,
      "Ġcompos": 2474,
      "Ġexcl": 2475,
      "Ġfunding": 2476,
      "ink": 2477,
      "tenu": 2478,
      "Ġcause": 2479,
      "ttp": 2480,
      "resp": 2481,
      "Ġproble": 2482,
      "Ġinitiative": 2483,
      "tics": 2484,
      "tained": 2485,
      "avant": 2486,
      "Ġinnov": 2487,
      "etwork": 2488,
      "Ġjusqu": 2489,
      "force": 2490,
      "Ġsever": 2491,
      "eness": 2492,
      "Ġsmall": 2493,
      "Ãªts": 2494,
      "ogn": 2495,
      "://": 2496,
      "ticles": 2497,
      "Ġsavoir": 2498,
      "Ġjustice": 2499,
      "Ġcanadiennes": 2500,
      "Ġmethod": 2501,
      "industrie": 2502,
      "Ġcosts": 2503,
      "rc": 2504,
      "fications": 2505,
      "Ġ26": 2506,
      "Ġcommunications": 2507,
      "Ġnorm": 2508,
      "Ġvery": 2509,
      "Ġissue": 2510,
      "Ġdef": 2511,
      "Ġec": 2512,
      "Ġaboriginal": 2513,
      "Ġgoods": 2514,
      "jo": 2515,
      "ouse": 2516,
      "ĠconformÃ©ment": 2517,
      "Ġfab": 2518,
      "Ġnetwork": 2519,
      "Ġsix": 2520,
      "Ġpouvoir": 2521,
      "Ġsoutien": 2522,
      "Ġmois": 2523,
      "Ġcroiss": 2524,
      "Ġorganization": 2525,
      "Ġmondi": 2526,
      "Ġtari": 2527,
      "ator": 2528,
      "examen": 2529,
      "Ġcarri": 2530,
      "Ġvaleur": 2531,
      "ĠsystÃ¨mes": 2532,
      "Ġfinal": 2533,
      "ization": 2534,
      "ĠbÃ©nÃ©": 2535,
      "Ġtechnology": 2536,
      "Ġsuite": 2537,
      "mÃ©": 2538,
      "Ġtre": 2539,
      "Ġviol": 2540,
      "iver": 2541,
      "Ġautochtones": 2542,
      "Ġorganizations": 2543,
      "Ġpromotion": 2544,
      "Ġusing": 2545,
      "aces": 2546,
      "isant": 2547,
      "Ġrecogn": 2548,
      "Ġright": 2549,
      "Ġmulti": 2550,
      "vision": 2551,
      "Ġcontribution": 2552,
      "Ġdos": 2553,
      "ĠprocÃ©d": 2554,
      "ĠprÃ©par": 2555,
      "Ġexample": 2556,
      "Ġ28": 2557,
      "Ġunion": 2558,
      "Ġunders": 2559,
      "ï¬": 2560,
      "Ġot": 2561,
      "Ġnote": 2562,
      "Ġcorre": 2563,
      "Ġcommerce": 2564,
      "atif": 2565,
      "Ġsources": 2566,
      "ury": 2567,
      "Ġwithout": 2568,
      "sh": 2569,
      "Ġsurveillance": 2570,
      "Ġge": 2571,
      "Ġproposed": 2572,
      "Ġbroad": 2573,
      "Ġdonc": 2574,
      "Ġsoins": 2575,
      "ane": 2576,
      "Ġprinci": 2577,
      "Ġfour": 2578,
      "03": 2579,
      "ceed": 2580,
      "Ġsuppl": 2581,
      "Ġ&": 2582,
      "tand": 2583,
      "uel": 2584,
      "ox": 2585,
      "Ġevaluation": 2586,
      "ograph": 2587,
      "tenant": 2588,
      "Ġrisque": 2589,
      "Ġtechnologies": 2590,
      "Ġformul": 2591,
      "iled": 2592,
      "Ġassociation": 2593,
      "Ġtoutefois": 2594,
      "Ġaspec": 2595,
      "Ġcost": 2596,
      "Ġanim": 2597,
      "ĠmodÃ¨": 2598,
      "ath": 2599,
      "Ġencore": 2600,
      "asse": 2601,
      "ipe": 2602,
      "Ġexist": 2603,
      "15": 2604,
      "Ġconsum": 2605,
      "pendant": 2606,
      "Ġ50": 2607,
      "Ġvisant": 2608,
      "Ġlicence": 2609,
      "Ġdescription": 2610,
      "Ġexerc": 2611,
      "Ġchanges": 2612,
      "Ġnecessary": 2613,
      "Ġenter": 2614,
      "mi": 2615,
      "office": 2616,
      "Ġchildren": 2617,
      "dro": 2618,
      "Ġcalcul": 2619,
      "Ġsites": 2620,
      "Ġfre": 2621,
      "Ġterme": 2622,
      "ĠmaniÃ¨re": 2623,
      "ather": 2624,
      "Ġ27": 2625,
      "onom": 2626,
      "Ġpopul": 2627,
      "Ġpeti": 2628,
      "14": 2629,
      "Ġrapports": 2630,
      "Ġpati": 2631,
      "Ġpap": 2632,
      "ĠcompÃ©": 2633,
      "Ġauthority": 2634,
      "vidence": 2635,
      "Ġbuil": 2636,
      "Ġdid": 2637,
      "Ġenfants": 2638,
      "alog": 2639,
      "tivitÃ©s": 2640,
      "Ġcases": 2641,
      "Ġuniversity": 2642,
      "identi": 2643,
      "atifs": 2644,
      "Ġprovides": 2645,
      "Ġday": 2646,
      "Ġnorth": 2647,
      "Ġrate": 2648,
      "accÃ¨s": 2649,
      "Ġ1996": 2650,
      "Ġrelatives": 2651,
      "Ġconv": 2652,
      "Ġsex": 2653,
      "Ġhom": 2654,
      "other": 2655,
      "Ġexplo": 2656,
      "ĠpÃª": 2657,
      "appro": 2658,
      "Ġsuccess": 2659,
      "auc": 2660,
      "Ġtant": 2661,
      "Ġclassi": 2662,
      "Ġconsultation": 2663,
      "ides": 2664,
      "Ġcontract": 2665,
      "ĠprÃ©s": 2666,
      "respond": 2667,
      "ĠcapacitÃ©": 2668,
      "Ġdeta": 2669,
      "Ġcela": 2670,
      "mination": 2671,
      "Ã¨ne": 2672,
      "Ġpourrait": 2673,
      "ĠemployÃ©s": 2674,
      "Ġinterven": 2675,
      "ĠquÃ©bec": 2676,
      "tÃ©rie": 2677,
      "Ġmeans": 2678,
      "Ġsl": 2679,
      "Ġstandards": 2680,
      "Ġer": 2681,
      "ward": 2682,
      "Ġfran": 2683,
      "Ġoutre": 2684,
      "quelle": 2685,
      "Ġorganisations": 2686,
      "Ġ197": 2687,
      "Ġway": 2688,
      "Ġmonth": 2689,
      "onne": 2690,
      "illes": 2691,
      "ĠbÃ©nÃ©fic": 2692,
      "quÃ©": 2693,
      "rug": 2694,
      "Ġlear": 2695,
      "Ġfavor": 2696,
      "Ġlaquelle": 2697,
      "Ġinternationale": 2698,
      "gl": 2699,
      "Ġdispon": 2700,
      "04": 2701,
      "Ġfocus": 2702,
      "Ġbenefits": 2703,
      "ĠprocÃ©": 2704,
      "Ġanalysis": 2705,
      "ĠannÃ©e": 2706,
      "Ġprovinces": 2707,
      "Ġtim": 2708,
      "Ġcorrespond": 2709,
      "ĠcoÃ»ts": 2710,
      "Ġlevels": 2711,
      "Ġoffici": 2712,
      "lan": 2713,
      "Ġsource": 2714,
      "Ġglobal": 2715,
      "Ġconduct": 2716,
      "uring": 2717,
      "Ġdirector": 2718,
      "Ġconstruction": 2719,
      "Ġcover": 2720,
      "ĠnÃ©cessaire": 2721,
      "ub": 2722,
      "entrepr": 2723,
      "Ġsyn": 2724,
      "ality": 2725,
      "Ġamendment": 2726,
      "day": 2727,
      "Ġresponsibil": 2728,
      "Ġconcerne": 2729,
      "Ġstrategy": 2730,
      "ock": 2731,
      "ĠmÃ©dic": 2732,
      "ĠÃ©lÃ©ments": 2733,
      "uve": 2734,
      "Ġseulement": 2735,
      "Ġcher": 2736,
      "Ġhar": 2737,
      "Ġconsidered": 2738,
      "Ġexpos": 2739,
      "Ġed": 2740,
      "Ġlife": 2741,
      "Ġstudi": 2742,
      "imp": 2743,
      "Ġradio": 2744,
      "Ġrempl": 2745,
      "Ġexigences": 2746,
      "Ġottawa": 2747,
      "Ġhttp": 2748,
      "Ġcollaboration": 2749,
      "iens": 2750,
      "Ġjeunes": 2751,
      "ep": 2752,
      "tÃ©e": 2753,
      "ron": 2754,
      "Ġprendre": 2755,
      "Ġsoient": 2756,
      "www": 2757,
      "time": 2758,
      "mary": 2759,
      "Ġhol": 2760,
      "Ġnav": 2761,
      "Ġavis": 2762,
      "Ġquat": 2763,
      "Ġimprove": 2764,
      "Ã¨ces": 2765,
      "Ġcompany": 2766,
      "Ġev": 2767,
      "ler": 2768,
      "Ġtour": 2769,
      "acy": 2770,
      "Ġclim": 2771,
      "Ġni": 2772,
      "Ã©rations": 2773,
      "Ġpotential": 2774,
      "Ġrevenu": 2775,
      "Ġfis": 2776,
      "way": 2777,
      "Ġrelevant": 2778,
      "Ġord": 2779,
      "Ġdrug": 2780,
      "ĠmatÃ©ri": 2781,
      "Ġdistribution": 2782,
      "Ġtravaux": 2783,
      "Ġmonitor": 2784,
      "Ġfaut": 2785,
      "Ġpolicies": 2786,
      "ĠstratÃ©gie": 2787,
      "administration": 2788,
      "Ġraison": 2789,
      "tage": 2790,
      "Ġapply": 2791,
      "ergy": 2792,
      "line": 2793,
      "Ġemployees": 2794,
      "encies": 2795,
      "airs": 2796,
      "Ġcamp": 2797,
      "odes": 2798,
      "ellectu": 2799,
      "ront": 2800,
      "Ġcelle": 2801,
      "Ġmalad": 2802,
      "tant": 2803,
      "voir": 2804,
      "vious": 2805,
      "ma": 2806,
      "Ġameric": 2807,
      "iÃ©": 2808,
      "Ġarticles": 2809,
      "ying": 2810,
      "Ġlorsqu": 2811,
      "Ġdivision": 2812,
      "ĠdÃ©terminer": 2813,
      "Ġsau": 2814,
      "berta": 2815,
      "naires": 2816,
      "Ġamount": 2817,
      "rent": 2818,
      "18": 2819,
      "Ġestablished": 2820,
      "tices": 2821,
      "Ġforeign": 2822,
      "Ġintellectu": 2823,
      "Ġcommand": 2824,
      "Ġrisques": 2825,
      "Ġnormes": 2826,
      "Ġmoment": 2827,
      "Ġassistance": 2828,
      "gÃ©": 2829,
      "ĠÃ©tant": 2830,
      "Ġatte": 2831,
      "Ġnow": 2832,
      "ience": 2833,
      "30": 2834,
      "mer": 2835,
      "Ġpratiques": 2836,
      "Ġprovisions": 2837,
      "Ġperman": 2838,
      "Ġfrais": 2839,
      "Ġproduct": 2840,
      "Ġcontact": 2841,
      "Ġclients": 2842,
      "ensemble": 2843,
      "Ġannual": 2844,
      "Ġill": 2845,
      "Ġhead": 2846,
      "ibles": 2847,
      "accord": 2848,
      "Ġeffet": 2849,
      "Ġtend": 2850,
      "Ġ29": 2851,
      "trÃ©": 2852,
      "ha": 2853,
      "Ġtherefore": 2854,
      "eter": 2855,
      "ĠproblÃ¨mes": 2856,
      "ised": 2857,
      "Ġincome": 2858,
      "Ġinternet": 2859,
      "missions": 2860,
      "ected": 2861,
      "Ġterms": 2862,
      "Ġrele": 2863,
      "Ġinflu": 2864,
      "Ġsustain": 2865,
      "Ġcin": 2866,
      "ling": 2867,
      "Ġmeille": 2868,
      "icro": 2869,
      "Ġmaxim": 2870,
      "Ġroy": 2871,
      "Ġjourn": 2872,
      "Ġvalue": 2873,
      "hib": 2874,
      "Ġdemandes": 2875,
      "Ġchem": 2876,
      "Ġsein": 2877,
      "Ġincreased": 2878,
      "Ġshow": 2879,
      "men": 2880,
      "Ġeffets": 2881,
      "rastructure": 2882,
      "aci": 2883,
      "ench": 2884,
      "Ġ*": 2885,
      "Ġactions": 2886,
      "Ġappe": 2887,
      "iner": 2888,
      "Ġfins": 2889,
      "05": 2890,
      "Ġparticulier": 2891,
      "16": 2892,
      "ĠprotÃ©": 2893,
      "Ġactivity": 2894,
      "Ġcelui": 2895,
      "Ġcomplex": 2896,
      "ists": 2897,
      "Ġchall": 2898,
      "ĠÂ»,": 2899,
      "appel": 2900,
      "Ġrespond": 2901,
      "ident": 2902,
      "ĠcoopÃ©ration": 2903,
      "ĠintÃ©gr": 2904,
      "Ġreceived": 2905,
      "ĠnumÃ©ro": 2906,
      "issent": 2907,
      "Ġoperations": 2908,
      "Ġminor": 2909,
      "iance": 2910,
      "Ġpartnership": 2911,
      "rier": 2912,
      "tific": 2913,
      "Ġtypes": 2914,
      "Ġdeveloped": 2915,
      "Ã©rer": 2916,
      "Ġtor": 2917,
      "Ġjurid": 2918,
      "Ġmoder": 2919,
      "Ġbul": 2920,
      "asing": 2921,
      "Ġvic": 2922,
      "Ġguide": 2923,
      "Ġbet": 2924,
      "Ġcomplain": 2925,
      "Ġlanguage": 2926,
      "ĠdÃ©j": 2927,
      "oms": 2928,
      "Ġrendement": 2929,
      "ird": 2930,
      "Ġdele": 2931,
      "Ġpermis": 2932,
      "Ġgrowth": 2933,
      "Ġaccording": 2934,
      "Ġrepor": 2935,
      "Ġbal": 2936,
      "Ġpris": 2937,
      "Ġpercent": 2938,
      "Ã©raux": 2939,
      "Ġarch": 2940,
      "europe": 2941,
      "Ġpost": 2942,
      "Ġquanti": 2943,
      "Ġliste": 2944,
      "Ġvarious": 2945,
      "Ġunderstand": 2946,
      "ĠdonnÃ©": 2947,
      "Ġtaken": 2948,
      "Ġcondition": 2949,
      "Ġpil": 2950,
      "Ġtechniques": 2951,
      "Ġobjectives": 2952,
      "Ġdue": 2953,
      "Ġcell": 2954,
      "Ġdirecteur": 2955,
      "Ġmanuf": 2956,
      "forme": 2957,
      "Ġsubmit": 2958,
      "Ġhistor": 2959,
      "ubl": 2960,
      "tÃ©rÃªt": 2961,
      "Ġfournir": 2962,
      "Ġetc": 2963,
      "ocra": 2964,
      "Ġappar": 2965,
      "Ġcust": 2966,
      "amÃ©lior": 2967,
      "side": 2968,
      "Ġenergy": 2969,
      "Ġposi": 2970,
      "Ġtravaill": 2971,
      "Ġcapacity": 2972,
      "inte": 2973,
      "enant": 2974,
      "Ġopen": 2975,
      "Ġevidence": 2976,
      "organisation": 2977,
      "Ġcelles": 2978,
      "ueur": 2979,
      "tation": 2980,
      "Ġappr": 2981,
      "Ġmor": 2982,
      "Ġadministration": 2983,
      "Ġcivil": 2984,
      "Ġbeh": 2985,
      "sibles": 2986,
      "Ġtravaille": 2987,
      "Ġavons": 2988,
      "Ġcroissance": 2989,
      "bed": 2990,
      "Ġbesoin": 2991,
      "arch": 2992,
      "can": 2993,
      "Ġback": 2994,
      "Ġmars": 2995,
      "Ġ;": 2996,
      "gen": 2997,
      "Ġinstall": 2998,
      "Ġadditional": 2999,
      "ology": 3000,
      "Ġeven": 3001,
      "Ġnatural": 3002,
      "Ġprogress": 3003,
      "ĠdÃ©cisions": 3004,
      "oss": 3005,
      "intÃ©": 3006,
      "apr": 3007,
      "Ġsecret": 3008,
      "alisation": 3009,
      "unicip": 3010,
      "hy": 3011,
      "ĠrÃ©gime": 3012,
      "Ġlimited": 3013,
      "ĠrÃ©alis": 3014,
      "ĠÃ©tudi": 3015,
      "ĠÃ©tudes": 3016,
      "uk": 3017,
      "Ġaccount": 3018,
      "Ġplanning": 3019,
      "\".": 3020,
      "lected": 3021,
      "ĠfÃ©dÃ©ral": 3022,
      "Ġalors": 3023,
      "Ġfull": 3024,
      "istes": 3025,
      "Ġnet": 3026,
      "ĠdÃ©jÃł": 3027,
      "Ġrest": 3028,
      "Ġreports": 3029,
      "igration": 3030,
      "Ġseveral": 3031,
      "Ã©tÃ©s": 3032,
      "actions": 3033,
      "Ġrules": 3034,
      "ĠÃ©trang": 3035,
      "Ġvig": 3036,
      "Ã©rie": 3037,
      "ior": 3038,
      "ĠdÃ©claration": 3039,
      "Ġpoursu": 3040,
      "enn": 3041,
      "Ġprop": 3042,
      "ological": 3043,
      "Ġmeasure": 3044,
      "Ġmunicip": 3045,
      "Ġidenti": 3046,
      ")(": 3047,
      "Ġpolice": 3048,
      "ï¬ģ": 3049,
      "ĠauprÃ¨s": 3050,
      "quÃªte": 3051,
      "Ġbuilding": 3052,
      "Ġbank": 3053,
      "Ġrecent": 3054,
      "ĠrÃ©gions": 3055,
      "Ġprob": 3056,
      "quel": 3057,
      "annÃ©e": 3058,
      "Ġappel": 3059,
      "objet": 3060,
      "Ġaspects": 3061,
      "Ġimpos": 3062,
      "ĠtraitÃ©": 3063,
      "Ġaffaires": 3064,
      "Ġmy": 3065,
      "atic": 3066,
      "ross": 3067,
      "Ġmarchand": 3068,
      "view": 3069,
      "Ġnu": 3070,
      "Ġpan": 3071,
      "Ġorganisation": 3072,
      "Ġlegislation": 3073,
      "Ġfabric": 3074,
      "Ġcependant": 3075,
      "Ġdevraient": 3076,
      "ght": 3077,
      "Ġspecies": 3078,
      "of": 3079,
      "agne": 3080,
      "Ġposte": 3081,
      "ĠparticuliÃ¨re": 3082,
      "acitÃ©": 3083,
      "Ġauthorities": 3084,
      "Ġstruct": 3085,
      "ĠcommunautÃ©": 3086,
      "Ġentr": 3087,
      "Ġnaturel": 3088,
      "Ġstudies": 3089,
      "aving": 3090,
      "cr": 3091,
      "ĠrÃ©c": 3092,
      "tÃ©s": 3093,
      "22": 3094,
      "Ġtermin": 3095,
      "ĠrÃ©seau": 3096,
      "Ġenh": 3097,
      "Ġcultural": 3098,
      "Ġimpl": 3099,
      "Ġpuis": 3100,
      "Ġtel": 3101,
      "Ġpersons": 3102,
      "ids": 3103,
      "06": 3104,
      "Ġsociety": 3105,
      "ĠrÃ©pon": 3106,
      "rir": 3107,
      "onto": 3108,
      "Ġpurs": 3109,
      "Ġanother": 3110,
      "read": 3111,
      "Ġadap": 3112,
      "Ġincluded": 3113,
      "esp": 3114,
      "tm": 3115,
      "uss": 3116,
      "autre": 3117,
      "Ġthen": 3118,
      "Ġstrategic": 3119,
      "cÃ©": 3120,
      "ĠcatÃ©g": 3121,
      "Ġevery": 3122,
      "Ġamendement": 3123,
      "ix": 3124,
      "Ġwar": 3125,
      "Ġobligations": 3126,
      "Ġdeveloping": 3127,
      "ĠdÃ©b": 3128,
      "ished": 3129,
      "Ġcentral": 3130,
      "Ġcit": 3131,
      "ols": 3132,
      "yn": 3133,
      "ĠÃ©tat": 3134,
      "Ġinstitution": 3135,
      "Ġprevious": 3136,
      "Ġquatre": 3137,
      "Ġopin": 3138,
      "Ġmembre": 3139,
      "acter": 3140,
      "Ġsom": 3141,
      "Ġreason": 3142,
      "Ġsw": 3143,
      "aprÃ¨s": 3144,
      "Ġculturel": 3145,
      "Ġclin": 3146,
      "Ġlarg": 3147,
      "Ġbetter": 3148,
      "Ġplu": 3149,
      "ĠÃ©lectron": 3150,
      "Ġcou": 3151,
      "Ġaudit": 3152,
      "ĠmÃ©c": 3153,
      "ustr": 3154,
      "Ġrestric": 3155,
      "17": 3156,
      "Ġbil": 3157,
      "Ġadministrative": 3158,
      "Ġlow": 3159,
      "Ġstrength": 3160,
      "ĠpropriÃ©tÃ©": 3161,
      "atique": 3162,
      "edi": 3163,
      "Ġsubstances": 3164,
      "ĠsupÃ©ri": 3165,
      "Ġmonde": 3166,
      "pa": 3167,
      "Ã©laboration": 3168,
      "Ġdossi": 3169,
      "dure": 3170,
      "ĠvÃ©rification": 3171,
      "Ġexisting": 3172,
      "................": 3173,
      "ĠprÃ©sident": 3174,
      "ror": 3175,
      "cra": 3176,
      "Ġjou": 3177,
      "Ġread": 3178,
      "Ġconsist": 3179,
      "Ġ1995": 3180,
      "Ġcontributions": 3181,
      "effic": 3182,
      "Ġeffects": 3183,
      "ĠcrÃ©d": 3184,
      "explo": 3185,
      "Ġaj": 3186,
      "Ġconfer": 3187,
      "ecu": 3188,
      "Ġincid": 3189,
      "Ġforme": 3190,
      "Ġfamily": 3191,
      "ove": 3192,
      "Ġpersonal": 3193,
      "Ġresponsible": 3194,
      "grÃ©": 3195,
      "aring": 3196,
      "Ġprotoc": 3197,
      "Ġsecteurs": 3198,
      "Ġabs": 3199,
      "Ġimportance": 3200,
      "Ġactive": 3201,
      "Ġversion": 3202,
      "Ġgaz": 3203,
      "Ġsaid": 3204,
      "Ġchangements": 3205,
      "Ġjours": 3206,
      "Ġmicro": 3207,
      "put": 3208,
      "anch": 3209,
      "Ġresponse": 3210,
      "Ġphase": 3211,
      "Ġjuin": 3212,
      "bs": 3213,
      "wan": 3214,
      "ipment": 3215,
      "cts": 3216,
      "Ġunderta": 3217,
      "Ġpractices": 3218,
      "Ġmer": 3219,
      "Ġjune": 3220,
      "Ġfield": 3221,
      "ĠdÃ©lÃ©g": 3222,
      "ina": 3223,
      "Ġname": 3224,
      "Ġprivate": 3225,
      "press": 3226,
      "25": 3227,
      "Ġear": 3228,
      "ĠrÃ©sid": 3229,
      "ĠnÃ©cessaires": 3230,
      "ĠsupplÃ©ment": 3231,
      "tively": 3232,
      "Ġmontant": 3233,
      "Ã©m": 3234,
      "ĠmÃ©can": 3235,
      "euvre": 3236,
      "Ġtechnical": 3237,
      "though": 3238,
      "duced": 3239,
      "Ġefficace": 3240,
      "Ġtreatment": 3241,
      "Ġtravel": 3242,
      "assurer": 3243,
      "Ġsoul": 3244,
      "ival": 3245,
      "Ġmieux": 3246,
      "ban": 3247,
      "2005": 3248,
      "Ġlast": 3249,
      "Ġcat": 3250,
      "Ġassembl": 3251,
      "Ġpolitical": 3252,
      "ified": 3253,
      "Ġacross": 3254,
      "----": 3255,
      "analy": 3256,
      "ĠÃ©labor": 3257,
      "Ġdomes": 3258,
      "cept": 3259,
      "Ġpertin": 3260,
      "Ġacces": 3261,
      "Ġline": 3262,
      "Ġalthough": 3263,
      "tÃ©es": 3264,
      "Ġconcurr": 3265,
      "Ġdise": 3266,
      "Ġapplicable": 3267,
      "Ġtermes": 3268,
      "ĠÂ».": 3269,
      "Ġteam": 3270,
      "Ġinvestment": 3271,
      "Ã¡": 3272,
      "Ġreturn": 3273,
      "tended": 3274,
      "usions": 3275,
      "Ġeffect": 3276,
      "Ġjob": 3277,
      "Ġcooperation": 3278,
      "sp": 3279,
      "Ġcf": 3280,
      "cembre": 3281,
      "Ġproposition": 3282,
      "Ã©rique": 3283,
      "Ġreporting": 3284,
      "forcement": 3285,
      "indre": 3286,
      "Ġpublication": 3287,
      "Ġmeet": 3288,
      "ĠmÃ©di": 3289,
      "Ġligne": 3290,
      "Ġcommuniqu": 3291,
      "Ġidentified": 3292,
      "itable": 3293,
      "Ġabove": 3294,
      "ĠnÃ©goci": 3295,
      "Ġadj": 3296,
      "thern": 3297,
      "Ġconservation": 3298,
      "Ġpropor": 3299,
      "Ġapplications": 3300,
      "Ġvoy": 3301,
      "Ġtoronto": 3302,
      "uant": 3303,
      "Ġphys": 3304,
      "tish": 3305,
      "Ġparty": 3306,
      "Ġdiscri": 3307,
      "Ġsurvey": 3308,
      "vez": 3309,
      "Ġcharge": 3310,
      "Ġopportunities": 3311,
      "atoire": 3312,
      "ĠrÃ¨gles": 3313,
      "Ġlit": 3314,
      "no": 3315,
      "Ġsud": 3316,
      "Ġprocedures": 3317,
      "Ġscientif": 3318,
      "ged": 3319,
      "taining": 3320,
      "Ġhos": 3321,
      "based": 3322,
      "Ġ40": 3323,
      "asion": 3324,
      "umb": 3325,
      "Ġhome": 3326,
      "ril": 3327,
      "Ġsam": 3328,
      "Ġpi": 3329,
      "Ã©gard": 3330,
      "agence": 3331,
      "Ġappo": 3332,
      "Ã©rÃ©": 3333,
      "Ġdistin": 3334,
      "ĠprocÃ©dure": 3335,
      "Ġinspec": 3336,
      "ĠcrÃ©ation": 3337,
      "ills": 3338,
      "ĠdÃ©cembre": 3339,
      "Ġdown": 3340,
      "aison": 3341,
      "Ġaccordance": 3342,
      "Ġsubsection": 3343,
      "ĠministÃ¨res": 3344,
      "Ġcorporation": 3345,
      "Ġstatus": 3346,
      "Ġoccup": 3347,
      "Ġaucune": 3348,
      "Ġmme": 3349,
      "lex": 3350,
      "stances": 3351,
      "olutions": 3352,
      "vier": 3353,
      "ĠopÃ©rations": 3354,
      "Ġexperience": 3355,
      "Ġpension": 3356,
      "autor": 3357,
      "ĠcompÃ©t": 3358,
      "Ġconfirm": 3359,
      "\",": 3360,
      "Ġsing": 3361,
      "gin": 3362,
      "ĠÃ©valuation": 3363,
      "ette": 3364,
      "Ġrenfor": 3365,
      "ĠmarchÃ©s": 3366,
      "Ġmilieu": 3367,
      "avis": 3368,
      "itob": 3369,
      "ither": 3370,
      "Ġequipment": 3371,
      "Ġbest": 3372,
      "ĠsÃ©lection": 3373,
      "Ġdecem": 3374,
      "Ġscience": 3375,
      "Ġreference": 3376,
      "ĠprÃ©cÃ©d": 3377,
      "Ġdecember": 3378,
      "Ġpopulations": 3379,
      "Ġvir": 3380,
      "bour": 3381,
      "elines": 3382,
      "elf": 3383,
      "ĠpremiÃ¨res": 3384,
      "change": 3385,
      "wh": 3386,
      "askat": 3387,
      "Ġcrimin": 3388,
      "Ġsouvent": 3389,
      "Ġfont": 3390,
      "Ã¨ce": 3391,
      "Ġhal": 3392,
      "Ġemployee": 3393,
      "Ġlabour": 3394,
      "Ã¯": 3395,
      "pital": 3396,
      "Ġpurpose": 3397,
      "Ġprep": 3398,
      "Ġprom": 3399,
      "issant": 3400,
      "Ġautom": 3401,
      "alogue": 3402,
      "Ġcinq": 3403,
      "va": 3404,
      "itre": 3405,
      "Ġdon": 3406,
      "naire": 3407,
      "Ġserait": 3408,
      "Ġorigin": 3409,
      "tient": 3410,
      "Ġfive": 3411,
      "Ġfacteurs": 3412,
      "Ġcoordination": 3413,
      "Ġlike": 3414,
      "oit": 3415,
      "Ġobtenir": 3416,
      "Ġregulation": 3417,
      "yer": 3418,
      "Ġlesqu": 3419,
      "itiz": 3420,
      "ipo": 3421,
      "mb": 3422,
      "tences": 3423,
      "Ġaver": 3424,
      "Ġadministr": 3425,
      "Ġmonitoring": 3426,
      "ĠsecrÃ©": 3427,
      "Ġdifficult": 3428,
      "Ã¢ce": 3429,
      "Ġlik": 3430,
      "orial": 3431,
      "Ġassurer": 3432,
      "Ġheld": 3433,
      "Ġpartir": 3434,
      "Ġposs": 3435,
      "fier": 3436,
      "Ġvigueur": 3437,
      "ĠindÃ©": 3438,
      "Ġbritish": 3439,
      "Ġemerg": 3440,
      "Ġstrong": 3441,
      "ening": 3442,
      "Ġbeauc": 3443,
      "Ġage": 3444,
      "Ġdepartments": 3445,
      "2006": 3446,
      "Ã¨te": 3447,
      "Ġbeaucoup": 3448,
      "Ġzone": 3449,
      "ĠgrÃ¢ce": 3450,
      "Ġpartenaires": 3451,
      "osition": 3452,
      "iments": 3453,
      "ĠcompÃ©tences": 3454,
      "Ġlign": 3455,
      "Ġcentres": 3456,
      "Ġbenefit": 3457,
      "Ġsport": 3458,
      "Ġdecisions": 3459,
      "Ġseptembre": 3460,
      "Ġtenu": 3461,
      "Ġfranc": 3462,
      "07": 3463,
      "ĠrÃ©fÃ©rence": 3464,
      "Ġexpected": 3465,
      "ologie": 3466,
      "let": 3467,
      "Ġapr": 3468,
      "Ġprovision": 3469,
      "itoba": 3470,
      "Ġgaranti": 3471,
      "Ġaim": 3472,
      "itaire": 3473,
      "Ġstandard": 3474,
      "Ġinvolved": 3475,
      "Ġven": 3476,
      "ope": 3477,
      "ĠdÃ©sign": 3478,
      "Ġcertific": 3479,
      "Ġremain": 3480,
      "ief": 3481,
      "ĠdÃ©m": 3482,
      "Ġmedical": 3483,
      "ĠfranÃ§": 3484,
      "24": 3485,
      "Ġaltern": 3486,
      "ciaux": 3487,
      "Ġcommunautaire": 3488,
      "Ġproviding": 3489,
      "Ġcred": 3490,
      "nels": 3491,
      "Ġpress": 3492,
      "lor": 3493,
      "Ġdomaines": 3494,
      "ental": 3495,
      "Ġjoint": 3496,
      "Ġ1994": 3497,
      "Ġhaving": 3498,
      "ics": 3499,
      "Ġmarchandises": 3500,
      "illet": 3501,
      "Ġannex": 3502,
      "Ġaucun": 3503,
      "Ġofficer": 3504,
      "Ġcaus": 3505,
      "lo": 3506,
      "Ġcarb": 3507,
      "Ġquebec": 3508,
      "Ġsimilar": 3509,
      "Ã©conom": 3510,
      "aille": 3511,
      "osph": 3512,
      "Ġsched": 3513,
      "tir": 3514,
      "Ġ1990": 3515,
      "Ġplanification": 3516,
      "Ġcall": 3517,
      "und": 3518,
      "uary": 3519,
      "ontario": 3520,
      "order": 3521,
      "Ġthird": 3522,
      "duce": 3523,
      "Ġplupart": 3524,
      "cing": 3525,
      "pc": 3526,
      "ĠprioritÃ©s": 3527,
      "Ġmandat": 3528,
      "Ġconnaissances": 3529,
      "activitÃ©": 3530,
      "Ġ60": 3531,
      "intÃ©gr": 3532,
      "Ġnex": 3533,
      "Ġtran": 3534,
      "exerc": 3535,
      "Ġdeal": 3536,
      "Ġcompanies": 3537,
      "Ġagencies": 3538,
      "Ġpen": 3539,
      "Ġclear": 3540,
      "tissement": 3541,
      "tle": 3542,
      "registre": 3543,
      "ĠamÃ©liorer": 3544,
      "uns": 3545,
      "Ġdiscussion": 3546,
      "Ġmaking": 3547,
      "Ġseptember": 3548,
      "Ġbrev": 3549,
      "by": 3550,
      "phone": 3551,
      "Ġmuch": 3552,
      "Ġnationaux": 3553,
      "pendent": 3554,
      "inÃ©a": 3555,
      "ritann": 3556,
      "tie": 3557,
      "Ġmess": 3558,
      "Ġphy": 3559,
      "Ġassociated": 3560,
      "Ġvoir": 3561,
      "Ġdeb": 3562,
      "Ġissu": 3563,
      "Ġrecommandations": 3564,
      "Ġdisposition": 3565,
      "Ġclos": 3566,
      "face": 3567,
      "ave": 3568,
      "Ġarri": 3569,
      "Ġyouth": 3570,
      "Ġreal": 3571,
      "rain": 3572,
      "Ġgreat": 3573,
      "ĠprocÃ©dures": 3574,
      "Ġatta": 3575,
      "iation": 3576,
      "ĠdÃ©fense": 3577,
      "Ġcarac": 3578,
      "itaires": 3579,
      "ĠrÃ©duire": 3580,
      "Ġappeal": 3581,
      "avantage": 3582,
      "Ġcham": 3583,
      "Ġms": 3584,
      "Ġinformations": 3585,
      "ĠdiffÃ©rents": 3586,
      "Ġspe": 3587,
      "ĠrÃ©par": 3588,
      "Ġrates": 3589,
      "Ġsaskat": 3590,
      "Ġcherche": 3591,
      "Ġfisher": 3592,
      "Ġchangement": 3593,
      "23": 3594,
      "echan": 3595,
      "Ġtar": 3596,
      "Ġchac": 3597,
      "poses": 3598,
      "ĠdurÃ©e": 3599,
      "Ġapril": 3600,
      "ĠcollectivitÃ©s": 3601,
      "Ġjanvier": 3602,
      "Ġtox": 3603,
      "Ġcriter": 3604,
      "Ġtreaty": 3605,
      "Ġfall": 3606,
      "Ġdays": 3607,
      "Ġ35": 3608,
      "isÃ©": 3609,
      "Ġlt": 3610,
      "placement": 3611,
      "assurance": 3612,
      "ĠcaractÃ©r": 3613,
      "Ġsuivants": 3614,
      "mun": 3615,
      "hr": 3616,
      "Ġsociale": 3617,
      "Ġappu": 3618,
      "Ġsustainable": 3619,
      "Ġband": 3620,
      "Ġalle": 3621,
      "Ġgreater": 3622,
      "Ġproposal": 3623,
      "Ġdomestic": 3624,
      "Ġrange": 3625,
      "Ġlabor": 3626,
      "ergie": 3627,
      "ĠâĢĺ": 3628,
      "nel": 3629,
      "uelle": 3630,
      "Ġmodifications": 3631,
      "Ġpurposes": 3632,
      "Ġexpress": 3633,
      "Ġdispos": 3634,
      "Ġarrang": 3635,
      "urg": 3636,
      "annexe": 3637,
      "Ġleast": 3638,
      "ventions": 3639,
      "Ġcn": 3640,
      "Ġmodel": 3641,
      "agit": 3642,
      "Ġred": 3643,
      "thers": 3644,
      "jours": 3645,
      "Ġcoh": 3646,
      "Ġattribu": 3647,
      "term": 3648,
      "Ã©tablissement": 3649,
      "Ġface": 3650,
      "ĠrÃ©ponse": 3651,
      "Ġindividuals": 3652,
      "uly": 3653,
      "Ġfar": 3654,
      "over": 3655,
      "Ġgas": 3656,
      "Ġmanufact": 3657,
      "Ġrecommendations": 3658,
      "Ġmoyens": 3659,
      "Ġpermettre": 3660,
      "iquement": 3661,
      "Ġmai": 3662,
      "Ġlut": 3663,
      "ĠmodÃ¨le": 3664,
      "less": 3665,
      "Ġclassification": 3666,
      "Ġdurant": 3667,
      "jour": 3668,
      "Ġjohn": 3669,
      "Ġjanuary": 3670,
      "Ġtur": 3671,
      "dess": 3672,
      "Ġcitoy": 3673,
      "Ġmechan": 3674,
      "âĢĶ": 3675,
      "Ġrepro": 3676,
      "atiques": 3677,
      "Ġdang": 3678,
      "oti": 3679,
      "Ġpartners": 3680,
      "oto": 3681,
      "Ġalberta": 3682,
      "Ã©ducation": 3683,
      "Ġincreasing": 3684,
      "Ġavril": 3685,
      "Ġcompon": 3686,
      "Ġoeuvre": 3687,
      "ĠfranÃ§ais": 3688,
      "Ġlangues": 3689,
      "Ġregister": 3690,
      "Ġinfrastructure": 3691,
      "Ġtechnologie": 3692,
      "Ġger": 3693,
      "ned": 3694,
      "ĠÃ©g": 3695,
      "Ġmanitoba": 3696,
      "Ġnext": 3697,
      "Ġplain": 3698,
      "Ã©ric": 3699,
      "Ġfactors": 3700,
      "Ġcontexte": 3701,
      "exercice": 3702,
      "Ġhumaines": 3703,
      "Ġcompens": 3704,
      "ĠrÃ©glementation": 3705,
      "tors": 3706,
      "Ġtableau": 3707,
      ",\"": 3708,
      "Ġaliment": 3709,
      "ends": 3710,
      "Ġharm": 3711,
      "raÃ®": 3712,
      "Ġtranspar": 3713,
      "Ġhor": 3714,
      "Ġreported": 3715,
      "occup": 3716,
      "Ġelectron": 3717,
      "ĠrÃ©v": 3718,
      "intÃ©rÃªt": 3719,
      "Ġcitiz": 3720,
      "ĠfinanciÃ¨re": 3721,
      "Ġperspec": 3722,
      "ira": 3723,
      "Ġreferred": 3724,
      "Ġpriorities": 3725,
      "Ġrelationship": 3726,
      "Ġextra": 3727,
      "Ġagreements": 3728,
      "Ġparmi": 3729,
      "Ġtoujours": 3730,
      "Ġmodifi": 3731,
      "Ġhigher": 3732,
      "Ġsens": 3733,
      "):": 3734,
      "Ġwee": 3735,
      "Ġresponsabil": 3736,
      "euille": 3737,
      "Ġbon": 3738,
      "ze": 3739,
      "ames": 3740,
      "Ġpower": 3741,
      "Ġrelation": 3742,
      "Ġguidelines": 3743,
      "Ġwww": 3744,
      "Ġaffairs": 3745,
      "Ġlignes": 3746,
      "analyse": 3747,
      "Ġinstruments": 3748,
      "Ġarm": 3749,
      "Ġrapid": 3750,
      "Ġiii": 3751,
      "ĠspÃ©cif": 3752,
      "Ġregulatory": 3753,
      "ody": 3754,
      "ĠcritÃ¨res": 3755,
      "Ġhau": 3756,
      "Ġgrant": 3757,
      "Ġfile": 3758,
      "Ġvaleurs": 3759,
      "Ġconsultations": 3760,
      "eux": 3761,
      "Ġlangue": 3762,
      "uels": 3763,
      "cas": 3764,
      "Ġprincipes": 3765,
      "lector": 3766,
      "Ġconclusions": 3767,
      "Ġps": 3768,
      "aud": 3769,
      "Ġlimit": 3770,
      "chewan": 3771,
      "Ġincludes": 3772,
      "ĠrÃ©un": 3773,
      "ious": 3774,
      "lections": 3775,
      "ĠtÃ©lÃ©": 3776,
      "Ġstatut": 3777,
      "Ġoverall": 3778,
      "ĠautoritÃ©s": 3779,
      "Ġsession": 3780,
      "gÃ©s": 3781,
      "Ġproblems": 3782,
      "ĠmÃ©thodes": 3783,
      "ĠresponsabilitÃ©": 3784,
      "Ġsuivi": 3785,
      "ĠespÃ¨ces": 3786,
      "Ġoften": 3787,
      "ouest": 3788,
      "Ġearly": 3789,
      "not": 3790,
      "Ġuti": 3791,
      "enz": 3792,
      "Ġtransportation": 3793,
      "Ġeas": 3794,
      "Ġfrench": 3795,
      "2007": 3796,
      "ĠtÃ©": 3797,
      "Ġstill": 3798,
      "Ġagents": 3799,
      "Ġrecru": 3800,
      "Ġnotes": 3801,
      "Ġax": 3802,
      "2004": 3803,
      "Ġplay": 3804,
      "Ġfournit": 3805,
      "Ġsuggest": 3806,
      "Ġpatients": 3807,
      "Ġremo": 3808,
      "df": 3809,
      "ison": 3810,
      "ked": 3811,
      "wards": 3812,
      "Ġprincipaux": 3813,
      "exploitation": 3814,
      "Ġproceed": 3815,
      "eurs": 3816,
      "istance": 3817,
      "Ġfacilit": 3818,
      "Ġpreuve": 3819,
      "Ġconcerning": 3820,
      "ĠopÃ©ration": 3821,
      "Ġpartici": 3822,
      "Ġyoun": 3823,
      "Ġatlan": 3824,
      "rique": 3825,
      "Ġsciences": 3826,
      "Ġtoget": 3827,
      "Ġtels": 3828,
      "Ġtogether": 3829,
      "Ġaudi": 3830,
      "Ġbiens": 3831,
      "Ġpublics": 3832,
      "Ġitem": 3833,
      "ritannique": 3834,
      "ĠaccÃ¨s": 3835,
      "ĠcÃ´": 3836,
      "Ġmodern": 3837,
      "Ġground": 3838,
      "Ġnombreux": 3839,
      "...": 3840,
      "ĠrÃ©union": 3841,
      "Ġq": 3842,
      "Ġdurable": 3843,
      "Ġupon": 3844,
      "Ġcharacter": 3845,
      "Ġgovernments": 3846,
      "Ġpourraient": 3847,
      "ĠsociÃ©tÃ©s": 3848,
      "Ġstake": 3849,
      "Ġoctober": 3850,
      "taires": 3851,
      "Ġinternal": 3852,
      "Ġtransf": 3853,
      "ĠÃ©conomiques": 3854,
      "agement": 3855,
      "Ġmonths": 3856,
      "Ġtes": 3857,
      "onstr": 3858,
      "goti": 3859,
      "Ġfunction": 3860,
      "ĠlÃ©gisl": 3861,
      "Ġdonner": 3862,
      "Ġnotice": 3863,
      "Ġhouse": 3864,
      "istiques": 3865,
      "Ġable": 3866,
      "Ġregarding": 3867,
      "Ġdetermine": 3868,
      "Ġpros": 3869,
      "Ġwipo": 3870,
      "Ġtop": 3871,
      "Ġopinion": 3872,
      "26": 3873,
      "titude": 3874,
      "we": 3875,
      "Ġadmis": 3876,
      "Ã©tude": 3877,
      "Ġmedia": 3878,
      "Ġsolutions": 3879,
      "bo": 3880,
      "Ġparticularly": 3881,
      "alitÃ©s": 3882,
      "utri": 3883,
      "Ġterres": 3884,
      "Ġconference": 3885,
      "Ġavaient": 3886,
      "ications": 3887,
      "Ã©cution": 3888,
      "ready": 3889,
      "itage": 3890,
      "importance": 3891,
      "entreprise": 3892,
      "Ġfree": 3893,
      "dire": 3894,
      "Ġinvestig": 3895,
      "Ġquant": 3896,
      "Ġresid": 3897,
      "Ġfut": 3898,
      "assembl": 3899,
      "Ġchalleng": 3900,
      "Ġpaid": 3901,
      "Ġlikely": 3902,
      "Ġdelivery": 3903,
      "Ġtechnique": 3904,
      "Ġunique": 3905,
      "Ġselection": 3906,
      "Ġcolumb": 3907,
      "Ġinsurance": 3908,
      "Ġpractice": 3909,
      "Ġrail": 3910,
      "Ġword": 3911,
      "Ġapplicant": 3912,
      "Ġshort": 3913,
      "08": 3914,
      "Ġtrouver": 3915,
      "Ġtransports": 3916,
      "olume": 3917,
      "Ġnegoti": 3918,
      "ologiques": 3919,
      "ĠdeuxiÃ¨me": 3920,
      "Ġvalid": 3921,
      "cles": 3922,
      "acts": 3923,
      "initi": 3924,
      "Ġniveaux": 3925,
      "Ġavantages": 3926,
      "ĠrÃ©duction": 3927,
      "ĠmontrÃ©": 3928,
      "tÃ©rÃªts": 3929,
      "Ġgouvernements": 3930,
      "Ġpermanent": 3931,
      "hom": 3932,
      "ĠÃ©tude": 3933,
      "Ġlearning": 3934,
      "Ġnovembre": 3935,
      "Ġsuivantes": 3936,
      "Ġdel": 3937,
      "Ġangl": 3938,
      "Ġchapitre": 3939,
      "ĠpÃªche": 3940,
      "Ġliber": 3941,
      "Ġincor": 3942,
      "Ġbecome": 3943,
      "ĠexpÃ©ri": 3944,
      "Ġmort": 3945,
      "Ġafric": 3946,
      "Ġpriority": 3947,
      "Ġorient": 3948,
      "Ġstre": 3949,
      "Ġcross": 3950,
      "ĠdÃ©but": 3951,
      "Ġdiscuss": 3952,
      "Ġcriteria": 3953,
      "resse": 3954,
      "Ġdimin": 3955,
      "Ġprocesses": 3956,
      "Ġexamen": 3957,
      "Ġindustrial": 3958,
      "igine": 3959,
      "institu": 3960,
      "Ġrelativement": 3961,
      "Ã©sor": 3962,
      "Ġalready": 3963,
      "aÃ®tre": 3964,
      "Ġhydro": 3965,
      "Ġmac": 3966,
      "28": 3967,
      "Ġshare": 3968,
      "Ġoctobre": 3969,
      "Ġexecu": 3970,
      "Ġnationales": 3971,
      "Ġsuivant": 3972,
      "Ġriver": 3973,
      "iller": 3974,
      "Ġfrance": 3975,
      "Ġminimum": 3976,
      "Ġmilitary": 3977,
      "Ġadopted": 3978,
      "Ġstakehol": 3979,
      "ĠliÃ©s": 3980,
      "Ġforum": 3981,
      "efficacitÃ©": 3982,
      "Ġnoted": 3983,
      "comm": 3984,
      "Ġleadership": 3985,
      "Ġreli": 3986,
      "ĠparticuliÃ¨rement": 3987,
      "Ġexpend": 3988,
      "ĠrÃ©pondre": 3989,
      "Ġinstitute": 3990,
      "Ġproportion": 3991,
      "Ã©di": 3992,
      "see": 3993,
      "Ġcolumbia": 3994,
      "cipl": 3995,
      "Ġdavantage": 3996,
      "ĠaÃ©ri": 3997,
      "Ġcompetition": 3998,
      "Ġconclusion": 3999,
      "iÃ©s": 4000,
      "orter": 4001,
      "ager": 4002,
      "Ġimportante": 4003,
      "Ġnovember": 4004,
      "Ġeither": 4005,
      "36": 4006,
      "appli": 4007,
      "Ġmc": 4008,
      "autÃ©s": 4009,
      "Ġhere": 4010,
      "tiveness": 4011,
      "Ġresource": 4012,
      "Ġdefence": 4013,
      "Ġterm": 4014,
      "Ġsaskatchewan": 4015,
      "Ġmodification": 4016,
      "aries": 4017,
      "Ġtir": 4018,
      "Ġvolume": 4019,
      "Ġmention": 4020,
      "Ġfinding": 4021,
      "Ġdoll": 4022,
      "Ġrecours": 4023,
      "Ġelig": 4024,
      "Ġfiscal": 4025,
      "99": 4026,
      "dies": 4027,
      "Ġlac": 4028,
      "Ġoutil": 4029,
      "Ġphysi": 4030,
      "Ġden": 4031,
      "Ġcourse": 4032,
      "ĠrÃ©serve": 4033,
      "inves": 4034,
      "anced": 4035,
      "ĠgÃ©": 4036,
      "Ġdernier": 4037,
      "Ġdir": 4038,
      "Ġlanguages": 4039,
      "Ġmean": 4040,
      "Ġstudents": 4041,
      "Ġvehic": 4042,
      "Ġothers": 4043,
      "dom": 4044,
      "27": 4045,
      "Ġsupply": 4046,
      "Ġadvis": 4047,
      "Ġcommen": 4048,
      "thÃ¨": 4049,
      "Ġidentify": 4050,
      "Ġprise": 4051,
      "Ġcateg": 4052,
      "Ġpatri": 4053,
      "Ġlois": 4054,
      "Ġcopy": 4055,
      "Ġprepar": 4056,
      "ĠconsÃ©quent": 4057,
      "Ġnutri": 4058,
      "Ġcompeti": 4059,
      "itions": 4060,
      "ĠmatÃ©riel": 4061,
      "old": 4062,
      "ĠrÃ©gul": 4063,
      "Ġexpendit": 4064,
      "Ġtouch": 4065,
      "Ġpharm": 4066,
      ".-": 4067,
      "Ġmondiale": 4068,
      "Ġaverage": 4069,
      "Ġlib": 4070,
      "isÃ©s": 4071,
      "Ġfigure": 4072,
      "nelle": 4073,
      "Ġpatent": 4074,
      "Ġlink": 4075,
      "Ġjuris": 4076,
      "exp": 4077,
      "Ġprocedure": 4078,
      "Ġself": 4079,
      "Ġpromote": 4080,
      "Ġparce": 4081,
      "ueill": 4082,
      "Ġworkers": 4083,
      "Ġpaper": 4084,
      "Ġcomprend": 4085,
      "21": 4086,
      "rel": 4087,
      "Ġcurrently": 4088,
      "Ġcollabor": 4089,
      "Ġchois": 4090,
      "Ġdiscrimination": 4091,
      "Ġtravailleurs": 4092,
      "Ġsurv": 4093,
      "Ġappell": 4094,
      "Ġjuly": 4095,
      "Ġdevant": 4096,
      "Ġjuillet": 4097,
      "ocation": 4098,
      "registrement": 4099,
      "Ġaider": 4100,
      "Ġfunds": 4101,
      "orie": 4102,
      "Ġporte": 4103,
      "Ġsubmitted": 4104,
      "ically": 4105,
      "ĠcommunautÃ©s": 4106,
      "Ġterror": 4107,
      "Ġresponsibility": 4108,
      "Ġpositive": 4109,
      "ĠdÃ©lai": 4110,
      "Ġstatement": 4111,
      "ley": 4112,
      "Ġprestation": 4113,
      "Ġparc": 4114,
      "Ġcontext": 4115,
      "ismes": 4116,
      "Ġpast": 4117,
      "Ġunderstanding": 4118,
      "bours": 4119,
      "Ġyoung": 4120,
      "Ġquelques": 4121,
      "ĠintÃ©ress": 4122,
      "Ġengl": 4123,
      "Ġseul": 4124,
      "iennent": 4125,
      "ĠreprÃ©sentants": 4126,
      "Ġlake": 4127,
      "Ġemission": 4128,
      "Ġmentionn": 4129,
      "Ġvalues": 4130,
      "wer": 4131,
      "Ġanalyse": 4132,
      "Ġdim": 4133,
      "eth": 4134,
      "wick": 4135,
      "ombie": 4136,
      "antill": 4137,
      "Ã¨ve": 4138,
      "Ġcompliance": 4139,
      "Ġaliments": 4140,
      "Ġdiscussions": 4141,
      "Ġrussi": 4142,
      "aign": 4143,
      "issements": 4144,
      "Ġhospital": 4145,
      "ender": 4146,
      "Ġactuellement": 4147,
      "ttes": 4148,
      "inn": 4149,
      "Ġprinciples": 4150,
      "ulaire": 4151,
      "Ġevalu": 4152,
      "Ġheritage": 4153,
      "Ġmatter": 4154,
      "ĠvÃ©": 4155,
      "aw": 4156,
      "Ġdialogue": 4157,
      "Ġsain": 4158,
      "Ġevent": 4159,
      "ĠdiffÃ©rentes": 4160,
      "Ġobjective": 4161,
      "ige": 4162,
      "Ġpublications": 4163,
      "ĠstratÃ©gique": 4164,
      "Ġdeme": 4165,
      "Ġcho": 4166,
      "urent": 4167,
      "Ġfournisse": 4168,
      "ĠfÃ©dÃ©rale": 4169,
      "ĠliÃ©es": 4170,
      "Ġfinanciers": 4171,
      "Ã©nergie": 4172,
      "Ġproch": 4173,
      "Ġsuit": 4174,
      "09": 4175,
      "ris": 4176,
      "Ġappear": 4177,
      "Ġdraft": 4178,
      "Ġ33": 4179,
      "Ġinternationales": 4180,
      "Ġsembl": 4181,
      "htm": 4182,
      "Ġ34": 4183,
      "origine": 4184,
      "Ġreach": 4185,
      "2003": 4186,
      "ĠvÃ©hic": 4187,
      "inc": 4188,
      "Ġpollu": 4189,
      "ĠprÃ¨s": 4190,
      "ompl": 4191,
      "Ġpratique": 4192,
      "ĠprogrÃ¨s": 4193,
      "ication": 4194,
      "Ġfaible": 4195,
      "Ġtele": 4196,
      "Ġunit": 4197,
      "ae": 4198,
      "Ġcomplete": 4199,
      "Ġvoie": 4200,
      "Ġmillions": 4201,
      "Ġ196": 4202,
      "dc": 4203,
      "aments": 4204,
      "ĠreÃ§u": 4205,
      "Ġrefus": 4206,
      "Ġeconomy": 4207,
      "ug": 4208,
      "29": 4209,
      "Ġregions": 4210,
      "Ġnorthern": 4211,
      "Ġsingle": 4212,
      "Ġcitizens": 4213,
      "Ġ1992": 4214,
      "Ġassembly": 4215,
      "ĠmÃ©dec": 4216,
      "Ġhon": 4217,
      "ĠproblÃ¨me": 4218,
      "ik": 4219,
      "erver": 4220,
      "Ġskills": 4221,
      "Ġscienti": 4222,
      "diction": 4223,
      "Ġterre": 4224,
      "urant": 4225,
      "Ġmaintenant": 4226,
      "Ġ1993": 4227,
      "Ġsepar": 4228,
      "ĠÃ©lectronique": 4229,
      "Ġtempor": 4230,
      "Ġresponsable": 4231,
      "Ġajou": 4232,
      "ĠsÃ©rie": 4233,
      "ways": 4234,
      "Ġcompleted": 4235,
      "Ġinnovation": 4236,
      "ĠcoÃ»t": 4237,
      "Ġfonctions": 4238,
      "cription": 4239,
      "Ġbudg": 4240,
      "ez": 4241,
      "aj": 4242,
      "Ġaffect": 4243,
      "Ġreduce": 4244,
      "Ġchef": 4245,
      "Ġplac": 4246,
      "Ġheures": 4247,
      "Ġlower": 4248,
      "Ġrenforcer": 4249,
      "Ġviolence": 4250,
      "ĠprÃ©senter": 4251,
      "Ġplut": 4252,
      "Ġ45": 4253,
      "Ġbranch": 4254,
      "Ġsignal": 4255,
      "rid": 4256,
      "ologique": 4257,
      "abilities": 4258,
      "equ": 4259,
      "alinÃ©a": 4260,
      "Ġdemonstr": 4261,
      "Ġtenir": 4262,
      "Ġagriculture": 4263,
      "Ġattention": 4264,
      "Ġprises": 4265,
      "trices": 4266,
      "icient": 4267,
      "nelles": 4268,
      "tenus": 4269,
      "arb": 4270,
      "Ġapplied": 4271,
      "Ġuntil": 4272,
      "Ġoperation": 4273,
      "org": 4274,
      "Ġdiverses": 4275,
      "Ġfarm": 4276,
      "unswick": 4277,
      "Ġisland": 4278,
      "Ġprofessional": 4279,
      "bru": 4280,
      "dis": 4281,
      "Ġrepl": 4282,
      "Ġcannot": 4283,
      "ĠlÃ©gislation": 4284,
      "Ġabil": 4285,
      "Ġsimpl": 4286,
      "ĠmÃ©thode": 4287,
      "Ġintroduction": 4288,
      "Ġconjo": 4289,
      "Ġvit": 4290,
      "Ãªmes": 4291,
      "limin": 4292,
      "ĠpossibilitÃ©": 4293,
      "ablement": 4294,
      "ancouver": 4295,
      "Ġmarine": 4296,
      "tise": 4297,
      "Ġsolution": 4298,
      "oix": 4299,
      "canad": 4300,
      "Ġcancer": 4301,
      "ĠÃ©vent": 4302,
      "Ġtarget": 4303,
      "Ġreform": 4304,
      "Ġconstitue": 4305,
      "Ġ36": 4306,
      "Ġconducted": 4307,
      "ched": 4308,
      "Ġelectronic": 4309,
      "aking": 4310,
      "Ġfamille": 4311,
      "Ġ--": 4312,
      "2002": 4313,
      "Ġconcerned": 4314,
      "Ġpursuant": 4315,
      "Ã©chelle": 4316,
      "Ġretra": 4317,
      "ouvoir": 4318,
      "iles": 4319,
      "Ġtransition": 4320,
      "Ġindustries": 4321,
      "ĠdÃ©finition": 4322,
      "ouvel": 4323,
      "Ġlutte": 4324,
      "ensive": 4325,
      "cide": 4326,
      "ĠÃ©levÃ©": 4327,
      "Ġbelie": 4328,
      "ives": 4329,
      "Ġ00": 4330,
      "Ġargu": 4331,
      "Ġsurface": 4332,
      "Ġmaximum": 4333,
      "Ġconsistent": 4334,
      "Ġder": 4335,
      "Ġcarry": 4336,
      "Ġbelow": 4337,
      "Ġmaterials": 4338,
      "Ġquar": 4339,
      "utes": 4340,
      "Ġneeded": 4341,
      "Ġworks": 4342,
      "Ġchair": 4343,
      "Ġopportunity": 4344,
      "Ġoptions": 4345,
      "Ã©vrier": 4346,
      "Ġlocation": 4347,
      "onnes": 4348,
      "Ġaffec": 4349,
      "rol": 4350,
      "Ġtrou": 4351,
      "ĠfrÃ©": 4352,
      "ciale": 4353,
      "hui": 4354,
      "ĠpÃ©n": 4355,
      "voy": 4356,
      "Ġrich": 4357,
      "Ġchoix": 4358,
      "Ġrecherches": 4359,
      "tiqu": 4360,
      "Ġjustification": 4361,
      "Ġetats": 4362,
      "Ã©tique": 4363,
      "jourd": 4364,
      "ĠplutÃ´t": 4365,
      "Ġprestations": 4366,
      "Ġcra": 4367,
      "Ġsuccessful": 4368,
      "Ġintellectuelle": 4369,
      "ĠrÃ©mun": 4370,
      "ĠpossibilitÃ©s": 4371,
      "illeurs": 4372,
      "ĠÃ©missions": 4373,
      "uter": 4374,
      "ew": 4375,
      "Ġthus": 4376,
      "Ġpresident": 4377,
      "Ġconver": 4378,
      "lation": 4379,
      "Ġdirectement": 4380,
      "mental": 4381,
      "Ġpromouvoir": 4382,
      "Ġther": 4383,
      "35": 4384,
      "Ġcoordin": 4385,
      "ĠconfÃ©rence": 4386,
      "bruary": 4387,
      "att": 4388,
      "going": 4389,
      "Ġget": 4390,
      "Ġpubliques": 4391,
      "Ġexchange": 4392,
      "Ġparticiper": 4393,
      "ĠcontrÃ´": 4394,
      "Ġdeliver": 4395,
      "Ġmach": 4396,
      "Ġgene": 4397,
      "ĠcrÃ©er": 4398,
      "Ġmariti": 4399,
      "Ġapport": 4400,
      "britannique": 4401,
      "Ġrelating": 4402,
      "Ġconseils": 4403,
      "Ġinj": 4404,
      "Ġapproche": 4405,
      "Ã©taire": 4406,
      "rant": 4407,
      "ĠtÃ©lÃ©c": 4408,
      "ering": 4409,
      "Ġincorpor": 4410,
      "Ġpresented": 4411,
      "ĠfÃ©vrier": 4412,
      "Ġbanque": 4413,
      "Ġtransfert": 4414,
      "Ġdisease": 4415,
      "Ġencourage": 4416,
      "Ġpayment": 4417,
      "Ġhaut": 4418,
      "Ġtab": 4419,
      "Ġcircum": 4420,
      "Ġcandidats": 4421,
      "Ġattend": 4422,
      "Ġcont": 4423,
      "Ã©p": 4424,
      "Ġsouth": 4425,
      "Ġfacilities": 4426,
      "Ġsubstance": 4427,
      "Ġentreprise": 4428,
      "Ġailleurs": 4429,
      "34": 4430,
      "posi": 4431,
      "ptions": 4432,
      "cepti": 4433,
      "Ġmight": 4434,
      "Ġprincipe": 4435,
      "intention": 4436,
      "Ġexiste": 4437,
      "tenance": 4438,
      "Ġmillion": 4439,
      "truction": 4440,
      "Ġcompagn": 4441,
      "exÃ©cution": 4442,
      "Ġbio": 4443,
      "Ġsensibil": 4444,
      "Ġvancouver": 4445,
      "Ġltd": 4446,
      "Ġjustif": 4447,
      "rad": 4448,
      "Ġinitial": 4449,
      "onde": 4450,
      "Ġvision": 4451,
      "Ġacquis": 4452,
      "âĢ¦âĢ¦âĢ¦âĢ¦": 4453,
      "Ġformer": 4454,
      "Ġgener": 4455,
      "Ġul": 4456,
      "ĠprÃ©sence": 4457,
      "tÃ©rieure": 4458,
      "objec": 4459,
      "Ġtools": 4460,
      "Ġintervenants": 4461,
      "Ġtelle": 4462,
      "Ġpoly": 4463,
      "198": 4464,
      "ĠprÃ©vention": 4465,
      "Ġrural": 4466,
      "Ġsociaux": 4467,
      "ĠrÃ©per": 4468,
      "Ġcam": 4469,
      "clos": 4470,
      "Ġcandidates": 4471,
      "Ġcontri": 4472,
      "rentiss": 4473,
      "ĠprÃ©occup": 4474,
      "Ġevents": 4475,
      "Ġobservations": 4476,
      "Ġdecl": 4477,
      "Ġnormal": 4478,
      "ably": 4479,
      "Ġgenerally": 4480,
      "Ġchallenges": 4481,
      "Ġdelegation": 4482,
      "ĠderniÃ¨re": 4483,
      "Ġcontrat": 4484,
      "Ġapproved": 4485,
      "ĠindiquÃ©": 4486,
      "Ġstakeholders": 4487,
      "registr": 4488,
      "Ġchercheurs": 4489,
      "acqu": 4490,
      "Ġmarque": 4491,
      "Ġlat": 4492,
      "Ġcredit": 4493,
      "Ġoutside": 4494,
      "Ġroad": 4495,
      "Ã®t": 4496,
      "Ġlequel": 4497,
      "Ġimportants": 4498,
      "Ġdirectly": 4499,
      "Ġrepresentative": 4500,
      "doc": 4501,
      "Ġfebruary": 4502,
      "cting": 4503,
      "Ġdipl": 4504,
      "elling": 4505,
      "ĠdÃ©taill": 4506,
      "fied": 4507,
      "erre": 4508,
      "Ġstructures": 4509,
      "Ġapprouv": 4510,
      "Ġportant": 4511,
      "enseign": 4512,
      "ĠÃ¢": 4513,
      "Ġemp": 4514,
      "Ã©conomie": 4515,
      "Ġissued": 4516,
      "Ġrati": 4517,
      "Ġregistration": 4518,
      "Ġprevention": 4519,
      "Ġdiver": 4520,
      "Ġ1991": 4521,
      "ĠamÃ©ric": 4522,
      "Ġcs": 4523,
      "ibility": 4524,
      "Ġput": 4525,
      "isÃ©e": 4526,
      "rentissage": 4527,
      "Ġcollection": 4528,
      "anges": 4529,
      "Ġexclus": 4530,
      "Ġtelles": 4531,
      "Ġoperational": 4532,
      "estern": 4533,
      "univers": 4534,
      "Ġrembours": 4535,
      "enquÃªte": 4536,
      "Ġexperts": 4537,
      "ĠprÃ©voit": 4538,
      "Ġprepared": 4539,
      "Ġvisit": 4540,
      "Ġsuscepti": 4541,
      "Ġachieve": 4542,
      "Ġdemander": 4543,
      "ah": 4544,
      "Ġclaire": 4545,
      "ĠutilisÃ©s": 4546,
      "Ġtu": 4547,
      "Ġmoyenne": 4548,
      "Ġscientific": 4549,
      "Ġmigr": 4550,
      "Ġcontent": 4551,
      "lier": 4552,
      "Ġaide": 4553,
      "Ġ'": 4554,
      "ĠdÃ©posÃ©": 4555,
      "atures": 4556,
      "Ġdocumentation": 4557,
      "ĠÃ©tablir": 4558,
      "ĠtÃ©mo": 4559,
      "Ġfamil": 4560,
      "Ġ37": 4561,
      "lectric": 4562,
      "Ġutiliser": 4563,
      "Ġconcerns": 4564,
      "adop": 4565,
      "impÃ´t": 4566,
      "Ġrendre": 4567,
      "Ġfair": 4568,
      "Ġdiminu": 4569,
      "Ġstrategies": 4570,
      "assemblÃ©e": 4571,
      "Ġamerican": 4572,
      "uration": 4573,
      "fr": 4574,
      "Ã¨de": 4575,
      "associ": 4576,
      "Ġking": 4577,
      "Ġpostes": 4578,
      "Ġdisponibles": 4579,
      "ĠresponsabilitÃ©s": 4580,
      "ĠÃ©tabli": 4581,
      "Ġinterview": 4582,
      "Ġchapter": 4583,
      "Ġstock": 4584,
      "Ġsearch": 4585,
      "Ġdri": 4586,
      "Ġjournal": 4587,
      "Ġcolombie": 4588,
      "Ġterritorial": 4589,
      "ĠprivÃ©": 4590,
      "Ġentit": 4591,
      "Ġconsommateurs": 4592,
      "Ġcollective": 4593,
      "Ġconsommation": 4594,
      "Ġrule": 4595,
      "pecial": 4596,
      "expÃ©ri": 4597,
      "Ġcoordonn": 4598,
      "inst": 4599,
      "Ġiv": 4600,
      "Ġfisheries": 4601,
      "Ġdit": 4602,
      "Ġsummary": 4603,
      "Ġcompet": 4604,
      "Ġterritoire": 4605,
      "ĠutilisÃ©": 4606,
      "Ġdepend": 4607,
      "Ġgive": 4608,
      "Ġinten": 4609,
      "Ġvente": 4610,
      "Ġphoto": 4611,
      "Ġsent": 4612,
      "Ġbat": 4613,
      "ĠclÃ©s": 4614,
      "anci": 4615,
      "Ġindicated": 4616,
      "Ġcorporate": 4617,
      "Ġeux": 4618,
      "ukon": 4619,
      "bert": 4620,
      "Ġharmon": 4621,
      "ĠmontrÃ©al": 4622,
      "Ġwest": 4623,
      "oration": 4624,
      "Ġexcell": 4625,
      "Ġaqu": 4626,
      "Ġfondament": 4627,
      "ĠprÃ©sentation": 4628,
      "Ġ90": 4629,
      "ef": 4630,
      "Ġsuffis": 4631,
      "uellement": 4632,
      "Ã¨ge": 4633,
      "Ġmaladies": 4634,
      "Ġzones": 4635,
      "aps": 4636,
      "Ġannexe": 4637,
      "Ġbody": 4638,
      "Ġtaking": 4639,
      "Ġsituations": 4640,
      "Ġconstitution": 4641,
      "Ġcycle": 4642,
      "Ġupd": 4643,
      "orient": 4644,
      "Ġjust": 4645,
      "Ġprimary": 4646,
      "ĠderniÃ¨res": 4647,
      "ĠstratÃ©gies": 4648,
      "Ġvise": 4649,
      "ĠentraÃ®": 4650,
      "due": 4651,
      "Ã»t": 4652,
      "Ġsmo": 4653,
      "Ġdesigned": 4654,
      "obs": 4655,
      "tine": 4656,
      "Ġsubstanti": 4657,
      "Ġloss": 4658,
      "Ġbonne": 4659,
      "Ġprice": 4660,
      "Ġpermit": 4661,
      "ĠdemandÃ©": 4662,
      "Ġpermettant": 4663,
      "ĠrÃ¨glements": 4664,
      "roÃ®tre": 4665,
      "Ġapproxim": 4666,
      "Ġmethods": 4667,
      "Ġrencon": 4668,
      "Ġoffices": 4669,
      "Ġparents": 4670,
      "ĠactivitÃ©": 4671,
      "ls": 4672,
      "Ġproblem": 4673,
      "ommunic": 4674,
      "Ġ38": 4675,
      "ĠintÃ©rÃªts": 4676,
      "ennent": 4677,
      "Ġdistric": 4678,
      "istan": 4679,
      "Ġprogramm": 4680,
      "Ġpersonnels": 4681,
      "oud": 4682,
      "ĠsecrÃ©t": 4683,
      "endi": 4684,
      "ivre": 4685,
      "Ġministers": 4686,
      "Ġtoxic": 4687,
      "Ġaccomp": 4688,
      "Ġassign": 4689,
      "Ġsomm": 4690,
      "Ġintegrated": 4691,
      "Ã©tait": 4692,
      "ynam": 4693,
      "Ġhommes": 4694,
      "ĠdÃ©lÃ©gation": 4695,
      "Ġvolun": 4696,
      "Ġfind": 4697,
      "Ġrevenue": 4698,
      "erves": 4699,
      "Ġwrit": 4700,
      "Ġdescribed": 4701,
      "come": 4702,
      "ordre": 4703,
      "ĠcapacitÃ©s": 4704,
      "âĢĳ": 4705,
      "Ġvote": 4706,
      "ĠdÃ©si": 4707,
      "Ġexten": 4708,
      "37": 4709,
      "Ġpurch": 4710,
      "reh": 4711,
      "Ġstar": 4712,
      "ĠÃ©nonc": 4713,
      "Ġcomprendre": 4714,
      "Ġtariff": 4715,
      "Ã¨rent": 4716,
      "ually": 4717,
      "Ġfaisant": 4718,
      "39": 4719,
      "tability": 4720,
      "lique": 4721,
      "ternal": 4722,
      "ĠdÃ©mon": 4723,
      "Ġouver": 4724,
      "40": 4725,
      "Ġsecretariat": 4726,
      "ĠsecrÃ©tariat": 4727,
      "Ġdirectrices": 4728,
      "Ġcommunautaires": 4729,
      "initiative": 4730,
      "Ġrenew": 4731,
      "Ġinstallations": 4732,
      "Ãªtes": 4733,
      "Ġpayments": 4734,
      "Ġpermettra": 4735,
      "Ġjap": 4736,
      "Ġpoiss": 4737,
      "ienne": 4738,
      "Ġanglais": 4739,
      "Ġenregistr": 4740,
      "Ġflu": 4741,
      "Ġrepubl": 4742,
      "moine": 4743,
      "arr": 4744,
      "Ġpark": 4745,
      "Ġremar": 4746,
      "Ġstress": 4747,
      "Ġyukon": 4748,
      "45": 4749,
      "abs": 4750,
      "incl": 4751,
      "Ġrejet": 4752,
      "Ġfew": 4753,
      "Ġextent": 4754,
      "Ġthroughout": 4755,
      "Ġcaract": 4756,
      "Ġdetermined": 4757,
      "Ġappoint": 4758,
      "Ġtarif": 4759,
      "Ġpilo": 4760,
      "Ġcity": 4761,
      "Ġqualif": 4762,
      "Ġplant": 4763,
      "Ġvisite": 4764,
      "ĠcrÃ©dit": 4765,
      "Ġchim": 4766,
      "ingu": 4767,
      "Ġbasic": 4768,
      "ĠprioritÃ©": 4769,
      "Ġrenouvel": 4770,
      "ĠsupplÃ©mentaires": 4771,
      "Ġfonctionnement": 4772,
      "esti": 4773,
      "Ġisol": 4774,
      "fc": 4775,
      "ompi": 4776,
      "Ġhistory": 4777,
      "Ġpublished": 4778,
      "Ġensemble": 4779,
      "aissance": 4780,
      "Ġeduc": 4781,
      "Ġoperating": 4782,
      "Ġamb": 4783,
      "ĠcatÃ©gorie": 4784,
      "Ġimpacts": 4785,
      "Ġprocure": 4786,
      "gÃ©es": 4787,
      "tout": 4788,
      "Ġteach": 4789,
      "Ġassociations": 4790,
      "Ġhabitat": 4791,
      "site": 4792,
      "Ġchamp": 4793,
      "2001": 4794,
      "ĠgÃ©nÃ©ralement": 4795,
      "Ġstated": 4796,
      "Ġtoday": 4797,
      "Ġability": 4798,
      "Ġconcurrence": 4799,
      "Ġdet": 4800,
      "isent": 4801,
      "Ġgrands": 4802,
      "Ġapproval": 4803,
      "Ġlu": 4804,
      "Ġplein": 4805,
      "homme": 4806,
      "ych": 4807,
      "Ġdirectives": 4808,
      "cell": 4809,
      "Ġcommitment": 4810,
      "Ġdefined": 4811,
      "Ġeaux": 4812,
      "Ġalong": 4813,
      "tit": 4814,
      "pol": 4815,
      "Ġenj": 4816,
      "Ġliens": 4817,
      "Ġcarried": 4818,
      "Ġrom": 4819,
      "ĠdÃ©s": 4820,
      "ular": 4821,
      "Ġobjectif": 4822,
      "ana": 4823,
      "Ġrather": 4824,
      "Ã©tation": 4825,
      "Ġfrancoph": 4826,
      "Ġforms": 4827,
      "Ġstatistics": 4828,
      "Ġsuppor": 4829,
      "Ġrepresentatives": 4830,
      "Ġpatrimoine": 4831,
      "Ġschedule": 4832,
      "Ġsoulign": 4833,
      "tc": 4834,
      "Ġdone": 4835,
      "Ġcolle": 4836,
      "ĠtrÃ©sor": 4837,
      "ĠreprÃ©sentant": 4838,
      "Ġvos": 4839,
      "Ġmarkets": 4840,
      "Ġpaci": 4841,
      "novation": 4842,
      "Ġsections": 4843,
      "Ġatlantic": 4844,
      "Ġraisonn": 4845,
      "ĠfinanciÃ¨res": 4846,
      "Ġagreed": 4847,
      "ĠtÃ¢": 4848,
      "Ġknown": 4849,
      "quently": 4850,
      "arc": 4851,
      "Ġmid": 4852,
      "ĠdÃ©ch": 4853,
      "Ġgens": 4854,
      "Ġtiers": 4855,
      "Ġministres": 4856,
      "amÃ©lioration": 4857,
      "Ġpositions": 4858,
      "Ġobsta": 4859,
      "Ġ80": 4860,
      "Ġnombreuses": 4861,
      "________________________________": 4862,
      "ken": 4863,
      "Ġaccompl": 4864,
      "Ġexamin": 4865,
      "crit": 4866,
      "38": 4867,
      "Ġaround": 4868,
      "Ġonce": 4869,
      "ute": 4870,
      "pecially": 4871,
      "Ġexecutive": 4872,
      "Ġsais": 4873,
      "Ġfinancier": 4874,
      "rage": 4875,
      "Ġessential": 4876,
      "keting": 4877,
      "Ġpaiement": 4878,
      "Ġaujourd": 4879,
      "Ġsafe": 4880,
      "Ġsat": 4881,
      "ĠnÃ©cessitÃ©": 4882,
      "Ġcontamin": 4883,
      "Ġreduction": 4884,
      "Ġcontinued": 4885,
      "Ġprovenant": 4886,
      "Ã©quipe": 4887,
      "Ġfort": 4888,
      "Ġsenior": 4889,
      "Ġvas": 4890,
      "Ġindependent": 4891,
      "Ġ39": 4892,
      "Ġagent": 4893,
      "Ġoccur": 4894,
      "enregistrement": 4895,
      "eaux": 4896,
      "Ġmag": 4897,
      "tissements": 4898,
      "Ġindiqu": 4899,
      "Ġhours": 4900,
      "cus": 4901,
      "Ġcontenu": 4902,
      "Ġsorte": 4903,
      "Ġforward": 4904,
      "Ġtraditional": 4905,
      "Ġconsideration": 4906,
      "apprentissage": 4907,
      "uite": 4908,
      "Ġpropre": 4909,
      "Ġemb": 4910,
      "enf": 4911,
      "effec": 4912,
      "ĠdÃ©pÃ´t": 4913,
      "Ġcc": 4914,
      "Ġconflic": 4915,
      "Ġdemocra": 4916,
      "Ġgerman": 4917,
      "Ġvacc": 4918,
      "31": 4919,
      "Ġreceive": 4920,
      "Ġmaladie": 4921,
      "ĠdÃ©clarÃ©": 4922,
      "active": 4923,
      "enseignement": 4924,
      "Ġconven": 4925,
      "Ġrepublic": 4926,
      "Ġtransmission": 4927,
      "ĠnÃ©": 4928,
      "Ġrelatifs": 4929,
      "Ġcommiss": 4930,
      "Ġexternal": 4931,
      "Ġenglish": 4932,
      "Ġawar": 4933,
      "ider": 4934,
      "Ġauton": 4935,
      "appui": 4936,
      "oid": 4937,
      "Ġconcentrations": 4938,
      "na": 4939,
      "Ġrequires": 4940,
      "times": 4941,
      "sec": 4942,
      "Ġdess": 4943,
      "67": 4944,
      "isÃ©es": 4945,
      "anes": 4946,
      "ĠÃ©gard": 4947,
      "Ġelements": 4948,
      "craft": 4949,
      "Ġaug": 4950,
      "ĠlimitÃ©": 4951,
      "Ġchemical": 4952,
      "iff": 4953,
      "Ġresolution": 4954,
      "Ġconcentration": 4955,
      "Ġcustoms": 4956,
      "govern": 4957,
      "Ġresponsibilities": 4958,
      "Ġarrangements": 4959,
      "Ġlegisl": 4960,
      "ĠÃ©quip": 4961,
      "Ġvoyage": 4962,
      "Ã©rable": 4963,
      "iency": 4964,
      "uni": 4965,
      "Ã¡Ã¡": 4966,
      "Ġlack": 4967,
      "ustral": 4968,
      "Ġmeetings": 4969,
      "Ġdeg": 4970,
      "umul": 4971,
      "Ġenvis": 4972,
      "Ġbur": 4973,
      "ĠmÃ©dicaments": 4974,
      "Ġreasons": 4975,
      "Ġscre": 4976,
      "comes": 4977,
      "Ġconfl": 4978,
      "Ġrecords": 4979,
      "Ġdefinition": 4980,
      "Ġawareness": 4981,
      "Ġrevenus": 4982,
      "Ġappellant": 4983,
      "Ġpropres": 4984,
      "Ġtiss": 4985,
      "Ġide": 4986,
      "Ġcompreh": 4987,
      "ĠconformitÃ©": 4988,
      "Ġethn": 4989,
      "Ġphysical": 4990,
      "gÃ©e": 4991,
      "year": 4992,
      "Ġsectors": 4993,
      "Ġfinance": 4994,
      "Ġconsumer": 4995,
      "Ġoffre": 4996,
      "Ġformat": 4997,
      "ensus": 4998,
      "osy": 4999,
      "Ġpartenariat": 5000,
      "atoires": 5001,
      "Ġwestern": 5002,
      "Ġflex": 5003,
      "Ġ,": 5004,
      "ĠdÃ©mocra": 5005,
      "Ġemploi": 5006,
      "Ġcitoyens": 5007,
      "Ġ95": 5008,
      "dp": 5009,
      "ĠÃ©tablissements": 5010,
      "Ġmanif": 5011,
      "Ġchief": 5012,
      "Ġdepartmental": 5013,
      "Ġarb": 5014,
      "Ġprivacy": 5015,
      "Ġrisks": 5016,
      "uded": 5017,
      "Ġregistered": 5018,
      "Ġos": 5019,
      "ĠÃ©valuer": 5020,
      "Ġmaintenance": 5021,
      "Ġpropositions": 5022,
      "Ġaurait": 5023,
      "ey": 5024,
      "jud": 5025,
      "ising": 5026,
      "igence": 5027,
      "omes": 5028,
      "ops": 5029,
      "Ġresponsables": 5030,
      "Ġplease": 5031,
      "Ġconcept": 5032,
      "Ġdiss": 5033,
      "Ġemployer": 5034,
      "2000": 5035,
      "Ġfaciliter": 5036,
      "agnos": 5037,
      "Ġjam": 5038,
      "ĠprÃ©vues": 5039,
      "Ġcircumstances": 5040,
      "Ġaccr": 5041,
      "Ġsaint": 5042,
      "Ġannoun": 5043,
      "Ġbegin": 5044,
      "Ġgri": 5045,
      "Ġcreate": 5046,
      "Ġtowards": 5047,
      "Ġtimes": 5048,
      "Ġfavoriser": 5049,
      "habit": 5050,
      "Ġcab": 5051,
      "Ġliqu": 5052,
      "Ġinterests": 5053,
      "Ġintended": 5054,
      "ĠfÃ©dÃ©raux": 5055,
      "Ġdossier": 5056,
      "avoir": 5057,
      "Ġvul": 5058,
      "Ġdig": 5059,
      "Ġstor": 5060,
      "Ġassum": 5061,
      "Ġclimate": 5062,
      "Ġaward": 5063,
      "Ġespecially": 5064,
      "uelles": 5065,
      "Ġefficient": 5066,
      "ĠprotÃ©ger": 5067,
      "emn": 5068,
      "Ġenforcement": 5069,
      "Ġic": 5070,
      "expÃ©rience": 5071,
      "Ġconstat": 5072,
      "49": 5073,
      "gar": 5074,
      "enda": 5075,
      "Ġeligible": 5076,
      "aisse": 5077,
      "Ġmontre": 5078,
      "uits": 5079,
      "isations": 5080,
      "Ġgrandes": 5081,
      "Ġfo": 5082,
      "Ġcontain": 5083,
      "Ġoutils": 5084,
      "Ġrequirement": 5085,
      "Ġdynam": 5086,
      "Ġproposals": 5087,
      "amÃ©liorer": 5088,
      "ired": 5089,
      "ony": 5090,
      "cad": 5091,
      "Ġroyal": 5092,
      "ĠmatiÃ¨res": 5093,
      "Ġoil": 5094,
      "veur": 5095,
      "cident": 5096,
      "endix": 5097,
      "Ġuk": 5098,
      "Ġpack": 5099,
      "Ġamendments": 5100,
      "Ġinternationaux": 5101,
      "Ġacad": 5102,
      "alf": 5103,
      "Ġasi": 5104,
      "Ġcharter": 5105,
      "ĠstratÃ©giques": 5106,
      "Ġaircraft": 5107,
      "zed": 5108,
      "Ġlight": 5109,
      "Ġemissions": 5110,
      "Ġsurtout": 5111,
      "ĠrÃ¨gle": 5112,
      "tier": 5113,
      "Ġweek": 5114,
      "exper": 5115,
      "ĠdÃ¨s": 5116,
      "Ġchacun": 5117,
      "Ġfinances": 5118,
      "eront": 5119,
      "Ġcrime": 5120,
      "Ġgreen": 5121,
      "ĠbÃ©nÃ©fici": 5122,
      "Ġtreas": 5123,
      "ĠcaractÃ©ristiques": 5124,
      "Ġcomptes": 5125,
      "Ġ75": 5126,
      "Ã©th": 5127,
      "Ġimmigr": 5128,
      "Ġenterpr": 5129,
      "letin": 5130,
      "Ġsize": 5131,
      "Ġmandate": 5132,
      "innovation": 5133,
      "Ġquand": 5134,
      "Ġconsent": 5135,
      "investissement": 5136,
      "oÃ»t": 5137,
      "Ġrappor": 5138,
      "%)": 5139,
      "Ġpct": 5140,
      "Ġ32": 5141,
      "Ġart": 5142,
      "aster": 5143,
      "Ġterritoires": 5144,
      "applique": 5145,
      "Ġservir": 5146,
      "Ġconsol": 5147,
      "tait": 5148,
      "Ġestablishment": 5149,
      "ĠfrÃ©qu": 5150,
      "Ġneu": 5151,
      "Ġinvent": 5152,
      "Ġclaims": 5153,
      "Ġforest": 5154,
      "Ġcomments": 5155,
      "Ġenvironnementale": 5156,
      "tivity": 5157,
      "Ġdollars": 5158,
      "Ġlaun": 5159,
      "Ġment": 5160,
      "Ġcompensation": 5161,
      "Ġkeep": 5162,
      "hÃ©": 5163,
      "Ġjuridique": 5164,
      "48": 5165,
      "Ġsan": 5166,
      "Ġacid": 5167,
      "Ġcontribute": 5168,
      "export": 5169,
      "ĠministÃ©ri": 5170,
      "intes": 5171,
      "Ġenqu": 5172,
      "Ã¢ge": 5173,
      "Ġdiagnos": 5174,
      "Ġmarketing": 5175,
      "Ġcustom": 5176,
      "Ġconfidenti": 5177,
      "Ġlocaux": 5178,
      "ĠrÃ©publ": 5179,
      "bers": 5180,
      "aÃ®t": 5181,
      "Ġscope": 5182,
      "Ġscientifiques": 5183,
      "ĠmÃ©dias": 5184,
      "95": 5185,
      "puty": 5186,
      "Ġfabrication": 5187,
      "Ġmix": 5188,
      "ĠsuccÃ¨s": 5189,
      "ĠrÃ©gional": 5190,
      "Ġprevent": 5191,
      "Ġofficielles": 5192,
      "Ġait": 5193,
      "Ġwaste": 5194,
      "Ġperf": 5195,
      "ĠrÃ©sum": 5196,
      "intÃ©gration": 5197,
      "ĠprÃ©paration": 5198,
      "Ġwat": 5199,
      "Ġbay": 5200,
      "Ġdonne": 5201,
      "Ġfully": 5202,
      "Ġfeed": 5203,
      "ĠrÃ©al": 5204,
      "Ġmutu": 5205,
      "inted": 5206,
      "Ġ70": 5207,
      "Ġdisclos": 5208,
      "bation": 5209,
      "Ġsufficient": 5210,
      "Ġlingu": 5211,
      "iÃ©e": 5212,
      "Ġmich": 5213,
      "Ġbill": 5214,
      "objectif": 5215,
      "Ġsett": 5216,
      "Ġmanner": 5217,
      "Ġprofessionnels": 5218,
      "organisme": 5219,
      "Ġanci": 5220,
      "Ġleave": 5221,
      "Ġpollution": 5222,
      "col": 5223,
      "Ġintellectual": 5224,
      "Ġdeputy": 5225,
      "Ġcommentaires": 5226,
      "ung": 5227,
      "Ġbou": 5228,
      "Ġtests": 5229,
      "Ġarts": 5230,
      "Ġconsulta": 5231,
      "Ġcreated": 5232,
      "Ġtrop": 5233,
      "Ġhiv": 5234,
      "Ġcomprehensive": 5235,
      "Ġlum": 5236,
      "Ġbring": 5237,
      "Ġimmedi": 5238,
      "Ġlin": 5239,
      "Ġriv": 5240,
      "Ġliving": 5241,
      "Ã§u": 5242,
      "Ġinstrument": 5243,
      "46": 5244,
      "ĠproposÃ©": 5245,
      "vin": 5246,
      "Ġclearly": 5247,
      "Ġcritical": 5248,
      "Ġwritten": 5249,
      "Ġbulletin": 5250,
      "Ġprinciple": 5251,
      "Ġcommissioner": 5252,
      "oxy": 5253,
      "ĠprÃ©vu": 5254,
      "augment": 5255,
      "47": 5256,
      "Ġol": 5257,
      "Ġadvice": 5258,
      "Ġproduced": 5259,
      "ason": 5260,
      "Ġpsych": 5261,
      "ĠprÃ©sentÃ©": 5262,
      "phas": 5263,
      "Ġdetailed": 5264,
      "Ġformulaire": 5265,
      "Ġimproved": 5266,
      "Ġbehav": 5267,
      "Ġstation": 5268,
      "Ġamerica": 5269,
      "Ġcouver": 5270,
      "Ġnews": 5271,
      "Ġdossiers": 5272,
      "Ġtexte": 5273,
      "Ġoption": 5274,
      "Ġbor": 5275,
      "Ġaugust": 5276,
      "Ġmissions": 5277,
      "Ġfeu": 5278,
      "Ġrac": 5279,
      "Ġmex": 5280,
      "Ġadequ": 5281,
      "Ġville": 5282,
      "kes": 5283,
      "ĠcollectivitÃ©": 5284,
      "Ġpied": 5285,
      "Ġequal": 5286,
      "Ġsemble": 5287,
      "Ġtot": 5288,
      "universitÃ©": 5289,
      "Ġdistrict": 5290,
      "ĠrÃ©publique": 5291,
      "entrÃ©e": 5292,
      "ĠrÃ©d": 5293,
      "Ġ48": 5294,
      "Ġparts": 5295,
      "ibilitÃ©": 5296,
      "Ġthough": 5297,
      "Ġpanel": 5298,
      "fa": 5299,
      "Ġconsac": 5300,
      "Ġsoc": 5301,
      "auteur": 5302,
      "ĠmodÃ¨les": 5303,
      "ws": 5304,
      "Ġexperien": 5305,
      "uff": 5306,
      "ored": 5307,
      "Ġindian": 5308,
      "Ġguar": 5309,
      "90": 5310,
      "Ġappendix": 5311,
      "buted": 5312,
      "Ġconvient": 5313,
      "Ġprescri": 5314,
      "ĠrÃ©seaux": 5315,
      "Ġchec": 5316,
      "Ġpaiements": 5317,
      "Ġprocessing": 5318,
      "Ġactuelle": 5319,
      "Ġofficers": 5320,
      "Ġdam": 5321,
      "ĠrÃ©munÃ©ration": 5322,
      "know": 5323,
      "urÃ©": 5324,
      "Ġunies": 5325,
      "Ġrelig": 5326,
      "Ġbalance": 5327,
      "Ġap": 5328,
      "Ġpourcent": 5329,
      "Ġrelease": 5330,
      "dessus": 5331,
      "Ġmaintain": 5332,
      "Ġhim": 5333,
      "Ġlater": 5334,
      "Ġengine": 5335,
      "ennes": 5336,
      "Ġlonger": 5337,
      "ĠdÃ©t": 5338,
      "Ġrecueill": 5339,
      "oth": 5340,
      "Ġpal": 5341,
      "ĠsÃ»": 5342,
      "Ġsimple": 5343,
      "Ã©trang": 5344,
      "Ġwant": 5345,
      "ĠindÃ©pend": 5346,
      "Ġdiscipl": 5347,
      "adap": 5348,
      "Ġbra": 5349,
      "ĠcompÃ©tence": 5350,
      "Ġorganisme": 5351,
      "istique": 5352,
      "ateral": 5353,
      "Ġannuel": 5354,
      "association": 5355,
      "Ġclari": 5356,
      "atively": 5357,
      "Ã¨nes": 5358,
      "Ġtreasury": 5359,
      "imm": 5360,
      "ĠbÃ¢": 5361,
      "97": 5362,
      "Ġinfec": 5363,
      "related": 5364,
      "Ġmanagers": 5365,
      "Ġongoing": 5366,
      "ark": 5367,
      "Ġdrog": 5368,
      "Ġadult": 5369,
      "Ġindique": 5370,
      "rador": 5371,
      "Ġtravailler": 5372,
      "Ġinfluence": 5373,
      "aliment": 5374,
      "Ġensuite": 5375,
      "blio": 5376,
      "ĠmÃ©canismes": 5377,
      "Ġguerre": 5378,
      "Ġseule": 5379,
      "Ġcompared": 5380,
      "Ġtask": 5381,
      "Ġinterp": 5382,
      "gent": 5383,
      "66": 5384,
      "Ġimportantes": 5385,
      "Ġsommes": 5386,
      "Ġtal": 5387,
      "Ġvice": 5388,
      "Ġconnex": 5389,
      "Ġwhole": 5390,
      "erson": 5391,
      "Ġprim": 5392,
      "ging": 5393,
      "Ġ85": 5394,
      "Ġdetails": 5395,
      "Ġassu": 5396,
      "Ġintegration": 5397,
      "Ġbord": 5398,
      "Ġprincipales": 5399,
      "Ġfail": 5400,
      "ommunications": 5401,
      "Ġraisons": 5402,
      "gement": 5403,
      "Ġhous": 5404,
      "prÃ©tation": 5405,
      "ground": 5406,
      "Ġvolon": 5407,
      "Ġsales": 5408,
      "Ġcome": 5409,
      "Ġconception": 5410,
      "obtenir": 5411,
      "Ġinqu": 5412,
      "Ġsupported": 5413,
      "Ġflow": 5414,
      "inary": 5415,
      "Ġcouns": 5416,
      "mettre": 5417,
      "Ġserious": 5418,
      "den": 5419,
      "Ġreste": 5420,
      "Ġru": 5421,
      "Ã¨le": 5422,
      "Ġauxqu": 5423,
      "Ġensuring": 5424,
      "Ġconnaissance": 5425,
      "Ġexpertise": 5426,
      "Ġsatisfaction": 5427,
      "mping": 5428,
      "33": 5429,
      "Ġresearchers": 5430,
      "Ġmunicipal": 5431,
      "Ġmatters": 5432,
      "Ġsubse": 5433,
      "Ġasked": 5434,
      "Ġwild": 5435,
      "Ġbroadcas": 5436,
      "isms": 5437,
      "Ġmedic": 5438,
      "Ġoriginal": 5439,
      "Ġcriminal": 5440,
      "ĠaoÃ»t": 5441,
      "Ġdatab": 5442,
      "Ġveuille": 5443,
      "right": 5444,
      "ĠÃ©tudiants": 5445,
      "Ġrecommandation": 5446,
      "Ġcandidate": 5447,
      "inform": 5448,
      "lemen": 5449,
      "Ġfri": 5450,
      "Ġsusp": 5451,
      "Ġmeilleure": 5452,
      "Ġmg": 5453,
      "Ġnun": 5454,
      "mosph": 5455,
      "Ã©quip": 5456,
      "ductions": 5457,
      "Ġwind": 5458,
      "Ġimplemented": 5459,
      "Ġinvestigation": 5460,
      "titul": 5461,
      "rement": 5462,
      "ĠrÃ©sultat": 5463,
      "Ġcur": 5464,
      "Ġ44": 5465,
      "Ġnavig": 5466,
      "mise": 5467,
      "da": 5468,
      "Ġaccords": 5469,
      "ĠcaractÃ¨re": 5470,
      "Ġspend": 5471,
      "Ġcm": 5472,
      "ocks": 5473,
      "Ġveuillez": 5474,
      "Ġdecre": 5475,
      "diff": 5476,
      "Ġways": 5477,
      "ida": 5478,
      "Ġlanc": 5479,
      "Ġtaxes": 5480,
      "Ġ1987": 5481,
      "Ġlesquels": 5482,
      "Ġcentrale": 5483,
      "Ġstrengthen": 5484,
      "Ġremplac": 5485,
      "Ġtaxe": 5486,
      "Ġproducteurs": 5487,
      "Ġmilitaire": 5488,
      "Ġparticuliers": 5489,
      "Ġviv": 5490,
      "Ġscol": 5491,
      "Ã©tranger": 5492,
      "Ġbiblio": 5493,
      "Ġadded": 5494,
      "Ġclairement": 5495,
      "Ġletter": 5496,
      "elves": 5497,
      "Ġusers": 5498,
      "ĠÃ©p": 5499,
      "Ġagricultural": 5500,
      "Ġrespective": 5501,
      "Ġutilisation": 5502,
      "ĠrÃ©solution": 5503,
      "Ġrecommendation": 5504,
      "ĠÃ©crit": 5505,
      "ctive": 5506,
      "Ġfire": 5507,
      "Ġalternative": 5508,
      "Ġartis": 5509,
      "Ġdesignated": 5510,
      "Ġ65": 5511,
      "98": 5512,
      "ares": 5513,
      "Ġ55": 5514,
      "Ġtrust": 5515,
      "Ġaugmentation": 5516,
      "Ġdepos": 5517,
      "aa": 5518,
      "Ġperspective": 5519,
      "2008": 5520,
      "Ġinuit": 5521,
      "Ġlibre": 5522,
      "Ġcommuniquer": 5523,
      "izing": 5524,
      "rs": 5525,
      "water": 5526,
      "Ġox": 5527,
      "Ġprotect": 5528,
      "Ġexercise": 5529,
      "Ġstim": 5530,
      "ĠvÃ©hicules": 5531,
      "Ã©tablir": 5532,
      "ĠrÃ©unions": 5533,
      "Ġregular": 5534,
      "ĠdÃ©crit": 5535,
      "ĠÃ©lÃ©ment": 5536,
      "Ġtrouve": 5537,
      "Ġtransformation": 5538,
      "Ġexcep": 5539,
      "Ġadoption": 5540,
      "Ġoce": 5541,
      "ĠpÃªches": 5542,
      "Ġreduced": 5543,
      "tables": 5544,
      "Ġprend": 5545,
      "Ġcontracting": 5546,
      "Ġengagement": 5547,
      "Ġemphas": 5548,
      "overy": 5549,
      "Ġcult": 5550,
      "Ġbrevets": 5551,
      "Ġtaille": 5552,
      "Ġinstructions": 5553,
      "Ġenhance": 5554,
      "Ġsuivante": 5555,
      "vous": 5556,
      "Ġroute": 5557,
      "Ã©rences": 5558,
      "Ġcapit": 5559,
      "onses": 5560,
      "Ġestimates": 5561,
      "Ġtesting": 5562,
      "ĠrÃ©alisation": 5563,
      "Ġdomin": 5564,
      "Ġconclu": 5565,
      "Ġdix": 5566,
      "ffic": 5567,
      "Ġformal": 5568,
      "Ġaccountability": 5569,
      "Ã©rÃ©s": 5570,
      "Ġcru": 5571,
      "Ġmobil": 5572,
      "Ġlettre": 5573,
      "Ġdiffusion": 5574,
      "Ġrelatif": 5575,
      "usse": 5576,
      "ĠpÃ©": 5577,
      "Ġbir": 5578,
      "Ġsuc": 5579,
      "Ġvra": 5580,
      "Ġquelle": 5581,
      "rite": 5582,
      "Ġprofit": 5583,
      "cie": 5584,
      "Ġmou": 5585,
      "Ġtransactions": 5586,
      "Ġfindings": 5587,
      "--------": 5588,
      "Ã©valu": 5589,
      "uding": 5590,
      "Ġbuild": 5591,
      "rer": 5592,
      "ĠprÃ©cis": 5593,
      "Ġcreation": 5594,
      "sibilitÃ©": 5595,
      "bourg": 5596,
      "iii": 5597,
      "ĠreprÃ©sente": 5598,
      "Ġelection": 5599,
      "Ġoutcomes": 5600,
      "Ġrapporteur": 5601,
      "ariats": 5602,
      "Ġfonctionnaires": 5603,
      "ĠdÃ©pend": 5604,
      "Ġavez": 5605,
      "Ġ?": 5606,
      "ĠexÃ©cu": 5607,
      "Ġmuse": 5608,
      "bes": 5609,
      "Ġentitled": 5610,
      "mÃ©di": 5611,
      "Ġgradu": 5612,
      "Ġlesquelles": 5613,
      "Ġdrugs": 5614,
      "Ġalli": 5615,
      "Ġstage": 5616,
      "Ġmilitaires": 5617,
      "Ġcivile": 5618,
      "adoption": 5619,
      "Ġappare": 5620,
      "Ġworksh": 5621,
      "Ġbehalf": 5622,
      "ducing": 5623,
      "ĠdiversitÃ©": 5624,
      "Ġsupporting": 5625,
      "most": 5626,
      "Ġexpri": 5627,
      "Ġreasonable": 5628,
      "Ġmaritime": 5629,
      "Ġcalled": 5630,
      "Ġemergency": 5631,
      "Ġexhib": 5632,
      "Ġep": 5633,
      "Ġled": 5634,
      "Ġfaits": 5635,
      "Ġadvisory": 5636,
      "indi": 5637,
      "Ġidentification": 5638,
      "Ġtranspor": 5639,
      "ĠrÃ©ponses": 5640,
      "riv": 5641,
      "urgence": 5642,
      "Ġprotocole": 5643,
      "ĠadoptÃ©": 5644,
      "Ġlibr": 5645,
      "Ġprovinciaux": 5646,
      "Ġfich": 5647,
      "Ġgestionnaires": 5648,
      "Ġmajority": 5649,
      "Ġfron": 5650,
      "Ġestime": 5651,
      "Ġconstituent": 5652,
      "Ġapproximately": 5653,
      "Ġship": 5654,
      "ĠmajoritÃ©": 5655,
      "Ġspecified": 5656,
      "Ġgoals": 5657,
      "Ġclasse": 5658,
      "Ġtard": 5659,
      "Ġlittle": 5660,
      "lementing": 5661,
      "Ġeffectiveness": 5662,
      "Ġduties": 5663,
      "Ġaffected": 5664,
      "ived": 5665,
      "ĠdÃ©liv": 5666,
      "son": 5667,
      "Ġinvestissements": 5668,
      "Ġterritories": 5669,
      "Ġtps": 5670,
      "ueil": 5671,
      "avenir": 5672,
      "dra": 5673,
      "Ġjudici": 5674,
      "Ġparam": 5675,
      "Ġtext": 5676,
      "Ã¨tres": 5677,
      "Ġrestrictions": 5678,
      "Ġnunav": 5679,
      "75": 5680,
      "Ġpeace": 5681,
      "wg": 5682,
      "ĠenquÃªte": 5683,
      "gne": 5684,
      "Ġplanned": 5685,
      "Ġturn": 5686,
      "Ġnever": 5687,
      "Ġpourcentage": 5688,
      "ĠportÃ©e": 5689,
      "Ġprog": 5690,
      "44": 5691,
      "Ġvia": 5692,
      "Ġdisposi": 5693,
      "intÃ©rieur": 5694,
      "auv": 5695,
      "istic": 5696,
      "Ġenable": 5697,
      "agric": 5698,
      "dÃ©": 5699,
      "ĠdÃ©fis": 5700,
      "Ġrequested": 5701,
      "ĠspÃ©cifiques": 5702,
      "Ġfiled": 5703,
      "Ġprincipalement": 5704,
      "cussions": 5705,
      "Ġassets": 5706,
      "eneurs": 5707,
      "Ġgender": 5708,
      "xx": 5709,
      "Ġexpenses": 5710,
      "Ġenvoy": 5711,
      "ĠimmÃ©di": 5712,
      "Ġdegree": 5713,
      "Ġquelque": 5714,
      "Ġinterne": 5715,
      "Ã©tiques": 5716,
      "Ġitself": 5717,
      "Ġcompter": 5718,
      "Ġcombat": 5719,
      "Ġobligation": 5720,
      "otechn": 5721,
      "Ġparta": 5722,
      "Ġobtained": 5723,
      "Ġagenda": 5724,
      "Ġpartner": 5725,
      "ĠcatÃ©gories": 5726,
      "Ġoly": 5727,
      "row": 5728,
      "Ġscientifique": 5729,
      "Ġavoid": 5730,
      "Ġimproving": 5731,
      "ori": 5732,
      "rou": 5733,
      "ash": 5734,
      "Ġcovered": 5735,
      "Ġlimites": 5736,
      "Ġobjet": 5737,
      "32": 5738,
      "cipient": 5739,
      "activitÃ©s": 5740,
      "Ġexpand": 5741,
      "Ġpetites": 5742,
      "Ġprices": 5743,
      "Ġouv": 5744,
      "ĠprÃ©vue": 5745,
      "Ã©taires": 5746,
      "ico": 5747,
      "atta": 5748,
      "Ġconsiste": 5749,
      "html": 5750,
      "atric": 5751,
      "Ġundertaking": 5752,
      "temps": 5753,
      "Ġolymp": 5754,
      "Ġseries": 5755,
      "Ġmuseum": 5756,
      "aume": 5757,
      "ga": 5758,
      "Ġber": 5759,
      "Ġmove": 5760,
      "nd": 5761,
      "mobil": 5762,
      "Ġpatient": 5763,
      "Ġvoul": 5764,
      "Ġtob": 5765,
      "Ġregistr": 5766,
      "Ġexposure": 5767,
      "Ġuni": 5768,
      "Ġvariety": 5769,
      "Ġfaveur": 5770,
      "Ġactual": 5771,
      "Ġexceed": 5772,
      "Ġmessage": 5773,
      "ney": 5774,
      "Ġconsolid": 5775,
      "Ġexer": 5776,
      "Ġexamine": 5777,
      "Ġyet": 5778,
      "imes": 5779,
      "Ġfees": 5780,
      "Ġgovernance": 5781,
      "Ġhandic": 5782,
      "lectoral": 5783,
      "Ġsetting": 5784,
      "itr": 5785,
      "Ġindire": 5786,
      "ank": 5787,
      "Ġimplementing": 5788,
      "ĠÃ©chÃ©": 5789,
      "Ġconcep": 5790,
      "Ġdifferences": 5791,
      "Ġbehavi": 5792,
      "Ġ)": 5793,
      "plois": 5794,
      "Ġindicators": 5795,
      "adresse": 5796,
      "Ã©tudes": 5797,
      "Ġmaintien": 5798,
      "Ġhoriz": 5799,
      "Ġmoney": 5800,
      "Ġscoti": 5801,
      "Ġ41": 5802,
      "Ġlook": 5803,
      "Ġ01": 5804,
      "Ġaccessible": 5805,
      "ĠÃ©vÃ©n": 5806,
      "Ġchron": 5807,
      "Ġindicate": 5808,
      "ĠdÃ»": 5809,
      "Ġintervention": 5810,
      "88": 5811,
      "Ġpermettent": 5812,
      "Ġreflect": 5813,
      "Ġdan": 5814,
      "Ã©galitÃ©": 5815,
      "Ġenfin": 5816,
      "Ġpartenariats": 5817,
      "Ġcircon": 5818,
      "Ġcompagnie": 5819,
      "Ġlimite": 5820,
      "Ġcontribuer": 5821,
      "Ġincidence": 5822,
      "Ġinstance": 5823,
      "Ġexception": 5824,
      "Ġdestination": 5825,
      "Ġlegislative": 5826,
      "Ġcomponent": 5827,
      "Ġfisc": 5828,
      "occasion": 5829,
      "Ġproceedings": 5830,
      "nÃ©s": 5831,
      "Ġoccasion": 5832,
      "Ġfournisseurs": 5833,
      "Ġfactor": 5834,
      "Ġamended": 5835,
      "Ġgam": 5836,
      "Ġexplain": 5837,
      "ipp": 5838,
      "Ġguarante": 5839,
      "Ġrapidement": 5840,
      "ns": 5841,
      "Ġtemp": 5842,
      "Ġclose": 5843,
      "Ġdeclar": 5844,
      "Ġrang": 5845,
      "Ġlien": 5846,
      "mont": 5847,
      "Ġtitle": 5848,
      "eure": 5849,
      "inde": 5850,
      "life": 5851,
      "Ġdifficile": 5852,
      "Ġrc": 5853,
      "Ġsold": 5854,
      "amment": 5855,
      "Ġshown": 5856,
      "Ġappliqu": 5857,
      "Ġfais": 5858,
      "Ġfavour": 5859,
      "Ġhearing": 5860,
      "Ġgain": 5861,
      "ring": 5862,
      "Ġtransform": 5863,
      "Ġsound": 5864,
      "Ġdivul": 5865,
      "mark": 5866,
      "Ġalloc": 5867,
      "agent": 5868,
      "Ġofficials": 5869,
      "Ġpouvoirs": 5870,
      "Ġurban": 5871,
      "Ġpath": 5872,
      "trer": 5873,
      "istics": 5874,
      "Ġarchives": 5875,
      "Ġengagements": 5876,
      "Ġ\\": 5877,
      "Ġjuge": 5878,
      "Ġfamilies": 5879,
      "Ġfacilitate": 5880,
      "Ġcommerciales": 5881,
      "Ġsea": 5882,
      "Ġfid": 5883,
      "Ġtook": 5884,
      "Ġparticipate": 5885,
      "ĠmÃªmes": 5886,
      "Ġreserve": 5887,
      "canada": 5888,
      "Ġfollows": 5889,
      "erie": 5890,
      "ĠlÃł": 5891,
      "Ġsolid": 5892,
      "Ġbc": 5893,
      "Ġvih": 5894,
      "Ġinterventions": 5895,
      "Ġuniquement": 5896,
      "Ġexpressed": 5897,
      "ĠdÃ©mar": 5898,
      "ruption": 5899,
      "ĠÂ·": 5900,
      "Ġaustral": 5901,
      "Ã¨tes": 5902,
      "Ġbis": 5903,
      "Ġinterpret": 5904,
      "Ġparcs": 5905,
      "Ġnomination": 5906,
      "ĠrÃ©percussions": 5907,
      "Ġintitul": 5908,
      "bc": 5909,
      "Ġdiversity": 5910,
      "Ġpartnerships": 5911,
      "Ġkm": 5912,
      "andis": 5913,
      "Ġcorrection": 5914,
      "Ġwhose": 5915,
      "Ġwebsite": 5916,
      "Ġtraffic": 5917,
      "Ġmm": 5918,
      "wise": 5919,
      "Ġconnexes": 5920,
      "ĠsupÃ©rieur": 5921,
      "Ġadjust": 5922,
      "Ġlocated": 5923,
      "gi": 5924,
      "Ġsubventions": 5925,
      "Ġfoundation": 5926,
      "55": 5927,
      "Ġcomposition": 5928,
      "Ġdisponible": 5929,
      "Ġprohib": 5930,
      "Ġbodies": 5931,
      "Ġath": 5932,
      "Ġproduire": 5933,
      "Ġcultures": 5934,
      "dr": 5935,
      "yle": 5936,
      "Ġprime": 5937,
      "Ġcomplaint": 5938,
      "absence": 5939,
      "Ġcertification": 5940,
      "Ġpuisque": 5941,
      "Ġenseign": 5942,
      "Ġaddressed": 5943,
      "erse": 5944,
      "Ġinformed": 5945,
      "Ġcomporte": 5946,
      "Ġmode": 5947,
      "Ġwood": 5948,
      "Ġspace": 5949,
      "Ġwords": 5950,
      "Ġwish": 5951,
      "ifications": 5952,
      "Ġmaintenir": 5953,
      "Ġtenue": 5954,
      "ĠÃ©tro": 5955,
      "ĠutilisÃ©es": 5956,
      "Ġimmigration": 5957,
      "ĠtroisiÃ¨me": 5958,
      "Ġnova": 5959,
      "Ġmises": 5960,
      "Ġsauf": 5961,
      "Ġsti": 5962,
      "Ġanalyses": 5963,
      "Ġstart": 5964,
      "ĠnÃ©gociations": 5965,
      "Ġconsulter": 5966,
      "Ġlicences": 5967,
      "Ġdeath": 5968,
      "oncÃ©": 5969,
      "Ġexpect": 5970,
      "Ġmanager": 5971,
      "tenues": 5972,
      "Ġcu": 5973,
      "Ġguidance": 5974,
      "Ġchiff": 5975,
      "Ġfreed": 5976,
      "mÃ©s": 5977,
      "ansion": 5978,
      "Ġwhy": 5979,
      "iel": 5980,
      "more": 5981,
      "ĠadÃ©qu": 5982,
      "Ġ47": 5983,
      "ee": 5984,
      "exist": 5985,
      "Ġcouv": 5986,
      "Ġlaws": 5987,
      "tenue": 5988,
      "Ġindex": 5989,
      "quoi": 5990,
      "1999": 5991,
      "Ġbusinesses": 5992,
      "tified": 5993,
      "found": 5994,
      "Ġbrevet": 5995,
      "96": 5996,
      "Ġfacility": 5997,
      "Ġcomponents": 5998,
      "quement": 5999,
      "Ġadvant": 6000,
      "ĠtÃ©lÃ©phone": 6001,
      "head": 6002,
      "Ġ500": 6003,
      "Ġvar": 6004,
      "Ġchambre": 6005,
      "Ġexige": 6006,
      "ĠprÃ©f": 6007,
      "Ġamounts": 6008,
      "Ġtent": 6009,
      "Ġselected": 6010,
      "ĠquantitÃ©": 6011,
      "Ġaura": 6012,
      "rÃ©g": 6013,
      "long": 6014,
      "Ġpropose": 6015,
      "Ġproducers": 6016,
      "wide": 6017,
      "Ġgenre": 6018,
      "Ġstatistiques": 6019,
      "Ġtoo": 6020,
      "Ġanimaux": 6021,
      "Ġthems": 6022,
      "ulf": 6023,
      "agriculture": 6024,
      "Ġcommerciaux": 6025,
      "Ġlocales": 6026,
      "Ġjury": 6027,
      "Ġjuridiques": 6028,
      "Ġmechanisms": 6029,
      "Ġthemselves": 6030,
      "Ġfinancing": 6031,
      "Ġsupports": 6032,
      "Ġscotia": 6033,
      "Ġmodifier": 6034,
      "Ġlisted": 6035,
      "prÃ©": 6036,
      "Ġneg": 6037,
      "Ġsoft": 6038,
      "Ġexaminer": 6039,
      "ghan": 6040,
      "ivalent": 6041,
      "Ġoptim": 6042,
      "Ġtelephone": 6043,
      "Ġplas": 6044,
      "ordin": 6045,
      "Ġnaturelles": 6046,
      "Ġcommune": 6047,
      "Ġchlor": 6048,
      "Ġendro": 6049,
      "ĠÃ©chantill": 6050,
      "iÃ©es": 6051,
      "ommod": 6052,
      "ĠconsidÃ©rable": 6053,
      "Ġprotec": 6054,
      "ware": 6055,
      "Ġcihr": 6056,
      "acco": 6057,
      "Ġterritory": 6058,
      "ĠÃ©laborer": 6059,
      "Ã§ant": 6060,
      "ĠdÃ©coul": 6061,
      "Ġcontained": 6062,
      "Ġpourquoi": 6063,
      "Ġ1989": 6064,
      "Ġexter": 6065,
      "Ġparticipant": 6066,
      "Ġattra": 6067,
      "Ã©change": 6068,
      "endu": 6069,
      "Ġrenforcement": 6070,
      "Ġclinical": 6071,
      "Ġcontenant": 6072,
      "aceu": 6073,
      "Ġbey": 6074,
      "enge": 6075,
      "ĠdÃ©cl": 6076,
      "Ġefficaces": 6077,
      "ĠprÃ©sentÃ©e": 6078,
      "ades": 6079,
      "Ġachieved": 6080,
      "lies": 6081,
      "Ġfront": 6082,
      "Ġrecommended": 6083,
      "Ġgeograph": 6084,
      "Ġcabin": 6085,
      "Ġ88": 6086,
      "Ġpet": 6087,
      "Ġmultil": 6088,
      "Ġrig": 6089,
      "Ġgranted": 6090,
      "Ġsupervis": 6091,
      "Ġeast": 6092,
      "Ġwinn": 6093,
      "fp": 6094,
      "intern": 6095,
      "Ġcompor": 6096,
      "Ġfamili": 6097,
      "west": 6098,
      "Ġmoun": 6099,
      "Ġvu": 6100,
      "60": 6101,
      "Ġapproaches": 6102,
      "Ġinspection": 6103,
      "Ġagricoles": 6104,
      "ĠprivÃ©e": 6105,
      "Ġeducational": 6106,
      "Ġobtain": 6107,
      "Ġperfection": 6108,
      "ĠcrÃ©dits": 6109,
      "Ġfamilles": 6110,
      "tÃ©rieures": 6111,
      "{\\": 6112,
      "ĠgÃ©nÃ©rales": 6113,
      "Ġbureaux": 6114,
      "ĠrÃ©gionaux": 6115,
      "exportation": 6116,
      "Ġexpliqu": 6117,
      "Ġnear": 6118,
      "ctures": 6119,
      "ĠconnaÃ®tre": 6120,
      "Ġmrs": 6121,
      "lines": 6122,
      "Ġitems": 6123,
      "Ġtrouv": 6124,
      "Ġhu": 6125,
      "Ġfundament": 6126,
      "odi": 6127,
      "Ġcombin": 6128,
      "alle": 6129,
      "Ġdistance": 6130,
      "Ġcounter": 6131,
      "Ġnotification": 6132,
      "ĠÃ©nerg": 6133,
      "ĠprÃ©al": 6134,
      "Ġspr": 6135,
      "Ġow": 6136,
      "Ġserve": 6137,
      "ape": 6138,
      "clÃ©": 6139,
      "Ġparks": 6140,
      "Ġministry": 6141,
      "Ġatteindre": 6142,
      "lin": 6143,
      "Ġwide": 6144,
      "ulaires": 6145,
      "Ġfaci": 6146,
      "intervention": 6147,
      "Ġplainte": 6148,
      "ĠfondÃ©e": 6149,
      "Ġ04": 6150,
      "ĠrÃ©partition": 6151,
      "Ġsil": 6152,
      "Ġcp": 6153,
      "Ġbeyond": 6154,
      "Ġcodes": 6155,
      "exposition": 6156,
      "Ġcharges": 6157,
      "ĠdÃ©chets": 6158,
      "Ġconsumers": 6159,
      "Ġchallenge": 6160,
      "install": 6161,
      "aie": 6162,
      "Ġimmun": 6163,
      "making": 6164,
      "illed": 6165,
      "Ġjurisdiction": 6166,
      "Ġestablishing": 6167,
      "Ġcommissaire": 6168,
      "Ġsond": 6169,
      "Ġbois": 6170,
      "Ġexamination": 6171,
      "Ġjamais": 6172,
      "Ġcomplet": 6173,
      "Ã©volution": 6174,
      "effet": 6175,
      "Ġ1988": 6176,
      "Ġdiscussed": 6177,
      "ĠthÃ©": 6178,
      "Ġ43": 6179,
      "Ġroyaume": 6180,
      "Ġutilisateurs": 6181,
      "Ġstatistique": 6182,
      "Ġhandicap": 6183,
      "Ġcirconstances": 6184,
      "Ġ1985": 6185,
      "Ġcomprennent": 6186,
      "ĠrÃ©vision": 6187,
      "Ġefficiency": 6188,
      "Ġdanger": 6189,
      "Ã¨rement": 6190,
      "Ġgoal": 6191,
      "Ġrun": 6192,
      "613": 6193,
      "Ġtelec": 6194,
      "Ġalways": 6195,
      "Ġrecognized": 6196,
      "Ġdouble": 6197,
      "Ġconflict": 6198,
      "Ġcontinuer": 6199,
      "Ġmeaning": 6200,
      "Ġsuivre": 6201,
      "Ġnunavut": 6202,
      "ĠassociÃ©s": 6203,
      "Ġsignature": 6204,
      "Ġcommerciale": 6205,
      "Ġspecifically": 6206,
      "Ġinsuff": 6207,
      "Ġuseful": 6208,
      "tail": 6209,
      "Ġhaz": 6210,
      "Ġstimul": 6211,
      "Ġlis": 6212,
      "expl": 6213,
      "Ġstep": 6214,
      "Ġprofessionnelle": 6215,
      "ĠrÃ©sumÃ©": 6216,
      "Ġconcours": 6217,
      "Ġnorme": 6218,
      "Ġhaute": 6219,
      "ĠpassÃ©": 6220,
      "Ġaccounts": 6221,
      "Ġproven": 6222,
      "Ġsigned": 6223,
      "Ġterrain": 6224,
      "Ġobstacles": 6225,
      "Ġï¬ģ": 6226,
      "Ġrailway": 6227,
      "Ġhalf": 6228,
      "rought": 6229,
      "autoritÃ©": 6230,
      "Ġdispar": 6231,
      "Ġimprovement": 6232,
      "Ġphysique": 6233,
      "Ġwhereas": 6234,
      "imination": 6235,
      "amÃ©rique": 6236,
      "Ġcd": 6237,
      "Ġminutes": 6238,
      "tiÃ¨re": 6239,
      "Ġsociales": 6240,
      "pard": 6241,
      "eline": 6242,
      "ĠprÃªts": 6243,
      "ĠrÃ©aliser": 6244,
      "Ġsoutenir": 6245,
      "Ġtitulaire": 6246,
      "Ġnetworks": 6247,
      "Ġduty": 6248,
      "Ġaccommod": 6249,
      "Ġoffrir": 6250,
      "heure": 6251,
      "Ġtobacco": 6252,
      "ores": 6253,
      "Ġdecid": 6254,
      "Ġindicateurs": 6255,
      "ĠgÃ©ograph": 6256,
      "41": 6257,
      "atlan": 6258,
      "Ġcalend": 6259,
      "ki": 6260,
      "road": 6261,
      "Ġwel": 6262,
      "Ġtandis": 6263,
      "bi": 6264,
      "atement": 6265,
      "Ġestimated": 6266,
      "Ġsujets": 6267,
      "Ġanswer": 6268,
      "Ġpercentage": 6269,
      "extÃ©rieur": 6270,
      "Ġseem": 6271,
      "77": 6272,
      "Ġvehicle": 6273,
      "ĠrÃ©guliÃ¨re": 6274,
      "Ġcommitments": 6275,
      "Ġici": 6276,
      "hist": 6277,
      "inqu": 6278,
      "emb": 6279,
      "Ġunits": 6280,
      "Ġessentiel": 6281,
      "Ġrespecter": 6282,
      "Ġsor": 6283,
      "Ġrefl": 6284,
      "Ġsemaine": 6285,
      "Ġentry": 6286,
      "etÃ©": 6287,
      "Ġpremiers": 6288,
      "Ġarc": 6289,
      "mal": 6290,
      "ipeg": 6291,
      "ĠdÃ©velopper": 6292,
      "Ġcommitted": 6293,
      "Ġing": 6294,
      "Ġshared": 6295,
      "Ġbarri": 6296,
      "inspec": 6297,
      "Ġgarantir": 6298,
      "Ġcul": 6299,
      "Ġpresence": 6300,
      "Ġretraite": 6301,
      "Ġprefer": 6302,
      "Ġcombus": 6303,
      "emment": 6304,
      "**": 6305,
      "Ġirsc": 6306,
      "Ġpromoting": 6307,
      "Ġrecipient": 6308,
      "Ġprincipale": 6309,
      "Ġplants": 6310,
      "oblig": 6311,
      "Ã©rone": 6312,
      "Ġsusceptibles": 6313,
      "Ġobserved": 6314,
      "Ġfilm": 6315,
      "Ġcore": 6316,
      "Ġfaud": 6317,
      "Ġyes": 6318,
      "Ġ02": 6319,
      "Ġanimal": 6320,
      "Ġremboursement": 6321,
      "Ġwhite": 6322,
      "Ġsteps": 6323,
      "pm": 6324,
      "atte": 6325,
      "Ġveiller": 6326,
      "osse": 6327,
      "Ġanticip": 6328,
      "uer": 6329,
      "rice": 6330,
      "Ġjean": 6331,
      "Ġthreat": 6332,
      "Ġseparate": 6333,
      "sif": 6334,
      "Ġfc": 6335,
      "Ġconsensus": 6336,
      "Ġvess": 6337,
      "ouvez": 6338,
      "ville": 6339,
      "ery": 6340,
      "Ġsignificantly": 6341,
      "Ġ56": 6342,
      "Ġcomputer": 6343,
      "Ġqualifications": 6344,
      "Ġspending": 6345,
      "Ġliter": 6346,
      "vertis": 6347,
      "new": 6348,
      "ending": 6349,
      "idÃ©": 6350,
      "ĠÃ©trangers": 6351,
      "Ġsoumis": 6352,
      "Ġrequests": 6353,
      "Ġgrowing": 6354,
      "autorisation": 6355,
      "nÃ©": 6356,
      "Ġsubsi": 6357,
      "oper": 6358,
      "Ġold": 6359,
      "Ġsample": 6360,
      "ĠpubliÃ©": 6361,
      "Ġradiodiff": 6362,
      "Ġkind": 6363,
      "Ġdav": 6364,
      "Ġagricole": 6365,
      "Ġnumbers": 6366,
      "Ġlabrador": 6367,
      "Ġseen": 6368,
      "Ġcolon": 6369,
      "Ġcotis": 6370,
      "Ġeur": 6371,
      "Ġ42": 6372,
      "Ġrecovery": 6373,
      "Ġordin": 6374,
      "clear": 6375,
      "Ġrendu": 6376,
      "mpt": 6377,
      "accep": 6378,
      "Ġital": 6379,
      "Ġfuel": 6380,
      "ĠdÃ©cid": 6381,
      "rÃ©s": 6382,
      "Ġforte": 6383,
      "Ġearlier": 6384,
      "Ġchina": 6385,
      "Ġleading": 6386,
      "Ġaffich": 6387,
      "Ġretr": 6388,
      "Ġappointment": 6389,
      "anche": 6390,
      "ĠdegrÃ©": 6391,
      "Ġnegotiations": 6392,
      "Ġbiling": 6393,
      "Ġadmissibles": 6394,
      "Ġ49": 6395,
      "Ġapplies": 6396,
      "Ġsubvention": 6397,
      "Ġseraient": 6398,
      "Ġacceptable": 6399,
      "Ġsubstitu": 6400,
      "Ġschools": 6401,
      "Ġparticipating": 6402,
      "Ġportion": 6403,
      "Ġsupplement": 6404,
      "Ġafrica": 6405,
      "abord": 6406,
      "ĠallÃ©g": 6407,
      "Ġang": 6408,
      "ĠrÃ©forme": 6409,
      "Ġ46": 6410,
      "Ġpouvez": 6411,
      "Ġrapide": 6412,
      "Ġtakes": 6413,
      "agers": 6414,
      "Ġsignif": 6415,
      "Ġoffered": 6416,
      "Ġsouh": 6417,
      "Ã¨ves": 6418,
      "Ġatmosph": 6419,
      "Ġexpenditures": 6420,
      "lands": 6421,
      "Ġurb": 6422,
      "institut": 6423,
      "sa": 6424,
      "Ġsensibilisation": 6425,
      "affaires": 6426,
      "amb": 6427,
      "Ġreviewed": 6428,
      "ĠdiffÃ©rences": 6429,
      "Ġfinally": 6430,
      "zer": 6431,
      "Ġdimension": 6432,
      "iring": 6433,
      "Ġprofessionnel": 6434,
      "Ġsouhait": 6435,
      "Ġtool": 6436,
      "Ġordonn": 6437,
      "Ġpuisse": 6438,
      "Ġconduc": 6439,
      "ĠutilisÃ©e": 6440,
      "Ġreti": 6441,
      "alberta": 6442,
      "Ġreconnaissance": 6443,
      "Ġeffectively": 6444,
      "Ġaccur": 6445,
      "Ġmass": 6446,
      "Ġcategory": 6447,
      "Ġbrunswick": 6448,
      "iting": 6449,
      "Ġhard": 6450,
      "back": 6451,
      "mograph": 6452,
      "Ġsatell": 6453,
      "Ġprotocol": 6454,
      "titudes": 6455,
      "Ġrecettes": 6456,
      "operation": 6457,
      "emic": 6458,
      "Ġperspectives": 6459,
      "acquis": 6460,
      "Ġnam": 6461,
      "42": 6462,
      "after": 6463,
      "Ġresulting": 6464,
      "foundland": 6465,
      "Ġdeven": 6466,
      "entente": 6467,
      "Ġvend": 6468,
      "Ġmanque": 6469,
      "engagement": 6470,
      "ĠconsÃ©quences": 6471,
      "ĠreprÃ©sentent": 6472,
      "Ġadvance": 6473,
      "Ġwinnipeg": 6474,
      "iger": 6475,
      "ara": 6476,
      "Ġpattern": 6477,
      "Ġstocks": 6478,
      "fo": 6479,
      "iction": 6480,
      "Ġpublish": 6481,
      "Ġillustr": 6482,
      "illage": 6483,
      "ĠprÃ©occupations": 6484,
      "Ġoperate": 6485,
      "Ġobtenu": 6486,
      "Ġpartage": 6487,
      "Ġexpenditure": 6488,
      "incid": 6489,
      "riel": 6490,
      "Ġretour": 6491,
      "Ġpages": 6492,
      "Ġdevices": 6493,
      "Ġmakes": 6494,
      "Ġcirculation": 6495,
      "tÃ©n": 6496,
      "ĠrÃ©serv": 6497,
      "ĠeuropÃ©ens": 6498,
      "Ġexamples": 6499,
      "Ġinclus": 6500,
      "visionnement": 6501,
      "Ġsauv": 6502,
      "Ġmedium": 6503,
      "ciation": 6504,
      "rÃ©h": 6505,
      "Ġdifficul": 6506,
      "Ġaccept": 6507,
      "Ġmarques": 6508,
      "environ": 6509,
      "ĠsÃ©par": 6510,
      "taux": 6511,
      "Ġfourni": 6512,
      "estre": 6513,
      "Ġgouvernementaux": 6514,
      "Ġmad": 6515,
      "Ġapplicables": 6516,
      "utiliser": 6517,
      "Ġgross": 6518,
      "Ġconsequ": 6519,
      "mor": 6520,
      "hc": 6521,
      "lande": 6522,
      "ĠtÃ©lÃ©v": 6523,
      "Ġcontacts": 6524,
      "Ġfournis": 6525,
      "Ġsecure": 6526,
      "Ġentire": 6527,
      "Ġrecognition": 6528,
      "ĠÃ©trangÃ¨res": 6529,
      "ĠintÃ©rieur": 6530,
      "Ġsuggested": 6531,
      "Ġprec": 6532,
      "ĠÃ©valuations": 6533,
      "ĠgÃ©nÃ©raux": 6534,
      "Ġhousing": 6535,
      "Ġchemin": 6536,
      "Ġcontraire": 6537,
      "bor": 6538,
      "Ġremains": 6539,
      "pay": 6540,
      "Ġparliamentary": 6541,
      "impact": 6542,
      "Ġrevised": 6543,
      "Ġchos": 6544,
      "Ġplaign": 6545,
      "key": 6546,
      "Ġmental": 6547,
      "58": 6548,
      "100": 6549,
      "hood": 6550,
      "Ġconfiance": 6551,
      "Ġmerc": 6552,
      "Ġmine": 6553,
      "Ġlieux": 6554,
      "Ġmanufacturing": 6555,
      "ĠÃ©lections": 6556,
      "Ġdomm": 6557,
      "Ġfle": 6558,
      "Ġadvertis": 6559,
      "Ġquo": 6560,
      "Ġsept": 6561,
      "Ġcharte": 6562,
      "Ġvirtu": 6563,
      "Ġproduce": 6564,
      "Ġunless": 6565,
      "ancing": 6566,
      "Ġdisclosure": 6567,
      "ĠaccroÃ®tre": 6568,
      "Ġmondial": 6569,
      "ĠlibertÃ©": 6570,
      "Ġconserv": 6571,
      "ĠfÃ©": 6572,
      "Ġrecently": 6573,
      "Ġelement": 6574,
      "ĠchargÃ©": 6575,
      "Ġdirige": 6576,
      "Ġlot": 6577,
      "Ġperte": 6578,
      "Ġalco": 6579,
      "cted": 6580,
      "Ġdraw": 6581,
      "augmentation": 6582,
      "Ġcontinues": 6583,
      "Ġelectoral": 6584,
      "employeur": 6585,
      "Ġspeak": 6586,
      "cemment": 6587,
      "Ġbiotechn": 6588,
      "orientation": 6589,
      "Ġintell": 6590,
      "Ġpreparation": 6591,
      "Ġentrepreneurs": 6592,
      "Ġsay": 6593,
      "Ġfishing": 6594,
      "Ġgarde": 6595,
      "Ġmotifs": 6596,
      "eler": 6597,
      "Ġoutcome": 6598,
      "Ġlou": 6599,
      "ĠmodalitÃ©s": 6600,
      "ĠrÃ©cemment": 6601,
      "ĠrÃ©pondants": 6602,
      "Ġ#": 6603,
      "Ġconforme": 6604,
      "Ġcompetitive": 6605,
      "Ġabsence": 6606,
      "ĠdÃ©part": 6607,
      "ĠpÃ©tro": 6608,
      "ĠtraitÃ©s": 6609,
      "Ġrequis": 6610,
      "Ġspor": 6611,
      "Ã©riques": 6612,
      "Ġoui": 6613,
      "enting": 6614,
      "ĠocÃ©": 6615,
      "ĠmÃ©canisme": 6616,
      "Ġbackground": 6617,
      "ĠbÃ¢ti": 6618,
      "aise": 6619,
      "appu": 6620,
      "Ġotherwise": 6621,
      "Ġliti": 6622,
      "Ġclean": 6623,
      "Ġfollowed": 6624,
      "Ġip": 6625,
      "Ġlines": 6626,
      "Ġround": 6627,
      "Ġpotentiel": 6628,
      "Ġfunctions": 6629,
      "ataire": 6630,
      "Ġpasse": 6631,
      "avait": 6632,
      "Ġprair": 6633,
      "Ġundertaken": 6634,
      "pdf": 6635,
      "Ġnewfoundland": 6636,
      "iry": 6637,
      "Ġalmost": 6638,
      "liminary": 6639,
      "Ġtyp": 6640,
      "ĠrequÃ©r": 6641,
      "Ġcommunes": 6642,
      "levision": 6643,
      "aced": 6644,
      "Ġvehicles": 6645,
      "Ġprolong": 6646,
      "raine": 6647,
      "ĠeffectuÃ©": 6648,
      "house": 6649,
      "Ġparent": 6650,
      "ĠdÃ©n": 6651,
      "Ġhumaine": 6652,
      "Ġcopyright": 6653,
      "Ġhighly": 6654,
      "Ġsocio": 6655,
      "ĠtÃ¢ches": 6656,
      "Ġpaix": 6657,
      "Ġlinks": 6658,
      "once": 6659,
      "interprÃ©tation": 6660,
      "Ġtravers": 6661,
      "Ġusage": 6662,
      "................................": 6663,
      "Ġintroduced": 6664,
      "espÃ¨ce": 6665,
      "ĠdÃ©fic": 6666,
      "Ġprince": 6667,
      "ered": 6668,
      "Ġphot": 6669,
      "Ġnrc": 6670,
      "ĠcomplÃ©ment": 6671,
      "Ġinvolvement": 6672,
      "Ġeth": 6673,
      "ams": 6674,
      "usage": 6675,
      "oks": 6676,
      "ĠgÃ©rer": 6677,
      "fond": 6678,
      "Ġexcept": 6679,
      "uc": 6680,
      "Ġdeleg": 6681,
      "ĠdÃ©tail": 6682,
      "mc": 6683,
      "Ġdrogues": 6684,
      "vo": 6685,
      "Ġfundamental": 6686,
      "mement": 6687,
      "mail": 6688,
      "Ġentente": 6689,
      "Ġmanifest": 6690,
      "Ġquestionnaire": 6691,
      "Ġinvolving": 6692,
      "Ġnomin": 6693,
      "ĠexpÃ©rience": 6694,
      "Ġrespondents": 6695,
      "ĠrÃ©gimes": 6696,
      "infrastructure": 6697,
      "Ġexplic": 6698,
      "43": 6699,
      "Ġpharmaceu": 6700,
      "Ġhypo": 6701,
      "Ġ58": 6702,
      "dessous": 6703,
      "Ġpreliminary": 6704,
      "pir": 6705,
      "Ġtraiter": 6706,
      "mÃªme": 6707,
      "Ġvac": 6708,
      "ĠenquÃªtes": 6709,
      "Ġfaite": 6710,
      "Ġlongue": 6711,
      "Ġmigration": 6712,
      "Ġbass": 6713,
      "Ġpow": 6714,
      "Ġalimentaire": 6715,
      "Ġbehaviour": 6716,
      "Ġstri": 6717,
      "Ġyork": 6718,
      "Ġchacune": 6719,
      "Ġjobs": 6720,
      "aÃ¯": 6721,
      "Ġcontrats": 6722,
      "Ġbound": 6723,
      "amm": 6724,
      "Ġlicense": 6725,
      "accent": 6726,
      "Ġtrain": 6727,
      "rich": 6728,
      "anim": 6729,
      "Ġray": 6730,
      "Ġpoids": 6731,
      "thing": 6732,
      "Ġlength": 6733,
      "Ġcharacteristics": 6734,
      "icial": 6735,
      "Ġva": 6736,
      "Ġdatabase": 6737,
      "Ġprogramming": 6738,
      "ĠdÃ©tails": 6739,
      "magne": 6740,
      "parti": 6741,
      "Ġunemploy": 6742,
      "Ġutilisant": 6743,
      "existence": 6744,
      "Ġformes": 6745,
      "Ġofferts": 6746,
      "Ġvaste": 6747,
      "78": 6748,
      "Ġ%)": 6749,
      "Ġgains": 6750,
      "Ġfee": 6751,
      "Ġbroadcasting": 6752,
      "ĠÃ©lect": 6753,
      "Ġconcluded": 6754,
      "Ã©cole": 6755,
      "etary": 6756,
      "Ġcauses": 6757,
      "Ġpassage": 6758,
      "Ġstatements": 6759,
      "Ġinterested": 6760,
      "cession": 6761,
      "Ġmodels": 6762,
      "Ġaccepted": 6763,
      "Ġbases": 6764,
      "Ġcopies": 6765,
      "Ġsummer": 6766,
      "Ġderniers": 6767,
      "ĠvisÃ©s": 6768,
      "Ġexpor": 6769,
      "Ġreproduction": 6770,
      "ata": 6771,
      "Ġdirectorate": 6772,
      "Ġcomportement": 6773,
      "Ġglobale": 6774,
      "Ġgenetic": 6775,
      "Ġaven": 6776,
      "Ġtrends": 6777,
      "Ġavanc": 6778,
      "Ġprocurement": 6779,
      "car": 6780,
      "Ġallowed": 6781,
      "Ġsemaines": 6782,
      "Ġadequate": 6783,
      "Ġwaters": 6784,
      "employÃ©": 6785,
      "Ġdated": 6786,
      "Ġdeclaration": 6787,
      "Ġactuel": 6788,
      "Ġinnovative": 6789,
      "atÃ©r": 6790,
      "excl": 6791,
      "Ġporter": 6792,
      "Ġsensi": 6793,
      "Ġcontient": 6794,
      "ĠcomprÃ©h": 6795,
      "Ġcomparative": 6796,
      "audi": 6797,
      "Ġcess": 6798,
      "Ġchin": 6799,
      "Ã©der": 6800,
      "ĠcomitÃ©s": 6801,
      "Ġbrought": 6802,
      "Ġimportations": 6803,
      "Ġtourism": 6804,
      "fique": 6805,
      "Ġdiplom": 6806,
      "tone": 6807,
      "opie": 6808,
      "Ġinterpretation": 6809,
      "ghanistan": 6810,
      "Ġutile": 6811,
      "Ġcontaining": 6812,
      "Ġfacteur": 6813,
      "oples": 6814,
      "Ġchimiques": 6815,
      "65": 6816,
      "Ġscreening": 6817,
      "Ġfirms": 6818,
      "erait": 6819,
      "Ġdiversi": 6820,
      "Ġequity": 6821,
      "Ġstreet": 6822,
      "ĠprÃ©vus": 6823,
      "Ġsecretary": 6824,
      "publ": 6825,
      "Ġraisonnable": 6826,
      "Ġplaintes": 6827,
      "eless": 6828,
      "ĠrÃ©serves": 6829,
      "Ġsale": 6830,
      "Ġintrodu": 6831,
      "ĠeuropÃ©ennes": 6832,
      "ĠprÃ©cise": 6833,
      "oster": 6834,
      "Ġcontracts": 6835,
      "Ġcarbon": 6836,
      "Ġdisting": 6837,
      "Ġhighl": 6838,
      "Ġusually": 6839,
      "Ġ1980": 6840,
      "izes": 6841,
      "Ġcabinet": 6842,
      "Ġcomplaints": 6843,
      "Ġtabac": 6844,
      "Ġmusic": 6845,
      "ĠcrÃ©Ã©": 6846,
      "Ġcertificate": 6847,
      "fl": 6848,
      "ĠdÃ©bat": 6849,
      "Ġauthorized": 6850,
      "Ġvictor": 6851,
      "cast": 6852,
      "tiÃ¨res": 6853,
      "Ġbox": 6854,
      "Ġpeoples": 6855,
      "Ġmd": 6856,
      "Ġrecevoir": 6857,
      "ĠcongÃ©": 6858,
      "Ġrent": 6859,
      "eci": 6860,
      "gary": 6861,
      "Ġpouvant": 6862,
      "Ġdetermination": 6863,
      "tendu": 6864,
      "Ġaer": 6865,
      "ĠÃ©levÃ©s": 6866,
      "Ġblood": 6867,
      "ĠcomplÃ¨te": 6868,
      "ĠconsÃ©quence": 6869,
      "Ġaffirm": 6870,
      "Ġpilot": 6871,
      "Ġcorps": 6872,
      "ĠsupplÃ©mentaire": 6873,
      "Ġattem": 6874,
      "Ġkg": 6875,
      "ĠvisÃ©e": 6876,
      "ĠmalgrÃ©": 6877,
      "Ġpoor": 6878,
      "ĠprocÃ©der": 6879,
      "ĠdestinÃ©s": 6880,
      "Ġdecided": 6881,
      "trent": 6882,
      "ĠrÃ©gionale": 6883,
      "provin": 6884,
      "Ġinvestments": 6885,
      "Ġspir": 6886,
      "ows": 6887,
      "approbation": 6888,
      "ĠÃ©lectroniques": 6889,
      "Ġbiom": 6890,
      "Ġsymb": 6891,
      "Ġlibrary": 6892,
      "tein": 6893,
      "Ġ99": 6894,
      "ĠaugmentÃ©": 6895,
      "ports": 6896,
      "ĠÃ©tapes": 6897,
      "Ġchine": 6898,
      "ifax": 6899,
      "ĠbibliothÃ¨": 6900,
      "ĠcompÃ©ti": 6901,
      "Ġborder": 6902,
      "Ġbelg": 6903,
      "ald": 6904,
      "Ġcompati": 6905,
      "Ġcrown": 6906,
      "Ġpip": 6907,
      "Ġbeginning": 6908,
      "Ġcongr": 6909,
      "Ġtendance": 6910,
      "Ġtendances": 6911,
      "Ġessais": 6912,
      "pper": 6913,
      "Ġprotected": 6914,
      "ĠrÃ©vis": 6915,
      "Ġexclusive": 6916,
      "cons": 6917,
      "].": 6918,
      "spec": 6919,
      "Ġpens": 6920,
      "ouss": 6921,
      "Ġoccupational": 6922,
      "ĠÃ©tablissement": 6923,
      "tiennent": 6924,
      "Ġimmigrants": 6925,
      "Ġlive": 6926,
      "ĠdÃ©finir": 6927,
      "Ġmessages": 6928,
      "iant": 6929,
      "habitat": 6930,
      "Ġpic": 6931,
      "Ġhors": 6932,
      "Ġrh": 6933,
      "Ġcampaign": 6934,
      "level": 6935,
      "Ġliaison": 6936,
      "ĠdifficultÃ©s": 6937,
      "bres": 6938,
      "Ġkil": 6939,
      "Ġportu": 6940,
      "Ġsoil": 6941,
      "Ã³": 6942,
      "Ġfulf": 6943,
      "Ġpresentation": 6944,
      "Ġdg": 6945,
      "Ġconsci": 6946,
      "Ġkingdom": 6947,
      "uge": 6948,
      "ettes": 6949,
      "Ġexempl": 6950,
      "Ġconsultatif": 6951,
      "Ġminority": 6952,
      "ycl": 6953,
      "tur": 6954,
      "marily": 6955,
      "ĠprÃ©limin": 6956,
      "dem": 6957,
      "Ġwildlife": 6958,
      "Ġmots": 6959,
      "Ġ2010": 6960,
      "Ġpasseng": 6961,
      "Ġ59": 6962,
      "Ġfol": 6963,
      "Ġbelieve": 6964,
      "ancy": 6965,
      "Ġinfra": 6966,
      "Ġmovement": 6967,
      "formes": 6968,
      "ĠriviÃ¨re": 6969,
      "bal": 6970,
      "Ġsettlement": 6971,
      "Ġindig": 6972,
      "Ġdiseases": 6973,
      "hydro": 6974,
      "Ġpul": 6975,
      "Ã¨vement": 6976,
      "Ġgrain": 6977,
      "aily": 6978,
      "Ġleaders": 6979,
      "Ġcollege": 6980,
      "Ġspons": 6981,
      "Ġshows": 6982,
      "Ġcollecte": 6983,
      "ĠÃ©larg": 6984,
      "Ġ57": 6985,
      "Ġradi": 6986,
      "ĠrÃ©vÃ©l": 6987,
      "enc": 6988,
      "otidi": 6989,
      "Ġlimits": 6990,
      "Ġdeem": 6991,
      "Ġdouanes": 6992,
      "Ġsubmission": 6993,
      "ĠnuclÃ©": 6994,
      "Ġfit": 6995,
      "Ġ67": 6996,
      "ressions": 6997,
      "Ġpressure": 6998,
      "Ġgermany": 6999,
      "Ġrelatively": 7000,
      "Ġmines": 7001,
      "Ġ300": 7002,
      "tez": 7003,
      "Ã©valuer": 7004,
      "Ġdebt": 7005,
      "Ġdispose": 7006,
      "Ġworked": 7007,
      "Ġviews": 7008,
      "Ġelections": 7009,
      "Ġhealthy": 7010,
      "hing": 7011,
      "ĠchaÃ®": 7012,
      "Ġfurthermore": 7013,
      "Ġdistinct": 7014,
      "Ġtas": 7015,
      "aritÃ©": 7016,
      "Ã©quipement": 7017,
      "ĠparticipÃ©": 7018,
      "Ġdose": 7019,
      "Ġtelevision": 7020,
      "Ġimplications": 7021,
      "oking": 7022,
      "Ġtotale": 7023,
      "Ġpoursuivre": 7024,
      "hold": 7025,
      "Ġgraph": 7026,
      "Ġcommittees": 7027,
      "'t": 7028,
      "Ġstable": 7029,
      "ica": 7030,
      "tary": 7031,
      "ĠÃ©vÃ©nements": 7032,
      "Ġsenti": 7033,
      "Ġfum": 7034,
      "Ġarchit": 7035,
      "del": 7036,
      "ify": 7037,
      "ots": 7038,
      "Ġfidu": 7039,
      "Ġpayable": 7040,
      "Ġimports": 7041,
      "exem": 7042,
      "appliquent": 7043,
      "rastructures": 7044,
      "Ġexemples": 7045,
      "Ġgouvernance": 7046,
      "Ġsole": 7047,
      "ĠdÃ©cidÃ©": 7048,
      "arily": 7049,
      "Ġhorizont": 7050,
      "Ġextr": 7051,
      "ĠdÃ©pass": 7052,
      "Ġpc": 7053,
      "Ġsuis": 7054,
      "Ġcadres": 7055,
      "Ġmeasurement": 7056,
      "Ġhausse": 7057,
      "Ġpreviously": 7058,
      "Ġprofess": 7059,
      "ourable": 7060,
      "Ġvan": 7061,
      "Ġoppos": 7062,
      "Ġstations": 7063,
      "Ġvirus": 7064,
      "Ġimmobil": 7065,
      "Ġreceiving": 7066,
      "sities": 7067,
      "Ã´ts": 7068,
      "Ġprovis": 7069,
      "Ġcertificat": 7070,
      "Ġfaites": 7071,
      "Ġdangere": 7072,
      "Ġremplir": 7073,
      "Ġassur": 7074,
      "ĠdÃ©termination": 7075,
      "ĠrÃ©gionales": 7076,
      "Ġraised": 7077,
      "Ġcampagne": 7078,
      "Ġculturelles": 7079,
      "Ġindemn": 7080,
      "Ġcalgary": 7081,
      "Ã©rÃ©e": 7082,
      "Ġdesp": 7083,
      "Ã©cosse": 7084,
      "achat": 7085,
      "appelant": 7086,
      "ĠpiÃ¨ces": 7087,
      "Ġnutrition": 7088,
      "Ġinjury": 7089,
      "Ġhumains": 7090,
      "atrice": 7091,
      "Ġtonnes": 7092,
      "ĠrÃ©tabl": 7093,
      "Ġparis": 7094,
      "Ã®le": 7095,
      "Ġtransaction": 7096,
      "Ġbook": 7097,
      "Ġcarte": 7098,
      "Ġanimals": 7099,
      "Ġinput": 7100,
      "Ġbrief": 7101,
      "chement": 7102,
      "Ġdispl": 7103,
      "Ġdigital": 7104,
      "Ġquotidi": 7105,
      "Ġuser": 7106,
      "ainc": 7107,
      "ĠÃ©chÃ©ant": 7108,
      "Ġcig": 7109,
      "Ġappointed": 7110,
      "Ġjuste": 7111,
      "approvisionnement": 7112,
      "ova": 7113,
      "Ġprimarily": 7114,
      "Ġdoing": 7115,
      "Ġincreases": 7116,
      "Ġquit": 7117,
      "Ġlate": 7118,
      "aged": 7119,
      "ĠÃ©lÃ¨ves": 7120,
      "Ġstanding": 7121,
      "thÃ¨se": 7122,
      "Ġfeel": 7123,
      "vres": 7124,
      "Ġpasser": 7125,
      "Ġmi": 7126,
      "Ġaccrue": 7127,
      "mat": 7128,
      "Ġgrants": 7129,
      "Ġlicens": 7130,
      "Ġcategories": 7131,
      "Ġpresque": 7132,
      "Ġmatern": 7133,
      "ande": 7134,
      "Ġpossibles": 7135,
      "verne": 7136,
      "brunswick": 7137,
      "Ġtherap": 7138,
      "inking": 7139,
      "Ġdisabilities": 7140,
      "ĠvÃ©g": 7141,
      "68": 7142,
      "ania": 7143,
      "Ġweight": 7144,
      "Ġperfectionnement": 7145,
      "Ġadministratives": 7146,
      "aur": 7147,
      "Ġcheck": 7148,
      "load": 7149,
      "Ġcut": 7150,
      "Ġtown": 7151,
      "ogen": 7152,
      "Ġpuissent": 7153,
      "Ġlearn": 7154,
      "Ġpetits": 7155,
      "ĠdonnÃ©e": 7156,
      "ĠÃ©tape": 7157,
      "Ġtemper": 7158,
      "Ġrecons": 7159,
      "lined": 7160,
      "Ġofficielle": 7161,
      "Ġdavid": 7162,
      "Ġassure": 7163,
      "sim": 7164,
      "pi": 7165,
      "riting": 7166,
      "Ġcellules": 7167,
      "appliquer": 7168,
      "Ġcoal": 7169,
      "Ġfoot": 7170,
      "ĠrÃ©uss": 7171,
      "Ġdevra": 7172,
      "Ġfixed": 7173,
      "Ġcomplainant": 7174,
      "Ġdaily": 7175,
      "Ġgouverne": 7176,
      "Ġsuffisamment": 7177,
      "Ġuses": 7178,
      "Ġautant": 7179,
      "ĠdÃ©terminÃ©": 7180,
      "tÃ©m": 7181,
      "Ġphotograph": 7182,
      "Ġmiss": 7183,
      "Ġcontains": 7184,
      "Ġdumping": 7185,
      "ened": 7186,
      "Ġrepe": 7187,
      "Ġcollected": 7188,
      "Ġenhanced": 7189,
      "Ġaffili": 7190,
      "ĠcomprÃ©hension": 7191,
      "utÃ©s": 7192,
      "Ġmultiple": 7193,
      "Ġmanage": 7194,
      "Ã©chantill": 7195,
      "Ġmentioned": 7196,
      "ĠapprouvÃ©": 7197,
      "Ġ98": 7198,
      "usement": 7199,
      "Ġpayer": 7200,
      "Ġthink": 7201,
      "chÃ©": 7202,
      "Ġdivid": 7203,
      "Ġradiodiffusion": 7204,
      "Ġadjo": 7205,
      "Ġpractical": 7206,
      "territ": 7207,
      "Ġparfois": 7208,
      "Ġaccounting": 7209,
      "Ġ08": 7210,
      "zation": 7211,
      "Ġincen": 7212,
      "Ġstra": 7213,
      "Ġfailure": 7214,
      "Ġsubsequent": 7215,
      "lying": 7216,
      "here": 7217,
      "Ġreducing": 7218,
      "Ġcandidat": 7219,
      "cont": 7220,
      "Ġacts": 7221,
      "Ġwal": 7222,
      "Ġrelationships": 7223,
      "Ġlands": 7224,
      "ym": 7225,
      "bon": 7226,
      "ĠemployÃ©": 7227,
      "Ġextend": 7228,
      "Ġfax": 7229,
      "Ã¶": 7230,
      "Ġsyndic": 7231,
      "ĠconsidÃ©rÃ©": 7232,
      "intro": 7233,
      "Ġenterprises": 7234,
      "monton": 7235,
      "Ġsharing": 7236,
      "Ġfro": 7237,
      "ĠmÃ©r": 7238,
      "Ġseed": 7239,
      "Ġconsumption": 7240,
      "ham": 7241,
      "Ġmener": 7242,
      "Ġbless": 7243,
      "je": 7244,
      "incidence": 7245,
      "elds": 7246,
      "Ġapplicants": 7247,
      "ran": 7248,
      "hÃ©sion": 7249,
      "Ã´les": 7250,
      "Ġlarger": 7251,
      "umes": 7252,
      "Ġbenefic": 7253,
      "Ġappuyer": 7254,
      "itement": 7255,
      "essai": 7256,
      "Ġtient": 7257,
      "Ġtraditionnels": 7258,
      "cf": 7259,
      "Ġconj": 7260,
      "Ġatel": 7261,
      "Ġbreak": 7262,
      "Ġexpert": 7263,
      "udes": 7264,
      "dite": 7265,
      "Ġ195": 7266,
      "Ġeastern": 7267,
      "Ġrur": 7268,
      "Ġdiffus": 7269,
      "Ġgros": 7270,
      "mÃ©diaire": 7271,
      "itant": 7272,
      "ĠintÃ©rÃªt": 7273,
      "Ġhistorique": 7274,
      "Ġventes": 7275,
      "Ġ78": 7276,
      "Ġadminister": 7277,
      "loi": 7278,
      "tile": 7279,
      "Ġvent": 7280,
      "iend": 7281,
      "ka": 7282,
      "expression": 7283,
      "ĠpÃ©r": 7284,
      "ĠfÃ©dÃ©rales": 7285,
      ".).": 7286,
      "Ġsouha": 7287,
      "Ġententes": 7288,
      "Ġstorage": 7289,
      "Ġmt": 7290,
      "elt": 7291,
      "aging": 7292,
      "Ġmontants": 7293,
      "Ġdespite": 7294,
      "bas": 7295,
      "Ġchoice": 7296,
      "Ġnurs": 7297,
      "Ġcibl": 7298,
      "approche": 7299,
      "Ġlogici": 7300,
      "Ġmachines": 7301,
      "Ġsessions": 7302,
      "Ġvictimes": 7303,
      "Ġfiling": 7304,
      "Ġcalls": 7305,
      "ift": 7306,
      "Ġjapan": 7307,
      "truct": 7308,
      "Ġutilise": 7309,
      "atlantique": 7310,
      "Ġatteint": 7311,
      "Ġ1986": 7312,
      "Ġrub": 7313,
      "Ġproviders": 7314,
      "Ġmotiv": 7315,
      "Ã©rÃ©es": 7316,
      "paragraph": 7317,
      "itiÃ©": 7318,
      "Ġacknow": 7319,
      "ĠlumiÃ¨re": 7320,
      "uled": 7321,
      "Ġelectric": 7322,
      "ĠprÃ©parer": 7323,
      "Ġscru": 7324,
      "rÃ©e": 7325,
      "Ġblack": 7326,
      "ĠexaminÃ©": 7327,
      "acquisition": 7328,
      "Ġsteel": 7329,
      "ĠsecrÃ©taire": 7330,
      "Ġmarks": 7331,
      "Ġtaxation": 7332,
      "comp": 7333,
      "Ġcond": 7334,
      "Ġclause": 7335,
      "unitÃ©": 7336,
      "tist": 7337,
      "Ġpourra": 7338,
      "Ġweeks": 7339,
      "Ġenvironnementales": 7340,
      "ĠuniversitÃ©": 7341,
      "Ġcoast": 7342,
      "Ġcorporations": 7343,
      "Ġalimentaires": 7344,
      "Ġcardi": 7345,
      "Ġassujet": 7346,
      "Ġvariables": 7347,
      "moins": 7348,
      "Ġhalifax": 7349,
      "Ġsuppli": 7350,
      "Ġbecame": 7351,
      "Ġ06": 7352,
      "utÃ©": 7353,
      "Ġcareer": 7354,
      "Ġstudent": 7355,
      "Ġsys": 7356,
      "Ġaware": 7357,
      "Ġseven": 7358,
      "Ġpensions": 7359,
      "obligation": 7360,
      "angu": 7361,
      "Ġcounsel": 7362,
      "ĠÃ©cl": 7363,
      "ĠempÃª": 7364,
      "Ġpacific": 7365,
      "mises": 7366,
      "Ġtransit": 7367,
      "pres": 7368,
      "Ġleft": 7369,
      "Ġassistant": 7370,
      "oz": 7371,
      "Ġbru": 7372,
      "Ġadvantage": 7373,
      "Ġbande": 7374,
      "Ġonline": 7375,
      "Ġdevelopments": 7376,
      "Ġmechanism": 7377,
      "Ġdomic": 7378,
      "Ġlocale": 7379,
      "outes": 7380,
      "Ġrare": 7381,
      "entretien": 7382,
      "tiers": 7383,
      "Ġmagn": 7384,
      "Â»,": 7385,
      "Ġmail": 7386,
      "Ã¼": 7387,
      "ĠÃ©lector": 7388,
      "Ġwid": 7389,
      "neuve": 7390,
      "Ġrecrutement": 7391,
      "Ġintr": 7392,
      "acture": 7393,
      "offre": 7394,
      "Ġatt": 7395,
      "ĠmÃ©dicaux": 7396,
      "Ġeffectuer": 7397,
      "Ġ52": 7398,
      "Ġenjeux": 7399,
      "Ġpoissons": 7400,
      "Ġlogement": 7401,
      "Ġoc": 7402,
      "ĠÃ©tablis": 7403,
      "Ġdetermining": 7404,
      "Ġallocation": 7405,
      "Ġfreedom": 7406,
      "tv": 7407,
      "Ġresol": 7408,
      "Ġassessed": 7409,
      "ded": 7410,
      "Ġavailability": 7411,
      "Ġquick": 7412,
      "Ġconduite": 7413,
      "Ġmodes": 7414,
      "immigration": 7415,
      "Ġnegative": 7416,
      "andum": 7417,
      "Ġdemocratic": 7418,
      "oor": 7419,
      "Ġagree": 7420,
      "ĠprÃ©alable": 7421,
      "ĠvisÃ©es": 7422,
      "orge": 7423,
      "Ġsoftware": 7424,
      "ĠvÃ©r": 7425,
      "Ġcourriel": 7426,
      "Ġlaboratory": 7427,
      "ll": 7428,
      "Ġsalari": 7429,
      "Ġprogres": 7430,
      "voi": 7431,
      "Ġhr": 7432,
      "Ġidentity": 7433,
      "ierre": 7434,
      "histoire": 7435,
      "ĠmÃ©dical": 7436,
      "ĠvÃ©rifier": 7437,
      "Ġprobablement": 7438,
      "mage": 7439,
      "alement": 7440,
      "etage": 7441,
      "Ġdiab": 7442,
      "ĠÃ©changes": 7443,
      "Ġpoisson": 7444,
      "ĠinfÃ©rie": 7445,
      "igu": 7446,
      "ĠdÃ©lais": 7447,
      "Ġrue": 7448,
      "Ġhabituellement": 7449,
      "Ġwriting": 7450,
      "affaire": 7451,
      "ĠdiplÃ´": 7452,
      "crits": 7453,
      "vant": 7454,
      "trice": 7455,
      "Ġinstitutional": 7456,
      "Ġindication": 7457,
      "with": 7458,
      "Ġwhe": 7459,
      "Ġsuspension": 7460,
      "Ġprescribed": 7461,
      "Ġchann": 7462,
      "Ġcrtc": 7463,
      "Ġpetite": 7464,
      "Ġassurance": 7465,
      "Ġdifference": 7466,
      "Ġrefuge": 7467,
      "Ġpaul": 7468,
      "Ġrejec": 7469,
      "Ġstric": 7470,
      "net": 7471,
      "Ġconflits": 7472,
      "Ġcris": 7473,
      "Ġveter": 7474,
      "Ġcommercialisation": 7475,
      "ĠrÃ©alisÃ©s": 7476,
      "ĠsÃ©n": 7477,
      "Ġjeux": 7478,
      "ĠmodifiÃ©": 7479,
      "assistance": 7480,
      "Ġimpri": 7481,
      "Ġmanufactur": 7482,
      "Ġenvironnementaux": 7483,
      "Ġ97": 7484,
      "Ġoverview": 7485,
      "Ġaviation": 7486,
      "Ã«": 7487,
      "quar": 7488,
      "Ġfigurant": 7489,
      "Ġseason": 7490,
      "ĠÃ©coles": 7491,
      "ĠâĢ¦": 7492,
      "Ġcopie": 7493,
      "Ġrein": 7494,
      "Ġdisability": 7495,
      "Ġgamme": 7496,
      "Ġacting": 7497,
      "Ġintention": 7498,
      "Ġnuclear": 7499,
      "Ġside": 7500,
      "Ġvide": 7501,
      "Ġ51": 7502,
      "Ġcontinuing": 7503,
      "Ġliquid": 7504,
      "experts": 7505,
      "governmental": 7506,
      "Â«": 7507,
      "Ġannounced": 7508,
      "Ã©nagement": 7509,
      "Ġ66": 7510,
      "anie": 7511,
      "Ã©rables": 7512,
      "Ġ54": 7513,
      "Ġrussie": 7514,
      "osystem": 7515,
      "Ġfoster": 7516,
      "note": 7517,
      "Ġpm": 7518,
      "Ġallows": 7519,
      "autom": 7520,
      "rop": 7521,
      "clam": 7522,
      "ĠbÃ©nÃ©v": 7523,
      "Ġ53": 7524,
      "trans": 7525,
      "Ġinternes": 7526,
      "Ġcreating": 7527,
      "utation": 7528,
      "Ġ68": 7529,
      "Ġgal": 7530,
      "ĠunitÃ©s": 7531,
      "Ġjapon": 7532,
      "oqu": 7533,
      "Ġmap": 7534,
      "rec": 7535,
      "ĠprÃ©sentÃ©s": 7536,
      "Ġcontrols": 7537,
      "Ġfoods": 7538,
      "Ġinfirm": 7539,
      "Ġcourant": 7540,
      "ously": 7541,
      "ĠtempÃ©r": 7542,
      "uves": 7543,
      "ford": 7544,
      "Ġcash": 7545,
      "Ġmanufacture": 7546,
      "Ġretail": 7547,
      "Ġadministrations": 7548,
      "ray": 7549,
      "Ġreceip": 7550,
      "ĠÃ©levÃ©e": 7551,
      "Ġtitres": 7552,
      "Ġfunded": 7553,
      "imposition": 7554,
      "Ġdemeure": 7555,
      "Ġcomprom": 7556,
      "Ġdevenir": 7557,
      "Ġexamined": 7558,
      "ĠuniversitÃ©s": 7559,
      "Ġpau": 7560,
      "Ġexportations": 7561,
      "Ġthings": 7562,
      "Ġindiquer": 7563,
      "Ġimprovements": 7564,
      "Ġgouvernementales": 7565,
      "ert": 7566,
      "gs": 7567,
      "Ġseek": 7568,
      "Ġresponses": 7569,
      "Ġprospec": 7570,
      "ĠcÃ©rÃ©": 7571,
      "Ġemployed": 7572,
      "Ġmanaging": 7573,
      "inspection": 7574,
      "Ġquarter": 7575,
      "ĠrÃ©ussi": 7576,
      "Ġstabil": 7577,
      "Ġ64": 7578,
      "Ġhighest": 7579,
      "Ġdevait": 7580,
      "Ġpme": 7581,
      "Ġplaced": 7582,
      "acte": 7583,
      "Ġmauv": 7584,
      "adaptation": 7585,
      "lÃ©": 7586,
      "Ġcapable": 7587,
      "Ġdates": 7588,
      "Ġlakes": 7589,
      "Ġdeploy": 7590,
      "auche": 7591,
      "ĠconsidÃ©ration": 7592,
      "ĠprÃ©sentÃ©es": 7593,
      "ĠphÃ©n": 7594,
      "ential": 7595,
      "Ġsupervision": 7596,
      "Ġ87": 7597,
      "Ġvital": 7598,
      "Ġnavires": 7599,
      "Ġexercice": 7600,
      "Ġratio": 7601,
      "}\\": 7602,
      "index": 7603,
      "Ġlargest": 7604,
      "Ġpredic": 7605,
      "Ġaimed": 7606,
      "Ġvolunte": 7607,
      "ĠstabilitÃ©": 7608,
      "Ġobtenus": 7609,
      "Ġdiam": 7610,
      "ros": 7611,
      "ĠaÃ©ro": 7612,
      "ĠconÃ§": 7613,
      "aids": 7614,
      "Ġannuelle": 7615,
      "prit": 7616,
      "Ġgrounds": 7617,
      "Ġmeilleur": 7618,
      "ĠÃ©tablies": 7619,
      "Ġreflec": 7620,
      "Ġaccompagn": 7621,
      "Ġuniver": 7622,
      "Ġdispositifs": 7623,
      "accueil": 7624,
      "Ġparagraphes": 7625,
      "Ġcomply": 7626,
      "Ġmoreover": 7627,
      "Ġinterpr": 7628,
      "ĠeffectuÃ©es": 7629,
      "Ġperformed": 7630,
      "argent": 7631,
      "where": 7632,
      "Ġcontents": 7633,
      "bue": 7634,
      "Ġpoursuiv": 7635,
      "itch": 7636,
      "Ġtransparence": 7637,
      "Ġbegan": 7638,
      "sez": 7639,
      "Ġconjoint": 7640,
      "ĠprÃ©sentent": 7641,
      "ĠhÃ´": 7642,
      "Ġresta": 7643,
      "uste": 7644,
      "ĠrÃ©ception": 7645,
      "importation": 7646,
      "Ġgst": 7647,
      "ĠprÃªt": 7648,
      "Ġnumer": 7649,
      "argets": 7650,
      "Ġmaison": 7651,
      "ĠmÃ©n": 7652,
      "Ġworkplace": 7653,
      "Ġmargin": 7654,
      "oudre": 7655,
      "arian": 7656,
      "Ġecosystem": 7657,
      "Ġbanks": 7658,
      "Ġrob": 7659,
      "ĠtÃ©moign": 7660,
      "Ġelect": 7661,
      "ev": 7662,
      "Ġafghanistan": 7663,
      "Ġlaboratoire": 7664,
      "Ġscale": 7665,
      "Ġsympt": 7666,
      "ĠsystÃ©m": 7667,
      "Ġrevend": 7668,
      "Ġqualified": 7669,
      "Ġterritori": 7670,
      "oh": 7671,
      "ena": 7672,
      "Ġsense": 7673,
      "ni": 7674,
      "Ġbaisse": 7675,
      "Ġpossibility": 7676,
      "ĠdÃ©clarations": 7677,
      "cd": 7678,
      "Ġappears": 7679,
      "Ġcourts": 7680,
      "Ã´mage": 7681,
      "ilibre": 7682,
      "Ġavantage": 7683,
      "cadre": 7684,
      "Ġclosely": 7685,
      "Ġstability": 7686,
      "plement": 7687,
      "ouveau": 7688,
      "Ġprofessionals": 7689,
      "Ġbanques": 7690,
      "cier": 7691,
      "Ġvariation": 7692,
      "Ġalcohol": 7693,
      "Ġadultes": 7694,
      "Ġfinanc": 7695,
      "Ġregistre": 7696,
      "uds": 7697,
      "Ġpla": 7698,
      "Ġregards": 7699,
      "Ġchanging": 7700,
      "Ġsalmon": 7701,
      "Ġarbitr": 7702,
      "Ġcontest": 7703,
      "Ġimporte": 7704,
      "arity": 7705,
      "Ġacquisition": 7706,
      "Ġprepare": 7707,
      "Ġcumul": 7708,
      "Ġemplois": 7709,
      "Ġrecruit": 7710,
      "Ġobligatoire": 7711,
      "Ġnotif": 7712,
      "Ġcard": 7713,
      "including": 7714,
      "Ġpron": 7715,
      "Ã©b": 7716,
      "Ġstrengthening": 7717,
      "Ġdeemed": 7718,
      "stra": 7719,
      "Ġtargets": 7720,
      "asions": 7721,
      "identification": 7722,
      "Ġham": 7723,
      "Ġfeatures": 7724,
      "Ġcompletion": 7725,
      "Ġpp": 7726,
      "Ġvoluntary": 7727,
      "cidents": 7728,
      "Ġimmediately": 7729,
      "Ġdispu": 7730,
      "Ġbrid": 7731,
      "Ġchrom": 7732,
      "Ġerre": 7733,
      "hics": 7734,
      "tionnel": 7735,
      "Ġjouer": 7736,
      "hum": 7737,
      "Ġincom": 7738,
      "examiner": 7739,
      "Ġplate": 7740,
      "Ġreconnu": 7741,
      "Ġplaces": 7742,
      "Ġexcellence": 7743,
      "Ġadverse": 7744,
      "alco": 7745,
      "Ġmedicine": 7746,
      "Ġsubsidi": 7747,
      "Ġsqu": 7748,
      "Ġunf": 7749,
      "Ġextre": 7750,
      "ĠcÃ´tÃ©": 7751,
      "ĠjournÃ©e": 7752,
      "Ġresidents": 7753,
      "certain": 7754,
      "Ġprofil": 7755,
      "Ġhistoric": 7756,
      "inal": 7757,
      "Ġindustrie": 7758,
      "Ġrepresented": 7759,
      "ÃŃ": 7760,
      "ĠeffectuÃ©e": 7761,
      "ĠocÃ©ans": 7762,
      "Ġadress": 7763,
      "Ġscrutin": 7764,
      "ands": 7765,
      "Ġaccordingly": 7766,
      "ouverture": 7767,
      "Ġorientation": 7768,
      "Ġemployers": 7769,
      "94": 7770,
      "Ġtraite": 7771,
      "Ġtemporary": 7772,
      "Ġhapp": 7773,
      "ĠsiÃ¨": 7774,
      "Ġlond": 7775,
      "law": 7776,
      "Ġara": 7777,
      "Ġauxquels": 7778,
      "Ġcorruption": 7779,
      "Ġsports": 7780,
      "Ġsondage": 7781,
      "Ġsun": 7782,
      "Ġgazette": 7783,
      "anmoins": 7784,
      "dation": 7785,
      "Ġcooper": 7786,
      "ĠÃ©tablie": 7787,
      "Ġsatellite": 7788,
      "Ġwinter": 7789,
      "Ġsar": 7790,
      "Ġpain": 7791,
      "Ġaper": 7792,
      "ĠtÃ©lÃ©vision": 7793,
      "Ġenvers": 7794,
      "Ġrepos": 7795,
      "Ġoceans": 7796,
      "Ġprofile": 7797,
      "mr": 7798,
      "Ġassez": 7799,
      "Ġcells": 7800,
      "Ġpdf": 7801,
      "Ġtom": 7802,
      "Ġaspect": 7803,
      "Ġrcmp": 7804,
      "Ġflight": 7805,
      "Ġsoutenu": 7806,
      "Ġrobert": 7807,
      "med": 7808,
      "Ġouts": 7809,
      "Ġaient": 7810,
      "Ġopposition": 7811,
      "ĠnÃ©anmoins": 7812,
      "verty": 7813,
      "Ġholding": 7814,
      "judice": 7815,
      "Ġrien": 7816,
      "Ġcomport": 7817,
      "ĠintÃ©grÃ©e": 7818,
      "oon": 7819,
      "Ġimage": 7820,
      "ĠdÃ©cÃ¨s": 7821,
      "Ġjudgment": 7822,
      "Ġsubstantial": 7823,
      "Ġcombined": 7824,
      "entreprises": 7825,
      "Ġdead": 7826,
      "Ġbiais": 7827,
      "ĠparticuliÃ¨res": 7828,
      "Ġdens": 7829,
      "ĠrelÃ¨ve": 7830,
      "%.": 7831,
      "Ġreleased": 7832,
      "wgsc": 7833,
      "Ġdivulgation": 7834,
      "wood": 7835,
      "Ġdemandeur": 7836,
      "Ġcaused": 7837,
      "Ġ77": 7838,
      "Ġconsiders": 7839,
      "Ġmarqu": 7840,
      "Ġuniversities": 7841,
      "Ġfields": 7842,
      "Ġlux": 7843,
      "Ġdebate": 7844,
      "Ġorganized": 7845,
      "Ġspo": 7846,
      "inafter": 7847,
      "Ġ05": 7848,
      "lets": 7849,
      "Ġbiological": 7850,
      "Ġappareils": 7851,
      "Ġmining": 7852,
      "Ġcoverage": 7853,
      "admis": 7854,
      "ĠÃ©vid": 7855,
      "itive": 7856,
      "Ġclasses": 7857,
      "Ġcircul": 7858,
      "Ġimpossible": 7859,
      "Ġgh": 7860,
      "ĠmoitiÃ©": 7861,
      "ĠdÃ©cide": 7862,
      "Ġpertinents": 7863,
      "rin": 7864,
      "ĠpublicitÃ©": 7865,
      "Ġtradu": 7866,
      "iseaux": 7867,
      "Ġnour": 7868,
      "crire": 7869,
      "Ġworkshop": 7870,
      "rie": 7871,
      "Ġroles": 7872,
      "Ġinfrastructures": 7873,
      "ĠÃ©laborÃ©": 7874,
      "ĠconsidÃ¨re": 7875,
      "ĠspÃ©cifique": 7876,
      "Ġtouchant": 7877,
      "ĠdiffÃ©rence": 7878,
      "Ġactuelles": 7879,
      "onie": 7880,
      "estim": 7881,
      "Ġincreasingly": 7882,
      "Ġnov": 7883,
      "Ġsexe": 7884,
      "gos": 7885,
      "Ġcorrec": 7886,
      "Ġvoc": 7887,
      "ĠpÃ©riodes": 7888,
      "Ġra": 7889,
      "Ġinstallation": 7890,
      "Ġbac": 7891,
      "Ġcoup": 7892,
      "Ġfourniture": 7893,
      "Ġperiods": 7894,
      "ĠmÃ©decins": 7895,
      "ouvern": 7896,
      "Ġindiquent": 7897,
      "Ġhold": 7898,
      "gÃ©n": 7899,
      "oure": 7900,
      "Ġtirer": 7901,
      "Ġrevenues": 7902,
      "Ġsouligne": 7903,
      "Ġcame": 7904,
      "Ġroom": 7905,
      "ĠmentionnÃ©": 7906,
      "Ġspirit": 7907,
      "Ġjudiciaire": 7908,
      "Ġsecondary": 7909,
      "hu": 7910,
      "hal": 7911,
      "Ġaccompan": 7912,
      "Ġdoute": 7913,
      "Ġengineering": 7914,
      "ĠcommencÃ©": 7915,
      "Ġpauvre": 7916,
      "Ġautochtone": 7917,
      "Ġgrc": 7918,
      "Ġrecens": 7919,
      "Ġcarrying": 7920,
      "Ġcompetent": 7921,
      "Ġabord": 7922,
      "Â».": 7923,
      "excell": 7924,
      "Ġdissem": 7925,
      "Ġdevront": 7926,
      "ker": 7927,
      "Ġpartout": 7928,
      "Ġspati": 7929,
      "Ġlinked": 7930,
      "econom": 7931,
      "Ġextended": 7932,
      "Ġpouvait": 7933,
      "Ġapparent": 7934,
      "Ġgoing": 7935,
      "Ġsouff": 7936,
      "ĠÃ©limin": 7937,
      "Ġpreced": 7938,
      "Ġpenal": 7939,
      "cides": 7940,
      "ĠlimitÃ©e": 7941,
      "Ġinventory": 7942,
      "don": 7943,
      "Ġfiles": 7944,
      "Ġrespir": 7945,
      "Ġauteurs": 7946,
      "Ġsurveys": 7947,
      "Ġreplaced": 7948,
      "Ġparlementaire": 7949,
      "Ġleader": 7950,
      "Ġadul": 7951,
      "Ġice": 7952,
      "Ġsouthern": 7953,
      "Ġindustrielle": 7954,
      "Ġencourager": 7955,
      "plus": 7956,
      "Ġadvanced": 7957,
      "ote": 7958,
      "Ġcigare": 7959,
      "Ġpetit": 7960,
      "ĠdÃ©ploy": 7961,
      "Ġhazard": 7962,
      "Ġdep": 7963,
      "Ġequality": 7964,
      "Ġpourront": 7965,
      "Ġsignifie": 7966,
      "Ġdispute": 7967,
      "Ġvenir": 7968,
      "))": 7969,
      "Ġhear": 7970,
      "Ġtransparency": 7971,
      "ĠÃ©viter": 7972,
      "91": 7973,
      "dle": 7974,
      "Ġexpression": 7975,
      "och": 7976,
      "Ġpoverty": 7977,
      "cor": 7978,
      "Ġconcre": 7979,
      "ppe": 7980,
      "Ġadvertising": 7981,
      "Ġsanc": 7982,
      "prof": 7983,
      "Ġdealing": 7984,
      "sy": 7985,
      "Ġgestionnaire": 7986,
      "orable": 7987,
      "Ġtimely": 7988,
      "Ġassessments": 7989,
      "âĢ¦âĢ¦âĢ¦âĢ¦âĢ¦âĢ¦âĢ¦âĢ¦": 7990,
      ".),": 7991,
      "ĠconsidÃ©rant": 7992,
      "Ġct": 7993,
      "Ġ84": 7994,
      "eneur": 7995,
      "Ġlaiss": 7996,
      "Ġ94": 7997,
      "93": 7998,
      "Ġpresse": 7999,
      "Ġrepresentation": 8000,
      "hor": 8001,
      "Ġorganizational": 8002,
      "Ġcompound": 8003,
      "Ġremise": 8004,
      "riques": 8005,
      "Ġexports": 8006,
      "ael": 8007,
      "Ġfocused": 8008,
      "ouvernement": 8009,
      "Ġ03": 8010,
      "Ġdomicile": 8011,
      "Ġtac": 8012,
      "Ġwithdra": 8013,
      "Ġlacs": 8014,
      "Ġintegrity": 8015,
      "Ġconnection": 8016,
      "Ġoffers": 8017,
      "Ġenough": 8018,
      "Ġindications": 8019,
      "Ġquels": 8020,
      "Ġpoll": 8021,
      "Ġactifs": 8022,
      "Ġcertaine": 8023,
      "Ġheav": 8024,
      "Ġoccurred": 8025,
      "icians": 8026,
      "Ġconventions": 8027,
      "Ġessentiellement": 8028,
      "Ã©quitÃ©": 8029,
      "Ġtables": 8030,
      "ece": 8031,
      "Ġopinions": 8032,
      "Ġmaintained": 8033,
      "ordonn": 8034,
      "Ġpression": 8035,
      "nings": 8036,
      "Ġbid": 8037,
      "Ġindirect": 8038,
      "idence": 8039,
      "Ġlev": 8040,
      "Ġhong": 8041,
      "Ġagri": 8042,
      "Ġgran": 8043,
      "Ġdiminution": 8044,
      "Ġconflit": 8045,
      "tionnelle": 8046,
      "nor": 8047,
      "influ": 8048,
      "Ġadmissible": 8049,
      "Ġ96": 8050,
      "Ġconcepts": 8051,
      "Ġimported": 8052,
      "Ġculturelle": 8053,
      "prin": 8054,
      "Ġelimin": 8055,
      "Ġmembership": 8056,
      "ott": 8057,
      "Ġvoyages": 8058,
      "Ġcommence": 8059,
      "ries": 8060,
      "Ġcourses": 8061,
      "ĠaÃ©rien": 8062,
      "Ġextension": 8063,
      "Ġtechnological": 8064,
      "Ġrestre": 8065,
      "ĠmatÃ©riaux": 8066,
      "Ġinterc": 8067,
      "installation": 8068,
      "Ġbarriers": 8069,
      "Ġcoming": 8070,
      "Ġemerging": 8071,
      "Ã©taient": 8072,
      "informations": 8073,
      "dent": 8074,
      "ĠrÃ©glementaires": 8075,
      "Ġdefic": 8076,
      "ĠsoulignÃ©": 8077,
      "fol": 8078,
      "ĠmenÃ©es": 8079,
      "Ã©tiqu": 8080,
      "Ġrecon": 8081,
      "esc": 8082,
      "Ġ61": 8083,
      "Ġsoon": 8084,
      "Ġrecouv": 8085,
      "Ġbag": 8086,
      "Ġmineral": 8087,
      "Ġrestruct": 8088,
      "Ġinterpre": 8089,
      "Ġmari": 8090,
      "Ġbour": 8091,
      "ĠsÃ»re": 8092,
      "espace": 8093,
      "Ġcree": 8094,
      "Ġexces": 8095,
      "effectu": 8096,
      "entiel": 8097,
      "provincial": 8098,
      "Ġmaintaining": 8099,
      "adhÃ©sion": 8100,
      "ĠrÃ©sidence": 8101,
      "Ġinclure": 8102,
      "Ġmontreal": 8103,
      "Ġhost": 8104,
      "Ġconnec": 8105,
      "Ġethics": 8106,
      "Ġpowers": 8107,
      "ĠcollÃ¨g": 8108,
      "Ã§ons": 8109,
      "Ġnavigation": 8110,
      "Ġheure": 8111,
      "Ã¨tre": 8112,
      "chÃ©s": 8113,
      "Ġspring": 8114,
      "Ġbanc": 8115,
      "Ġremplacement": 8116,
      "ĠcarriÃ¨re": 8117,
      "Ġactuels": 8118,
      "Ã¡Ã¡Ã¡Ã¡": 8119,
      "Ġtrim": 8120,
      "Ġabroad": 8121,
      "Ġresulted": 8122,
      "Ã©ronefs": 8123,
      "Ġquelles": 8124,
      "dit": 8125,
      "irs": 8126,
      "Ġdemonstrate": 8127,
      "Ġedmonton": 8128,
      "iditÃ©": 8129,
      "ĠdÃ©coulant": 8130,
      "Ġnoter": 8131,
      "Ġgoverning": 8132,
      "Ġapporter": 8133,
      "tirer": 8134,
      "Ġeau": 8135,
      "Ġdamage": 8136,
      "gue": 8137,
      "ault": 8138,
      "ĠreprÃ©sentation": 8139,
      "Ġexpansion": 8140,
      "aider": 8141,
      "Ġcartes": 8142,
      "ĠantÃ©rieure": 8143,
      "Ġ400": 8144,
      "irme": 8145,
      "Ġnorthwest": 8146,
      "idential": 8147,
      "Ġconnu": 8148,
      "ardi": 8149,
      "Ġsmoking": 8150,
      "Ġvalu": 8151,
      "fy": 8152,
      "ĠprÃ©cÃ©dente": 8153,
      "pd": 8154,
      "1998": 8155,
      "Ġpurchase": 8156,
      "Ġhun": 8157,
      "Ġsexual": 8158,
      "Ġtrouvent": 8159,
      "ĠbÃ©nÃ©ficiaires": 8160,
      "Ġrespondent": 8161,
      "Ġmotor": 8162,
      "Ġidentifying": 8163,
      "Ġrepresents": 8164,
      "Ġabuse": 8165,
      "Ġunemployment": 8166,
      "ĠunitÃ©": 8167,
      "lectricitÃ©": 8168,
      "oe": 8169,
      "Ġexploitation": 8170,
      "Ġstructural": 8171,
      "Ġhuit": 8172,
      "osyst": 8173,
      "cin": 8174,
      "ument": 8175,
      "ĠdÃ©par": 8176,
      "Ġprochaine": 8177,
      "ĠvisÃ©": 8178,
      "Ġsommaire": 8179,
      "Ġgarantie": 8180,
      "Ġlaid": 8181,
      "Ġdil": 8182,
      "Ġextensive": 8183,
      "instru": 8184,
      "92": 8185,
      "habil": 8186,
      "Ġhistorical": 8187,
      "Ġanciens": 8188,
      "ĠspÃ©cialistes": 8189,
      "Ġarctic": 8190,
      "Ġtourisme": 8191,
      "Ġ63": 8192,
      "Ġpesti": 8193,
      "ĠprÃ©voir": 8194,
      "Ġindicates": 8195,
      "Ġhabitats": 8196,
      "Ġassigned": 8197,
      "haus": 8198,
      "Ġcomparaison": 8199,
      "Ġmilieux": 8200,
      "cn": 8201,
      "Ġnames": 8202,
      "Ġ76": 8203,
      "Ġsuppri": 8204,
      "Ġauquel": 8205,
      "70": 8206,
      "meu": 8207,
      "Ġpleinement": 8208,
      "Ġsac": 8209,
      "ĠimmÃ©diatement": 8210,
      "Ġintelligence": 8211,
      "Ġmilli": 8212,
      "ĠminoritÃ©s": 8213,
      "ĠmÃ©l": 8214,
      "ĠdÃ©fi": 8215,
      "ola": 8216,
      "Ġreb": 8217,
      "Ġcorrect": 8218,
      "ecture": 8219,
      "Ġphosph": 8220,
      "Ġsomme": 8221,
      "Ġessentiels": 8222,
      "Ġcontrolled": 8223,
      "Ġchose": 8224,
      "Ġrecycl": 8225,
      "Ġvisible": 8226,
      "ĠpauvretÃ©": 8227,
      "Ġequivalent": 8228,
      "Ġtort": 8229,
      "Ġtraitements": 8230,
      "Ġpossession": 8231,
      "oring": 8232,
      "ĠconsidÃ©rÃ©e": 8233,
      "ĠintitulÃ©": 8234,
      "serv": 8235,
      "identitÃ©": 8236,
      "Ġveut": 8237,
      "Ġbudgets": 8238,
      "tead": 8239,
      "discipl": 8240,
      "Ġrenewal": 8241,
      "ĠrÃ©action": 8242,
      "Ġgovernor": 8243,
      "Ġrelever": 8244,
      "Ġpacifique": 8245,
      "greg": 8246,
      "ĠÃ©quipe": 8247,
      "Ġcentury": 8248,
      "Ġsimilaires": 8249,
      "Ġfes": 8250,
      "Ġgames": 8251,
      "ĠsupÃ©rieure": 8252,
      "Ġlie": 8253,
      "Ġinscrit": 8254,
      "Ġvuln": 8255,
      "tains": 8256,
      "Ġchanged": 8257,
      "tream": 8258,
      "ĠorganisÃ©": 8259,
      "itations": 8260,
      "Ġdiscrimin": 8261,
      "atrices": 8262,
      "ĠdisponibilitÃ©": 8263,
      "ĠclÃ©": 8264,
      "Ġagence": 8265,
      "Ġpeuples": 8266,
      "Ġstages": 8267,
      "roup": 8268,
      "ĠarrÃªt": 8269,
      "quarters": 8270,
      "Ġappui": 8271,
      "ĠprÃ©venir": 8272,
      "ĠsupÃ©rieurs": 8273,
      "Ġfrequ": 8274,
      "Ġmot": 8275,
      "Ġconseiller": 8276,
      "Ġ2009": 8277,
      "yp": 8278,
      "Ġhoc": 8279,
      "Ġcommuns": 8280,
      "ĠdÃ©cret": 8281,
      "Ġexceptions": 8282,
      "berg": 8283,
      "Ġaugmenter": 8284,
      "Ġreached": 8285,
      "gov": 8286,
      "andon": 8287,
      "1996": 8288,
      "Ġconsiderable": 8289,
      "ĠcontribuÃ©": 8290,
      "Ġposts": 8291,
      "otte": 8292,
      "Ġpertinentes": 8293,
      "Ġattent": 8294,
      "Ġinfluen": 8295,
      "hereinafter": 8296,
      "Ġupdated": 8297,
      "Ġmemor": 8298,
      "ĠliÃ©e": 8299,
      "Ġfederation": 8300,
      "Ġarmes": 8301,
      "ĠappropriÃ©e": 8302,
      "alcool": 8303,
      "ĠproposÃ©e": 8304,
      "aria": 8305,
      "observation": 8306,
      "Ġcomplexes": 8307,
      "phen": 8308,
      "Ġcomplement": 8309,
      "Ġsets": 8310,
      "hon": 8311,
      "Ġoccasions": 8312,
      "ĠmÃ©t": 8313,
      "Ġorders": 8314,
      "Ġfigures": 8315,
      "Ġvary": 8316,
      "exception": 8317,
      "ush": 8318,
      "tabilitÃ©": 8319,
      "ĠprocÃ©dÃ©": 8320,
      "Ġpertes": 8321,
      "Ġconseill": 8322,
      "Ġphil": 8323,
      "resh": 8324,
      "redi": 8325,
      "ĠprÃ©ciser": 8326,
      "bile": 8327,
      "Ġimpliqu": 8328,
      "Ġwashing": 8329,
      "Ġpapier": 8330,
      "Ġtoward": 8331,
      "Ġvictoria": 8332,
      "alimentation": 8333,
      "troph": 8334,
      "Ġentered": 8335,
      "accroÃ®tre": 8336,
      "rais": 8337,
      "ensions": 8338,
      "omie": 8339,
      "cee": 8340,
      "Ġexplan": 8341,
      "Ġmainly": 8342,
      "Ġquantita": 8343,
      "ĠrÃ©guliÃ¨rement": 8344,
      "eli": 8345,
      "Ġload": 8346,
      "carb": 8347,
      "thes": 8348,
      "Ġrecorded": 8349,
      "aculture": 8350,
      "ĠÅĵu": 8351,
      "Ġcliniques": 8352,
      "Ġmiti": 8353,
      "ĠfondÃ©": 8354,
      "tisse": 8355,
      "Ġvilles": 8356,
      "Ġinfection": 8357,
      "Ġsimply": 8358,
      "Ġbonnes": 8359,
      "ĠrÃ©duit": 8360,
      "ĠtÃ©lÃ©ph": 8361,
      "ĠnÃ©gociation": 8362,
      "Ġactes": 8363,
      "Ġsays": 8364,
      "Ġdirig": 8365,
      "ĠaperÃ§u": 8366,
      "Ġsuggestions": 8367,
      "Ġartist": 8368,
      "Ġgather": 8369,
      "asp": 8370,
      "rane": 8371,
      "Ġjudicial": 8372,
      "Ġvulner": 8373,
      "ĠprÃ©sentes": 8374,
      "uÃ©": 8375,
      "ĠsiÃ¨cle": 8376,
      "rez": 8377,
      "Ġfutures": 8378,
      "Ġbell": 8379,
      "Ġclaimant": 8380,
      "Ġauront": 8381,
      "Ġ07": 8382,
      "Ġchau": 8383,
      "Ġdirections": 8384,
      "Ġemployeurs": 8385,
      "Ġcomparison": 8386,
      "gence": 8387,
      "Ġpeter": 8388,
      "ĠmusÃ©e": 8389,
      "bri": 8390,
      "Ġconfidence": 8391,
      "Ġadopter": 8392,
      "angl": 8393,
      "agir": 8394,
      "Ġreviews": 8395,
      "Ġkos": 8396,
      "Ã¨lement": 8397,
      "Ġforesti": 8398,
      "Ġoccurr": 8399,
      "divers": 8400,
      "tendue": 8401,
      "Ġdetail": 8402,
      "Ã©thique": 8403,
      "Ġdotation": 8404,
      "Ġchefs": 8405,
      "Ġregroup": 8406,
      "sie": 8407,
      "umin": 8408,
      "Ġadvoc": 8409,
      "onnage": 8410,
      "ĠcoopÃ©ra": 8411,
      "Ġheading": 8412,
      "hst": 8413,
      "ĠbÃ©nÃ©ficier": 8414,
      "Ġdiagnostic": 8415,
      "Ġexemption": 8416,
      "Ġdeposit": 8417,
      "Ġofficiel": 8418,
      "Ġtaxpay": 8419,
      "Ġcommissions": 8420,
      "Ġrespectively": 8421,
      "Ġdelivered": 8422,
      "Ġcollections": 8423,
      "Ġconclure": 8424,
      "Ġsupplies": 8425,
      "Ġloans": 8426,
      "ĠdÃ©couver": 8427,
      "Ġfirm": 8428,
      "Ġtenant": 8429,
      "ĠnumÃ©rique": 8430,
      "Ġdestruction": 8431,
      "Ġwit": 8432,
      "Ġwhom": 8433,
      "nouveau": 8434,
      "unesse": 8435,
      "leur": 8436,
      "Ġconstant": 8437,
      "Ġmanaged": 8438,
      ".);": 8439,
      "Ġserved": 8440,
      "Ġdistinction": 8441,
      "Ġtasks": 8442,
      "mem": 8443,
      "Ġeight": 8444,
      "cks": 8445,
      "isp": 8446,
      "Ġvisiteurs": 8447,
      "prÃ©sid": 8448,
      "Ġharbour": 8449,
      "Ġroutes": 8450,
      "Ġregime": 8451,
      "Ġ%.": 8452,
      "Ã©labor": 8453,
      "Ġsche": 8454,
      "ĠrÃ©fug": 8455,
      "Ġutiles": 8456,
      "aser": 8457,
      "illing": 8458,
      "Ġquoi": 8459,
      "ĠappropriÃ©es": 8460,
      "Ġmol": 8461,
      "Ġinvolve": 8462,
      "Ġenjoy": 8463,
      "Ġball": 8464,
      "enous": 8465,
      "Ġseconde": 8466,
      "56": 8467,
      "ĠproposÃ©es": 8468,
      "Ġachieving": 8469,
      "ĠaÃ©rienne": 8470,
      "Ġressor": 8471,
      "Ġrenouvellement": 8472,
      "jan": 8473,
      "Ġinvestigations": 8474,
      "Ġmultiples": 8475,
      "attention": 8476,
      "non": 8477,
      "Ġformule": 8478,
      "Ġfixe": 8479,
      "gÃ¨ne": 8480,
      "fait": 8481,
      "Ġlif": 8482,
      "Ġweather": 8483,
      "stand": 8484,
      "Ġvois": 8485,
      "Ġdemonstrated": 8486,
      "rÃ©es": 8487,
      "Ġcanc": 8488,
      "ĠfÃ©dÃ©ration": 8489,
      "Ġ86": 8490,
      "Ġindiens": 8491,
      "Ġstaffing": 8492,
      "Ġviolation": 8493,
      "dd": 8494,
      "Ġsoulev": 8495,
      "Ġaccident": 8496,
      "delÃł": 8497,
      "ĠspÃ©ciaux": 8498,
      "Ġjeu": 8499,
      "Ġweak": 8500,
      "esses": 8501,
      "Ġaddressing": 8502,
      "ĠappropriÃ©": 8503,
      "sida": 8504,
      "Ġmotion": 8505,
      "Ġrespectivement": 8506,
      "Ġram": 8507,
      "Ġsimplement": 8508,
      "Ġresidence": 8509,
      "ĠtÃ©lÃ©communications": 8510,
      "Ġperce": 8511,
      "Ġallowance": 8512,
      "tront": 8513,
      "Ġupdate": 8514,
      "institution": 8515,
      "economic": 8516,
      "omc": 8517,
      "Ġwilli": 8518,
      "Ġvoici": 8519,
      "dictions": 8520,
      "ĠÃ©quitable": 8521,
      "Ġmanual": 8522,
      "76": 8523,
      "ĠeffectuÃ©s": 8524,
      "Ã©laborer": 8525,
      "Ġproductivity": 8526,
      "anger": 8527,
      "ataires": 8528,
      "Ġamor": 8529,
      "Ġlaunched": 8530,
      "Ġdisposal": 8531,
      "Ġguarantee": 8532,
      "occu": 8533,
      "Ġvoit": 8534,
      "Ġestimations": 8535,
      "quÃ©bec": 8536,
      "80": 8537,
      "Ġmas": 8538,
      "Ġentend": 8539,
      "Ã©rance": 8540,
      "Ġstatistical": 8541,
      "Ġacknowled": 8542,
      "Ġsand": 8543,
      "ĠspÃ©ciales": 8544,
      "Ġvariations": 8545,
      "Ġbos": 8546,
      "Ġplantes": 8547,
      "Ġ150": 8548,
      "Ġcomplexe": 8549,
      "Ġgeneration": 8550,
      "Ã¤": 8551,
      "Ġbig": 8552,
      "iche": 8553,
      "Ġluxem": 8554,
      "atus": 8555,
      "ĠdÃ©pl": 8556,
      "Ġmeilleures": 8557,
      "ĠcontrÃ´les": 8558,
      "Ġfondation": 8559,
      "Ġsanctions": 8560,
      "plain": 8561,
      "Ġconvainc": 8562,
      "alli": 8563,
      "Ġrock": 8564,
      "tÃ©rieurs": 8565,
      "Ġrecour": 8566,
      "Ġfelt": 8567,
      "Ġoccu": 8568,
      "Ġtrack": 8569,
      "Ġtelecommunications": 8570,
      "Ġasia": 8571,
      "Ġparall": 8572,
      "Ġlimitations": 8573,
      "Ġmobile": 8574,
      "ĠprÃ©liminaire": 8575,
      "ĠÃ®": 8576,
      "ĠqualitÃ©s": 8577,
      "Ġcrucial": 8578,
      "ĠlÃ©gislatives": 8579,
      "enfant": 8580,
      "Ġfournisseur": 8581,
      "tte": 8582,
      "Ġarrangement": 8583,
      "Ġveget": 8584,
      "onds": 8585,
      "Ġmur": 8586,
      "Ġolder": 8587,
      "unction": 8588,
      "ovis": 8589,
      "ĠprÃ©visions": 8590,
      "Ġrede": 8591,
      "Ġprovisoire": 8592,
      "Ġmesurer": 8593,
      "Ġvariable": 8594,
      "Ġimmediate": 8595,
      "Ġtreated": 8596,
      "Ġfacts": 8597,
      "aves": 8598,
      "chent": 8599,
      "Ġoffs": 8600,
      "nia": 8601,
      "Ġconserver": 8602,
      "itÃ©e": 8603,
      "Ġresident": 8604,
      "Ġarguments": 8605,
      "udence": 8606,
      "inage": 8607,
      "Ġaccidents": 8608,
      "Ġtranslation": 8609,
      "Ġremaining": 8610,
      "food": 8611,
      "Ġoffert": 8612,
      "Ġnar": 8613,
      "ĠfranÃ§aise": 8614,
      "Ġinvite": 8615,
      "Ġsecondaire": 8616,
      "Ġadresse": 8617,
      "Ġorganic": 8618,
      "Ġexpectations": 8619,
      "Ġcari": 8620,
      "Ġfrancophone": 8621,
      "Ġoxy": 8622,
      "ĠrÃ´les": 8623,
      "Ġconsequences": 8624,
      "Ġgrade": 8625,
      "Ġthom": 8626,
      "Ġinvolves": 8627,
      "Ġarriv": 8628,
      "ĠrÃ©gler": 8629,
      "Ġlives": 8630,
      "entis": 8631,
      "Ġjeunesse": 8632,
      "Ġethnic": 8633,
      "enza": 8634,
      "Ġstream": 8635,
      "Ġneuf": 8636,
      "Ġconformes": 8637,
      "Ġpuisqu": 8638,
      "Ġtissus": 8639,
      "inscription": 8640,
      "Ġdirectors": 8641,
      "Ġask": 8642,
      "Ġafrican": 8643,
      "ĠaccordÃ©e": 8644,
      "Ġcotisations": 8645,
      "ĠbudgÃ©taire": 8646,
      "Ġsamples": 8647,
      "ĠreconnaÃ®t": 8648,
      "ĠproductivitÃ©": 8649,
      "Ġprestataire": 8650,
      "Ġfrancophones": 8651,
      "Ġalign": 8652,
      "Ġsommet": 8653,
      "Ġvoies": 8654,
      "Ġmonetary": 8655,
      "Ġ________________________________": 8656,
      "Ġobserver": 8657,
      "Ġdelay": 8658,
      "Ġchiffres": 8659,
      "Ġdfo": 8660,
      "ĠvidÃ©": 8661,
      "1997": 8662,
      "Ġefficacement": 8663,
      "Ġdecline": 8664,
      "Ġoutlined": 8665,
      "Ġmentale": 8666,
      "Ġmodified": 8667,
      "Ġmigrants": 8668,
      "list": 8669,
      "iration": 8670,
      "Ġpwgsc": 8671,
      "Ġutili": 8672,
      "Ġsend": 8673,
      "ĠapprÃ©": 8674,
      "Ġtemporaire": 8675,
      "Ġtransmit": 8676,
      "Ġfestiv": 8677,
      "ĠclientÃ¨le": 8678,
      "ĠdÃ©signÃ©": 8679,
      "Ġadopt": 8680,
      "quie": 8681,
      "Ġprovenance": 8682,
      "Ġsubmissions": 8683,
      "ĠamÃ©liorations": 8684,
      "Ġgold": 8685,
      "ecd": 8686,
      "Ġsoumettre": 8687,
      "Ġincorporated": 8688,
      "taient": 8689,
      "Ġpose": 8690,
      "Ġindeed": 8691,
      "Ġ89": 8692,
      "Ġlar": 8693,
      "Ġvisent": 8694,
      "Ġprofessionnelles": 8695,
      "Ġoperators": 8696,
      "ĠrÃ©glementaire": 8697,
      "tiles": 8698,
      "ky": 8699,
      "Ġreve": 8700,
      "Ġ73": 8701,
      "Ġinjec": 8702,
      "Ġperception": 8703,
      "iales": 8704,
      "Ġconfirmed": 8705,
      "Ġfabri": 8706,
      "ĠamÃ©lioration": 8707,
      "Ġindigenous": 8708,
      "ĠbÃ©nÃ©ficiaire": 8709,
      "Ġpharmac": 8710,
      "Ġmouvement": 8711,
      "omy": 8712,
      "Ġhot": 8713,
      "ĠentiÃ¨rement": 8714,
      "Ġovers": 8715,
      "Ġtrafic": 8716,
      "Ġmutual": 8717,
      "Ġchris": 8718,
      "Ã©limination": 8719,
      "Ġ...": 8720,
      "Ġexperiences": 8721,
      "ĠdÃ©cri": 8722,
      "Ġtrial": 8723,
      "Ġcarbone": 8724,
      "Ġferro": 8725,
      "intÃ©gritÃ©": 8726,
      "Ġportugal": 8727,
      "Ġomb": 8728,
      "Ġdevez": 8729,
      "Ġvolet": 8730,
      "ennetÃ©": 8731,
      "Ġgall": 8732,
      "Ġrelief": 8733,
      "Ġsignificative": 8734,
      "Ġcontractu": 8735,
      "\")": 8736,
      "Ġconsentement": 8737,
      "Ġlatter": 8738,
      "harm": 8739,
      "zing": 8740,
      "Ġheadquarters": 8741,
      "ĠconsidÃ©rablement": 8742,
      "Ġappliquer": 8743,
      "offrir": 8744,
      "Ġever": 8745,
      "Ġintra": 8746,
      "Ġplacement": 8747,
      "Ġnit": 8748,
      "Ġincur": 8749,
      "ĠfrÃ©quence": 8750,
      "Ġrecruitment": 8751,
      "Ġvaloir": 8752,
      "Ġparagraphs": 8753,
      "Ġnotion": 8754,
      "ĠcÃ´te": 8755,
      "Ġswed": 8756,
      "Ġinterm": 8757,
      "Ġprivil": 8758,
      "Ġfif": 8759,
      "Ġremer": 8760,
      "ĠvÃ©rific": 8761,
      "Ġsn": 8762,
      "take": 8763,
      "Ġcalc": 8764,
      "ko": 8765,
      "etat": 8766,
      "Ġ72": 8767,
      "Ġcontribut": 8768,
      "Ġneigh": 8769,
      "Ġexistence": 8770,
      "Ġloin": 8771,
      "tici": 8772,
      "Ġlivre": 8773,
      "Ġsatisfaire": 8774,
      "Ġisra": 8775,
      "Ġparvenir": 8776,
      "Ġouvert": 8777,
      "udsman": 8778,
      "Ġexistants": 8779,
      "Ġinclusion": 8780,
      "internet": 8781,
      "Ġchoisir": 8782,
      "57": 8783,
      "Ġideas": 8784,
      "bus": 8785,
      "gments": 8786,
      "Ġtv": 8787,
      "Ġcycl": 8788,
      "ĠhandicapÃ©es": 8789,
      "Ġapproches": 8790,
      "Ġbuildings": 8791,
      "ĠprÃ©cÃ©dent": 8792,
      "Ġmultipl": 8793,
      "ĠcomposÃ©": 8794,
      "ĠÃ©chantillons": 8795,
      "Ġduration": 8796,
      "Ġmetal": 8797,
      "ĠadoptÃ©e": 8798,
      "Ġuncertain": 8799,
      "Ġbiodivers": 8800,
      "ĠtÃ©lÃ©copie": 8801,
      "Ġsometimes": 8802,
      "ĠdÃ©g": 8803,
      "ĠaccordÃ©": 8804,
      "Ġwto": 8805,
      "Ġfaibles": 8806,
      "Ġfigurent": 8807,
      "Ġtargeted": 8808,
      "Ġadoles": 8809,
      "entremise": 8810,
      "Ġsct": 8811,
      "Ġmodernisation": 8812,
      "Ġheart": 8813,
      "Ġinquiry": 8814,
      "ĠconstatÃ©": 8815,
      "Ġownership": 8816,
      "Ġ93": 8817,
      "ague": 8818,
      "Ġsensible": 8819,
      "Ġtourn": 8820,
      "Ġloan": 8821,
      "Ġmasse": 8822,
      "lav": 8823,
      "Ġvillage": 8824,
      "Ġsert": 8825,
      "Ġordre": 8826,
      "Ġjames": 8827,
      "oming": 8828,
      "ĠautorisÃ©": 8829,
      "Ġsouhaite": 8830,
      "ĠconcernÃ©s": 8831,
      "national": 8832,
      "Ġpatterns": 8833,
      "lers": 8834,
      "aled": 8835,
      "Ġcarrier": 8836,
      "Ġsuperv": 8837,
      "ĠrecommandÃ©": 8838,
      "Ġ62": 8839,
      "Ġproactive": 8840,
      "valence": 8841,
      "Ġevaluate": 8842,
      "Ġceci": 8843,
      "Ġsoumission": 8844,
      "007": 8845,
      "itent": 8846,
      "Ġsurr": 8847,
      "aim": 8848,
      "ellow": 8849,
      "Ġfemale": 8850,
      "Ã©ter": 8851,
      "Ġelse": 8852,
      "Ġ1970": 8853,
      "Ġbuilt": 8854,
      "Ġlun": 8855,
      "aisance": 8856,
      "Ġprovinciales": 8857,
      "Ġoral": 8858,
      "Ġprochaines": 8859,
      "Ġcapture": 8860,
      "Ġconting": 8861,
      "Ġawards": 8862,
      "ino": 8863,
      "Ġgraves": 8864,
      "Ã©lectricitÃ©": 8865,
      "Ġrise": 8866,
      "Ġfondamentaux": 8867,
      "Ġcrisis": 8868,
      "Ġnumerous": 8869,
      "Ġsatisfied": 8870,
      "Ġdemocracy": 8871,
      "ĠÃ©conomies": 8872,
      "care": 8873,
      "ĠsÃ©ance": 8874,
      "Ġdirecteurs": 8875,
      "Ġwashington": 8876,
      "ĠexpÃ©riences": 8877,
      "ĠaxÃ©e": 8878,
      "ĠmodifiÃ©e": 8879,
      "Ġadministratif": 8880,
      "ĠvÃ©hicule": 8881,
      "Ġemphasis": 8882,
      "Ġcontinuous": 8883,
      "Ġshowed": 8884,
      "traduction": 8885,
      "rance": 8886,
      "Ġmoving": 8887,
      "vest": 8888,
      "Ġdirecte": 8889,
      "Ġappels": 8890,
      "Ġindividus": 8891,
      "Ġmagaz": 8892,
      "ured": 8893,
      "imb": 8894,
      "enders": 8895,
      "ĠmaÃ®": 8896,
      "Ġnative": 8897,
      "Ġmartin": 8898,
      "Ġappuy": 8899,
      "Ġaccus": 8900,
      "Ã©nie": 8901,
      "ifier": 8902,
      "ĠsiÃ¨ge": 8903,
      "Ġenterprise": 8904,
      "ester": 8905,
      "anda": 8906,
      "Ġinstances": 8907,
      "Ġinu": 8908,
      "Ġengaged": 8909,
      "ĠchargÃ©e": 8910,
      "ovo": 8911,
      "Ġcitizenship": 8912,
      "Ġclinique": 8913,
      "Ġultim": 8914,
      "Ġsavoirs": 8915,
      "Ġentity": 8916,
      "Ġexperiment": 8917,
      "Ġconversion": 8918,
      "Ġfresh": 8919,
      "Ġluxembourg": 8920,
      "ĠliÃ©": 8921,
      "tered": 8922,
      "Ġreceipt": 8923,
      "Ġmpo": 8924,
      "85": 8925,
      "Ġmack": 8926,
      "anches": 8927,
      "Ġdiscuter": 8928,
[...]
