{
  "version": "1.0",
  "truncation": null,
  "padding": null,
  "added_tokens": [
    {
      "id": 0,
      "content": "<pad>",
      "single_word": false,
      "lstrip": false,
      "rstrip": false,
      "normalized": false,
      "special": true
    },
    {
      "id": 1,
      "content": "<bos>",
      "single_word": false,
      "lstrip": false,
      "rstrip": false,
      "normalized": false,
      "special": true
    },
    {
      "id": 2,
      "content": "<eos>",
      "single_word": false,
      "lstrip": false,
      "rstrip": false,
      "normalized": false,
      "special": true
    },
    {
      "id": 3,
      "content": "<unk>",
      "single_word": false,
      "lstrip": false,
      "rstrip": false,
      "normalized": false,
      "special": true
    }
  ],
  "normalizer": {
    "type": "Lowercase"
  },
  "pre_tokenizer": {
    "type": "Whitespace"
  },
  "post_processor": null,
  "decoder": null,
  "model": {
    "type": "BPE",
    "dropout": null,
    "unk_token": "<unk>",
    "continuing_subword_prefix": null,
    "end_of_word_suffix": null,
    "fuse_unk": false,
    "byte_fallback": false,
    "ignore_merges": false,
    "vocab": {
      "<pad>": 0,
      "<bos>": 1,
      "<eos>": 2,
      "<unk>": 3,
      "!": 4,
      "\"": 5,
      "#": 6,
      "%": 7,
      "&": 8,
      "'": 9,
      "(": 10,
      ")": 11,
      "*": 12,
      ",": 13,
      "-": 14,
      ".": 15,
      "/": 16,
      "0": 17,
      "1": 18,
      "2": 19,
      "3": 20,
      "4": 21,
      "5": 22,
      "6": 23,
      "7": 24,
      "8": 25,
      "9": 26,
      ":": 27,
      ";": 28,
      "?": 29,
      "@": 30,
      "[": 31,
      "\\": 32,
      "]": 33,
      "_": 34,
      "a": 35,
      "b": 36,
      "c": 37,
      "d": 38,
      "e": 39,
      "f": 40,
      "g": 41,
      "h": 42,
      "i": 43,
      "j": 44,
      "k": 45,
      "l": 46,
      "m": 47,
      "n": 48,
      "o": 49,
      "p": 50,
      "q": 51,
      "r": 52,
      "s": 53,
      "t": 54,
      "u": 55,
      "v": 56,
      "w": 57,
      "x": 58,
      "y": 59,
      "z": 60,
      "{": 61,
      "}": 62,
      "¡": 63,
      "§": 64,
      "ª": 65,
      "«": 66,
      "²": 67,
      "³": 68,
      "¶": 69,
      "·": 70,
      "¹": 71,
      "º": 72,
      "»": 73,
      "¼": 74,
      "½": 75,
      "¾": 76,
      "¿": 77,
      "ß": 78,
      "à": 79,
      "á": 80,
      "â": 81,
      "ã": 82,
      "ä": 83,
      "å": 84,
      "æ": 85,
      "ç": 86,
      "è": 87,
      "é": 88,
      "ê": 89,
      "ë": 90,
      "ì": 91,
      "í": 92,
      "î": 93,
      "ï": 94,
      "ð": 95,
      "ñ": 96,
      "ò": 97,
      "ó": 98,
      "ô": 99,
      "õ": 100,
      "ö": 101,
      "ø": 102,
      "ù": 103,
      "ú": 104,
      "û": 105,
      "ü": 106,
      "ý": 107,
      "þ": 108,
      "ÿ": 109,
      "ā": 110,
      "ă": 111,
      "ą": 112,
      "ć": 113,
      "ĉ": 114,
      "ċ": 115,
      "č": 116,
      "ď": 117,
      "đ": 118,
      "ē": 119,
      "ĕ": 120,
      "ė": 121,
      "ę": 122,
      "ě": 123,
      "ĝ": 124,
      "ğ": 125,
      "ġ": 126,
      "ģ": 127,
      "ĥ": 128,
      "ħ": 129,
      "ĩ": 130,
      "ī": 131,
      "ĭ": 132,
      "į": 133,
      "ı": 134,
      "ĳ": 135,
      "ĵ": 136,
      "ķ": 137,
      "ĺ": 138,
      "ļ": 139,
      "ľ": 140,
      "ł": 141,
      "ń": 142,
      "ņ": 143,
      "ň": 144,
      "ŋ": 145,
      "ō": 146,
      "ŏ": 147,
      "ő": 148,
      "œ": 149,
      "ŕ": 150,
      "ř": 151,
      "ś": 152,
      "ŝ": 153,
      "ş": 154,
      "š": 155,
      "ţ": 156,
      "ť": 157,
      "ũ": 158,
      "ū": 159,
      "ŭ": 160,
      "ů": 161,
      "ű": 162,
      "ų": 163,
      "ŵ": 164,
      "ŷ": 165,
      "ź": 166,
      "ż": 167,
      "ž": 168,
      "ƅ": 169,
      "ƒ": 170,
      "ƙ": 171,
      "ơ": 172,
      "ư": 173,
      "ƴ": 174,
      "ƶ": 175,
      "ǎ": 176,
      "ǔ": 177,
      "ǖ": 178,
      "ǜ": 179,
      "ǧ": 180,
      "ǫ": 181,
      "ǻ": 182,
      "ǿ": 183,
      "ȅ": 184,
      "ș": 185,
      "ț": 186,
      "ɂ": 187,
      "ɓ": 188,
      "ɔ": 189,
      "ɗ": 190,
      "ə": 191,
      "ɛ": 192,
      "ɲ": 193,
      "ɶ": 194,
      "ʔ": 195,
      "̇": 196,
      ";": 197,
      "·": 198,
      "٠": 199,
      "١": 200,
      "٢": 201,
      "٣": 202,
      "٥": 203,
      "٨": 204,
      "٩": 205,
      "٭": 206,
      "܌": 207,
      "ḵ": 208,
      "ẃ": 209,
      "ẕ": 210,
      "ạ": 211,
      "ả": 212,
      "ấ": 213,
      "ầ": 214,
      "ẩ": 215,
      "ậ": 216,
      "ắ": 217,
      "ằ": 218,
      "ẳ": 219,
      "ặ": 220,
      "ẻ": 221,
      "ẽ": 222,
      "ế": 223,
      "ề": 224,
      "ể": 225,
      "ệ": 226,
      "ỉ": 227,
      "ị": 228,
      "ọ": 229,
      "ố": 230,
      "ồ": 231,
      "ổ": 232,
      "ộ": 233,
      "ớ": 234,
      "ờ": 235,
      "ở": 236,
      "ợ": 237,
      "ụ": 238,
      "ủ": 239,
      "ứ": 240,
      "ừ": 241,
      "ử": 242,
      "ữ": 243,
      "ự": 244,
      "ỳ": 245,
      "‐": 246,
      "‑": 247,
      "‒": 248,
      "–": 249,
      "—": 250,
      "―": 251,
      "‖": 252,
      "‘": 253,
      "’": 254,
      "‚": 255,
      "‛": 256,
      "„": 257,
      "‟": 258,
      "†": 259,
      "‡": 260,
      "•": 261,
      "…": 262,
      "‰": 263,
      "′": 264,
      "″": 265,
      "‹": 266,
      "›": 267,
      "‾": 268,
      "⁁": 269,
      "⁏": 270,
      "⁷": 271,
      "₀": 272,
      "₁": 273,
      "₂": 274,
      "⅓": 275,
      "⅔": 276,
      "⅛": 277,
      "⅜": 278,
      "⅝": 279,
      "⌋": 280,
      "〈": 281,
      "〉": 282,
      "②": 283,
      "❯": 284,
      "❶": 285,
      "❷": 286,
      "➀": 287,
      "➁": 288,
      "➄": 289,
      "➊": 290,
      "➋": 291,
      "➌": 292,
      "➍": 293,
      "➎": 294,
      "➏": 295,
      "➑": 296,
      "➓": 297,
      "・": 298,
      "ﬀ": 299,
      "ﬁ": 300,
      "ﬂ": 301,
      "ﬃ": 302,
      "ﬄ": 303,
      "（": 304,
      "）": 305,
      "，": 306,
      "－": 307,
      "０": 308,
      "１": 309,
      "４": 310,
      "：": 311,
      "？": 312,
      "es": 313,
      "on": 314,
      "en": 315,
      "ti": 316,
      "an": 317,
      "in": 318,
      "er": 319,
      "th": 320,
      "re": 321,
      "de": 322,
      "tion": 323,
      "or": 324,
      "le": 325,
      "is": 326,
      "ent": 327,
      "ou": 328,
      "the": 329,
      "la": 330,
      "al": 331,
      "it": 332,
      "ar": 333,
      "pr": 334,
      "qu": 335,
      "te": 336,
      "et": 337,
      "ation": 338,
      "of": 339,
      "om": 340,
      "ur": 341,
      "ic": 342,
      "ment": 343,
      "les": 344,
      "and": 345,
      "un": 346,
      "tr": 347,
      "as": 348,
      "au": 349,
      "at": 350,
      "ce": 351,
      "des": 352,
      "se": 353,
      "to": 354,
      "con": 355,
      "ch": 356,
      "il": 357,
      "pro": 358,
      "du": 359,
      "ve": 360,
      "si": 361,
      "ac": 362,
      "com": 363,
      "ad": 364,
      "ing": 365,
      "par": 366,
      "for": 367,
      "our": 368,
      "me": 369,
      "ant": 370,
      "ir": 371,
      "ne": 372,
      "su": 373,
      "que": 374,
      "li": 375,
      "lo": 376,
      "ta": 377,
      "di": 378,
      "ra": 379,
      "ci": 380,
      "ter": 381,
      "po": 382,
      "pe": 383,
      "ag": 384,
      "ans": 385,
      "ed": 386,
      "res": 387,
      "dé": 388,
      "ré": 389,
      "ex": 390,
      "st": 391,
      "ver": 392,
      "ap": 393,
      "ces": 394,
      "és": 395,
      "ma": 396,
      "por": 397,
      "00": 398,
      "per": 399,
      "can": 400,
      "lu": 401,
      "be": 402,
      "co": 403,
      "no": 404,
      "ie": 405,
      "im": 406,
      "ab": 407,
      "sur": 408,
      "ont": 409,
      "est": 410,
      "comm": 411,
      "pour": 412,
      "canad": 413,
      "une": 414,
      "ct": 415,
      "aux": 416,
      "am": 417,
      "ér": 418,
      "ser": 419,
      "ly": 420,
      "mo": 421,
      "so": 422,
      "cu": 423,
      "av": 424,
      "ig": 425,
      "dans": 426,
      "ate": 427,
      "ff": 428,
      "port": 429,
      "ction": 430,
      "tre": 431,
      "el": 432,
      "qui": 433,
      "ations": 434,
      "200": 435,
      "min": 436,
      "tin": 437,
      "sion": 438,
      "ai": 439,
      "that": 440,
      "pu": 441,
      "ro": 442,
      "tu": 443,
      "ité": 444,
      "lic": 445,
      "are": 446,
      "form": 447,
      "ion": 448,
      "wi": 449,
      "vi": 450,
      "té": 451,
      "wh": 452,
      "mb": 453,
      "ments": 454,
      "ers": 455,
      "ten": 456,
      "tions": 457,
      "ques": 458,
      "bu": 459,
      "fic": 460,
      "ance": 461,
      "with": 462,
      "ity": 463,
      "str": 464,
      "fr": 465,
      "ts": 466,
      "mp": 467,
      "canada": 468,
      "op": 469,
      "ous": 470,
      "man": 471,
      "inter": 472,
      "ge": 473,
      "der": 474,
      "age": 475,
      "mes": 476,
      "fin": 477,
      "ence": 478,
      "ther": 479,
      "ted": 480,
      "do": 481,
      "tive": 482,
      "serv": 483,
      "urs": 484,
      "19": 485,
      "né": 486,
      "end": 487,
      "comp": 488,
      "dis": 489,
      "us": 490,
      "gra": 491,
      "ave": 492,
      "by": 493,
      "vo": 494,
      "ins": 495,
      "gr": 496,
      "ting": 497,
      "parti": 498,
      "son": 499,
      "lement": 500,
      "sh": 501,
      "ait": 502,
      "gu": 503,
      "ph": 504,
      "ay": 505,
      "oun": 506,
      "mar": 507,
      "ri": 508,
      "nation": 509,
      "ill": 510,
      "its": 511,
      "ob": 512,
      "lis": 513,
      "tiv": 514,
      "cer": 515,
      "tic": 516,
      "ld": 517,
      "fi": 518,
      "ses": 519,
      "ée": 520,
      "ul": 521,
      "ble": 522,
      "out": 523,
      "air": 524,
      "all": 525,
      "plu": 526,
      "ven": 527,
      "servic": 528,
      "__": 529,
      "fo": 530,
      "vis": 531,
      "pas": 532,
      "ain": 533,
      "ère": 534,
      "ni": 535,
      "je": 536,
      "che": 537,
      "tri": 538,
      "ure": 539,
      "pré": 540,
      "he": 541,
      "gram": 542,
      "lle": 543,
      "go": 544,
      "pos": 545,
      "mis": 546,
      "pub": 547,
      "this": 548,
      "program": 549,
      "id": 550,
      "we": 551,
      "ale": 552,
      "inc": 553,
      "pl": 554,
      "produ": 555,
      "ien": 556,
      "pre": 557,
      "minis": 558,
      "emp": 559,
      "aire": 560,
      "pon": 561,
      "ard": 562,
      "ants": 563,
      "iti": 564,
      "wor": 565,
      "ées": 566,
      "pri": 567,
      "cor": 568,
      "eur": 569,
      "plus": 570,
      "entre": 571,
      "commun": 572,
      "formation": 573,
      "act": 574,
      "national": 575,
      "ég": 576,
      "not": 577,
      "sa": 578,
      "val": 579,
      "app": 580,
      "sont": 581,
      "enti": 582,
      "velo": 583,
      "cial": 584,
      "ine": 585,
      "été": 586,
      "ite": 587,
      "part": 588,
      "ies": 589,
      "from": 590,
      "eff": 591,
      "sy": 592,
      "able": 593,
      "mon": 594,
      "io": 595,
      "ear": 596,
      "cour": 597,
      "199": 598,
      "org": 599,
      "..": 600,
      "ere": 601,
      "pres": 602,
      "lar": 603,
      "dire": 604,
      "sta": 605,
      "velop": 606,
      "trans": 607,
      "person": 608,
      "ke": 609,
      "cr": 610,
      "was": 611,
      "ich": 612,
      "vent": 613,
      "cip": 614,
      "ux": 615,
      "nu": 616,
      "organ": 617,
      "ures": 618,
      "ls": 619,
      "don": 620,
      "fe": 621,
      "cess": 622,
      "sub": 623,
      "work": 624,
      "ors": 625,
      "ire": 626,
      "éta": 627,
      "tes": 628,
      "ould": 629,
      "information": 630,
      "ités": 631,
      "ren": 632,
      ").": 633,
      "titu": 634,
      "services": 635,
      "mé": 636,
      "nement": 637,
      "bo": 638,
      "prés": 639,
      "ès": 640,
      "cas": 641,
      "mi": 642,
      "ue": 643,
      "rela": 644,
      "reg": 645,
      "pla": 646,
      "coun": 647,
      "aires": 648,
      "ges": 649,
      "ents": 650,
      "public": 651,
      "igh": 652,
      "cur": 653,
      "tif": 654,
      "ho": 655,
      "nes": 656,
      "log": 657,
      "emplo": 658,
      "cons": 659,
      "int": 660,
      "will": 661,
      "ded": 662,
      "ary": 663,
      "fer": 664,
      "ique": 665,
      "memb": 666,
      "ds": 667,
      "soci": 668,
      "cent": 669,
      "ats": 670,
      "chan": 671,
      "cet": 672,
      "posi": 673,
      "ding": 674,
      "dic": 675,
      "use": 676,
      "tres": 677,
      "),": 678,
      "one": 679,
      "have": 680,
      "bil": 681,
      "lon": 682,
      "cis": 683,
      "être": 684,
      "présent": 685,
      "peu": 686,
      "avec": 687,
      "gh": 688,
      "ines": 689,
      "bas": 690,
      "lt": 691,
      "sup": 692,
      "vir": 693,
      "which": 694,
      "contr": 695,
      "gen": 696,
      "jet": 697,
      "gé": 698,
      "cla": 699,
      "ét": 700,
      "car": 701,
      "ouver": 702,
      "low": 703,
      "bre": 704,
      "other": 705,
      "has": 706,
      "sou": 707,
      "pris": 708,
      "fon": 709,
      "elle": 710,
      "non": 711,
      "ach": 712,
      "spe": 713,
      "ient": 714,
      "tor": 715,
      "met": 716,
      "sp": 717,
      "pay": 718,
      "br": 719,
      "lation": 720,
      "ated": 721,
      "commis": 722,
      "ouve": 723,
      "respon": 724,
      "tra": 725,
      "rap": 726,
      "ian": 727,
      "tives": 728,
      "____": 729,
      "ty": 730,
      "envir": 731,
      "diff": 732,
      "environ": 733,
      "appro": 734,
      "grou": 735,
      "import": 736,
      "tis": 737,
      "iz": 738,
      "offic": 739,
      "tribu": 740,
      "alth": 741,
      "ille": 742,
      "tique": 743,
      "rég": 744,
      "artic": 745,
      "nor": 746,
      "ais": 747,
      "under": 748,
      "nom": 749,
      "sé": 750,
      "their": 751,
      "cep": 752,
      "uti": 753,
      "oc": 754,
      "lé": 755,
      "ms": 756,
      "commission": 757,
      "employ": 758,
      "valu": 759,
      "ip": 760,
      "provi": 761,
      "vers": 762,
      "sig": 763,
      "inclu": 764,
      "cte": 765,
      "ates": 766,
      "exp": 767,
      "ste": 768,
      "tech": 769,
      "vie": 770,
      "cette": 771,
      "10": 772,
      "trav": 773,
      "develop": 774,
      "plan": 775,
      "sant": 776,
      "ons": 777,
      "ju": 778,
      "lan": 779,
      "autres": 780,
      "ari": 781,
      "organis": 782,
      "ves": 783,
      "applic": 784,
      "lles": 785,
      "imp": 786,
      "canadien": 787,
      "ctive": 788,
      "ens": 789,
      "new": 790,
      "ture": 791,
      "stru": 792,
      "ils": 793,
      "dro": 794,
      "euro": 795,
      "ities": 796,
      "cre": 797,
      "cy": 798,
      "ions": 799,
      "cal": 800,
      "concer": 801,
      "fication": 802,
      "leur": 803,
      "conom": 804,
      "cher": 805,
      "cé": 806,
      "cap": 807,
      "gover": 808,
      "um": 809,
      "health": 810,
      "ères": 811,
      "ll": 812,
      "indi": 813,
      "bor": 814,
      "lig": 815,
      "cts": 816,
      "tiques": 817,
      "article": 818,
      "ree": 819,
      "aff": 820,
      "exam": 821,
      "ist": 822,
      "were": 823,
      "eral": 824,
      "nouve": 825,
      "govern": 826,
      "service": 827,
      "tro": 828,
      "effe": 829,
      "ress": 830,
      "international": 831,
      "if": 832,
      "prin": 833,
      "mu": 834,
      "utilis": 835,
      "tho": 836,
      "activ": 837,
      "hu": 838,
      "cri": 839,
      "ol": 840,
      "fait": 841,
      "ales": 842,
      "finan": 843,
      "ese": 844,
      "trava": 845,
      "ources": 846,
      "pa": 847,
      "nées": 848,
      "more": 849,
      "ner": 850,
      "qual": 851,
      "ough": 852,
      "fac": 853,
      "érie": 854,
      "comme": 855,
      "poli": 856,
      "main": 857,
      "canadian": 858,
      "ris": 859,
      "also": 860,
      "eu": 861,
      "fa": 862,
      "eng": 863,
      "year": 864,
      "europe": 865,
      "mber": 866,
      "tout": 867,
      "ical": 868,
      "may": 869,
      "indu": 870,
      "sions": 871,
      "termin": 872,
      "ative": 873,
      "there": 874,
      "ial": 875,
      "polic": 876,
      "tain": 877,
      "these": 878,
      "red": 879,
      "any": 880,
      "gouver": 881,
      "particip": 882,
      "abil": 883,
      "sult": 884,
      "docu": 885,
      "been": 886,
      "men": 887,
      "consi": 888,
      "fir": 889,
      "iv": 890,
      "sed": 891,
      "ences": 892,
      "ème": 893,
      "santé": 894,
      "ssi": 895,
      "industr": 896,
      "oper": 897,
      "vin": 898,
      "20": 899,
      "char": 900,
      "prof": 901,
      "conse": 902,
      "dur": 903,
      "ase": 904,
      "prote": 905,
      "ome": 906,
      "programme": 907,
      "ved": 908,
      "led": 909,
      "ties": 910,
      "rapport": 911,
      "but": 912,
      "iques": 913,
      "position": 914,
      "ires": 915,
      "group": 916,
      "jour": 917,
      "king": 918,
      "ber": 919,
      "ia": 920,
      "mand": 921,
      "bles": 922,
      "ss": 923,
      "ca": 924,
      "accor": 925,
      "mat": 926,
      "cré": 927,
      "nous": 928,
      "dev": 929,
      "they": 930,
      "particu": 931,
      "initi": 932,
      "adminis": 933,
      "dom": 934,
      "four": 935,
      "section": 936,
      "blis": 937,
      "ef": 938,
      "mit": 939,
      "aut": 940,
      "agement": 941,
      "dent": 942,
      "clu": 943,
      "12": 944,
      "projet": 945,
      "....": 946,
      "sit": 947,
      "personne": 948,
      "mer": 949,
      "time": 950,
      "provin": 951,
      "appe": 952,
      "mil": 953,
      "view": 954,
      "institu": 955,
      "od": 956,
      "sus": 957,
      "development": 958,
      "tou": 959,
      "wn": 960,
      "fun": 961,
      "government": 962,
      "syste": 963,
      "ang": 964,
      "ances": 965,
      "jus": 966,
      "tifs": 967,
      "labor": 968,
      "over": 969,
      "action": 970,
      "ense": 971,
      "change": 972,
      "march": 973,
      "contin": 974,
      "cro": 975,
      "princip": 976,
      "deux": 977,
      "such": 978,
      "requi": 979,
      "près": 980,
      "ide": 981,
      "ice": 982,
      "obje": 983,
      "11": 984,
      "peut": 985,
      "ally": 986,
      "pays": 987,
      "ks": 988,
      "nat": 989,
      "évalu": 990,
      "cho": 991,
      "bet": 992,
      "possi": 993,
      "should": 994,
      "place": 995,
      "vision": 996,
      "ages": 997,
      "ru": 998,
      "contribu": 999,
      "ass": 1000,
      "duc": 1001,
      "ess": 1002,
      "alis": 1003,
      "leg": 1004,
      "cours": 1005,
      "ound": 1006,
      "uni": 1007,
      "gestion": 1008,
      "inte": 1009,
      "ets": 1010,
      "pend": 1011,
      "acti": 1012,
      "land": 1013,
      "regu": 1014,
      "resear": 1015,
      "syst": 1016,
      "ctor": 1017,
      "commit": 1018,
      "vention": 1019,
      "15": 1020,
      "aly": 1021,
      "mais": 1022,
      "mê": 1023,
      "ii": 1024,
      "report": 1025,
      "research": 1026,
      "dévelop": 1027,
      "cherche": 1028,
      "ign": 1029,
      "gouvernement": 1030,
      "cau": 1031,
      "loi": 1032,
      "nombre": 1033,
      "who": 1034,
      "issu": 1035,
      "prom": 1036,
      "colle": 1037,
      "than": 1038,
      "bien": 1039,
      "èg": 1040,
      "his": 1041,
      "jo": 1042,
      "fore": 1043,
      "you": 1044,
      "cision": 1045,
      "rais": 1046,
      "techno": 1047,
      "éle": 1048,
      "anti": 1049,
      "premi": 1050,
      "concern": 1051,
      "alement": 1052,
      "identi": 1053,
      "13": 1054,
      "technolog": 1055,
      "voir": 1056,
      "proje": 1057,
      "agra": 1058,
      "dition": 1059,
      "lin": 1060,
      "ord": 1061,
      "règ": 1062,
      "fé": 1063,
      "respe": 1064,
      "ainsi": 1065,
      "trait": 1066,
      "ctions": 1067,
      "cad": 1068,
      "sous": 1069,
      "étu": 1070,
      "net": 1071,
      "avant": 1072,
      "fu": 1073,
      "pement": 1074,
      "associ": 1075,
      "2005": 1076,
      "travail": 1077,
      "ile": 1078,
      "agraph": 1079,
      "tal": 1080,
      "paragraph": 1081,
      "col": 1082,
      "nements": 1083,
      "would": 1084,
      "stand": 1085,
      "ante": 1086,
      "na": 1087,
      "present": 1088,
      "leurs": 1089,
      "protection": 1090,
      "opé": 1091,
      "avo": 1092,
      "ric": 1093,
      "speci": 1094,
      "aient": 1095,
      "ban": 1096,
      "sement": 1097,
      "mark": 1098,
      "als": 1099,
      "2004": 1100,
      "2006": 1101,
      "dit": 1102,
      "communic": 1103,
      "commer": 1104,
      "minist": 1105,
      "application": 1106,
      "management": 1107,
      "lors": 1108,
      "analy": 1109,
      "date": 1110,
      "vé": 1111,
      "publi": 1112,
      "her": 1113,
      "cted": 1114,
      "table": 1115,
      "faire": 1116,
      "righ": 1117,
      "18": 1118,
      "fol": 1119,
      "vre": 1120,
      "wo": 1121,
      "thr": 1122,
      "elles": 1123,
      "ple": 1124,
      "bl": 1125,
      "même": 1126,
      "cou": 1127,
      "wel": 1128,
      "ww": 1129,
      "prior": 1130,
      "rit": 1131,
      "environment": 1132,
      "lations": 1133,
      "up": 1134,
      "atég": 1135,
      "point": 1136,
      "ition": 1137,
      "popu": 1138,
      "teurs": 1139,
      "reas": 1140,
      "recomm": 1141,
      "vous": 1142,
      "cteur": 1143,
      "ful": 1144,
      "conseil": 1145,
      "resul": 1146,
      "mise": 1147,
      "pi": 1148,
      "ton": 1149,
      "ger": 1150,
      "ctr": 1151,
      "af": 1152,
      "certa": 1153,
      "stu": 1154,
      "some": 1155,
      "pen": 1156,
      "cus": 1157,
      "________": 1158,
      "cul": 1159,
      "14": 1160,
      "support": 1161,
      "depart": 1162,
      "sure": 1163,
      "tous": 1164,
      "through": 1165,
      "développement": 1166,
      "objec": 1167,
      "now": 1168,
      "follow": 1169,
      "fis": 1170,
      "2003": 1171,
      "regis": 1172,
      "requ": 1173,
      "high": 1174,
      "mande": 1175,
      "membres": 1176,
      "ele": 1177,
      "née": 1178,
      "vol": 1179,
      "first": 1180,
      "30": 1181,
      "recherche": 1182,
      "rent": 1183,
      "cli": 1184,
      "where": 1185,
      "nex": 1186,
      "leve": 1187,
      "demande": 1188,
      "ween": 1189,
      "way": 1190,
      "between": 1191,
      "europé": 1192,
      "auth": 1193,
      "éri": 1194,
      "entrepris": 1195,
      "mati": 1196,
      "cadre": 1197,
      "avoir": 1198,
      "important": 1199,
      "activités": 1200,
      "orig": 1201,
      "fonction": 1202,
      "tent": 1203,
      "sci": 1204,
      "pur": 1205,
      "loc": 1206,
      "ural": 1207,
      "general": 1208,
      "données": 1209,
      "ateg": 1210,
      "had": 1211,
      "ong": 1212,
      "very": 1213,
      "situ": 1214,
      "assur": 1215,
      "cle": 1216,
      "document": 1217,
      "gén": 1218,
      "ps": 1219,
      "ater": 1220,
      "2002": 1221,
      "économ": 1222,
      "puis": 1223,
      "suiv": 1224,
      "tax": 1225,
      "gi": 1226,
      "langu": 1227,
      "site": 1228,
      "econom": 1229,
      "policy": 1230,
      "into": 1231,
      "transport": 1232,
      "198": 1233,
      "éli": 1234,
      "bus": 1235,
      "effic": 1236,
      "permet": 1237,
      "16": 1238,
      "need": 1239,
      "exper": 1240,
      "ating": 1241,
      "indic": 1242,
      "hip": 1243,
      "ory": 1244,
      "european": 1245,
      "dg": 1246,
      "proces": 1247,
      "dér": 1248,
      "day": 1249,
      "dat": 1250,
      "2007": 1251,
      "enne": 1252,
      "également": 1253,
      "fourn": 1254,
      "comple": 1255,
      "question": 1256,
      "ital": 1257,
      "dy": 1258,
      "demand": 1259,
      "prend": 1260,
      ".,": 1261,
      "ned": 1262,
      "ables": 1263,
      "author": 1264,
      "tex": 1265,
      "ning": 1266,
      "organiz": 1267,
      "ced": 1268,
      "number": 1269,
      "rait": 1270,
      "partie": 1271,
      "social": 1272,
      "programmes": 1273,
      "afin": 1274,
      "doit": 1275,
      "environnement": 1276,
      "résult": 1277,
      "produits": 1278,
      "system": 1279,
      "adop": 1280,
      "office": 1281,
      "vari": 1282,
      "ben": 1283,
      "community": 1284,
      "toute": 1285,
      "ditions": 1286,
      "temp": 1287,
      "committe": 1288,
      "union": 1289,
      "teur": 1290,
      "seig": 1291,
      "fied": 1292,
      "crit": 1293,
      "administr": 1294,
      "autre": 1295,
      "must": 1296,
      "ération": 1297,
      "only": 1298,
      "long": 1299,
      "renseig": 1300,
      "fact": 1301,
      "aussi": 1302,
      "constitu": 1303,
      "mission": 1304,
      "bility": 1305,
      "ards": 1306,
      "agree": 1307,
      "25": 1308,
      "forme": 1309,
      "bes": 1310,
      "modi": 1311,
      "well": 1312,
      "ack": 1313,
      "ck": 1314,
      "après": 1315,
      "hel": 1316,
      "agen": 1317,
      "states": 1318,
      "cture": 1319,
      "when": 1320,
      "qué": 1321,
      "2001": 1322,
      "17": 1323,
      "personnes": 1324,
      "production": 1325,
      "ise": 1326,
      "process": 1327,
      "actu": 1328,
      "--": 1329,
      "conditions": 1330,
      "nive": 1331,
      "tru": 1332,
      "ctu": 1333,
      "mr": 1334,
      "exemp": 1335,
      "ot": 1336,
      "fam": 1337,
      "force": 1338,
      "fois": 1339,
      "questions": 1340,
      "2000": 1341,
      "dont": 1342,
      "state": 1343,
      "ination": 1344,
      "appli": 1345,
      "conclu": 1346,
      "continu": 1347,
      "matière": 1348,
      "shall": 1349,
      "tablis": 1350,
      "two": 1351,
      "atives": 1352,
      "évaluation": 1353,
      "cil": 1354,
      "consider": 1355,
      "isation": 1356,
      "mul": 1357,
      "ild": 1358,
      "consu": 1359,
      "ety": 1360,
      "rece": 1361,
      "génér": 1362,
      "autor": 1363,
      "inté": 1364,
      "spé": 1365,
      "répon": 1366,
      "tur": 1367,
      "fed": 1368,
      "région": 1369,
      "représent": 1370,
      "tenir": 1371,
      "asses": 1372,
      "ducation": 1373,
      "da": 1374,
      "lution": 1375,
      "territ": 1376,
      "nécess": 1377,
      "semb": 1378,
      "capac": 1379,
      "meas": 1380,
      "come": 1381,
      "états": 1382,
      "member": 1383,
      "vidu": 1384,
      "committee": 1385,
      "nal": 1386,
      "individu": 1387,
      "nature": 1388,
      "dence": 1389,
      "hy": 1390,
      "most": 1391,
      "profes": 1392,
      "moy": 1393,
      "made": 1394,
      "renseignements": 1395,
      "within": 1396,
      "lég": 1397,
      "ters": 1398,
      "pér": 1399,
      "stratég": 1400,
      "eurs": 1401,
      "cès": 1402,
      "department": 1403,
      "used": 1404,
      "off": 1405,
      "about": 1406,
      "promo": 1407,
      "centre": 1408,
      "inves": 1409,
      "inal": 1410,
      "try": 1411,
      "sen": 1412,
      "moins": 1413,
      "sécur": 1414,
      "total": 1415,
      "univers": 1416,
      "strateg": 1417,
      "cause": 1418,
      "peuvent": 1419,
      "set": 1420,
      "sc": 1421,
      "système": 1422,
      "ario": 1423,
      "cha": 1424,
      "busines": 1425,
      "ôle": 1426,
      "tablish": 1427,
      "establish": 1428,
      "rele": 1429,
      "mesures": 1430,
      "équ": 1431,
      "ali": 1432,
      "èmes": 1433,
      "those": 1434,
      "propos": 1435,
      "law": 1436,
      "contre": 1437,
      "require": 1438,
      "000": 1439,
      "ivent": 1440,
      "selon": 1441,
      "gre": 1442,
      "particuli": 1443,
      "compte": 1444,
      "see": 1445,
      "train": 1446,
      "surve": 1447,
      "inv": 1448,
      "antes": 1449,
      "ches": 1450,
      "lable": 1451,
      "provide": 1452,
      "human": 1453,
      "ressources": 1454,
      "peti": 1455,
      "était": 1456,
      "inf": 1457,
      "review": 1458,
      "soit": 1459,
      "mor": 1460,
      "region": 1461,
      "améli": 1462,
      "droits": 1463,
      "respect": 1464,
      "vue": 1465,
      "duction": 1466,
      "positions": 1467,
      "jur": 1468,
      "possible": 1469,
      "nationale": 1470,
      "où": 1471,
      "bon": 1472,
      "graph": 1473,
      "exis": 1474,
      "comité": 1475,
      "esti": 1476,
      "ran": 1477,
      "mment": 1478,
      "respons": 1479,
      "ga": 1480,
      "data": 1481,
      "pou": 1482,
      "tical": 1483,
      "amélior": 1484,
      "stat": 1485,
      "based": 1486,
      "peop": 1487,
      "tenu": 1488,
      "rale": 1489,
      "dre": 1490,
      "sécurité": 1491,
      "including": 1492,
      "vities": 1493,
      "appropri": 1494,
      "gro": 1495,
      "council": 1496,
      "bal": 1497,
      "politique": 1498,
      "centr": 1499,
      "lui": 1500,
      "ément": 1501,
      "order": 1502,
      "line": 1503,
      "reven": 1504,
      "limit": 1505,
      "activities": 1506,
      "mont": 1507,
      "différ": 1508,
      "exer": 1509,
      "détermin": 1510,
      "cost": 1511,
      "bi": 1512,
      "groupe": 1513,
      "crip": 1514,
      "justi": 1515,
      "project": 1516,
      "résultats": 1517,
      "droit": 1518,
      "quel": 1519,
      "parties": 1520,
      "years": 1521,
      "gar": 1522,
      "annu": 1523,
      "population": 1524,
      "priv": 1525,
      "dement": 1526,
      "50": 1527,
      "nov": 1528,
      "accord": 1529,
      "24": 1530,
      "profession": 1531,
      "tant": 1532,
      "ministère": 1533,
      "addition": 1534,
      "sive": 1535,
      "ited": 1536,
      "consult": 1537,
      "mbre": 1538,
      "dra": 1539,
      "aine": 1540,
      "signi": 1541,
      "ving": 1542,
      "impro": 1543,
      "pose": 1544,
      "bilité": 1545,
      "each": 1546,
      "géné": 1547,
      "assess": 1548,
      "har": 1549,
      "vant": 1550,
      "sel": 1551,
      "secon": 1552,
      "processus": 1553,
      "economic": 1554,
      "facil": 1555,
      "culture": 1556,
      "os": 1557,
      "bun": 1558,
      "financi": 1559,
      "board": 1560,
      "dies": 1561,
      "procé": 1562,
      "ref": 1563,
      "ontario": 1564,
      "maj": 1565,
      "tien": 1566,
      "mun": 1567,
      "dr": 1568,
      "iss": 1569,
      "following": 1570,
      "operation": 1571,
      "inten": 1572,
      "federal": 1573,
      "fur": 1574,
      "differ": 1575,
      "conform": 1576,
      "beso": 1577,
      "exig": 1578,
      "sans": 1579,
      "care": 1580,
      "bio": 1581,
      "after": 1582,
      "bure": 1583,
      "tari": 1584,
      "état": 1585,
      "business": 1586,
      "refer": 1587,
      "avai": 1588,
      "publique": 1589,
      "fér": 1590,
      "instru": 1591,
      "level": 1592,
      "let": 1593,
      "base": 1594,
      "perio": 1595,
      "cra": 1596,
      "local": 1597,
      "communau": 1598,
      "tries": 1599,
      "temps": 1600,
      "lead": 1601,
      "inst": 1602,
      "bec": 1603,
      "during": 1604,
      "aid": 1605,
      "doivent": 1606,
      "both": 1607,
      "budg": 1608,
      "tric": 1609,
      "accoun": 1610,
      "ente": 1611,
      "trois": 1612,
      "effor": 1613,
      "pes": 1614,
      "bro": 1615,
      "people": 1616,
      "case": 1617,
      "actions": 1618,
      "water": 1619,
      "iter": 1620,
      "22": 1621,
      "hab": 1622,
      "pério": 1623,
      "implement": 1624,
      "agric": 1625,
      "sin": 1626,
      "clo": 1627,
      "sep": 1628,
      "niveau": 1629,
      "ership": 1630,
      "faç": 1631,
      "tribun": 1632,
      "nations": 1633,
      "derni": 1634,
      "financial": 1635,
      "1999": 1636,
      "règlement": 1637,
      "quer": 1638,
      "ace": 1639,
      "........": 1640,
      "famil": 1641,
      "ctiv": 1642,
      "conn": 1643,
      "documents": 1644,
      "inde": 1645,
      "them": 1646,
      "countries": 1647,
      "relations": 1648,
      "many": 1649,
      "personnel": 1650,
      "oblig": 1651,
      "pra": 1652,
      "major": 1653,
      "industrie": 1654,
      "laboration": 1655,
      "rad": 1656,
      "grand": 1657,
      "mig": 1658,
      "subst": 1659,
      "politiques": 1660,
      "specific": 1661,
      "particular": 1662,
      "ast": 1663,
      "howe": 1664,
      "provided": 1665,
      "being": 1666,
      "aiss": 1667,
      "nent": 1668,
      "traite": 1669,
      "rights": 1670,
      "what": 1671,
      "els": 1672,
      "cs": 1673,
      "dou": 1674,
      "atten": 1675,
      "resources": 1676,
      "23": 1677,
      "annex": 1678,
      "agency": 1679,
      "secteur": 1680,
      "however": 1681,
      "add": 1682,
      "déc": 1683,
      "suc": 1684,
      "issues": 1685,
      "perform": 1686,
      "second": 1687,
      "cand": 1688,
      "cir": 1689,
      "concernant": 1690,
      "année": 1691,
      "fra": 1692,
      "explo": 1693,
      "cont": 1694,
      "increas": 1695,
      "ability": 1696,
      "fran": 1697,
      "aw": 1698,
      "bé": 1699,
      "lè": 1700,
      "ôt": 1701,
      "œu": 1702,
      "ry": 1703,
      "responsi": 1704,
      "parten": 1705,
      "hi": 1706,
      "ask": 1707,
      "your": 1708,
      "administration": 1709,
      "less": 1710,
      "assist": 1711,
      "access": 1712,
      "inform": 1713,
      "paragraphe": 1714,
      "défin": 1715,
      "web": 1716,
      "gran": 1717,
      "ints": 1718,
      "gment": 1719,
      "établis": 1720,
      "medi": 1721,
      "laire": 1722,
      "direct": 1723,
      "ource": 1724,
      "trade": 1725,
      "decision": 1726,
      "taux": 1727,
      "training": 1728,
      "determin": 1729,
      "candid": 1730,
      "ler": 1731,
      "post": 1732,
      "ht": 1733,
      "façon": 1734,
      "available": 1735,
      "benef": 1736,
      "amp": 1737,
      "toutes": 1738,
      "fédér": 1739,
      "current": 1740,
      "related": 1741,
      "crim": 1742,
      "canadiens": 1743,
      "prim": 1744,
      "équi": 1745,
      "ings": 1746,
      "accep": 1747,
      "habit": 1748,
      "market": 1749,
      "situation": 1750,
      "21": 1751,
      "ateurs": 1752,
      "avis": 1753,
      "cteurs": 1754,
      "child": 1755,
      "chaque": 1756,
      "tribunal": 1757,
      "tour": 1758,
      "jan": 1759,
      "tation": 1760,
      "vale": 1761,
      "entreprises": 1762,
      "ec": 1763,
      "occu": 1764,
      "could": 1765,
      "organisation": 1766,
      "prendre": 1767,
      "know": 1768,
      "constru": 1769,
      "31": 1770,
      "dents": 1771,
      "agreement": 1772,
      "décision": 1773,
      "40": 1774,
      "represent": 1775,
      "signific": 1776,
      "26": 1777,
      "bureau": 1778,
      "rés": 1779,
      "ak": 1780,
      "distribu": 1781,
      "secur": 1782,
      "missions": 1783,
      "employe": 1784,
      "relative": 1785,
      "tenti": 1786,
      "participation": 1787,
      "lieu": 1788,
      "glo": 1789,
      "porte": 1790,
      "seu": 1791,
      "education": 1792,
      "auc": 1793,
      "bar": 1794,
      "nota": 1795,
      "utilisation": 1796,
      "auto": 1797,
      "key": 1798,
      "opération": 1799,
      "tern": 1800,
      "cop": 1801,
      "posed": 1802,
      "ues": 1803,
      "ensure": 1804,
      "potenti": 1805,
      "coû": 1806,
      "enf": 1807,
      "amend": 1808,
      "arch": 1809,
      "phy": 1810,
      "suff": 1811,
      "28": 1812,
      "uses": 1813,
      "multi": 1814,
      "cisions": 1815,
      "finance": 1816,
      "bour": 1817,
      "examen": 1818,
      "sk": 1819,
      "migr": 1820,
      "guide": 1821,
      "minister": 1822,
      "period": 1823,
      "found": 1824,
      "convention": 1825,
      "mesure": 1826,
      "products": 1827,
      "certain": 1828,
      "suite": 1829,
      "members": 1830,
      "treat": 1831,
      "type": 1832,
      "infr": 1833,
      "emploi": 1834,
      "effective": 1835,
      "evalu": 1836,
      "marché": 1837,
      "accès": 1838,
      "how": 1839,
      "ow": 1840,
      "bri": 1841,
      "sector": 1842,
      "required": 1843,
      "avait": 1844,
      "aide": 1845,
      "27": 1846,
      "environmental": 1847,
      "mettre": 1848,
      "général": 1849,
      "programs": 1850,
      "invol": 1851,
      "large": 1852,
      "ft": 1853,
      "érieur": 1854,
      "élé": 1855,
      "sera": 1856,
      "industry": 1857,
      "proper": 1858,
      "results": 1859,
      "esp": 1860,
      "like": 1861,
      "www": 1862,
      "hom": 1863,
      "réalis": 1864,
      "communication": 1865,
      "pren": 1866,
      "commercial": 1867,
      "arm": 1868,
      "institutions": 1869,
      "100": 1870,
      "télé": 1871,
      "raison": 1872,
      "further": 1873,
      "entes": 1874,
      "area": 1875,
      "certains": 1876,
      "2008": 1877,
      "ception": 1878,
      "ze": 1879,
      "cin": 1880,
      "êt": 1881,
      "sis": 1882,
      "examin": 1883,
      "période": 1884,
      "amen": 1885,
      "initiatives": 1886,
      "discus": 1887,
      "fem": 1888,
      "practi": 1889,
      "rée": 1890,
      "ok": 1891,
      "quality": 1892,
      "essenti": 1893,
      "ped": 1894,
      "repor": 1895,
      "raient": 1896,
      "tak": 1897,
      "médi": 1898,
      "canadienne": 1899,
      "ellement": 1900,
      "connaiss": 1901,
      "partn": 1902,
      "fav": 1903,
      "fig": 1904,
      "til": 1905,
      "cription": 1906,
      "three": 1907,
      "augment": 1908,
      "ices": 1909,
      "hold": 1910,
      "trad": 1911,
      "wom": 1912,
      "projets": 1913,
      "ête": 1914,
      "initiative": 1915,
      "ier": 1916,
      "own": 1917,
      "original": 1918,
      "risk": 1919,
      "pé": 1920,
      "observ": 1921,
      "direction": 1922,
      "med": 1923,
      "while": 1924,
      "mal": 1925,
      "société": 1926,
      "appu": 1927,
      "60": 1928,
      "directive": 1929,
      "fil": 1930,
      "techni": 1931,
      "take": 1932,
      "areas": 1933,
      "ight": 1934,
      "corpor": 1935,
      "reco": 1936,
      "allow": 1937,
      "cru": 1938,
      "éten": 1939,
      "œuvre": 1940,
      "world": 1941,
      "jou": 1942,
      "lish": 1943,
      "mér": 1944,
      "comb": 1945,
      "innov": 1946,
      "pendant": 1947,
      "intér": 1948,
      "regulations": 1949,
      "unes": 1950,
      "sieurs": 1951,
      "divers": 1952,
      "29": 1953,
      "mic": 1954,
      "opport": 1955,
      "provincial": 1956,
      "ctron": 1957,
      "nouveau": 1958,
      "pass": 1959,
      "qualité": 1960,
      "intro": 1961,
      "interest": 1962,
      "sti": 1963,
      "nel": 1964,
      ");": 1965,
      "européenne": 1966,
      "security": 1967,
      "organismes": 1968,
      "véri": 1969,
      "sco": 1970,
      "oire": 1971,
      "plusieurs": 1972,
      "plans": 1973,
      "fier": 1974,
      "sor": 1975,
      "notamment": 1976,
      "recei": 1977,
      "make": 1978,
      "fie": 1979,
      "recommand": 1980,
      "itation": 1981,
      "1998": 1982,
      "special": 1983,
      "assurer": 1984,
      "lia": 1985,
      "gue": 1986,
      "ministre": 1987,
      "abilité": 1988,
      "cult": 1989,
      "transfer": 1990,
      "opportun": 1991,
      "sujet": 1992,
      "sum": 1993,
      "probl": 1994,
      "communications": 1995,
      "années": 1996,
      "appel": 1997,
      "éco": 1998,
      "court": 1999,
      "impact": 2000,
      "01": 2001,
      "page": 2002,
      "women": 2003,
      "read": 2004,
      "assemb": 2005,
      "nos": 2006,
      "working": 2007,
      "bli": 2008,
      "again": 2009,
      "art": 2010,
      "participants": 2011,
      "ians": 2012,
      "then": 2013,
      "ensemb": 2014,
      "jours": 2015,
      "mee": 2016,
      "compris": 2017,
      "budget": 2018,
      "diffic": 2019,
      "mater": 2020,
      "defin": 2021,
      "test": 2022,
      "voy": 2023,
      "include": 2024,
      "supp": 2025,
      "scienti": 2026,
      "prési": 2027,
      "active": 2028,
      "tp": 2029,
      "septe": 2030,
      "mod": 2031,
      "ible": 2032,
      "compar": 2033,
      "right": 2034,
      "meeting": 2035,
      "milit": 2036,
      "association": 2037,
      "tés": 2038,
      "clear": 2039,
      "range": 2040,
      "whe": 2041,
      "gc": 2042,
      "regard": 2043,
      "exemple": 2044,
      "dure": 2045,
      "milli": 2046,
      "acts": 2047,
      "efforts": 2048,
      "fy": 2049,
      "ods": 2050,
      "fications": 2051,
      "quent": 2052,
      "affe": 2053,
      "manu": 2054,
      "lection": 2055,
      "changes": 2056,
      "wa": 2057,
      "ep": 2058,
      "offer": 2059,
      "measures": 2060,
      "administra": 2061,
      "histor": 2062,
      "très": 2063,
      "lines": 2064,
      "food": 2065,
      "importance": 2066,
      "wer": 2067,
      "encour": 2068,
      "ensemble": 2069,
      "aur": 2070,
      "vertu": 2071,
      "visions": 2072,
      "sm": 2073,
      "illeurs": 2074,
      "titre": 2075,
      "ared": 2076,
      "approach": 2077,
      "grow": 2078,
      "core": 2079,
      "éch": 2080,
      "requirements": 2081,
      "country": 2082,
      "vil": 2083,
      "due": 2084,
      "fs": 2085,
      "subje": 2086,
      "ish": 2087,
      "nouvelle": 2088,
      "islation": 2089,
      "before": 2090,
      "effectu": 2091,
      "statis": 2092,
      "quelle": 2093,
      "assessment": 2094,
      "staff": 2095,
      "étaient": 2096,
      "mate": 2097,
      "sto": 2098,
      "spéci": 2099,
      "same": 2100,
      "olog": 2101,
      "férence": 2102,
      "ick": 2103,
      "mode": 2104,
      "exclu": 2105,
      "rou": 2106,
      "objectifs": 2107,
      "noti": 2108,
      "satis": 2109,
      "frame": 2110,
      "propri": 2111,
      "era": 2112,
      "agricul": 2113,
      "ateur": 2114,
      "fonds": 2115,
      "parlia": 2116,
      "eau": 2117,
      "prest": 2118,
      "ght": 2119,
      "première": 2120,
      "employment": 2121,
      "performance": 2122,
      "mention": 2123,
      "ories": 2124,
      "nove": 2125,
      "métho": 2126,
      "code": 2127,
      "ledge": 2128,
      "appr": 2129,
      "regional": 2130,
      "life": 2131,
      "ière": 2132,
      "systems": 2133,
      "rc": 2134,
      "amoun": 2135,
      "présente": 2136,
      "chez": 2137,
      "oris": 2138,
      "comment": 2139,
      "dép": 2140,
      "nels": 2141,
      "enqu": 2142,
      "économique": 2143,
      "organization": 2144,
      "export": 2145,
      "expres": 2146,
      "________________": 2147,
      "autoch": 2148,
      "ling": 2149,
      "1997": 2150,
      "béné": 2151,
      "occup": 2152,
      "surveill": 2153,
      "montr": 2154,
      "face": 2155,
      "united": 2156,
      "octo": 2157,
      "necess": 2158,
      "acqu": 2159,
      "she": 2160,
      "aér": 2161,
      "contex": 2162,
      "chap": 2163,
      "notre": 2164,
      "help": 2165,
      "since": 2166,
      "femmes": 2167,
      "does": 2168,
      "certi": 2169,
      "va": 2170,
      "recor": 2171,
      "étr": 2172,
      "parliament": 2173,
      "vement": 2174,
      "ayant": 2175,
      "note": 2176,
      "structure": 2177,
      "ises": 2178,
      "unis": 2179,
      "saf": 2180,
      "significant": 2181,
      "lorsque": 2182,
      "laires": 2183,
      "scho": 2184,
      "continue": 2185,
      "déclar": 2186,
      "ut": 2187,
      "ized": 2188,
      "invest": 2189,
      "pat": 2190,
      "votre": 2191,
      "proce": 2192,
      "remp": 2193,
      "emb": 2194,
      "groupes": 2195,
      "because": 2196,
      "rédu": 2197,
      "rate": 2198,
      "hau": 2199,
      "control": 2200,
      "deli": 2201,
      "recommend": 2202,
      "réglement": 2203,
      "bur": 2204,
      "points": 2205,
      "super": 2206,
      "atte": 2207,
      "ship": 2208,
      "eric": 2209,
      ".\"": 2210,
      "mala": 2211,
      "depuis": 2212,
      "appropriate": 2213,
      "numér": 2214,
      "nord": 2215,
      "role": 2216,
      "design": 2217,
      "tics": 2218,
      "lit": 2219,
      "produit": 2220,
      "tient": 2221,
      "moyen": 2222,
      "coord": 2223,
      "tradition": 2224,
      "aines": 2225,
      "ager": 2226,
      "prog": 2227,
      "tement": 2228,
      "gy": 2229,
      "nouvelles": 2230,
      "études": 2231,
      "médic": 2232,
      "safety": 2233,
      "devrait": 2234,
      "étude": 2235,
      "acy": 2236,
      "expe": 2237,
      "framework": 2238,
      "effet": 2239,
      "européen": 2240,
      "197": 2241,
      "technology": 2242,
      "tenant": 2243,
      "itor": 2244,
      "interven": 2245,
      "consul": 2246,
      "ceux": 2247,
      "hal": 2248,
      "xi": 2249,
      "dec": 2250,
      "rése": 2251,
      "consom": 2252,
      "sw": 2253,
      "den": 2254,
      "simi": 2255,
      "parlement": 2256,
      "incre": 2257,
      "knowledge": 2258,
      "étrang": 2259,
      "registr": 2260,
      "écu": 2261,
      "hand": 2262,
      "sements": 2263,
      "official": 2264,
      "som": 2265,
      "simp": 2266,
      "term": 2267,
      "35": 2268,
      "province": 2269,
      "projects": 2270,
      "institution": 2271,
      "dispositions": 2272,
      "dépen": 2273,
      "systèmes": 2274,
      "reç": 2275,
      "1996": 2276,
      "sug": 2277,
      "lim": 2278,
      "uk": 2279,
      "vic": 2280,
      "medic": 2281,
      "future": 2282,
      "précis": 2283,
      "ience": 2284,
      "adap": 2285,
      "uary": 2286,
      "domaine": 2287,
      "different": 2288,
      "head": 2289,
      "anim": 2290,
      "against": 2291,
      "competi": 2292,
      "buil": 2293,
      "seront": 2294,
      "grande": 2295,
      "analyse": 2296,
      "hic": 2297,
      "rôle": 2298,
      "study": 2299,
      "sol": 2300,
      "90": 2301,
      "pan": 2302,
      "condu": 2303,
      "besoins": 2304,
      "québec": 2305,
      "huma": 2306,
      "implementation": 2307,
      "sal": 2308,
      "forces": 2309,
      "fix": 2310,
      "sing": 2311,
      "astru": 2312,
      "capital": 2313,
      "cing": 2314,
      "communities": 2315,
      "objet": 2316,
      "lie": 2317,
      "premier": 2318,
      "diver": 2319,
      "investi": 2320,
      "……": 2321,
      "égard": 2322,
      "taken": 2323,
      "hav": 2324,
      "tar": 2325,
      "basis": 2326,
      "taire": 2327,
      "ols": 2328,
      "tele": 2329,
      "assistance": 2330,
      "jeunes": 2331,
      "infrastru": 2332,
      "az": 2333,
      ".)": 2334,
      "considé": 2335,
      "issue": 2336,
      "ieux": 2337,
      "classi": 2338,
      "dépenses": 2339,
      "needs": 2340,
      "influ": 2341,
      "cover": 2342,
      "mation": 2343,
      "financement": 2344,
      "activité": 2345,
      "traitement": 2346,
      "subject": 2347,
      "cue": 2348,
      "construction": 2349,
      "enfants": 2350,
      "whether": 2351,
      "among": 2352,
      "cies": 2353,
      "given": 2354,
      "destin": 2355,
      "espè": 2356,
      "prix": 2357,
      "my": 2358,
      "groups": 2359,
      "aboriginal": 2360,
      "achie": 2361,
      "inci": 2362,
      "nelle": 2363,
      "serve": 2364,
      "joint": 2365,
      "cc": 2366,
      "canadians": 2367,
      "formu": 2368,
      "otta": 2369,
      "tte": 2370,
      "ître": 2371,
      "tle": 2372,
      "contrôle": 2373,
      "générale": 2374,
      "»,": 2375,
      "04": 2376,
      "radio": 2377,
      "justice": 2378,
      "certaines": 2379,
      "èrement": 2380,
      "tones": 2381,
      "sex": 2382,
      "back": 2383,
      "claim": 2384,
      "material": 2385,
      "increase": 2386,
      "annexe": 2387,
      "caract": 2388,
      "circu": 2389,
      "ottawa": 2390,
      "field": 2391,
      "sever": 2392,
      "using": 2393,
      "déta": 2394,
      "get": 2395,
      "sites": 2396,
      "prév": 2397,
      "metho": 2398,
      "enter": 2399,
      "affaires": 2400,
      "nouveaux": 2401,
      "amér": 2402,
      "funding": 2403,
      "exécu": 2404,
      "//": 2405,
      "ime": 2406,
      "common": 2407,
      "van": 2408,
      "aspe": 2409,
      "spécial": 2410,
      "property": 2411,
      "conséqu": 2412,
      "employés": 2413,
      "jusqu": 2414,
      "imum": 2415,
      "equi": 2416,
      "fab": 2417,
      "isla": 2418,
      "address": 2419,
      "nationaux": 2420,
      "entreprise": 2421,
      "proble": 2422,
      "intégr": 2423,
      "cel": 2424,
      "audit": 2425,
      "ily": 2426,
      "promotion": 2427,
      "internet": 2428,
      "ati": 2429,
      "commerce": 2430,
      "compéten": 2431,
      "ath": 2432,
      "autochtones": 2433,
      "http": 2434,
      "ward": 2435,
      "améliorer": 2436,
      "ade": 2437,
      "canadiennes": 2438,
      "savoir": 2439,
      "alo": 2440,
      "division": 2441,
      "sign": 2442,
      "ites": 2443,
      "small": 2444,
      "://": 2445,
      "mus": 2446,
      "ième": 2447,
      "êts": 2448,
      "ron": 2449,
      "mois": 2450,
      "fais": 2451,
      "éléments": 2452,
      "month": 2453,
      "faut": 2454,
      "necessary": 2455,
      "stain": 2456,
      "costs": 2457,
      "organisations": 2458,
      "tel": 2459,
      "obtenir": 2460,
      "acces": 2461,
      "goods": 2462,
      "conformément": 2463,
      "carri": 2464,
      "result": 2465,
      "investis": 2466,
      "président": 2467,
      "valeur": 2468,
      "accomp": 2469,
      "eness": 2470,
      "self": 2471,
      "mag": 2472,
      "soutien": 2473,
      "redu": 2474,
      "recog": 2475,
      "pouvoir": 2476,
      "sche": 2477,
      "technologies": 2478,
      "ones": 2479,
      "mondi": 2480,
      "quo": 2481,
      "sensi": 2482,
      "evaluation": 2483,
      "ener": 2484,
      "charge": 2485,
      "étudi": 2486,
      "exerc": 2487,
      "legal": 2488,
      "organizations": 2489,
      "director": 2490,
      "risque": 2491,
      "without": 2492,
      "sau": 2493,
      "pap": 2494,
      "contribution": 2495,
      "prépar": 2496,
      "alber": 2497,
      "conserv": 2498,
      "surveillance": 2499,
      "real": 2500,
      "example": 2501,
      "collectiv": 2502,
      "six": 2503,
      "lear": 2504,
      "broad": 2505,
      "soins": 2506,
      "university": 2507,
      "orient": 2508,
      "north": 2509,
      "sources": 2510,
      "standing": 2511,
      "quant": 2512,
      "ouse": 2513,
      "02": 2514,
      "portion": 2515,
      "proposed": 2516,
      "judic": 2517,
      "event": 2518,
      "conf": 2519,
      "alité": 2520,
      "celle": 2521,
      "modè": 2522,
      "lais": 2523,
      "donc": 2524,
      "visant": 2525,
      "children": 2526,
      "hor": 2527,
      "sse": 2528,
      "confi": 2529,
      "soli": 2530,
      "licence": 2531,
      "source": 2532,
      "encore": 2533,
      "toutefois": 2534,
      "vidence": 2535,
      "description": 2536,
      "établ": 2537,
      "ators": 2538,
      "articles": 2539,
      "bit": 2540,
      "adv": 2541,
      "iné": 2542,
      "request": 2543,
      "sustain": 2544,
      "posé": 2545,
      "mom": 2546,
      "étant": 2547,
      "oth": 2548,
      "pê": 2549,
      "rapports": 2550,
      "inspe": 2551,
      "sent": 2552,
      "03": 2553,
      "dispon": 2554,
      "cases": 2555,
      "terme": 2556,
      "phone": 2557,
      "instal": 2558,
      "outre": 2559,
      "fai": 2560,
      "manière": 2561,
      "language": 2562,
      "iller": 2563,
      "version": 2564,
      "authority": 2565,
      "solu": 2566,
      "war": 2567,
      "did": 2568,
      "side": 2569,
      "cela": 2570,
      "consultation": 2571,
      "abo": 2572,
      "efficac": 2573,
      "deta": 2574,
      "aliment": 2575,
      "provides": 2576,
      "capacité": 2577,
      "americ": 2578,
      "value": 2579,
      "relatives": 2580,
      "contain": 2581,
      "regula": 2582,
      "rug": 2583,
      "ification": 2584,
      "exce": 2585,
      "avons": 2586,
      "standards": 2587,
      "correspon": 2588,
      "network": 2589,
      "coup": 2590,
      "analysis": 2591,
      "tem": 2592,
      "bénéfic": 2593,
      "porter": 2594,
      "means": 2595,
      "pourrait": 2596,
      "officie": 2597,
      "contract": 2598,
      "ctives": 2599,
      "distribution": 2600,
      "eth": 2601,
      "coûts": 2602,
      "benefits": 2603,
      "nav": 2604,
      "roy": 2605,
      "internationale": 2606,
      "45": 2607,
      "croiss": 2608,
      "investig": 2609,
      "provinces": 2610,
      "exigences": 2611,
      "laquelle": 2612,
      "individual": 2613,
      "volu": 2614,
      "success": 2615,
      "levels": 2616,
      "amendment": 2617,
      "concentr": 2618,
      "difficul": 2619,
      "income": 2620,
      "fish": 2621,
      "33": 2622,
      "strategy": 2623,
      "making": 2624,
      "nécessaire": 2625,
      "pho": 2626,
      "considered": 2627,
      "relevant": 2628,
      "uve": 2629,
      "ax": 2630,
      "05": 2631,
      "hon": 2632,
      "seulement": 2633,
      "types": 2634,
      "concerne": 2635,
      "cl": 2636,
      "drug": 2637,
      "unique": 2638,
      "sui": 2639,
      "cf": 2640,
      "ordon": 2641,
      "normes": 2642,
      "company": 2643,
      "ligne": 2644,
      "ograph": 2645,
      "win": 2646,
      "collaboration": 2647,
      "naires": 2648,
      "enh": 2649,
      "survey": 2650,
      "techn": 2651,
      "amount": 2652,
      "opin": 2653,
      "effets": 2654,
      "soient": 2655,
      "established": 2656,
      "monitor": 2657,
      "improve": 2658,
      "attribu": 2659,
      "pp": 2660,
      "igu": 2661,
      "corre": 2662,
      "secre": 2663,
      "ox": 2664,
      "revenu": 2665,
      "curr": 2666,
      "potential": 2667,
      "acro": 2668,
      "quanti": 2669,
      "employees": 2670,
      "bac": 2671,
      "activity": 2672,
      "trou": 2673,
      "product": 2674,
      "stratégie": 2675,
      "develo": 2676,
      "policies": 2677,
      "cn": 2678,
      "».": 2679,
      "apply": 2680,
      "exten": 2681,
      "ator": 2682,
      "travaux": 2683,
      "érations": 2684,
      "perman": 2685,
      "pil": 2686,
      "name": 2687,
      "foreign": 2688,
      "ness": 2689,
      "just": 2690,
      "ici": 2691,
      "oires": 2692,
      "final": 2693,
      "lor": 2694,
      "lorsqu": 2695,
      "building": 2696,
      "intelle": 2697,
      "rési": 2698,
      "hen": 2699,
      "cultural": 2700,
      "endre": 2701,
      "frais": 2702,
      "vious": 2703,
      "fournir": 2704,
      "intellectu": 2705,
      "éner": 2706,
      "clients": 2707,
      "risques": 2708,
      "déterminer": 2709,
      "iii": 2710,
      "atre": 2711,
      "list": 2712,
      "solution": 2713,
      "06": 2714,
      "élabor": 2715,
      "moment": 2716,
      "immigr": 2717,
      "pratiques": 2718,
      "bed": 2719,
      "autom": 2720,
      "turn": 2721,
      "zone": 2722,
      "provisions": 2723,
      "show": 2724,
      "alberta": 2725,
      "condition": 2726,
      "couver": 2727,
      "ba": 2728,
      "ization": 2729,
      "loy": 2730,
      "oeu": 2731,
      "play": 2732,
      "isse": 2733,
      "innovation": 2734,
      "1995": 2735,
      "sein": 2736,
      "proté": 2737,
      "cit": 2738,
      "afr": 2739,
      "therefore": 2740,
      "global": 2741,
      "recogni": 2742,
      "problèmes": 2743,
      "terms": 2744,
      "endant": 2745,
      "agence": 2746,
      "airs": 2747,
      "beau": 2748,
      "36": 2749,
      "eas": 2750,
      "wan": 2751,
      "developed": 2752,
      "open": 2753,
      "venir": 2754,
      "ders": 2755,
      "bank": 2756,
      "tariat": 2757,
      "sais": 2758,
      "demandes": 2759,
      "34": 2760,
      "increased": 2761,
      "mas": 2762,
      "stom": 2763,
      "tage": 2764,
      "mc": 2765,
      "onto": 2766,
      "fique": 2767,
      "fins": 2768,
      "chall": 2769,
      "lée": 2770,
      "location": 2771,
      "directeur": 2772,
      "atlan": 2773,
      "infrastructure": 2774,
      "aci": 2775,
      "ix": 2776,
      "coopération": 2777,
      "ko": 2778,
      "energy": 2779,
      "complex": 2780,
      "tory": 2781,
      "rom": 2782,
      "erre": 2783,
      "liste": 2784,
      "dépend": 2785,
      "établi": 2786,
      "permis": 2787,
      "celui": 2788,
      "minor": 2789,
      "établissement": 2790,
      "growth": 2791,
      "37": 2792,
      "celles": 2793,
      "particulier": 2794,
      "ène": 2795,
      "omb": 2796,
      "partnership": 2797,
      "mental": 2798,
      "experience": 2799,
      "operations": 2800,
      "compla": 2801,
      "rées": 2802,
      "déf": 2803,
      "percent": 2804,
      "received": 2805,
      "rer": 2806,
      "ili": 2807,
      "prise": 2808,
      "pol": 2809,
      "99": 2810,
      "evidence": 2811,
      "contact": 2812,
      "according": 2813,
      "ways": 2814,
      "max": 2815,
      "registre": 2816,
      "gie": 2817,
      "techniques": 2818,
      "conta": 2819,
      "rendement": 2820,
      "syn": 2821,
      "règle": 2822,
      "hé": 2823,
      "assurance": 2824,
      "thir": 2825,
      "prises": 2826,
      "down": 2827,
      "lier": 2828,
      "various": 2829,
      "effect": 2830,
      "limited": 2831,
      "def": 2832,
      "isme": 2833,
      "élaboration": 2834,
      "cam": 2835,
      "avantage": 2836,
      "rier": 2837,
      "80": 2838,
      "donné": 2839,
      "paie": 2840,
      "capacity": 2841,
      "objectives": 2842,
      "etc": 2843,
      "minu": 2844,
      "submit": 2845,
      "prob": 2846,
      "light": 2847,
      "hr": 2848,
      "dant": 2849,
      "proto": 2850,
      "stre": 2851,
      "anni": 2852,
      "intérêt": 2853,
      "\".": 2854,
      "mars": 2855,
      "reason": 2856,
      "even": 2857,
      "arri": 2858,
      "confir": 2859,
      "atory": 2860,
      "aged": 2861,
      "établir": 2862,
      "croissance": 2863,
      "exist": 2864,
      "amendement": 2865,
      "suppl": 2866,
      "informations": 2867,
      "tran": 2868,
      "put": 2869,
      "ature": 2870,
      "aucune": 2871,
      "liance": 2872,
      "additional": 2873,
      "occas": 2874,
      "xic": 2875,
      "reports": 2876,
      "annual": 2877,
      "good": 2878,
      "ident": 2879,
      "missi": 2880,
      "expéri": 2881,
      "besoin": 2882,
      "exercice": 2883,
      "species": 2884,
      "alors": 2885,
      "atta": 2886,
      "die": 2887,
      "affect": 2888,
      "quali": 2889,
      "traité": 2890,
      "territor": 2891,
      "civil": 2892,
      "nelles": 2893,
      "décisions": 2894,
      "offr": 2895,
      "consis": 2896,
      "planning": 2897,
      "icip": 2898,
      "full": 2899,
      "discrim": 2900,
      "audi": 2901,
      "régime": 2902,
      "central": 2903,
      "personal": 2904,
      "account": 2905,
      "clin": 2906,
      "suit": 2907,
      "municip": 2908,
      "déclaration": 2909,
      "poste": 2910,
      "home": 2911,
      "tée": 2912,
      "measure": 2913,
      "struct": 2914,
      "fédéral": 2915,
      "idi": 2916,
      "police": 2917,
      "rules": 2918,
      "custom": 2919,
      "micro": 2920,
      "vac": 2921,
      "déj": 2922,
      "déjà": 2923,
      "persons": 2924,
      "infe": 2925,
      "several": 2926,
      "étés": 2927,
      "suppor": 2928,
      "school": 2929,
      "obligations": 2930,
      "dée": 2931,
      "aspects": 2932,
      "recent": 2933,
      "fabric": 2934,
      "régions": 2935,
      "38": 2936,
      "const": 2937,
      "auprès": 2938,
      "times": 2939,
      "agriculture": 2940,
      "nie": 2941,
      "catég": 2942,
      "session": 2943,
      "last": 2944,
      "aider": 2945,
      "95": 2946,
      "eux": 2947,
      "naire": 2948,
      "confer": 2949,
      ")(": 2950,
      "taking": 2951,
      "rus": 2952,
      "vient": 2953,
      "legislation": 2954,
      "objectif": 2955,
      "réseau": 2956,
      "quatre": 2957,
      "cure": 2958,
      "bat": 2959,
      "communauté": 2960,
      "studies": 2961,
      "opérations": 2962,
      "cependant": 2963,
      "cat": 2964,
      "nam": 2965,
      "devraient": 2966,
      "aring": 2967,
      "strategic": 2968,
      "private": 2969,
      "every": 2970,
      "society": 2971,
      "enquête": 2972,
      "électron": 2973,
      "authorities": 2974,
      "mme": 2975,
      "recon": 2976,
      "poses": 2977,
      "advis": 2978,
      "1994": 2979,
      "quels": 2980,
      "restric": 2981,
      "late": 2982,
      "aver": 2983,
      "previous": 2984,
      "phase": 2985,
      "another": 2986,
      "included": 2987,
      "déce": 2988,
      "san": 2989,
      "subsection": 2990,
      "plain": 2991,
      "administrative": 2992,
      "treatment": 2993,
      "membre": 2994,
      "fiques": 2995,
      "equip": 2996,
      "hydro": 2997,
      "developing": 2998,
      "fle": 2999,
      "érieure": 3000,
      "limin": 3001,
      "call": 3002,
      "family": 3003,
      "existing": 3004,
      "toronto": 3005,
      "propriété": 3006,
      "better": 3007,
      "dossi": 3008,
      "later": 3009,
      "pati": 3010,
      "streng": 3011,
      "exploitation": 3012,
      "substances": 3013,
      "nés": 3014,
      "monde": 3015,
      "june": 3016,
      "vérification": 3017,
      "ics": 3018,
      "party": 3019,
      "here": 3020,
      "ours": 3021,
      "thé": 3022,
      "39": 3023,
      "ills": 3024,
      "trave": 3025,
      "autoris": 3026,
      "natural": 3027,
      "anci": 3028,
      "trim": 3029,
      "bran": 3030,
      "gas": 3031,
      "effects": 3032,
      "response": 3033,
      "secteurs": 3034,
      "similar": 3035,
      "juin": 3036,
      "technical": 3037,
      "agent": 3038,
      "arr": 3039,
      "contributions": 3040,
      "tered": 3041,
      "challen": 3042,
      "focus": 3043,
      "07": 3044,
      "free": 3045,
      "dece": 3046,
      "................": 3047,
      "pt": 3048,
      "bel": 3049,
      "aliné": 3050,
      "responsible": 3051,
      "lac": 3052,
      "reed": 3053,
      "mieux": 3054,
      "sud": 3055,
      "liv": 3056,
      "1990": 3057,
      "job": 3058,
      "ei": 3059,
      "political": 3060,
      "suffis": 3061,
      "----": 3062,
      "changements": 3063,
      "montant": 3064,
      "44": 3065,
      "compos": 3066,
      "ole": 3067,
      "class": 3068,
      "said": 3069,
      "lat": 3070,
      "technologie": 3071,
      "beg": 3072,
      "poser": 3073,
      "ples": 3074,
      "vet": 3075,
      "emer": 3076,
      "applications": 3077,
      "practices": 3078,
      "principal": 3079,
      "vier": 3080,
      "mécan": 3081,
      "male": 3082,
      "acquis": 3083,
      "ism": 3084,
      "investment": 3085,
      "numéro": 3086,
      "power": 3087,
      "although": 3088,
      "maintain": 3089,
      "moder": 3090,
      "cise": 3091,
      "publication": 3092,
      "directe": 3093,
      "supplément": 3094,
      "nécessaires": 3095,
      "ieu": 3096,
      "entra": 3097,
      "cept": 3098,
      "schedu": 3099,
      "domes": 3100,
      "west": 3101,
      "ged": 3102,
      "descri": 3103,
      "pursu": 3104,
      "oy": 3105,
      "aucun": 3106,
      "gues": 3107,
      "oeuvre": 3108,
      "éducation": 3109,
      "exter": 3110,
      "reli": 3111,
      "reporting": 3112,
      "reference": 3113,
      "deleg": 3114,
      "organisme": 3115,
      "efficace": 3116,
      "biolog": 3117,
      "hn": 3118,
      "science": 3119,
      "création": 3120,
      "ouv": 3121,
      "identified": 3122,
      "above": 3123,
      "quelles": 3124,
      "identify": 3125,
      "gaz": 3126,
      "applicable": 3127,
      "vul": 3128,
      "ench": 3129,
      "marchand": 3130,
      "ior": 3131,
      "team": 3132,
      "goci": 3133,
      "appar": 3134,
      "font": 3135,
      "across": 3136,
      "brit": 3137,
      "meille": 3138,
      "cooperation": 3139,
      "road": 3140,
      "yer": 3141,
      "house": 3142,
      "pertin": 3143,
      "ann": 3144,
      "client": 3145,
      "dix": 3146,
      "proposition": 3147,
      "arti": 3148,
      "phys": 3149,
      "communi": 3150,
      "sask": 3151,
      "75": 3152,
      "partenari": 3153,
      "conservation": 3154,
      "status": 3155,
      "colu": 3156,
      "dés": 3157,
      "termes": 3158,
      "publish": 3159,
      "meet": 3160,
      "règles": 3161,
      "négoci": 3162,
      "origin": 3163,
      "forcement": 3164,
      "obtain": 3165,
      "équipe": 3166,
      "five": 3167,
      "thern": 3168,
      "décembre": 3169,
      "cinq": 3170,
      "opportunities": 3171,
      "pension": 3172,
      "ica": 3173,
      "far": 3174,
      "tish": 3175,
      "december": 3176,
      "formed": 3177,
      "proced": 3178,
      "wide": 3179,
      "zed": 3180,
      "procedures": 3181,
      "opinion": 3182,
      "\",": 3183,
      "partir": 3184,
      "montré": 3185,
      "procédure": 3186,
      "serait": 3187,
      "marchés": 3188,
      "franç": 3189,
      "best": 3190,
      "user": 3191,
      "populations": 3192,
      "distin": 3193,
      "suivi": 3194,
      "gener": 3195,
      "apr": 3196,
      "proportion": 3197,
      "purpose": 3198,
      "held": 3199,
      "lands": 3200,
      "shor": 3201,
      "expected": 3202,
      "comes": 3203,
      "indre": 3204,
      "regulation": 3205,
      "ief": 3206,
      "08": 3207,
      "juridi": 3208,
      "ouest": 3209,
      "renfor": 3210,
      "photo": 3211,
      "corporation": 3212,
      "avaient": 3213,
      "ual": 3214,
      "iso": 3215,
      "32": 3216,
      "manit": 3217,
      "ministères": 3218,
      "précé": 3219,
      "décla": 3220,
      "third": 3221,
      "terres": 3222,
      "labour": 3223,
      "employee": 3224,
      "accordance": 3225,
      "admissi": 3226,
      "approche": 3227,
      "utiliser": 3228,
      "igueur": 3229,
      "integr": 3230,
      "benefit": 3231,
      "secré": 3232,
      "equipment": 3233,
      "sélection": 3234,
      "lling": 3235,
      "centres": 3236,
      "régu": 3237,
      "pc": 3238,
      "facteurs": 3239,
      "days": 3240,
      "milieu": 3241,
      "accessi": 3242,
      "ril": 3243,
      "british": 3244,
      "insur": 3245,
      "désig": 3246,
      "souvent": 3247,
      "premières": 3248,
      "prep": 3249,
      "ready": 3250,
      "sport": 3251,
      "gré": 3252,
      "ériel": 3253,
      "atoire": 3254,
      "ibles": 3255,
      "proven": 3256,
      "monitoring": 3257,
      "reser": 3258,
      "manitob": 3259,
      "bou": 3260,
      "67": 3261,
      "fund": 3262,
      "saskat": 3263,
      "65": 3264,
      "48": 3265,
      "tend": 3266,
      "uit": 3267,
      "intention": 3268,
      "pression": 3269,
      "coordination": 3270,
      "aging": 3271,
      "anies": 3272,
      "agit": 3273,
      "factur": 3274,
      "septembre": 3275,
      "alogue": 3276,
      "arrange": 3277,
      "ane": 3278,
      "certific": 3279,
      "quebec": 3280,
      "going": 3281,
      "élev": 3282,
      "acting": 3283,
      "refle": 3284,
      "introdu": 3285,
      "grâ": 3286,
      "acter": 3287,
      "aven": 3288,
      "ordin": 3289,
      "ground": 3290,
      "departments": 3291,
      "ina": 3292,
      "grâce": 3293,
      "compétences": 3294,
      "valid": 3295,
      "espèces": 3296,
      "partenaires": 3297,
      "tiz": 3298,
      "consist": 3299,
      "tels": 3300,
      "progress": 3301,
      "abs": 3302,
      "command": 3303,
      "vigueur": 3304,
      "viol": 3305,
      "wee": 3306,
      "decisions": 3307,
      "provision": 3308,
      "beaucoup": 3309,
      "référence": 3310,
      "top": 3311,
      "attention": 3312,
      "manitoba": 3313,
      "september": 3314,
      "adoption": 3315,
      "avril": 3316,
      "fc": 3317,
      "tableau": 3318,
      "experts": 3319,
      "involved": 3320,
      "efficacité": 3321,
      "considér": 3322,
      "providing": 3323,
      "mai": 3324,
      "having": 3325,
      "medical": 3326,
      "remain": 3327,
      "instruments": 3328,
      "accro": 3329,
      "mandat": 3330,
      "communautaire": 3331,
      "économiques": 3332,
      "habitat": 3333,
      "adres": 3334,
      "marchandises": 3335,
      "april": 3336,
      "em": 3337,
      "ecu": 3338,
      "domaines": 3339,
      "pd": 3340,
      "ency": 3341,
      "terr": 3342,
      "uille": 3343,
      "cham": 3344,
      "officer": 3345,
      "associated": 3346,
      "conduc": 3347,
      "agencies": 3348,
      "dures": 3349,
      "planification": 3350,
      "classification": 3351,
      "ciaux": 3352,
      "mn": 3353,
      "connaissances": 3354,
      "youth": 3355,
      "rates": 3356,
      "rich": 3357,
      "ctors": 3358,
      "calcu": 3359,
      "gest": 3360,
      "disposition": 3361,
      "fiscal": 3362,
      "deal": 3363,
      "trop": 3364,
      "concurr": 3365,
      "agents": 3366,
      "much": 3367,
      "plupart": 3368,
      "priorités": 3369,
      "fully": 3370,
      "biens": 3371,
      "discussion": 3372,
      "companies": 3373,
      "relation": 3374,
      "introduction": 3375,
      "standard": 3376,
      "complete": 3377,
      "great": 3378,
      "70": 3379,
      "ville": 3380,
      "mocra": 3381,
      "john": 3382,
      "déci": 3383,
      "fisher": 3384,
      "recommandations": 3385,
      "lack": 3386,
      "sustainable": 3387,
      "sons": 3388,
      "avantages": 3389,
      "iel": 3390,
      "alinéa": 3391,
      "défense": 3392,
      "half": 3393,
      "mess": 3394,
      "fié": 3395,
      "favoris": 3396,
      "français": 3397,
      "janvier": 3398,
      "yl": 3399,
      "itaire": 3400,
      "procédures": 3401,
      "lated": 3402,
      "preuve": 3403,
      "éris": 3404,
      "enregistre": 3405,
      "ext": 3406,
      "deuxième": 3407,
      "ml": 3408,
      "treaty": 3409,
      "expérience": 3410,
      "britanni": 3411,
      "ha": 3412,
      "voit": 3413,
      "domestic": 3414,
      "réduire": 3415,
      "durée": 3416,
      "criter": 3417,
      "changement": 3418,
      "différents": 3419,
      "exception": 3420,
      "chac": 3421,
      "sociale": 3422,
      "ging": 3423,
      "reported": 3424,
      "january": 3425,
      "flu": 3426,
      "denti": 3427,
      "electron": 3428,
      "enhance": 3429,
      "credit": 3430,
      "réponse": 3431,
      "kes": 3432,
      "excell": 3433,
      "citoy": 3434,
      "collectivités": 3435,
      "figure": 3436,
      "greater": 3437,
      "55": 3438,
      "dir": 3439,
      "industrial": 3440,
      "itre": 3441,
      "paid": 3442,
      "holders": 3443,
      "proposal": 3444,
      "suivants": 3445,
      "france": 3446,
      "wipo": 3447,
      "course": 3448,
      "rain": 3449,
      "donner": 3450,
      "recru": 3451,
      "%)": 3452,
      "next": 3453,
      "likely": 3454,
      "volution": 3455,
      "modifications": 3456,
      "notes": 3457,
      "cting": 3458,
      "connaissance": 3459,
      "ased": 3460,
      "évaluer": 3461,
      "monstr": 3462,
      "river": 3463,
      "least": 3464,
      "mechan": 3465,
      "individuals": 3466,
      "occasion": 3467,
      "purposes": 3468,
      "modèle": 3469,
      "alle": 3470,
      "mises": 3471,
      "ez": 3472,
      "gent": 3473,
      "grès": 3474,
      "integra": 3475,
      "compon": 3476,
      "increasing": 3477,
      "recommendations": 3478,
      "gés": 3479,
      "depend": 3480,
      "return": 3481,
      "moyens": 3482,
      "1er": 3483,
      "porta": 3484,
      "estim": 3485,
      "factors": 3486,
      "offre": 3487,
      "réglementation": 3488,
      "partners": 3489,
      "summar": 3490,
      "dang": 3491,
      "sciences": 3492,
      "tempor": 3493,
      "citiz": 3494,
      "permettre": 3495,
      "existe": 3496,
      "dits": 3497,
      "french": 3498,
      "durant": 3499,
      "énon": 3500,
      "arc": 3501,
      "échan": 3502,
      "copy": 3503,
      "ends": 3504,
      "tôt": 3505,
      "plant": 3506,
      "agers": 3507,
      "49": 3508,
      "function": 3509,
      "regulatory": 3510,
      "manufactur": 3511,
      "terre": 3512,
      "link": 3513,
      "figur": 3514,
      "relationship": 3515,
      "itaires": 3516,
      "langues": 3517,
      "dol": 3518,
      "lies": 3519,
      "conclusions": 3520,
      "referred": 3521,
      "wal": 3522,
      "agreements": 3523,
      "érer": 3524,
      "transpar": 3525,
      "tenus": 3526,
      "perspe": 3527,
      "humaines": 3528,
      "éti": 3529,
      "guidelines": 3530,
      "trouver": 3531,
      "chair": 3532,
      "recher": 3533,
      "contexte": 3534,
      "front": 3535,
      "octobre": 3536,
      "issement": 3537,
      "solutions": 3538,
      "lignes": 3539,
      "conven": 3540,
      "tiers": 3541,
      "strong": 3542,
      "higher": 3543,
      "incor": 3544,
      "learning": 3545,
      "économie": 3546,
      "appeal": 3547,
      ",\"": 3548,
      "priorities": 3549,
      "parmi": 3550,
      "often": 3551,
      "ajou": 3552,
      "bs": 3553,
      "alisation": 3554,
      "toujours": 3555,
      "ront": 3556,
      "liés": 3557,
      "constitution": 3558,
      "responsabil": 3559,
      "pau": 3560,
      "sens": 3561,
      "iation": 3562,
      "échelle": 3563,
      "execu": 3564,
      "includes": 3565,
      "vas": 3566,
      "):": 3567,
      "ars": 3568,
      "discrimination": 3569,
      "october": 3570,
      "engagement": 3571,
      "affairs": 3572,
      "tenue": 3573,
      "66": 3574,
      "critères": 3575,
      "autorités": 3576,
      "conne": 3577,
      "insurance": 3578,
      "langue": 3579,
      "principes": 3580,
      "toge": 3581,
      "portant": 3582,
      "consultations": 3583,
      "media": 3584,
      "cipe": 3585,
      "intervention": 3586,
      "forms": 3587,
      "together": 3588,
      "valeurs": 3589,
      "47": 3590,
      "stake": 3591,
      "conference": 3592,
      "early": 3593,
      "aliments": 3594,
      "contamin": 3595,
      "lib": 3596,
      "file": 3597,
      "contrô": 3598,
      "deb": 3599,
      "hol": 3600,
      "augmentation": 3601,
      "chewan": 3602,
      "responsabilité": 3603,
      "technique": 3604,
      "harmon": 3605,
      "model": 3606,
      "1992": 3607,
      "remo": 3608,
      "eded": 3609,
      "voie": 3610,
      "entraî": 3611,
      "overall": 3612,
      "patients": 3613,
      "cô": 3614,
      "gence": 3615,
      "mail": 3616,
      "méthodes": 3617,
      "cd": 3618,
      "diffu": 3619,
      "camp": 3620,
      "lage": 3621,
      "1993": 3622,
      "ordre": 3623,
      "still": 3624,
      "problems": 3625,
      "88": 3626,
      "youn": 3627,
      "transportation": 3628,
      "quar": 3629,
      "publics": 3630,
      "dam": 3631,
      "outi": 3632,
      "fournit": 3633,
      "saskatchewan": 3634,
      "énergie": 3635,
      "ja": 3636,
      "évent": 3637,
      "sociétés": 3638,
      "particularly": 3639,
      "facilit": 3640,
      "internal": 3641,
      "close": 3642,
      "oles": 3643,
      "upon": 3644,
      "extr": 3645,
      "desig": 3646,
      "character": 3647,
      "là": 3648,
      "concerning": 3649,
      "intérieur": 3650,
      "principaux": 3651,
      "positive": 3652,
      "mobil": 3653,
      "41": 3654,
      "notice": 3655,
      "directr": 3656,
      "bc": 3657,
      "rapide": 3658,
      "gal": 3659,
      "ational": 3660,
      "former": 3661,
      "iser": 3662,
      "ster": 3663,
      "fort": 3664,
      "réunion": 3665,
      "appui": 3666,
      "governments": 3667,
      "diffusion": 3668,
      "ailleurs": 3669,
      "poly": 3670,
      "britannique": 3671,
      "adu": 3672,
      "months": 3673,
      "université": 3674,
      "nombreux": 3675,
      "...": 3676,
      "pourraient": 3677,
      "goti": 3678,
      "amélioration": 3679,
      "caractéris": 3680,
      "juris": 3681,
      "regarding": 3682,
      "military": 3683,
      "pêche": 3684,
      "financière": 3685,
      "hosp": 3686,
      "pratique": 3687,
      "determine": 3688,
      "applicant": 3689,
      "mateurs": 3690,
      "chapitre": 3691,
      "delivery": 3692,
      "titude": 3693,
      "lay": 3694,
      "unit": 3695,
      "taires": 3696,
      "permanent": 3697,
      "suivant": 3698,
      "ond": 3699,
      "compliance": 3700,
      "durable": 3701,
      "novembre": 3702,
      "selection": 3703,
      "rail": 3704,
      "aison": 3705,
      "practice": 3706,
      "vise": 3707,
      "lower": 3708,
      "priority": 3709,
      "ury": 3710,
      "compens": 3711,
      "émissions": 3712,
      "columb": 3713,
      "lace": 3714,
      "november": 3715,
      "diction": 3716,
      "combin": 3717,
      "ming": 3718,
      "itage": 3719,
      "mean": 3720,
      "rec": 3721,
      "negoti": 3722,
      "médica": 3723,
      "fall": 3724,
      "lai": 3725,
      "transports": 3726,
      "ious": 3727,
      "réduction": 3728,
      "kno": 3729,
      "spécialis": 3730,
      "share": 3731,
      "institute": 3732,
      "ette": 3733,
      "abilities": 3734,
      "niveaux": 3735,
      "ize": 3736,
      "nationales": 3737,
      "exécution": 3738,
      "proceed": 3739,
      "enseig": 3740,
      "dge": 3741,
      "gam": 3742,
      "illet": 3743,
      "volume": 3744,
      "gouvernements": 3745,
      "finding": 3746,
      "cross": 3747,
      "début": 3748,
      "criteria": 3749,
      "brun": 3750,
      "46": 3751,
      "colomb": 3752,
      "intérêts": 3753,
      "issant": 3754,
      "processes": 3755,
      "noted": 3756,
      "suivantes": 3757,
      "importante": 3758,
      "absence": 3759,
      "become": 3760,
      "competition": 3761,
      "sain": 3762,
      "workers": 3763,
      "85": 3764,
      "elig": 3765,
      "garanti": 3766,
      "relativement": 3767,
      "nutri": 3768,
      "either": 3769,
      "already": 3770,
      "funds": 3771,
      "adopted": 3772,
      "particulièrement": 3773,
      "matique": 3774,
      "pet": 3775,
      "municipal": 3776,
      "leadership": 3777,
      "ases": 3778,
      "vit": 3779,
      "heures": 3780,
      "lois": 3781,
      "categ": 3782,
      "origine": 3783,
      "defence": 3784,
      "resource": 3785,
      "dated": 3786,
      "aérien": 3787,
      "engage": 3788,
      "gene": 3789,
      "dollar": 3790,
      "minimum": 3791,
      "comporte": 3792,
      "sele": 3793,
      "columbia": 3794,
      "lake": 3795,
      "êtes": 3796,
      "modification": 3797,
      "president": 3798,
      "rac": 3799,
      "délég": 3800,
      "répondre": 3801,
      "discu": 3802,
      "pir": 3803,
      "conclusion": 3804,
      "wes": 3805,
      "davantage": 3806,
      "physi": 3807,
      "respective": 3808,
      "demonstr": 3809,
      "currently": 3810,
      "cipl": 3811,
      "fau": 3812,
      "average": 3813,
      "discipl": 3814,
      "réserv": 3815,
      "patent": 3816,
      "supply": 3817,
      "russi": 3818,
      "july": 3819,
      "possibil": 3820,
      "publications": 3821,
      "bonne": 3822,
      "rati": 3823,
      "asse": 3824,
      "strengthen": 3825,
      "transi": 3826,
      "autés": 3827,
      "recours": 3828,
      "matériel": 3829,
      "awar": 3830,
      "sses": 3831,
      "austr": 3832,
      "réserve": 3833,
      "ending": 3834,
      "vehic": 3835,
      "adver": 3836,
      "parce": 3837,
      "comprend": 3838,
      "chef": 3839,
      "affir": 3840,
      "expli": 3841,
      "paper": 3842,
      "ids": 3843,
      "interpré": 3844,
      "short": 3845,
      "endit": 3846,
      "chi": 3847,
      "1991": 3848,
      "prepar": 3849,
      "dernier": 3850,
      "languages": 3851,
      "touch": 3852,
      "cueil": 3853,
      "obser": 3854,
      "importants": 3855,
      "others": 3856,
      "smo": 3857,
      "orie": 3858,
      "jury": 3859,
      "juillet": 3860,
      "students": 3861,
      "argu": 3862,
      "obligation": 3863,
      "97": 3864,
      "consistent": 3865,
      "payment": 3866,
      "devant": 3867,
      "expendit": 3868,
      "directement": 3869,
      "apport": 3870,
      "understanding": 3871,
      "independ": 3872,
      "incidence": 3873,
      "eco": 3874,
      "conséquent": 3875,
      "ley": 3876,
      "statement": 3877,
      "sema": 3878,
      "travailleurs": 3879,
      "42": 3880,
      ".-": 3881,
      "objective": 3882,
      "procedure": 3883,
      "mondiale": 3884,
      "promote": 3885,
      "communautés": 3886,
      "commen": 3887,
      "aim": 3888,
      "auton": 3889,
      "chois": 3890,
      "collabor": 3891,
      "marque": 3892,
      "rep": 3893,
      "reach": 3894,
      "matter": 3895,
      "values": 3896,
      "apprenti": 3897,
      "électronique": 3898,
      "liées": 3899,
      "heritage": 3900,
      "fédé": 3901,
      "assu": 3902,
      "known": 3903,
      "ically": 3904,
      "fond": 3905,
      "responsibility": 3906,
      "délai": 3907,
      "submitted": 3908,
      "fair": 3909,
      "hui": 3910,
      "thing": 3911,
      "ease": 3912,
      "ately": 3913,
      "prestation": 3914,
      "marine": 3915,
      "identification": 3916,
      "enregistrement": 3917,
      "proch": 3918,
      "context": 3919,
      "ey": 3920,
      "actuellement": 3921,
      "past": 3922,
      "iers": 3923,
      "seul": 3924,
      "quelques": 3925,
      "bis": 3926,
      "représentants": 3927,
      "draft": 3928,
      "sul": 3929,
      "tées": 3930,
      "toxic": 3931,
      "millions": 3932,
      "young": 3933,
      "band": 3934,
      "gation": 3935,
      "stratégique": 3936,
      "tillon": 3937,
      "directly": 3938,
      "43": 3939,
      "dialogue": 3940,
      "principles": 3941,
      "incorpor": 3942,
      "discussions": 3943,
      "colombie": 3944,
      "altern": 3945,
      "possibilité": 3946,
      "fournisse": 3947,
      "dig": 3948,
      "législa": 3949,
      "voc": 3950,
      "entente": 3951,
      "crédit": 3952,
      "98": 3953,
      "assemblée": 3954,
      "advance": 3955,
      "échantillon": 3956,
      "influence": 3957,
      "suffic": 3958,
      "deme": 3959,
      "vou": 3960,
      "suivre": 3961,
      "sch": 3962,
      "single": 3963,
      "body": 3964,
      "immigration": 3965,
      "dri": 3966,
      "différentes": 3967,
      "impôt": 3968,
      "véhic": 3969,
      "fédérale": 3970,
      "northern": 3971,
      "aqu": 3972,
      "regions": 3973,
      "intervenants": 3974,
      "professional": 3975,
      "sam": 3976,
      "financiers": 3977,
      "regular": 3978,
      "appen": 3979,
      "conférence": 3980,
      "options": 3981,
      "separ": 3982,
      "enz": 3983,
      "maintenant": 3984,
      "internationales": 3985,
      "economy": 3986,
      "skills": 3987,
      "assembly": 3988,
      "chem": 3989,
      "bir": 3990,
      "neu": 3991,
      "american": 3992,
      "progrès": 3993,
      "conseils": 3994,
      "electronic": 3995,
      "compu": 3996,
      "lot": 3997,
      "interpre": 3998,
      "violence": 3999,
      "surface": 4000,
      "coût": 4001,
      "pois": 4002,
      "série": 4003,
      "09": 4004,
      "susp": 4005,
      "travel": 4006,
      "responsable": 4007,
      "completed": 4008,
      "rev": 4009,
      "reçu": 4010,
      "nance": 4011,
      "south": 4012,
      "mach": 4013,
      "porteur": 4014,
      "problème": 4015,
      "dirig": 4016,
      "fonctions": 4017,
      "index": 4018,
      "industries": 4019,
      "véhicu": 4020,
      "cancer": 4021,
      "patrim": 4022,
      "sph": 4023,
      "reduce": 4024,
      "mid": 4025,
      "archi": 4026,
      "etats": 4027,
      "telle": 4028,
      "renforcer": 4029,
      "colon": 4030,
      "branch": 4031,
      "applied": 4032,
      "dus": 4033,
      "dc": 4034,
      "until": 4035,
      "méthode": 4036,
      "famille": 4037,
      "présenter": 4038,
      "ore": 4039,
      "faible": 4040,
      "dées": 4041,
      "chim": 4042,
      "fré": 4043,
      "usage": 4044,
      "législation": 4045,
      "deci": 4046,
      "invent": 4047,
      "définition": 4048,
      "itions": 4049,
      "cycle": 4050,
      "cellu": 4051,
      "inspection": 4052,
      "dimen": 4053,
      "mine": 4054,
      "tc": 4055,
      "terroris": 4056,
      "diverses": 4057,
      "wards": 4058,
      "swick": 4059,
      "cannot": 4060,
      "coll": 4061,
      "carry": 4062,
      "compren": 4063,
      "examiner": 4064,
      "sufficient": 4065,
      "transition": 4066,
      "brunswick": 4067,
      "gement": 4068,
      "haut": 4069,
      "thus": 4070,
      "gens": 4071,
      "fév": 4072,
      "hib": 4073,
      "collective": 4074,
      "toire": 4075,
      "tary": 4076,
      "conducted": 4077,
      "needed": 4078,
      "ompi": 4079,
      "constitue": 4080,
      "exchange": 4081,
      "vancouver": 4082,
      "pursuant": 4083,
      "encourage": 4084,
      "opportunity": 4085,
      "remb": 4086,
      "…………": 4087,
      "observations": 4088,
      "city": 4089,
      "lutte": 4090,
      "concerned": 4091,
      "content": 4092,
      "élevé": 4093,
      "promou": 4094,
      "below": 4095,
      "installations": 4096,
      "maximum": 4097,
      "issent": 4098,
      "ciper": 4099,
      "materials": 4100,
      "sugges": 4101,
      "obst": 4102,
      "statu": 4103,
      "forum": 4104,
      "tom": 4105,
      "works": 4106,
      "safe": 4107,
      "publiques": 4108,
      "créer": 4109,
      "ought": 4110,
      "english": 4111,
      "rig": 4112,
      "plutôt": 4113,
      "franco": 4114,
      "balance": 4115,
      "ino": 4116,
      "coordin": 4117,
      "rémun": 4118,
      "prestations": 4119,
      "deliver": 4120,
      "profit": 4121,
      "choix": 4122,
      "banque": 4123,
      "février": 4124,
      "farm": 4125,
      "equal": 4126,
      "offrir": 4127,
      "signed": 4128,
      "recherches": 4129,
      "agne": 4130,
      "entrepren": 4131,
      "tw": 4132,
      "approved": 4133,
      "justification": 4134,
      "mariti": 4135,
      "visit": 4136,
      "décou": 4137,
      "qués": 4138,
      "jourd": 4139,
      "indiqué": 4140,
      "million": 4141,
      "protoco": 4142,
      "clés": 4143,
      "calcul": 4144,
      "adresse": 4145,
      "possibilités": 4146,
      "annon": 4147,
      "appell": 4148,
      "plor": 4149,
      "promouvoir": 4150,
      "servir": 4151,
      "cés": 4152,
      "vente": 4153,
      "glob": 4154,
      "homme": 4155,
      "aujourd": 4156,
      "intellectuelle": 4157,
      "généra": 4158,
      "quoi": 4159,
      "kin": 4160,
      "formes": 4161,
      "relating": 4162,
      "tention": 4163,
      "âge": 4164,
      "dépos": 4165,
      "réun": 4166,
      "principe": 4167,
      "transfert": 4168,
      "telles": 4169,
      "febr": 4170,
      "ciale": 4171,
      "tise": 4172,
      "participer": 4173,
      "contenu": 4174,
      "february": 4175,
      "clé": 4176,
      "ador": 4177,
      "presented": 4178,
      "fut": 4179,
      "faisant": 4180,
      "disease": 4181,
      "compag": 4182,
      "rural": 4183,
      "domin": 4184,
      "sociaux": 4185,
      "étaire": 4186,
      "tools": 4187,
      "substance": 4188,
      "illu": 4189,
      "candidats": 4190,
      "ltd": 4191,
      "gree": 4192,
      "facilities": 4193,
      "outils": 4194,
      "registration": 4195,
      "rene": 4196,
      "claire": 4197,
      "ended": 4198,
      "xx": 4199,
      "entrée": 4200,
      "rule": 4201,
      "stock": 4202,
      "présence": 4203,
      "chercheurs": 4204,
      "might": 4205,
      "cepti": 4206,
      "writ": 4207,
      "events": 4208,
      "prévention": 4209,
      "circum": 4210,
      "tie": 4211,
      "generally": 4212,
      "rup": 4213,
      "réper": 4214,
      "structures": 4215,
      "wat": 4216,
      "ministres": 4217,
      "ennent": 4218,
      "investissement": 4219,
      "published": 4220,
      "signal": 4221,
      "reso": 4222,
      "employé": 4223,
      "chemical": 4224,
      "chapter": 4225,
      "diminu": 4226,
      "hommes": 4227,
      "delegation": 4228,
      "collection": 4229,
      "illes": 4230,
      "paci": 4231,
      "ium": 4232,
      "contrat": 4233,
      "aurait": 4234,
      "candidates": 4235,
      "via": 4236,
      "profon": 4237,
      "outside": 4238,
      "prevention": 4239,
      "nit": 4240,
      "utilisés": 4241,
      "élaborer": 4242,
      "appare": 4243,
      "departmental": 4244,
      "neur": 4245,
      "issued": 4246,
      "challenges": 4247,
      "resid": 4248,
      "ably": 4249,
      "stakeholders": 4250,
      "record": 4251,
      "préoccup": 4252,
      "atlantic": 4253,
      "intégration": 4254,
      "representative": 4255,
      "**": 4256,
      "apprentiss": 4257,
      "dipl": 4258,
      "ablement": 4259,
      "coming": 4260,
      "progres": 4261,
      "piè": 4262,
      "prepared": 4263,
      "68": 4264,
      "infor": 4265,
      "ao": 4266,
      "moyenne": 4267,
      "star": 4268,
      "scientific": 4269,
      "alco": 4270,
      "craft": 4271,
      "mg": 4272,
      "heure": 4273,
      "criminal": 4274,
      "lequel": 4275,
      "tence": 4276,
      "bra": 4277,
      "search": 4278,
      "subs": 4279,
      "option": 4280,
      "territorial": 4281,
      "fiée": 4282,
      "territoire": 4283,
      "var": 4284,
      "ît": 4285,
      "privé": 4286,
      "détaill": 4287,
      "las": 4288,
      "modern": 4289,
      "dp": 4290,
      "sea": 4291,
      "conduct": 4292,
      "keep": 4293,
      "yuk": 4294,
      "explor": 4295,
      "located": 4296,
      "mêmes": 4297,
      "enregistr": 4298,
      "documentation": 4299,
      "naître": 4300,
      "summary": 4301,
      "ham": 4302,
      "efficient": 4303,
      "suscepti": 4304,
      "renouve": 4305,
      "apprentissage": 4306,
      "appoint": 4307,
      "postes": 4308,
      "vote": 4309,
      "eaux": 4310,
      "expertise": 4311,
      "designed": 4312,
      "faits": 4313,
      "operational": 4314,
      "park": 4315,
      "achieve": 4316,
      "demander": 4317,
      "montréal": 4318,
      "compet": 4319,
      "aller": 4320,
      "parents": 4321,
      "instrument": 4322,
      "orientation": 4323,
      "prévoit": 4324,
      "enseignement": 4325,
      "western": 4326,
      "once": 4327,
      "tan": 4328,
      "belie": 4329,
      "utilisé": 4330,
      "adequ": 4331,
      "corporate": 4332,
      "zones": 4333,
      "strategies": 4334,
      "consommation": 4335,
      "58": 4336,
      "déposé": 4337,
      "dernière": 4338,
      "payments": 4339,
      "parts": 4340,
      "concerns": 4341,
      "associations": 4342,
      "disponibles": 4343,
      "price": 4344,
      "fisheries": 4345,
      "rendre": 4346,
      "ctric": 4347,
      "élément": 4348,
      "operating": 4349,
      "consommateurs": 4350,
      "lent": 4351,
      "étranger": 4352,
      "give": 4353,
      "determined": 4354,
      "continued": 4355,
      "ensur": 4356,
      "fonda": 4357,
      "defined": 4358,
      "responsabilités": 4359,
      "purch": 4360,
      "bénéfici": 4361,
      "ède": 4362,
      "distric": 4363,
      "primary": 4364,
      "equ": 4365,
      "trés": 4366,
      "quée": 4367,
      "élimin": 4368,
      "présentation": 4369,
      "pied": 4370,
      "placement": 4371,
      "tard": 4372,
      "reti": 4373,
      "souh": 4374,
      "integrated": 4375,
      "shop": 4376,
      "istan": 4377,
      "broadcas": 4378,
      "iled": 4379,
      "marke": 4380,
      "jap": 4381,
      "mately": 4382,
      "indicated": 4383,
      "pilo": 4384,
      "yukon": 4385,
      "souhait": 4386,
      "fel": 4387,
      "raisonn": 4388,
      "offices": 4389,
      "volun": 4390,
      "tables": 4391,
      "envis": 4392,
      "mm": 4393,
      "norm": 4394,
      "transmission": 4395,
      "substanti": 4396,
      "acci": 4397,
      "tariff": 4398,
      "maladies": 4399,
      "connex": 4400,
      "maladie": 4401,
      "obstac": 4402,
      "importantes": 4403,
      "liber": 4404,
      "répond": 4405,
      "mac": 4406,
      "copie": 4407,
      "situations": 4408,
      "permit": 4409,
      "described": 4410,
      "pdf": 4411,
      "iving": 4412,
      "stratégies": 4413,
      "ounds": 4414,
      "revenue": 4415,
      "règlements": 4416,
      "champ": 4417,
      "57": 4418,
      "oxy": 4419,
      "bilities": 4420,
      "methods": 4421,
      "catégorie": 4422,
      "ka": 4423,
      "sections": 4424,
      "habitu": 4425,
      "dernières": 4426,
      "personnels": 4427,
      "commiss": 4428,
      "occur": 4429,
      "combat": 4430,
      "jeux": 4431,
      "délégation": 4432,
      "permettant": 4433,
      "cks": 4434,
      "statistics": 4435,
      "demandé": 4436,
      "poin": 4437,
      "approval": 4438,
      "say": 4439,
      "ministers": 4440,
      "capacités": 4441,
      "tance": 4442,
      "placed": 4443,
      "find": 4444,
      "siè": 4445,
      "tine": 4446,
      "thre": 4447,
      "liers": 4448,
      "basic": 4449,
      "teach": 4450,
      "liens": 4451,
      "56": 4452,
      "accroître": 4453,
      "gées": 4454,
      "communautaires": 4455,
      "limité": 4456,
      "secrétariat": 4457,
      "traditional": 4458,
      "procure": 4459,
      "history": 4460,
      "secretariat": 4461,
      "around": 4462,
      "fonctionnement": 4463,
      "solid": 4464,
      "entit": 4465,
      "indépend": 4466,
      "saint": 4467,
      "comprendre": 4468,
      "ût": 4469,
      "impacts": 4470,
      "md": 4471,
      "établissements": 4472,
      "done": 4473,
      "réus": 4474,
      "arily": 4475,
      "directrices": 4476,
      "hér": 4477,
      "today": 4478,
      "text": 4479,
      "markets": 4480,
      "nant": 4481,
      "schedule": 4482,
      "vos": 4483,
      "stated": 4484,
      "expan": 4485,
      "généralement": 4486,
      "rejet": 4487,
      "év": 4488,
      "évé": 4489,
      "précédent": 4490,
      "maire": 4491,
      "week": 4492,
      "blement": 4493,
      "donne": 4494,
      "addres": 4495,
      "priorité": 4496,
      "96": 4497,
      "applique": 4498,
      "échange": 4499,
      "lant": 4500,
      "few": 4501,
      "nic": 4502,
      "effort": 4503,
      "essential": 4504,
      "capit": 4505,
      "extent": 4506,
      "throughout": 4507,
      "patrimo": 4508,
      "áá": 4509,
      "agreed": 4510,
      "interview": 4511,
      "ering": 4512,
      "lled": 4513,
      "conformité": 4514,
      "ray": 4515,
      "concurrence": 4516,
      "estima": 4517,
      "patrimoine": 4518,
      "supplémentaires": 4519,
      "rather": 4520,
      "consideration": 4521,
      "espe": 4522,
      "directives": 4523,
      "came": 4524,
      "along": 4525,
      "attach": 4526,
      "called": 4527,
      "trouve": 4528,
      "autorisation": 4529,
      "commitment": 4530,
      "représentant": 4531,
      "intéress": 4532,
      "endro": 4533,
      "employer": 4534,
      "soulig": 4535,
      "minim": 4536,
      "appliquer": 4537,
      "approxi": 4538,
      "grands": 4539,
      "pouv": 4540,
      "initial": 4541,
      "conflic": 4542,
      "independent": 4543,
      "executive": 4544,
      "retour": 4545,
      "external": 4546,
      "carried": 4547,
      "representatives": 4548,
      "scre": 4549,
      "him": 4550,
      "senior": 4551,
      "tâ": 4552,
      "paiement": 4553,
      "supervis": 4554,
      "dispos": 4555,
      "reduction": 4556,
      "assis": 4557,
      "trésor": 4558,
      "chlor": 4559,
      "accords": 4560,
      "correspond": 4561,
      "registered": 4562,
      "travaill": 4563,
      "stor": 4564,
      "tability": 4565,
      "arts": 4566,
      "format": 4567,
      "please": 4568,
      "acquisition": 4569,
      "pct": 4570,
      "financières": 4571,
      "éventu": 4572,
      "bation": 4573,
      "accu": 4574,
      "adul": 4575,
      "èrent": 4576,
      "gain": 4577,
      "civi": 4578,
      "érieures": 4579,
      "chief": 4580,
      "atteindre": 4581,
      "letter": 4582,
      "bois": 4583,
      "éth": 4584,
      "nombreuses": 4585,
      "cially": 4586,
      "avenir": 4587,
      "________________________________": 4588,
      "complè": 4589,
      "visite": 4590,
      "dynam": 4591,
      "resolution": 4592,
      "hours": 4593,
      "arrangements": 4594,
      "médicaments": 4595,
      "provenant": 4596,
      "tier": 4597,
      "financier": 4598,
      "hun": 4599,
      "customs": 4600,
      "concentration": 4601,
      "avez": 4602,
      "améric": 4603,
      "nécessité": 4604,
      "77": 4605,
      "itable": 4606,
      "near": 4607,
      "problem": 4608,
      "wood": 4609,
      "én": 4610,
      "anglais": 4611,
      "voyage": 4612,
      "especially": 4613,
      "circumst": 4614,
      "existence": 4615,
      "dépôt": 4616,
      "flow": 4617,
      "dep": 4618,
      "indique": 4619,
      "sectors": 4620,
      "republic": 4621,
      "expression": 4622,
      "consumer": 4623,
      "propre": 4624,
      "citoyens": 4625,
      "sorte": 4626,
      "diag": 4627,
      "thè": 4628,
      "mainten": 4629,
      "démocra": 4630,
      "évolution": 4631,
      "definition": 4632,
      "déclaré": 4633,
      "slo": 4634,
      "produced": 4635,
      "gée": 4636,
      "elements": 4637,
      "legisla": 4638,
      "receive": 4639,
      "hospital": 4640,
      "diversité": 4641,
      "sensibil": 4642,
      "physical": 4643,
      "bul": 4644,
      "scope": 4645,
      "cp": 4646,
      "meetings": 4647,
      "extérieur": 4648,
      "relatifs": 4649,
      "intended": 4650,
      "cées": 4651,
      "concentrations": 4652,
      "prévues": 4653,
      "requires": 4654,
      "reques": 4655,
      "érieurs": 4656,
      "royal": 4657,
      "awareness": 4658,
      "compre": 4659,
      "oil": 4660,
      "responsibilities": 4661,
      "prevent": 4662,
      "hô": 4663,
      "clair": 4664,
      "records": 4665,
      "coordon": 4666,
      "marketing": 4667,
      "acte": 4668,
      "cb": 4669,
      "actual": 4670,
      "appellant": 4671,
      "bulle": 4672,
      "espèce": 4673,
      "climate": 4674,
      "revenus": 4675,
      "privacy": 4676,
      "bay": 4677,
      "partenariat": 4678,
      "forest": 4679,
      "maintenance": 4680,
      "reasons": 4681,
      "institut": 4682,
      "juridique": 4683,
      "dossier": 4684,
      "actuelle": 4685,
      "size": 4686,
      "diversity": 4687,
      "comprehen": 4688,
      "ides": 4689,
      "eligible": 4690,
      "propres": 4691,
      "unité": 4692,
      "cée": 4693,
      "towards": 4694,
      "enforcement": 4695,
      "iency": 4696,
      "auteur": 4697,
      "news": 4698,
      "500": 4699,
      "aps": 4700,
      "favour": 4701,
      "concept": 4702,
      "enses": 4703,
      "surtout": 4704,
      "feed": 4705,
      "depu": 4706,
      "enda": 4707,
      "cie": 4708,
      "ande": 4709,
      "ensus": 4710,
      "fiés": 4711,
      "trust": 4712,
      "longer": 4713,
      "create": 4714,
      "propositions": 4715,
      "république": 4716,
      "territoires": 4717,
      "announ": 4718,
      "gs": 4719,
      "space": 4720,
      "aisse": 4721,
      "psy": 4722,
      "risks": 4723,
      "responsables": 4724,
      "aries": 4725,
      "manif": 4726,
      "rembour": 4727,
      "fre": 4728,
      "lingu": 4729,
      "begin": 4730,
      "wil": 4731,
      "exposition": 4732,
      "journal": 4733,
      "austral": 4734,
      "expo": 4735,
      "dan": 4736,
      "arbit": 4737,
      "autorité": 4738,
      "ene": 4739,
      "protéger": 4740,
      "intég": 4741,
      "pack": 4742,
      "faciliter": 4743,
      "ventions": 4744,
      "look": 4745,
      "nova": 4746,
      "chemin": 4747,
      "atic": 4748,
      "circumstances": 4749,
      "dessus": 4750,
      "frequ": 4751,
      "amérique": 4752,
      "crime": 4753,
      "favor": 4754,
      "ised": 4755,
      "vu": 4756,
      "advant": 4757,
      "interests": 4758,
      "confidenti": 4759,
      "establishment": 4760,
      "mix": 4761,
      "matières": 4762,
      "fourni": 4763,
      "médias": 4764,
      "étudiants": 4765,
      "successful": 4766,
      "fédéraux": 4767,
      "liqui": 4768,
      "comptes": 4769,
      "dollars": 4770,
      "stream": 4771,
      "tps": 4772,
      "station": 4773,
      "requirement": 4774,
      "613": 4775,
      "aircraft": 4776,
      "mich": 4777,
      "augu": 4778,
      "indian": 4779,
      "constat": 4780,
      "fron": 4781,
      "proposals": 4782,
      "mage": 4783,
      "creation": 4784,
      "treas": 4785,
      "covered": 4786,
      "grandes": 4787,
      "sof": 4788,
      "og": 4789,
      "amendments": 4790,
      "guid": 4791,
      "finances": 4792,
      "considéra": 4793,
      "immun": 4794,
      "cter": 4795,
      "guar": 4796,
      "1987": 4797,
      "mutu": 4798,
      "pollution": 4799,
      "vice": 4800,
      "internationaux": 4801,
      "integration": 4802,
      "faction": 4803,
      "mers": 4804,
      "forward": 4805,
      "added": 4806,
      "flo": 4807,
      "stratégiques": 4808,
      "quand": 4809,
      "appendix": 4810,
      "compensation": 4811,
      "emissions": 4812,
      "claims": 4813,
      "dès": 4814,
      "59": 4815,
      "matiques": 4816,
      "emergen": 4817,
      "lymp": 4818,
      "formal": 4819,
      "texte": 4820,
      "usu": 4821,
      "caractéristiques": 4822,
      "written": 4823,
      "régional": 4824,
      "semble": 4825,
      "environnementale": 4826,
      "chacun": 4827,
      "waste": 4828,
      "comments": 4829,
      "mandate": 4830,
      "html": 4831,
      "engine": 4832,
      "marks": 4833,
      "64": 4834,
      "tests": 4835,
      "decre": 4836,
      "vio": 4837,
      "61": 4838,
      "rappe": 4839,
      "disclo": 4840,
      "island": 4841,
      "statut": 4842,
      "lev": 4843,
      "blan": 4844,
      "atoires": 4845,
      "hypo": 4846,
      "kg": 4847,
      "réparti": 4848,
      "processing": 4849,
      "urer": 4850,
      "wing": 4851,
      "alternative": 4852,
      "critical": 4853,
      "bulletin": 4854,
      "éché": 4855,
      "nd": 4856,
      "bres": 4857,
      "scientifiques": 4858,
      "cab": 4859,
      "explic": 4860,
      "nomination": 4861,
      "fabrication": 4862,
      "août": 4863,
      "doc": 4864,
      "parent": 4865,
      "august": 4866,
      "living": 4867,
      "iences": 4868,
      "hiv": 4869,
      "estime": 4870,
      "installation": 4871,
      "contribute": 4872,
      "chron": 4873,
      "locaux": 4874,
      "lait": 4875,
      "comprehensive": 4876,
      "leave": 4877,
      "reasonable": 4878,
      "principle": 4879,
      "atures": 4880,
      "old": 4881,
      "51": 4882,
      "iles": 4883,
      "spr": 4884,
      "87": 4885,
      "intellectual": 4886,
      "quence": 4887,
      "blo": 4888,
      "succès": 4889,
      "préparation": 4890,
      "ira": 4891,
      "impos": 4892,
      "thin": 4893,
      "professionnels": 4894,
      "fail": 4895,
      "load": 4896,
      "bring": 4897,
      "deputy": 4898,
      "officielles": 4899,
      "atlantique": 4900,
      "screen": 4901,
      "formulaire": 4902,
      "ctiveness": 4903,
      "created": 4904,
      "district": 4905,
      "prime": 4906,
      "prévu": 4907,
      "dolog": 4908,
      "matic": 4909,
      "nun": 4910,
      "94": 4911,
      "relig": 4912,
      "linguis": 4913,
      "release": 4914,
      "mping": 4915,
      "écrit": 4916,
      "immedi": 4917,
      "ffic": 4918,
      "gradu": 4919,
      "élar": 4920,
      "commentaires": 4921,
      "manner": 4922,
      "asked": 4923,
      "consulta": 4924,
      "fla": 4925,
      "raisons": 4926,
      "résu": 4927,
      "subsi": 4928,
      "behav": 4929,
      "supported": 4930,
      "commissioner": 4931,
      "america": 4932,
      "ismes": 4933,
      "clearly": 4934,
      "favoriser": 4935,
      "charter": 4936,
      "panel": 4937,
      "judici": 4938,
      "rapporteur": 4939,
      "proposé": 4940,
      "advice": 4941,
      "improved": 4942,
      "ctoral": 4943,
      "cers": 4944,
      "dossiers": 4945,
      "detailed": 4946,
      "çu": 4947,
      "investissements": 4948,
      "guerre": 4949,
      "visée": 4950,
      "lou": 4951,
      "52": 4952,
      "llement": 4953,
      "ligh": 4954,
      "présenté": 4955,
      "%.": 4956,
      "alimentaire": 4957,
      "taxe": 4958,
      "famili": 4959,
      "seas": 4960,
      "acceptable": 4961,
      "bâ": 4962,
      "étape": 4963,
      "fondament": 4964,
      "réseaux": 4965,
      "employeur": 4966,
      "travailler": 4967,
      "ctif": 4968,
      "unch": 4969,
      "unies": 4970,
      "ns": 4971,
      "compétence": 4972,
      "pourcent": 4973,
      "sts": 4974,
      "investigation": 4975,
      "normal": 4976,
      "collectivité": 4977,
      "veuille": 4978,
      "trac": 4979,
      "rémunération": 4980,
      "modèles": 4981,
      "envoy": 4982,
      "paiements": 4983,
      "wish": 4984,
      "commod": 4985,
      "istance": 4986,
      "satisfaction": 4987,
      "producteurs": 4988,
      "54": 4989,
      "consac": 4990,
      "opti": 4991,
      "mace": 4992,
      "ero": 4993,
      "officers": 4994,
      "ongoing": 4995,
      "stage": 4996,
      "feu": 4997,
      "ènes": 4998,
      "simple": 4999,
      "annuel": 5000,
      "veuillez": 5001,
      "run": 5002,
      "69": 5003,
      "prince": 5004,
      "compared": 5005,
      "convient": 5006,
      "reserve": 5007,
      "pul": 5008,
      "quées": 5009,
      "clari": 5010,
      "ghan": 5011,
      "engag": 5012,
      "sales": 5013,
      "kers": 5014,
      "menting": 5015,
      "implic": 5016,
      "1985": 5017,
      "horiz": 5018,
      "treasury": 5019,
      "semin": 5020,
      "labr": 5021,
      "conception": 5022,
      "emphas": 5023,
      "sû": 5024,
      "médec": 5025,
      "users": 5026,
      "bibli": 5027,
      "conver": 5028,
      "lari": 5029,
      "managers": 5030,
      "oce": 5031,
      "effectiveness": 5032,
      "affaire": 5033,
      "53": 5034,
      "aa": 5035,
      "chau": 5036,
      "dési": 5037,
      "connu": 5038,
      "perfe": 5039,
      "interne": 5040,
      "whole": 5041,
      "payer": 5042,
      "classe": 5043,
      "accueil": 5044,
      "pace": 5045,
      "rant": 5046,
      "pic": 5047,
      "complé": 5048,
      "pointed": 5049,
      "gary": 5050,
      "valent": 5051,
      "63": 5052,
      "tural": 5053,
      "border": 5054,
      "details": 5055,
      "election": 5056,
      "passe": 5057,
      "rage": 5058,
      "animaux": 5059,
      "room": 5060,
      "mécanismes": 5061,
      "communiquer": 5062,
      "instance": 5063,
      "testing": 5064,
      "ensuite": 5065,
      "serious": 5066,
      "adéqu": 5067,
      "fire": 5068,
      "seule": 5069,
      "hous": 5070,
      "fusion": 5071,
      "1989": 5072,
      "citizens": 5073,
      "tv": 5074,
      "labrador": 5075,
      "wers": 5076,
      "tale": 5077,
      "setting": 5078,
      "sommes": 5079,
      "designated": 5080,
      "douan": 5081,
      "datab": 5082,
      "recommandation": 5083,
      "tia": 5084,
      "inuit": 5085,
      "indemn": 5086,
      "effectuer": 5087,
      "lien": 5088,
      "ensuring": 5089,
      "method": 5090,
      "lateral": 5091,
      "principales": 5092,
      "researchers": 5093,
      "took": 5094,
      "patient": 5095,
      "phil": 5096,
      "obtenu": 5097,
      "contracting": 5098,
      "money": 5099,
      "reste": 5100,
      "matters": 5101,
      "book": 5102,
      "taxes": 5103,
      "interprétation": 5104,
      "exige": 5105,
      "archives": 5106,
      "urban": 5107,
      "réguli": 5108,
      "ney": 5109,
      "candidate": 5110,
      "route": 5111,
      "muse": 5112,
      "agenda": 5113,
      "jean": 5114,
      "transformation": 5115,
      "urgence": 5116,
      "militaire": 5117,
      "intitu": 5118,
      "résultat": 5119,
      "libr": 5120,
      "eration": 5121,
      "agricultural": 5122,
      "territori": 5123,
      "opéra": 5124,
      "laws": 5125,
      "sauf": 5126,
      "subse": 5127,
      "wg": 5128,
      "neg": 5129,
      "specified": 5130,
      "imple": 5131,
      "wild": 5132,
      "meilleure": 5133,
      "exprim": 5134,
      "subsequent": 5135,
      "caractère": 5136,
      "ose": 5137,
      "composition": 5138,
      "lande": 5139,
      "portu": 5140,
      "implemented": 5141,
      "mosph": 5142,
      "sels": 5143,
      "contribuer": 5144,
      "reform": 5145,
      "oir": 5146,
      "affected": 5147,
      "lir": 5148,
      "recommendation": 5149,
      "résolution": 5150,
      "series": 5151,
      "témo": 5152,
      "appuyer": 5153,
      "soc": 5154,
      "pers": 5155,
      "lacement": 5156,
      "garde": 5157,
      "survi": 5158,
      "parc": 5159,
      "refus": 5160,
      "atmosph": 5161,
      "hes": 5162,
      "égalité": 5163,
      "box": 5164,
      "clairement": 5165,
      "phon": 5166,
      "depos": 5167,
      "lesquels": 5168,
      "centrale": 5169,
      "particuliers": 5170,
      "ports": 5171,
      "reduced": 5172,
      "compati": 5173,
      "ib": 5174,
      "école": 5175,
      "vets": 5176,
      "provinciaux": 5177,
      "1988": 5178,
      "lève": 5179,
      "ford": 5180,
      "èle": 5181,
      "difficult": 5182,
      "km": 5183,
      "gender": 5184,
      "excellence": 5185,
      "sett": 5186,
      "approximately": 5187,
      "véhicules": 5188,
      "exercise": 5189,
      "target": 5190,
      "sures": 5191,
      "dimension": 5192,
      "dumping": 5193,
      "crits": 5194,
      "libre": 5195,
      "nunav": 5196,
      "aids": 5197,
      "décrit": 5198,
      "instructions": 5199,
      "estimates": 5200,
      "pens": 5201,
      "perspective": 5202,
      "dia": 5203,
      "réunions": 5204,
      "lettre": 5205,
      "produire": 5206,
      "--------": 5207,
      "troisième": 5208,
      "pêches": 5209,
      "alités": 5210,
      "istes": 5211,
      "territories": 5212,
      "task": 5213,
      "brevets": 5214,
      "hésion": 5215,
      "loss": 5216,
      "protect": 5217,
      "accountability": 5218,
      "taille": 5219,
      "productiv": 5220,
      "interes": 5221,
      "peace": 5222,
      "compét": 5223,
      "governance": 5224,
      "expect": 5225,
      "réalisation": 5226,
      "iens": 5227,
      "continuer": 5228,
      "faite": 5229,
      "planned": 5230,
      "tas": 5231,
      "lables": 5232,
      "emergency": 5233,
      "suivante": 5234,
      "fas": 5235,
      "town": 5236,
      "tail": 5237,
      "supporting": 5238,
      "relatif": 5239,
      "outcomes": 5240,
      "transactions": 5241,
      "militaires": 5242,
      "workshop": 5243,
      "drugs": 5244,
      "analyses": 5245,
      "hard": 5246,
      "juge": 5247,
      "disposi": 5248,
      "selves": 5249,
      "entitled": 5250,
      "bag": 5251,
      "examine": 5252,
      "findings": 5253,
      "fonctionnaires": 5254,
      "spécifiques": 5255,
      "demo": 5256,
      "nan": 5257,
      "78": 5258,
      "maritime": 5259,
      "dû": 5260,
      "east": 5261,
      "interventions": 5262,
      "navig": 5263,
      "partner": 5264,
      "rang": 5265,
      "représente": 5266,
      "cihr": 5267,
      "accessible": 5268,
      "africa": 5269,
      "bert": 5270,
      "réponses": 5271,
      "scientifique": 5272,
      "principalement": 5273,
      "protocole": 5274,
      "approvision": 5275,
      "exportation": 5276,
      "juste": 5277,
      "advisory": 5278,
      "parta": 5279,
      "lesquelles": 5280,
      "wise": 5281,
      "catégories": 5282,
      "immédi": 5283,
      "indicateurs": 5284,
      "erie": 5285,
      "little": 5286,
      "amment": 5287,
      "abord": 5288,
      "attend": 5289,
      "civile": 5290,
      "accé": 5291,
      "portée": 5292,
      "aura": 5293,
      "takes": 5294,
      "mains": 5295,
      "cm": 5296,
      "enable": 5297,
      "adopté": 5298,
      "gestionnaires": 5299,
      "rir": 5300,
      "charges": 5301,
      "déliv": 5302,
      "majority": 5303,
      "behalf": 5304,
      "93": 5305,
      "title": 5306,
      "exclusive": 5307,
      "olymp": 5308,
      "pourcentage": 5309,
      "goals": 5310,
      "degree": 5311,
      "constituent": 5312,
      "reconnu": 5313,
      "univer": 5314,
      "never": 5315,
      "financing": 5316,
      "engagements": 5317,
      "illustr": 5318,
      "majorité": 5319,
      "duties": 5320,
      "contro": 5321,
      "lined": 5322,
      "filed": 5323,
      "bey": 5324,
      "counter": 5325,
      "restrictions": 5326,
      "words": 5327,
      "hearing": 5328,
      "prévue": 5329,
      "approbation": 5330,
      "intes": 5331,
      "assets": 5332,
      "improving": 5333,
      "exposure": 5334,
      "aveur": 5335,
      "laur": 5336,
      "requested": 5337,
      "hors": 5338,
      "suggest": 5339,
      "operate": 5340,
      "passé": 5341,
      "concep": 5342,
      "expenses": 5343,
      "repres": 5344,
      "start": 5345,
      "fri": 5346,
      "bodies": 5347,
      "récent": 5348,
      "quelque": 5349,
      "compter": 5350,
      "ists": 5351,
      "défis": 5352,
      "iste": 5353,
      "dite": 5354,
      "observation": 5355,
      "obtained": 5356,
      "petites": 5357,
      "refu": 5358,
      "ètres": 5359,
      "itself": 5360,
      "norme": 5361,
      "cussions": 5362,
      "limites": 5363,
      "crire": 5364,
      "certification": 5365,
      "adequate": 5366,
      "férences": 5367,
      "jac": 5368,
      "step": 5369,
      "prices": 5370,
      "behavi": 5371,
      "move": 5372,
      "essentiel": 5373,
      "62": 5374,
      "message": 5375,
      "adaptation": 5376,
      "film": 5377,
      "fees": 5378,
      "91": 5379,
      "legislative": 5380,
      "undertaking": 5381,
      "yet": 5382,
      "sif": 5383,
      "component": 5384,
      "étaires": 5385,
      "92": 5386,
      "ail": 5387,
      "consiste": 5388,
      "handic": 5389,
      "implementing": 5390,
      "hc": 5391,
      "éviter": 5392,
      "indicators": 5393,
      "variety": 5394,
      "understand": 5395,
      "bene": 5396,
      "disponible": 5397,
      "rivi": 5398,
      "grant": 5399,
      "dee": 5400,
      "passer": 5401,
      "haz": 5402,
      "limite": 5403,
      "arrêt": 5404,
      "explain": 5405,
      "statistique": 5406,
      "faveur": 5407,
      "compagnie": 5408,
      "carb": 5409,
      "irsc": 5410,
      "amples": 5411,
      "differences": 5412,
      "déch": 5413,
      "indicate": 5414,
      "maintien": 5415,
      "build": 5416,
      "ws": 5417,
      "too": 5418,
      "amended": 5419,
      "vih": 5420,
      "sil": 5421,
      "sav": 5422,
      "chiff": 5423,
      "destination": 5424,
      "dispu": 5425,
      "proceedings": 5426,
      "moun": 5427,
      "grad": 5428,
      "informed": 5429,
      "guarante": 5430,
      "imes": 5431,
      "emplois": 5432,
      "enfin": 5433,
      "vres": 5434,
      "divul": 5435,
      "listed": 5436,
      "partenariats": 5437,
      "utilisateurs": 5438,
      "alter": 5439,
      "endu": 5440,
      "fournisseurs": 5441,
      "eg": 5442,
      "téléphone": 5443,
      "permettent": 5444,
      "ration": 5445,
      "aume": 5446,
      "uniquement": 5447,
      "appear": 5448,
      "rapidement": 5449,
      "préci": 5450,
      "bâti": 5451,
      "logique": 5452,
      "territory": 5453,
      "traffic": 5454,
      "parcs": 5455,
      "plants": 5456,
      "reflect": 5457,
      "étro": 5458,
      "adjust": 5459,
      "green": 5460,
      "manque": 5461,
      "opposition": 5462,
      "focu": 5463,
      "isms": 5464,
      "rempla": 5465,
      "marques": 5466,
      "press": 5467,
      "cueill": 5468,
      "cultures": 5469,
      "shown": 5470,
      "attent": 5471,
      "fp": 5472,
      "nage": 5473,
      "subventions": 5474,
      "phen": 5475,
      "andis": 5476,
      "utilisées": 5477,
      "families": 5478,
      "mption": 5479,
      "sold": 5480,
      "ported": 5481,
      "difficile": 5482,
      "gla": 5483,
      "intermédi": 5484,
      "revis": 5485,
      "clinical": 5486,
      "expressed": 5487,
      "telephone": 5488,
      "officials": 5489,
      "pouvoirs": 5490,
      "circonst": 5491,
      "correction": 5492,
      "logical": 5493,
      "commerciales": 5494,
      "bound": 5495,
      "facilitate": 5496,
      "manager": 5497,
      "ares": 5498,
      "leading": 5499,
      "cut": 5500,
      "website": 5501,
      "partnerships": 5502,
      "participate": 5503,
      "why": 5504,
      "bill": 5505,
      "ral": 5506,
      "whose": 5507,
      "ministérie": 5508,
      "param": 5509,
      "viennent": 5510,
      "alleg": 5511,
      "pin": 5512,
      "histoire": 5513,
      "consulter": 5514,
      "follows": 5515,
      "nutrition": 5516,
      "tirer": 5517,
      "vation": 5518,
      "répercussions": 5519,
      "amb": 5520,
      "foundation": 5521,
      "freed": 5522,
      "vez": 5523,
      "launch": 5524,
      "supérieur": 5525,
      "parks": 5526,
      "biling": 5527,
      "guidance": 5528,
      "honor": 5529,
      "expos": 5530,
      "ani": 5531,
      "brevet": 5532,
      "carbon": 5533,
      "ibilité": 5534,
      "addressed": 5535,
      "complaint": 5536,
      "royaume": 5537,
      "rh": 5538,
      "white": 5539,
      "vide": 5540,
      "archite": 5541,
      "puisque": 5542,
      "connexes": 5543,
      "death": 5544,
      "quences": 5545,
      "prac": 5546,
      "peg": 5547,
      "examination": 5548,
      "licences": 5549,
      "essais": 5550,
      "cyc": 5551,
      "pm": 5552,
      "declar": 5553,
      "istics": 5554,
      "duty": 5555,
      "accent": 5556,
      "autonom": 5557,
      "commissaire": 5558,
      "plas": 5559,
      "image": 5560,
      "maintenir": 5561,
      "visé": 5562,
      "selected": 5563,
      "ruption": 5564,
      "tandis": 5565,
      "scale": 5566,
      "ken": 5567,
      "animal": 5568,
      "uits": 5569,
      "%,": 5570,
      "components": 5571,
      "businesses": 5572,
      "ibility": 5573,
      "magne": 5574,
      "négociations": 5575,
      "pard": 5576,
      "gos": 5577,
      "océ": 5578,
      "mt": 5579,
      "chambre": 5580,
      "jurisdiction": 5581,
      "trice": 5582,
      "incen": 5583,
      "physique": 5584,
      "compéti": 5585,
      "facility": 5586,
      "genre": 5587,
      "propose": 5588,
      "live": 5589,
      "producers": 5590,
      "item": 5591,
      "vacc": 5592,
      "mbers": 5593,
      "geograph": 5594,
      "84": 5595,
      "yes": 5596,
      "statistiques": 5597,
      "2010": 5598,
      "expansion": 5599,
      "contained": 5600,
      "empê": 5601,
      "amounts": 5602,
      "quantité": 5603,
      "équipement": 5604,
      "supports": 5605,
      "mou": 5606,
      "zation": 5607,
      "spor": 5608,
      "impli": 5609,
      "efficiency": 5610,
      "aviation": 5611,
      "affich": 5612,
      "accr": 5613,
      "distance": 5614,
      "obstacles": 5615,
      "juridiques": 5616,
      "avoid": 5617,
      "mrs": 5618,
      "crédits": 5619,
      "taur": 5620,
      "yle": 5621,
      "mechanisms": 5622,
      "commerciaux": 5623,
      "contenant": 5624,
      "locales": 5625,
      "complain": 5626,
      "criptions": 5627,
      "scotia": 5628,
      "pal": 5629,
      "modifier": 5630,
      "ète": 5631,
      "formul": 5632,
      "themselves": 5633,
      "enfant": 5634,
      "conflict": 5635,
      "sar": 5636,
      "phones": 5637,
      "naturelles": 5638,
      "nunavut": 5639,
      "infection": 5640,
      "terrain": 5641,
      "aper": 5642,
      "importe": 5643,
      "freedom": 5644,
      "phar": 5645,
      "2009": 5646,
      "commune": 5647,
      "participant": 5648,
      "accompag": 5649,
      "extra": 5650,
      "pages": 5651,
      "estimated": 5652,
      "régionaux": 5653,
      "cabin": 5654,
      "feuille": 5655,
      "mortal": 5656,
      "pourquoi": 5657,
      "ducing": 5658,
      "factor": 5659,
      "sate": 5660,
      "ennes": 5661,
      "entry": 5662,
      "renforcement": 5663,
      "immobil": 5664,
      "collè": 5665,
      "andon": 5666,
      "recommended": 5667,
      "ying": 5668,
      "ministry": 5669,
      "secondary": 5670,
      "educational": 5671,
      "tobac": 5672,
      "efficaces": 5673,
      "notification": 5674,
      "enquêtes": 5675,
      "loo": 5676,
      "présentée": 5677,
      "élections": 5678,
      "çant": 5679,
      "codes": 5680,
      "évaluations": 5681,
      "ressor": 5682,
      "résumé": 5683,
      "achieved": 5684,
      "signature": 5685,
      "funda": 5686,
      "vér": 5687,
      "items": 5688,
      "perfection": 5689,
      "èque": 5690,
      "tiennent": 5691,
      "cession": 5692,
      "conjo": 5693,
      "len": 5694,
      "granted": 5695,
      "retraite": 5696,
      "spon": 5697,
      "pru": 5698,
      "augmenter": 5699,
      "marg": 5700,
      "familles": 5701,
      "300": 5702,
      "privée": 5703,
      "bureaux": 5704,
      "agricoles": 5705,
      "approaches": 5706,
      "shared": 5707,
      "travaille": 5708,
      "rapid": 5709,
      "révision": 5710,
      "recognized": 5711,
      "aéro": 5712,
      "tivité": 5713,
      "beyond": 5714,
      "tière": 5715,
      "accur": 5716,
      "establishing": 5717,
      "sept": 5718,
      "mentioned": 5719,
      "ae": 5720,
      "afghan": 5721,
      "consumers": 5722,
      "équili": 5723,
      "rend": 5724,
      "threat": 5725,
      "avan": 5726,
      "sexu": 5727,
      "visés": 5728,
      "rement": 5729,
      "crite": 5730,
      "connaître": 5731,
      "générales": 5732,
      "double": 5733,
      "89": 5734,
      "essai": 5735,
      "artis": 5736,
      "mines": 5737,
      "{\\": 5738,
      "del": 5739,
      "satell": 5740,
      "ki": 5741,
      "danger": 5742,
      "fondée": 5743,
      "déchets": 5744,
      "challenge": 5745,
      "fee": 5746,
      "importation": 5747,
      "sound": 5748,
      "growing": 5749,
      "music": 5750,
      "anticip": 5751,
      "professionnelle": 5752,
      "plainte": 5753,
      "préa": 5754,
      "mad": 5755,
      "discussed": 5756,
      "répartition": 5757,
      "osce": 5758,
      "china": 5759,
      "élec": 5760,
      "tobacco": 5761,
      "meaning": 5762,
      "logic": 5763,
      "competitive": 5764,
      "stress": 5765,
      "disciplin": 5766,
      "entrepreneurs": 5767,
      "île": 5768,
      "développer": 5769,
      "ker": 5770,
      "acqui": 5771,
      "units": 5772,
      "fuel": 5773,
      "railway": 5774,
      "handicap": 5775,
      "clean": 5776,
      "specifically": 5777,
      "combus": 5778,
      "jamais": 5779,
      "permettra": 5780,
      "sole": 5781,
      "except": 5782,
      "traduction": 5783,
      "recip": 5784,
      "always": 5785,
      "numbers": 5786,
      "associés": 5787,
      "goal": 5788,
      "iment": 5789,
      "flex": 5790,
      "haute": 5791,
      "circonstances": 5792,
      "computer": 5793,
      "answer": 5794,
      "socio": 5795,
      "sociales": 5796,
      "dispar": 5797,
      "lying": 5798,
      "comprennent": 5799,
      "commerciale": 5800,
      "appointment": 5801,
      "préhen": 5802,
      "concours": 5803,
      "géograph": 5804,
      "pharm": 5805,
      "networks": 5806,
      "latér": 5807,
      "prefer": 5808,
      "recovery": 5809,
      "vehicle": 5810,
      "prêts": 5811,
      "improvement": 5812,
      "800": 5813,
      "rs": 5814,
      "percentage": 5815,
      "accounts": 5816,
      "titulaire": 5817,
      "attr": 5818,
      "leng": 5819,
      "aces": 5820,
      "liter": 5821,
      "semaine": 5822,
      "légu": 5823,
      "actuel": 5824,
      "ignant": 5825,
      "minutes": 5826,
      "chement": 5827,
      "promoting": 5828,
      "check": 5829,
      "whereas": 5830,
      "seen": 5831,
      "participating": 5832,
      "pai": 5833,
      "loyment": 5834,
      "gag": 5835,
      "substitu": 5836,
      "calend": 5837,
      "spect": 5838,
      "observed": 5839,
      "dessous": 5840,
      "intel": 5841,
      "dues": 5842,
      "veiller": 5843,
      "produce": 5844,
      "committed": 5845,
      "sujets": 5846,
      "1980": 5847,
      "reviewed": 5848,
      "rid": 5849,
      "soutenir": 5850,
      "dav": 5851,
      "migration": 5852,
      "deven": 5853,
      "category": 5854,
      "étrangers": 5855,
      "rédi": 5856,
      "ana": 5857,
      "parliamentary": 5858,
      "accommod": 5859,
      "écar": 5860,
      "commitments": 5861,
      "admissibles": 5862,
      "illed": 5863,
      "gouvernementaux": 5864,
      "want": 5865,
      "quet": 5866,
      "salari": 5867,
      "simpli": 5868,
      "seraient": 5869,
      "montre": 5870,
      "useful": 5871,
      "forte": 5872,
      "modes": 5873,
      "ape": 5874,
      "traités": 5875,
      "tait": 5876,
      "governmental": 5877,
      "agir": 5878,
      "presence": 5879,
      "premiers": 5880,
      "zing": 5881,
      "prescri": 5882,
      "pleine": 5883,
      "respecter": 5884,
      "supplement": 5885,
      "authorized": 5886,
      "winni": 5887,
      "utile": 5888,
      "judg": 5889,
      "consensus": 5890,
      "garantir": 5891,
      "autant": 5892,
      "remboursement": 5893,
      "qualifications": 5894,
      "publié": 5895,
      "événements": 5896,
      "utilisée": 5897,
      "separate": 5898,
      "principale": 5899,
      "spécifique": 5900,
      "steps": 5901,
      "allocation": 5902,
      "ive": 5903,
      "ctifs": 5904,
      "audience": 5905,
      "tarif": 5906,
      "susceptibles": 5907,
      "73": 5908,
      "spending": 5909,
      "professionnel": 5910,
      "significantly": 5911,
      "winnipeg": 5912,
      "chimiques": 5913,
      "couv": 5914,
      "tool": 5915,
      "ky": 5916,
      "ceptions": 5917,
      "cotis": 5918,
      "réaliser": 5919,
      "requests": 5920,
      "subvention": 5921,
      "fishing": 5922,
      "inqu": 5923,
      "fit": 5924,
      "schools": 5925,
      "housing": 5926,
      "soumis": 5927,
      "intellig": 5928,
      "oui": 5929,
      "holder": 5930,
      "agricole": 5931,
      "suis": 5932,
      "sharing": 5933,
      "européens": 5934,
      "ouvez": 5935,
      "journ": 5936,
      "earlier": 5937,
      "degré": 5938,
      "bid": 5939,
      "actifs": 5940,
      "determination": 5941,
      "ctures": 5942,
      "tt": 5943,
      "afrique": 5944,
      "cettes": 5945,
      "ums": 5946,
      "reconnaissance": 5947,
      "negotiations": 5948,
      "applies": 5949,
      "acade": 5950,
      "museum": 5951,
      "revised": 5952,
      "encourager": 5953,
      "sensibilisation": 5954,
      "tants": 5955,
      "maje": 5956,
      "liberté": 5957,
      "réforme": 5958,
      "medium": 5959,
      "employed": 5960,
      "gérer": 5961,
      "exclusion": 5962,
      "syndic": 5963,
      "effectively": 5964,
      "offered": 5965,
      "adopter": 5966,
      "dens": 5967,
      "chargé": 5968,
      "virtu": 5969,
      "circulation": 5970,
      "expenditures": 5971,
      "seven": 5972,
      "raisonnable": 5973,
      "pouvez": 5974,
      "funded": 5975,
      "aérone": 5976,
      "exploit": 5977,
      "tors": 5978,
      "stocks": 5979,
      "finally": 5980,
      "diversi": 5981,
      "visu": 5982,
      "seurs": 5983,
      "calls": 5984,
      "différences": 5985,
      "continues": 5986,
      "sond": 5987,
      "intéres": 5988,
      "fournis": 5989,
      "dete": 5990,
      "exceed": 5991,
      "expir": 5992,
      "recettes": 5993,
      "elimin": 5994,
      "perspectives": 5995,
      "length": 5996,
      "puisse": 5997,
      "audio": 5998,
      "més": 5999,
      "symp": 6000,
      "titudes": 6001,
      "containing": 6002,
      "devices": 6003,
      "resulting": 6004,
      "76": 6005,
      "virus": 6006,
      "protocol": 6007,
      "atique": 6008,
      "72": 6009,
      "unless": 6010,
      "tac": 6011,
      "ived": 6012,
      "ache": 6013,
      "newfound": 6014,
      "citizen": 6015,
      "modu": 6016,
      "indiquer": 6017,
      "expenditure": 6018,
      "apporter": 6019,
      "quit": 6020,
      "partage": 6021,
      "visées": 6022,
      "ising": 6023,
      "copies": 6024,
      "yor": 6025,
      "examples": 6026,
      "recognition": 6027,
      "conséquences": 6028,
      "ouvé": 6029,
      "newfoundland": 6030,
      "ring": 6031,
      "bin": 6032,
      "disclosure": 6033,
      "kil": 6034,
      "manufacturing": 6035,
      "représentent": 6036,
      "pharmace": 6037,
      "element": 6038,
      "préoccupations": 6039,
      "foot": 6040,
      "reço": 6041,
      "bloc": 6042,
      "83": 6043,
      "amén": 6044,
      "perte": 6045,
      "hibit": 6046,
      "chine": 6047,
      "applicables": 6048,
      "makes": 6049,
      "biblioth": 6050,
      "spir": 6051,
      "memor": 6052,
      "links": 6053,
      "pétro": 6054,
      "contacts": 6055,
      "entire": 6056,
      "map": 6057,
      "avoc": 6058,
      "maxim": 6059,
      "award": 6060,
      "élè": 6061,
      "pattern": 6062,
      "immigrants": 6063,
      "afric": 6064,
      "approvisionnement": 6065,
      "contraire": 6066,
      "functions": 6067,
      "poids": 6068,
      "mouve": 6069,
      "élarg": 6070,
      "requis": 6071,
      "71": 6072,
      "pén": 6073,
      "étrangères": 6074,
      "expert": 6075,
      "suggested": 6076,
      "barri": 6077,
      "défic": 6078,
      "dates": 6079,
      "dose": 6080,
      "charte": 6081,
      "entretien": 6082,
      "généraux": 6083,
      "electric": 6084,
      "prair": 6085,
      "remains": 6086,
      "usually": 6087,
      "lieux": 6088,
      "gouvernementales": 6089,
      "86": 6090,
      "electoral": 6091,
      "1986": 6092,
      "sale": 6093,
      "confiance": 6094,
      "zo": 6095,
      "break": 6096,
      "culturelles": 6097,
      "consid": 6098,
      "psycho": 6099,
      "motifs": 6100,
      "comparative": 6101,
      "entend": 6102,
      "questionnaire": 6103,
      "sépar": 6104,
      "argent": 6105,
      "preparation": 6106,
      "itement": 6107,
      "prévus": 6108,
      "recently": 6109,
      "lets": 6110,
      "conforme": 6111,
      "lits": 6112,
      "typ": 6113,
      "fiées": 6114,
      "cell": 6115,
      "outcome": 6116,
      "pollu": 6117,
      "espace": 6118,
      "weight": 6119,
      "indication": 6120,
      "appliquent": 6121,
      "introduced": 6122,
      "otherwise": 6123,
      "protected": 6124,
      "lus": 6125,
      "stable": 6126,
      "suspen": 6127,
      "dirige": 6128,
      "tabac": 6129,
      "départ": 6130,
      "waters": 6131,
      "almost": 6132,
      "répondants": 6133,
      "locations": 6134,
      "instruction": 6135,
      "genetic": 6136,
      "modalités": 6137,
      "mécanisme": 6138,
      "copyright": 6139,
      "deur": 6140,
      "fal": 6141,
      "iner": 6142,
      "complète": 6143,
      "temporary": 6144,
      "congé": 6145,
      "réce": 6146,
      "importations": 6147,
      "récemment": 6148,
      "summer": 6149,
      "potentiel": 6150,
      "library": 6151,
      "actif": 6152,
      "déte": 6153,
      "york": 6154,
      "places": 6155,
      "ttes": 6156,
      "éro": 6157,
      "senti": 6158,
      "humaine": 6159,
      "comités": 6160,
      "prelimin": 6161,
      "requér": 6162,
      "ême": 6163,
      "faites": 6164,
      "prison": 6165,
      "followed": 6166,
      "isent": 6167,
      "sida": 6168,
      "vehicles": 6169,
      "mir": 6170,
      "highly": 6171,
      "drogues": 6172,
      "ology": 6173,
      "undertaken": 6174,
      "behaviour": 6175,
      "81": 6176,
      "tourism": 6177,
      "fundamental": 6178,
      "mière": 6179,
      "paix": 6180,
      "raine": 6181,
      "communes": 6182,
      "tâches": 6183,
      "riel": 6184,
      "preliminary": 6185,
      "meu": 6186,
      "facteur": 6187,
      "err": 6188,
      "sample": 6189,
      "actes": 6190,
      "etat": 6191,
      "effectué": 6192,
      "ententes": 6193,
      "broadcasting": 6194,
      "television": 6195,
      "secretary": 6196,
      "tone": 6197,
      "involvement": 6198,
      "wash": 6199,
      "involving": 6200,
      "complément": 6201,
      "xy": 6202,
      "détail": 6203,
      "jobs": 6204,
      "endroit": 6205,
      "ather": 6206,
      "sct": 6207,
      "exemples": 6208,
      "................................": 6209,
      "grain": 6210,
      "respondents": 6211,
      "historique": 6212,
      "motion": 6213,
      "allowed": 6214,
      "mula": 6215,
      "uring": 6216,
      "license": 6217,
      "mondial": 6218,
      "ières": 6219,
      "elections": 6220,
      "grade": 6221,
      "défini": 6222,
      "régimes": 6223,
      "facture": 6224,
      "utilisant": 6225,
      "unemp": 6226,
      "cadres": 6227,
      "relev": 6228,
      "programming": 6229,
      "contrats": 6230,
      "interpretation": 6231,
      "échanges": 6232,
      "eter": 6233,
      "compréhen": 6234,
      "ological": 6235,
      "database": 6236,
      "poor": 6237,
      "declaration": 6238,
      "seur": 6239,
      "insu": 6240,
      "naît": 6241,
      "spati": 6242,
      "pipe": 6243,
      "ison": 6244,
      "iring": 6245,
      "bell": 6246,
      "détails": 6247,
      "ked": 6248,
      "interested": 6249,
      "procurement": 6250,
      "street": 6251,
      "chacune": 6252,
      "physic": 6253,
      "thèse": 6254,
      "dd": 6255,
      "jam": 6256,
      "gains": 6257,
      "directorate": 6258,
      "bly": 6259,
      "armes": 6260,
      "liti": 6261,
      "negative": 6262,
      "74": 6263,
      "unités": 6264,
      "characteristics": 6265,
      "ala": 6266,
      "atom": 6267,
      "accepted": 6268,
      "reproduction": 6269,
      "pharmac": 6270,
      "germany": 6271,
      "trends": 6272,
      "healthy": 6273,
      "rables": 6274,
      "régionale": 6275,
      "imposition": 6276,
      "models": 6277,
      "symb": 6278,
      "lux": 6279,
      "bases": 6280,
      "screening": 6281,
      "passage": 6282,
      "vég": 6283,
      "statements": 6284,
      "certaine": 6285,
      "allég": 6286,
      "vaste": 6287,
      "equity": 6288,
      "offerts": 6289,
      "etary": 6290,
      "diplom": 6291,
      "démar": 6292,
      "causes": 6293,
      "ever": 6294,
      "concluded": 6295,
      "définir": 6296,
      "resident": 6297,
      "élèves": 6298,
      "biom": 6299,
      "pilot": 6300,
      "innovative": 6301,
      "débat": 6302,
      "400": 6303,
      "committees": 6304,
      "preser": 6305,
      "speak": 6306,
      "corps": 6307,
      "diagnos": 6308,
      "semaines": 6309,
      "consci": 6310,
      "disting": 6311,
      "tonnes": 6312,
      "globale": 6313,
      "82": 6314,
      "advantage": 6315,
      "derniers": 6316,
      "certificate": 6317,
      "étapes": 6318,
      "blood": 6319,
      "tch": 6320,
      "manifest": 6321,
      "comportement": 6322,
      "contracts": 6323,
      "inscrit": 6324,
      "atif": 6325,
      "inclusion": 6326,
      "atement": 6327,
      "doing": 6328,
      "prop": 6329,
      "nég": 6330,
      "seed": 6331,
      "info": 6332,
      "sr": 6333,
      "payable": 6334,
      "stes": 6335,
      "contient": 6336,
      "européennes": 6337,
      "écosse": 6338,
      "chô": 6339,
      "lun": 6340,
      "aspect": 6341,
      "discuss": 6342,
      "assure": 6343,
      "mener": 6344,
      "gène": 6345,
      "soil": 6346,
      "pacific": 6347,
      "divi": 6348,
      "pouvant": 6349,
      "ordonnance": 6350,
      "institutional": 6351,
      "brought": 6352,
      "fro": 6353,
      "boo": 6354,
      "vais": 6355,
      "cabinet": 6356,
      "abandon": 6357,
      "détermination": 6358,
      "cents": 6359,
      "affili": 6360,
      "firms": 6361,
      "nr": 6362,
      "acid": 6363,
      "plein": 6364,
      "chaî": 6365,
      "infir": 6366,
      "renew": 6367,
      "réserves": 6368,
      "complaints": 6369,
      "afghanistan": 6370,
      "david": 6371,
      "orders": 6372,
      "plaintes": 6373,
      "poss": 6374,
      "paris": 6375,
      "word": 6376,
      "appelant": 6377,
      "traiter": 6378,
      "peoples": 6379,
      "anne": 6380,
      "tir": 6381,
      "identité": 6382,
      "inclure": 6383,
      "acted": 6384,
      "sun": 6385,
      "créé": 6386,
      "investments": 6387,
      "crown": 6388,
      "clas": 6389,
      "allemagne": 6390,
      "decided": 6391,
      "bande": 6392,
      "électroniques": 6393,
      "bate": 6394,
      "appréci": 6395,
      "élevés": 6396,
      "mots": 6397,
      "ancement": 6398,
      "recevoir": 6399,
      "appareils": 6400,
      "fax": 6401,
      "malgré": 6402,
      "appointed": 6403,
      "presentation": 6404,
      "mau": 6405,
      "stations": 6406,
      "vois": 6407,
      "shel": 6408,
      "grounds": 6409,
      "ouverture": 6410,
      "oise": 6411,
      "izing": 6412,
      "eastern": 6413,
      "attemp": 6414,
      "phos": 6415,
      "campa": 6416,
      "passeng": 6417,
      "fisc": 6418,
      "conséquence": 6419,
      "visible": 6420,
      "humains": 6421,
      "amor": 6422,
      "destinés": 6423,
      "supplémentaire": 6424,
      "procéder": 6425,
      "préser": 6426,
      "views": 6427,
      "gst": 6428,
      "urb": 6429,
      "tières": 6430,
      "row": 6431,
      "beginning": 6432,
      "round": 6433,
      "democra": 6434,
      "occupational": 6435,
      "settlement": 6436,
      "submission": 6437,
      "rivière": 6438,
      "minority": 6439,
      "diseas": 6440,
      "calgary": 6441,
      "changed": 6442,
      "victi": 6443,
      "augmenté": 6444,
      "tendances": 6445,
      "pressure": 6446,
      "nrc": 6447,
      "alimentaires": 6448,
      "wildlife": 6449,
      "consoli": 6450,
      "tidi": 6451,
      "liaison": 6452,
      "mexic": 6453,
      "college": 6454,
      "adverse": 6455,
      "tendance": 6456,
      "ality": 6457,
      "messages": 6458,
      "carte": 6459,
      "limits": 6460,
      "thes": 6461,
      "worked": 6462,
      "flexi": 6463,
      "habil": 6464,
      "lives": 6465,
      "].": 6466,
      "nuclé": 6467,
      "petits": 6468,
      "halif": 6469,
      "campaign": 6470,
      "appuy": 6471,
      "kingdom": 6472,
      "cité": 6473,
      "halifax": 6474,
      "difficultés": 6475,
      "exploration": 6476,
      "précise": 6477,
      "pore": 6478,
      "movement": 6479,
      "sert": 6480,
      "tox": 6481,
      "nis": 6482,
      "enci": 6483,
      "1a": 6484,
      "régionales": 6485,
      "prestat": 6486,
      "longue": 6487,
      "wri": 6488,
      "hausse": 6489,
      "éthique": 6490,
      "machines": 6491,
      "digital": 6492,
      "vra": 6493,
      "douanes": 6494,
      "consultatif": 6495,
      "prélimin": 6496,
      "identifier": 6497,
      "victor": 6498,
      "ude": 6499,
      "déterminé": 6500,
      "leaders": 6501,
      "rest": 6502,
      "debt": 6503,
      "diseases": 6504,
      "certificat": 6505,
      "asia": 6506,
      "mill": 6507,
      "ement": 6508,
      "believe": 6509,
      "previously": 6510,
      "collecte": 6511,
      "pièces": 6512,
      "dispose": 6513,
      "lability": 6514,
      "shows": 6515,
      "tenues": 6516,
      "ently": 6517,
      "fill": 6518,
      "79": 6519,
      "mulation": 6520,
      "hood": 6521,
      "distinct": 6522,
      "crimin": 6523,
      "fidu": 6524,
      "édition": 6525,
      "conduite": 6526,
      "categories": 6527,
      "brief": 6528,
      "neuve": 6529,
      "practical": 6530,
      "relatively": 6531,
      "pme": 6532,
      "révé": 6533,
      "though": 6534,
      "possibles": 6535,
      "measurement": 6536,
      "scru": 6537,
      "tag": 6538,
      "atifs": 6539,
      "secure": 6540,
      "approuv": 6541,
      "grants": 6542,
      "extension": 6543,
      "temper": 6544,
      "gets": 6545,
      "primarily": 6546,
      "secu": 6547,
      "honour": 6548,
      "suffisamment": 6549,
      "imports": 6550,
      "implications": 6551,
      "gouvernance": 6552,
      "achat": 6553,
      "qualified": 6554,
      "join": 6555,
      "receiving": 6556,
      "sie": 6557,
      "injury": 6558,
      "vain": 6559,
      "furthermore": 6560,
      "aware": 6561,
      "methodolog": 6562,
      "pite": 6563,
      "delay": 6564,
      "ret": 6565,
      "forecas": 6566,
      "portent": 6567,
      "daily": 6568,
      "totale": 6569,
      "transaction": 6570,
      "poursuivre": 6571,
      "secrétaire": 6572,
      "participé": 6573,
      "exemption": 6574,
      "background": 6575,
      "haus": 6576,
      "approfon": 6577,
      "sessions": 6578,
      "accident": 6579,
      "provis": 6580,
      "remplir": 6581,
      "enting": 6582,
      "clause": 6583,
      "décidé": 6584,
      "culturel": 6585,
      "cohér": 6586,
      "fixed": 6587,
      "availability": 6588,
      "black": 6589,
      "input": 6590,
      "raised": 6591,
      "learn": 6592,
      "infrastructures": 6593,
      "campagne": 6594,
      "ép": 6595,
      "ute": 6596,
      "arrangement": 6597,
      "multiple": 6598,
      "inquir": 6599,
      "think": 6600,
      "ienne": 6601,
      "dangere": 6602,
      "sities": 6603,
      "filing": 6604,
      "tradu": 6605,
      "ôts": 6606,
      "particulière": 6607,
      "photograph": 6608,
      "gare": 6609,
      "manage": 6610,
      "animals": 6611,
      "aj": 6612,
      "feel": 6613,
      "lum": 6614,
      "chris": 6615,
      "tici": 6616,
      "assujet": 6617,
      "quotidi": 6618,
      "enhanced": 6619,
      "lés": 6620,
      "matéri": 6621,
      "faibles": 6622,
      "courant": 6623,
      "herein": 6624,
      "japan": 6625,
      "presque": 6626,
      "relationships": 6627,
      "increases": 6628,
      "écoles": 6629,
      "actuelles": 6630,
      "échéant": 6631,
      "fédération": 6632,
      "resol": 6633,
      "perfectionnement": 6634,
      "reducing": 6635,
      "compréhension": 6636,
      "stric": 6637,
      "donnée": 6638,
      "federation": 6639,
      "enterprises": 6640,
      "left": 6641,
      "énergé": 6642,
      "accrue": 6643,
      "disabilities": 6644,
      "administratives": 6645,
      "nar": 6646,
      "cellules": 6647,
      "benefic": 6648,
      "parfois": 6649,
      "online": 6650,
      "crtc": 6651,
      "nomin": 6652,
      "officielle": 6653,
      "puissent": 6654,
      "failure": 6655,
      "approuvé": 6656,
      "mari": 6657,
      "accounting": 6658,
      "trices": 6659,
      "secondaire": 6660,
      "phé": 6661,
      "collected": 6662,
      "steel": 6663,
      "élector": 6664,
      "contains": 6665,
      "iels": 6666,
      "enjeux": 6667,
      "transit": 6668,
      "complainant": 6669,
      "taxation": 6670,
      "applicants": 6671,
      "winter": 6672,
      "radiodiffusion": 6673,
      "motiv": 6674,
      "chrom": 6675,
      "démontr": 6676,
      "writing": 6677,
      "represented": 6678,
      "han": 6679,
      "nies": 6680,
      "ington": 6681,
      "facul": 6682,
      "card": 6683,
      "vues": 6684,
      "bridge": 6685,
      "consumption": 6686,
      "volon": 6687,
      "rur": 6688,
      "candidat": 6689,
      "choice": 6690,
      "season": 6691,
      "draw": 6692,
      "preci": 6693,
      "arrê": 6694,
      "automob": 6695,
      "tron": 6696,
      "hum": 6697,
      "register": 6698,
      "ologie": 6699,
      "sac": 6700,
      "ault": 6701,
      "quarter": 6702,
      "considéré": 6703,
      "lary": 6704,
      "storage": 6705,
      "atteinte": 6706,
      "alimentation": 6707,
      "assistant": 6708,
      "culturelle": 6709,
      "ee": 6710,
      "oral": 6711,
      "examiné": 6712,
      "labe": 6713,
      "usement": 6714,
      "changing": 6715,
      "coast": 6716,
      "career": 6717,
      "student": 6718,
      "respond": 6719,
      "ologiques": 6720,
      "ventes": 6721,
      "voi": 6722,
      "agré": 6723,
      "heading": 6724,
      "commence": 6725,
      "trial": 6726,
      "larger": 6727,
      "atteint": 6728,
      "prohib": 6729,
      "largement": 6730,
      "monton": 6731,
      "kind": 6732,
      "électri": 6733,
      "despite": 6734,
      "traditionnels": 6735,
      "edmonton": 6736,
      "agg": 6737,
      "affec": 6738,
      "rendu": 6739,
      "commercialisation": 6740,
      "habituellement": 6741,
      "exercer": 6742,
      "ppe": 6743,
      "délais": 6744,
      "120": 6745,
      "predic": 6746,
      "curs": 6747,
      "préparer": 6748,
      "fédérales": 6749,
      "lumière": 6750,
      "difference": 6751,
      "tware": 6752,
      "diam": 6753,
      "environnementales": 6754,
      "montants": 6755,
      "systé": 6756,
      "adhésion": 6757,
      "inscription": 6758,
      "lied": 6759,
      "democratic": 6760,
      "residents": 6761,
      "intermédiaire": 6762,
      "rue": 6763,
      "ôles": 6764,
      "variables": 6765,
      "providers": 6766,
      "courriel": 6767,
      "stabil": 6768,
      "weeks": 6769,
      ".).": 6770,
      "ouvert": 6771,
      "strength": 6772,
      "software": 6773,
      "acknow": 6774,
      "victimes": 6775,
      "pread": 6776,
      "couvre": 6777,
      "tify": 6778,
      "cris": 6779,
      "nuclear": 6780,
      "hôp": 6781,
      "assign": 6782,
      "universités": 6783,
      "dispens": 6784,
      "cee": 6785,
      "vée": 6786,
      "devra": 6787,
      "cash": 6788,
      "logement": 6789,
      "consent": 6790,
      "pensions": 6791,
      "orge": 6792,
      "ys": 6793,
      "ek": 6794,
      "numer": 6795,
      "cade": 6796,
      "corporations": 6797,
      "mass": 6798,
      "russie": 6799,
      "valence": 6800,
      "foli": 6801,
      "quick": 6802,
      "rencontr": 6803,
      "itié": 6804,
      "assessed": 6805,
      "ships": 6806,
      "laboratory": 6807,
      "recueill": 6808,
      "examined": 6809,
      "excé": 6810,
      "classes": 6811,
      "concent": 6812,
      "octro": 6813,
      "poisson": 6814,
      "ola": 6815,
      "distingu": 6816,
      "retur": 6817,
      "recrutement": 6818,
      "outil": 6819,
      "mie": 6820,
      "became": 6821,
      "mur": 6822,
      "énoncé": 6823,
      "fabri": 6824,
      "jeu": 6825,
      "environnementaux": 6826,
      "determining": 6827,
      "répu": 6828,
      "travers": 6829,
      "auche": 6830,
      "server": 6831,
      "repe": 6832,
      "prescribed": 6833,
      "exportations": 6834,
      "targe": 6835,
      "remar": 6836,
      "identity": 6837,
      "locale": 6838,
      "developments": 6839,
      "py": 6840,
      "mechanism": 6841,
      "probablement": 6842,
      "grie": 6843,
      "poissons": 6844,
      "prit": 6845,
      "counsel": 6846,
      "mining": 6847,
      "japon": 6848,
      "hier": 6849,
      "reje": 6850,
      "fies": 6851,
      "outes": 6852,
      "scheduled": 6853,
      "veter": 6854,
      "connection": 6855,
      "banks": 6856,
      "médicaux": 6857,
      "rcmp": 6858,
      "demeur": 6859,
      "horizont": 6860,
      "controlled": 6861,
      "diplô": 6862,
      "ny": 6863,
      "adultes": 6864,
      "mique": 6865,
      "disability": 6866,
      "petite": 6867,
      "administrations": 6868,
      "suspension": 6869,
      "ché": 6870,
      "pierre": 6871,
      "ulture": 6872,
      "coal": 6873,
      "refuge": 6874,
      "fondé": 6875,
      "vérifier": 6876,
      "creating": 6877,
      "continuing": 6878,
      "jun": 6879,
      "préalable": 6880,
      "extensive": 6881,
      "tissu": 6882,
      "accorder": 6883,
      "manufacture": 6884,
      "spo": 6885,
      "comprom": 6886,
      "ients": 6887,
      "maison": 6888,
      "concre": 6889,
      "thy": 6890,
      "anciens": 6891,
      "modifié": 6892,
      "actuels": 6893,
      "titres": 6894,
      "intitulé": 6895,
      "vident": 6896,
      "ténu": 6897,
      "overview": 6898,
      "élection": 6899,
      "admissible": 6900,
      "allows": 6901,
      "corruption": 6902,
      "capable": 6903,
      "conflits": 6904,
      "announced": 6905,
      "retail": 6906,
      "mits": 6907,
      "trouvent": 6908,
      "dispositifs": 6909,
      "érature": 6910,
      "huit": 6911,
      "réception": 6912,
      "figurant": 6913,
      "uves": 6914,
      "grc": 6915,
      "réalisés": 6916,
      "frau": 6917,
      "thom": 6918,
      "utili": 6919,
      "mentionné": 6920,
      "rien": 6921,
      "quarters": 6922,
      "gamme": 6923,
      "cnrc": 6924,
      "zes": 6925,
      "banques": 6926,
      "cape": 6927,
      "graphique": 6928,
      "largest": 6929,
      "céré": 6930,
      "internes": 6931,
      "managing": 6932,
      "sell": 6933,
      "pourra": 6934,
      "fields": 6935,
      "receip": 6936,
      "atténu": 6937,
      "jouer": 6938,
      "ik": 6939,
      "équité": 6940,
      "flight": 6941,
      "dfo": 6942,
      "absor": 6943,
      "controls": 6944,
      "bénévo": 6945,
      "ania": 6946,
      "paragraphes": 6947,
      "ancien": 6948,
      "journée": 6949,
      "gage": 6950,
      "biological": 6951,
      "continent": 6952,
      "esse": 6953,
      "medicine": 6954,
      "devenir": 6955,
      "élevée": 6956,
      "volunte": 6957,
      "contents": 6958,
      "organized": 6959,
      "prima": 6960,
      "inti": 6961,
      "apparten": 6962,
      "satellite": 6963,
      "things": 6964,
      "lakes": 6965,
      "présentés": 6966,
      "ston": 6967,
      "iling": 6968,
      "vital": 6969,
      "highest": 6970,
      "ratio": 6971,
      "continuous": 6972,
      "mauvais": 6973,
      "wit": 6974,
      "stabilité": 6975,
      "annuelle": 6976,
      "ind": 6977,
      "bord": 6978,
      "établies": 6979,
      "responses": 6980,
      "mesur": 6981,
      "improvements": 6982,
      "linked": 6983,
      "demeure": 6984,
      "auteurs": 6985,
      "expand": 6986,
      "sense": 6987,
      "ago": 6988,
      "ferme": 6989,
      "domic": 6990,
      "conç": 6991,
      "plate": 6992,
      "150": 6993,
      "supervision": 6994,
      "destru": 6995,
      "irs": 6996,
      "navires": 6997,
      "conjoint": 6998,
      "pron": 6999,
      "sand": 7000,
      "profile": 7001,
      "devait": 7002,
      "engineering": 7003,
      "décre": 7004,
      "dérou": 7005,
      "recruit": 7006,
      "limitée": 7007,
      "asing": 7008,
      "pacifique": 7009,
      "considération": 7010,
      "présentées": 7011,
      "performed": 7012,
      "indiquent": 7013,
      "cic": 7014,
      "naturel": 7015,
      "possibility": 7016,
      "judicial": 7017,
      "aimed": 7018,
      "obtenus": 7019,
      "workplace": 7020,
      "laboratoire": 7021,
      "inje": 7022,
      "complet": 7023,
      "télévision": 7024,
      "meilleur": 7025,
      "}\\": 7026,
      "indications": 7027,
      "restru": 7028,
      "tising": 7029,
      "appears": 7030,
      "focused": 7031,
      "euros": 7032,
      "diab": 7033,
      "representation": 7034,
      "voluntary": 7035,
      "transparence": 7036,
      "historic": 7037,
      "subsidi": 7038,
      "salmon": 7039,
      "moreover": 7040,
      "comply": 7041,
      "deemed": 7042,
      "bile": 7043,
      "ena": 7044,
      "arctic": 7045,
      "appels": 7046,
      "effectuées": 7047,
      "strengthening": 7048,
      "discrimin": 7049,
      "miti": 7050,
      "variation": 7051,
      "spring": 7052,
      "preuves": 7053,
      "professionals": 7054,
      "began": 7055,
      "déclarations": 7056,
      "baisse": 7057,
      "stability": 7058,
      "deau": 7059,
      "pover": 7060,
      "mée": 7061,
      "hst": 7062,
      "gazette": 7063,
      "présentent": 7064,
      "keeping": 7065,
      "judiciaire": 7066,
      "déterminée": 7067,
      "fiant": 7068,
      "courts": 7069,
      "targets": 7070,
      "andum": 7071,
      "parlementaire": 7072,
      "obligatoire": 7073,
      "hyper": 7074,
      "employers": 7075,
      "cular": 7076,
      "%).": 7077,
      "ield": 7078,
      "esprit": 7079,
      "mpo": 7080,
      "idée": 7081,
      "sports": 7082,
      "closely": 7083,
      "kar": 7084,
      "écou": 7085,
      "extre": 7086,
      "organic": 7087,
      "completion": 7088,
      "assez": 7089,
      "hazard": 7090,
      "facts": 7091,
      "mén": 7092,
      "robert": 7093,
      "regards": 7094,
      "échantillons": 7095,
      "chômage": 7096,
      "prepare": 7097,
      "interaction": 7098,
      "household": 7099,
      "liquid": 7100,
      "établie": 7101,
      "habitats": 7102,
      "sique": 7103,
      "citoyen": 7104,
      "foster": 7105,
      "shore": 7106,
      "étudier": 7107,
      "features": 7108,
      "anda": 7109,
      "divulgation": 7110,
      "côté": 7111,
      "immediately": 7112,
      "files": 7113,
      "nurs": 7114,
      "pwg": 7115,
      "alliance": 7116,
      "sondage": 7117,
      "prêt": 7118,
      "lées": 7119,
      "cti": 7120,
      "aled": 7121,
      "envers": 7122,
      "combined": 7123,
      "ukraine": 7124,
      "nouvel": 7125,
      "clar": 7126,
      "cells": 7127,
      "respir": 7128,
      "cali": 7129,
      "treated": 7130,
      "différence": 7131,
      "accidents": 7132,
      "absolu": 7133,
      "carrying": 7134,
      "saison": 7135,
      "harbour": 7136,
      "oceans": 7137,
      "dépu": 7138,
      "évolu": 7139,
      "invention": 7140,
      "éclair": 7141,
      "opinions": 7142,
      "incident": 7143,
      "substantial": 7144,
      "logiques": 7145,
      "gènes": 7146,
      "dead": 7147,
      "logy": 7148,
      "océans": 7149,
      "prochaine": 7150,
      "effectuée": 7151,
      "judgment": 7152,
      "bru": 7153,
      "intégrer": 7154,
      "defic": 7155,
      "caused": 7156,
      "occurr": 7157,
      "scrutin": 7158,
      "ethics": 7159,
      "master": 7160,
      "élimination": 7161,
      "print": 7162,
      "auront": 7163,
      "translation": 7164,
      "accordingly": 7165,
      "zer": 7166,
      "auxquels": 7167,
      "……………………": 7168,
      "invo": 7169,
      "dette": 7170,
      "rance": 7171,
      "released": 7172,
      "genous": 7173,
      "coverage": 7174,
      "nour": 7175,
      "spirit": 7176,
      "idées": 7177,
      "pous": 7178,
      "texti": 7179,
      "anmoins": 7180,
      "competent": 7181,
      "universities": 7182,
      "décès": 7183,
      "entement": 7184,
      "debate": 7185,
      "fes": 7186,
      "intégrée": 7187,
      "classified": 7188,
      "presse": 7189,
      "gouvernementale": 7190,
      "soutenu": 7191,
      "roles": 7192,
      "technological": 7193,
      "valoir": 7194,
      "judice": 7195,
      "néanmoins": 7196,
      "publicité": 7197,
      "petit": 7198,
      "shif": 7199,
      "édi": 7200,
      "garan": 7201,
      "conjointe": 7202,
      "impossible": 7203,
      "demandeur": 7204,
      "gold": 7205,
      "biais": 7206,
      "autochtone": 7207,
      "sexe": 7208,
      "courses": 7209,
      "relève": 7210,
      "utiles": 7211,
      "particulières": 7212,
      "ignants": 7213,
      "souff": 7214,
      "considers": 7215,
      "agro": 7216,
      "endic": 7217,
      "leader": 7218,
      "din": 7219,
      "liam": 7220,
      "advanced": 7221,
      "périodes": 7222,
      "frontali": 7223,
      "fare": 7224,
      "pwgsc": 7225,
      "médecins": 7226,
      "moitié": 7227,
      "revenues": 7228,
      "montreal": 7229,
      "drin": 7230,
      "porteurs": 7231,
      "hereinafter": 7232,
      "fourniture": 7233,
      "hp": 7234,
      "tez": 7235,
      "aquac": 7236,
      "periods": 7237,
      "considère": 7238,
      "élaboré": 7239,
      "equality": 7240,
      "purchase": 7241,
      "gon": 7242,
      "pertinents": 7243,
      "metal": 7244,
      "livre": 7245,
      "observer": 7246,
      "arms": 7247,
      "poverty": 7248,
      "extended": 7249,
      "patho": 7250,
      "generation": 7251,
      "constituer": 7252,
      "touchant": 7253,
      "southern": 7254,
      "inventory": 7255,
      "increasingly": 7256,
      "représentation": 7257,
      "dissemin": 7258,
      "pain": 7259,
      "pauvre": 7260,
      "tested": 7261,
      "aking": 7262,
      "intelligence": 7263,
      "dance": 7264,
      "cigare": 7265,
      "images": 7266,
      "gestionnaire": 7267,
      "sme": 7268,
      "expér": 7269,
      "convain": 7270,
      "agri": 7271,
      "pièce": 7272,
      "áááá": 7273,
      "disponibilité": 7274,
      "big": 7275,
      "ald": 7276,
      "wr": 7277,
      "souligne": 7278,
      "century": 7279,
      "industrielle": 7280,
      "htm": 7281,
      "advertising": 7282,
      "partout": 7283,
      "signé": 7284,
      "qua": 7285,
      "ata": 7286,
      "chir": 7287,
      "heav": 7288,
      "délégu": 7289,
      "doute": 7290,
      "simul": 7291,
      "surveys": 7292,
      "display": 7293,
      "infirmi": 7294,
      "replaced": 7295,
      "commencé": 7296,
      "liée": 7297,
      "revendic": 7298,
      "employeurs": 7299,
      "express": 7300,
      "déploy": 7301,
      "transparency": 7302,
      "occasions": 7303,
      "timely": 7304,
      "hear": 7305,
      "devront": 7306,
      "mateur": 7307,
      "organizational": 7308,
      "offers": 7309,
      "pouvait": 7310,
      "smoking": 7311,
      "lié": 7312,
      "powers": 7313,
      "served": 7314,
      "expériences": 7315,
      "dispute": 7316,
      "reprodu": 7317,
      "anie": 7318,
      "oiseaux": 7319,
      "offrent": 7320,
      "ajout": 7321,
      "isra": 7322,
      "fugi": 7323,
      "penal": 7324,
      "assessments": 7325,
      "paul": 7326,
      "viend": 7327,
      "atiques": 7328,
      "lights": 7329,
      "))": 7330,
      "sexual": 7331,
      "dealing": 7332,
      "individus": 7333,
      "diminution": 7334,
      "essentiellement": 7335,
      "abor": 7336,
      "considérant": 7337,
      "rock": 7338,
      "retain": 7339,
      "ague": 7340,
      "signifie": 7341,
      "pourront": 7342,
      "mative": 7343,
      "sets": 7344,
      "asie": 7345,
      "décide": 7346,
      "mineral": 7347,
      "foods": 7348,
      "sûre": 7349,
      "grave": 7350,
      "host": 7351,
      "conflit": 7352,
      "indiens": 7353,
      "tourisme": 7354,
      "hiver": 7355,
      "rand": 7356,
      "co2": 7357,
      "signés": 7358,
      "conventions": 7359,
      "exces": 7360,
      "maintained": 7361,
      "governing": 7362,
      "enough": 7363,
      "appropriée": 7364,
      "soon": 7365,
      "cartes": 7366,
      "remise": 7367,
      "integrity": 7368,
      "dements": 7369,
      "domicile": 7370,
      "emerging": 7371,
      "explique": 7372,
      "motor": 7373,
      ".),": 7374,
      "électric": 7375,
      "games": 7376,
      "imported": 7377,
      "exports": 7378,
      "democr": 7379,
      "répar": 7380,
      "tk": 7381,
      "insuffis": 7382,
      "guard": 7383,
      "tpsgc": 7384,
      "logie": 7385,
      "membership": 7386,
      "affectation": 7387,
      "exporta": 7388,
      "rez": 7389,
      "isés": 7390,
      "concepts": 7391,
      "glu": 7392,
      "v01": 7393,
      "profil": 7394,
      "delà": 7395,
      "buds": 7396,
      "occurred": 7397,
      "matériaux": 7398,
      "paragraphs": 7399,
      "lacs": 7400,
      "lever": 7401,
      "argument": 7402,
      "lif": 7403,
      "mith": 7404,
      "utilise": 7405,
      "mol": 7406,
      "mentale": 7407,
      "voyages": 7408,
      "menées": 7409,
      "estici": 7410,
      "estre": 7411,
      "nia": 7412,
      "rép": 7413,
      "chance": 7414,
      "antérieure": 7415,
      "squ": 7416,
      "equivalent": 7417,
      "governor": 7418,
      "adoles": 7419,
      "exceptions": 7420,
      "managed": 7421,
      "végét": 7422,
      "dor": 7423,
      "restre": 7424,
      "barriers": 7425,
      "track": 7426,
      "respondent": 7427,
      "conten": 7428,
      "sifs": 7429,
      "seek": 7430,
      "hoc": 7431,
      "ski": 7432,
      "wto": 7433,
      "ethnic": 7434,
      "carrière": 7435,
      "navigation": 7436,
      "bler": 7437,
      "prévoir": 7438,
      "restruct": 7439,
      "250": 7440,
      "résidence": 7441,
      "souligné": 7442,
      "intégrité": 7443,
      "noter": 7444,
      "victoria": 7445,
      "1984": 7446,
      "za": 7447,
      "abuse": 7448,
      "réglementaires": 7449,
      "maintaining": 7450,
      "garantie": 7451,
      "décret": 7452,
      "progressive": 7453,
      "précédente": 7454,
      "chose": 7455,
      "tbs": 7456,
      "gov": 7457,
      "uniform": 7458,
      "bénéficiaires": 7459,
      "interro": 7460,
      "réussi": 7461,
      "collections": 7462,
      "remplacement": 7463,
      "eight": 7464,
      "strain": 7465,
      "nings": 7466,
      "informer": 7467,
      "allé": 7468,
      "visual": 7469,
      "unemployment": 7470,
      "carbur": 7471,
      "identifying": 7472,
      "mainly": 7473,
      "names": 7474,
      "pestici": 7475,
      "dres": 7476,
      "abroad": 7477,
      "émission": 7478,
      "ert": 7479,
      "historical": 7480,
      "ult": 7481,
      "damage": 7482,
      "laid": 7483,
      "organisé": 7484,
      "german": 7485,
      "turb": 7486,
      "conseiller": 7487,
      "demonstrate": 7488,
      "assigned": 7489,
      "operative": 7490,
      "quin": 7491,
      "resulted": 7492,
      "découlant": 7493,
      "villes": 7494,
      "renewal": 7495,
      "vary": 7496,
      "figures": 7497,
      "accru": 7498,
      "fum": 7499,
      "aéronefs": 7500,
      "stipu": 7501,
      "northwest": 7502,
      "drawn": 7503,
      "défi": 7504,
      "mobile": 7505,
      "impression": 7506,
      "spécialistes": 7507,
      "dle": 7508,
      "résidents": 7509,
      "tisation": 7510,
      "peter": 7511,
      "sins": 7512,
      "represents": 7513,
      "stages": 7514,
      "sommaire": 7515,
      "resh": 7516,
      "cardi": 7517,
      "équilibre": 7518,
      "aperçu": 7519,
      "sommet": 7520,
      "alism": 7521,
      "%),": 7522,
      "enjo": 7523,
      "comparaison": 7524,
      "confidence": 7525,
      "atelier": 7526,
      "weather": 7527,
      "ered": 7528,
      "cliniques": 7529,
      "auquel": 7530,
      "ired": 7531,
      "somme": 7532,
      "explan": 7533,
      "traitements": 7534,
      "estimation": 7535,
      "lique": 7536,
      "recorded": 7537,
      "harmonisation": 7538,
      "électricité": 7539,
      "américa": 7540,
      "réaction": 7541,
      "immédiatement": 7542,
      "conseill": 7543,
      "pauvreté": 7544,
      "recueil": 7545,
      "considérée": 7546,
      "quantita": 7547,
      "milieux": 7548,
      "correct": 7549,
      "papier": 7550,
      "approches": 7551,
      "gather": 7552,
      "indicates": 7553,
      "minorités": 7554,
      "micha": 7555,
      "budgets": 7556,
      "pointe": 7557,
      "updated": 7558,
      "swit": 7559,
      "selling": 7560,
      "essentiels": 7561,
      "structural": 7562,
      "éré": 7563,
      "pleinement": 7564,
      "homo": 7565,
      "çons": 7566,
      "grat": 7567,
      "supérieure": 7568,
      "thyl": 7569,
      "approprié": 7570,
      "xim": 7571,
      "diagnostic": 7572,
      "berg": 7573,
      "reve": 7574,
      "peuples": 7575,
      "similaires": 7576,
      "veut": 7577,
      "relever": 7578,
      "ombuds": 7579,
      "isant": 7580,
      "prévenir": 7581,
      "améliorations": 7582,
      "complement": 7583,
      "rating": 7584,
      "ève": 7585,
      "restaur": 7586,
      "siècle": 7587,
      "comparison": 7588,
      "pertes": 7589,
      "provinciales": 7590,
      "rane": 7591,
      "gros": 7592,
      "luxemb": 7593,
      "considerable": 7594,
      "1982": 7595,
      "aménagement": 7596,
      "vulné": 7597,
      "toward": 7598,
      "omc": 7599,
      "blu": 7600,
      "supérieurs": 7601,
      "capture": 7602,
      "att": 7603,
      "entered": 7604,
      "bonnes": 7605,
      "drait": 7606,
      "gel": 7607,
      "tations": 7608,
      "communs": 7609,
      "reached": 7610,
      "régulièrement": 7611,
      "terrorism": 7612,
      "chefs": 7613,
      "dar": 7614,
      "annul": 7615,
      "dil": 7616,
      "procédé": 7617,
      "pertinentes": 7618,
      "télécopie": 7619,
      "contribué": 7620,
      "mot": 7621,
      "estimations": 7622,
      "ajouter": 7623,
      "dnd": 7624,
      "deposit": 7625,
      "none": 7626,
      "complexes": 7627,
      "entraîner": 7628,
      "américains": 7629,
      "proposée": 7630,
      "sheet": 7631,
      "musée": 7632,
      "neuf": 7633,
      "numérique": 7634,
      "commissions": 7635,
      "vulner": 7636,
      "util": 7637,
      "incap": 7638,
      "lante": 7639,
      "appropriées": 7640,
      "possession": 7641,
      "dium": 7642,
      "luxembour": 7643,
      "architecture": 7644,
      "simply": 7645,
      "tiveness": 7646,
      "sat": 7647,
      "formule": 7648,
      "connus": 7649,
      "préciser": 7650,
      "négociation": 7651,
      "gique": 7652,
      "1970": 7653,
      "epp": 7654,
      "academic": 7655,
      "validité": 7656,
      "died": 7657,
      "directions": 7658,
      "futures": 7659,
      "theless": 7660,
      "ouverte": 7661,
      "delivered": 7662,
      "française": 7663,
      "isations": 7664,
      "réduit": 7665,
      "porters": 7666,
      "destruction": 7667,
      "suggestions": 7668,
      "présentes": 7669,
      "ov": 7670,
      "loans": 7671,
      "firm": 7672,
      "native": 7673,
      "wall": 7674,
      "transmit": 7675,
      "says": 7676,
      "jon": 7677,
      "mort": 7678,
      "aquaculture": 7679,
      "violation": 7680,
      "exigence": 7681,
      "compatible": 7682,
      "mio": 7683,
      "spectr": 7684,
      "update": 7685,
      "constant": 7686,
      "seconde": 7687,
      "lore": 7688,
      "claimant": 7689,
      "dop": 7690,
      "reviews": 7691,
      "georg": 7692,
      "admissibilité": 7693,
      "foresti": 7694,
      "asp": 7695,
      "ozone": 7696,
      "vés": 7697,
      "coopéra": 7698,
      "acteurs": 7699,
      "dictions": 7700,
      "dotation": 7701,
      "alterna": 7702,
      "sensitive": 7703,
      "respectively": 7704,
      "fixe": 7705,
      "mélan": 7706,
      "william": 7707,
      "routes": 7708,
      "looking": 7709,
      "contrain": 7710,
      "satisfied": 7711,
      "officiel": 7712,
      "aérienne": 7713,
      "supplies": 7714,
      "pharmaceu": 7715,
      "aser": 7716,
      "cles": 7717,
      "investigations": 7718,
      "invite": 7719,
      "fine": 7720,
      "renouvellement": 7721,
      "weigh": 7722,
      "mono": 7723,
      "incorporated": 7724,
      "residence": 7725,
      "portugal": 7726,
      "èlement": 7727,
      "sper": 7728,
      "african": 7729,
      "respectivement": 7730,
      "smes": 7731,
      "weak": 7732,
      "ounding": 7733,
      "tasks": 7734,
      "bénéficier": 7735,
      "ètre": 7736,
      "tead": 7737,
      "isé": 7738,
      "bos": 7739,
      "migrants": 7740,
      "whom": 7741,
      "achieving": 7742,
      "supprim": 7743,
      "visiteurs": 7744,
      "cida": 7745,
      "auraient": 7746,
      "entrepreneur": 7747,
      "video": 7748,
      "conclure": 7749,
      "déb": 7750,
      "perce": 7751,
      "vii": 7752,
      "monetary": 7753,
      "sn": 7754,
      "distinction": 7755,
      "jeunesse": 7756,
      "regime": 7757,
      "enders": 7758,
      "radiation": 7759,
      "pom": 7760,
      "staffing": 7761,
      ".);": 7762,
      "tun": 7763,
      "allowance": 7764,
      "économies": 7765,
      "trie": 7766,
      "statistical": 7767,
      "importa": 7768,
      "variable": 7769,
      "compta": 7770,
      "rd": 7771,
      "organes": 7772,
      "involve": 7773,
      "felt": 7774,
      "enrich": 7775,
      "réfugi": 7776,
      "built": 7777,
      "lf": 7778,
      "arguments": 7779,
      "fif": 7780,
      "angla": 7781,
      "fondation": 7782,
      "proposées": 7783,
      "multiples": 7784,
      "étiquet": 7785,
      "demonstrated": 7786,
      "productivity": 7787,
      "guarantee": 7788,
      "addressing": 7789,
      "launched": 7790,
      "disposal": 7791,
      "inty": 7792,
      "exhibit": 7793,
      "modified": 7794,
      "télécommunications": 7795,
      "ambas": 7796,
      "permettr": 7797,
      "confirmed": 7798,
      "visent": 7799,
      "américain": 7800,
      "para": 7801,
      "carbone": 7802,
      "oh": 7803,
      "smith": 7804,
      "intr": 7805,
      "veget": 7806,
      "indigenous": 7807,
      "acad": 7808,
      "limitations": 7809,
      "friend": 7810,
      "idential": 7811,
      "older": 7812,
      "alcohol": 7813,
      "spéciaux": 7814,
      "prosecu": 7815,
      "simplement": 7816,
      "côte": 7817,
      "diter": 7818,
      "giving": 7819,
      "voici": 7820,
      "fournisseur": 7821,
      "dences": 7822,
      "variations": 7823,
      "incur": 7824,
      "telecommunications": 7825,
      "éra": 7826,
      "gross": 7827,
      "plantes": 7828,
      "send": 7829,
      "ilement": 7830,
      "meilleures": 7831,
      "incidents": 7832,
      "110": 7833,
      "sanctions": 7834,
      "directed": 7835,
      "makers": 7836,
      "emphasis": 7837,
      "omet": 7838,
      "contamination": 7839,
      "développ": 7840,
      "acquit": 7841,
      "transform": 7842,
      "effectués": 7843,
      "extreme": 7844,
      "curren": 7845,
      "immediate": 7846,
      "contrôles": 7847,
      "complexe": 7848,
      "immeu": 7849,
      "ished": 7850,
      "francophone": 7851,
      "vidé": 7852,
      "lour": 7853,
      "transf": 7854,
      "psc": 7855,
      "washington": 7856,
      "provisoire": 7857,
      "qualités": 7858,
      "spéciales": 7859,
      "600": 7860,
      "lates": 7861,
      "relief": 7862,
      "birth": 7863,
      "épi": 7864,
      "rise": 7865,
      "équipes": 7866,
      "operators": 7867,
      "prévisions": 7868,
      "imprim": 7869,
      "métis": 7870,
      "ya": 7871,
      "inqui": 7872,
      "suivent": 7873,
      "proactive": 7874,
      "prospe": 7875,
      "tissus": 7876,
      "offert": 7877,
      "swed": 7878,
      "législatives": 7879,
      "réd": 7880,
      "enterprise": 7881,
      "verse": 7882,
      "mutual": 7883,
      "plur": 7884,
      "existants": 7885,
      "préliminaire": 7886,
      "festiv": 7887,
      "accession": 7888,
      "james": 7889,
      "remaining": 7890,
      "ownership": 7891,
      "régler": 7892,
      "professionnelles": 7893,
      "inflation": 7894,
      "recruitment": 7895,
      "expectations": 7896,
      "placements": 7897,
      "umin": 7898,
      "bla": 7899,
      "génétique": 7900,
      "conserver": 7901,
      "parall": 7902,
      "budgétaire": 7903,
      "quie": 7904,
      "effectif": 7905,
      "exac": 7906,
      "examens": 7907,
      "rôles": 7908,
      "prudence": 7909,
      "francophones": 7910,
      "teen": 7911,
      "conformes": 7912,
      "cotisations": 7913,
      "accordée": 7914,
      "consequences": 7915,
      "déri": 7916,
      "sometimes": 7917,
      "voies": 7918,
      "chiffres": 7919,
      "indé": 7920,
      "recipient": 7921,
      "involves": 7922,
      "exploiter": 7923,
      "stop": 7924,
      "puisqu": 7925,
      "latter": 7926,
      "ancing": 7927,
      "chauff": 7928,
      "expressions": 7929,
      "inage": 7930,
      "samples": 7931,
      "masse": 7932,
      "perception": 7933,
      "culturels": 7934,
      "productivité": 7935,
      "cities": 7936,
      "secondaires": 7937,
      "volet": 7938,
      "decline": 7939,
      "provo": 7940,
      "prestataire": 7941,
      "désigné": 7942,
      "russian": 7943,
      "démo": 7944,
      "directors": 7945,
      "clinique": 7946,
      "unders": 7947,
      "conversion": 7948,
      "neigh": 7949,
      "ferro": 7950,
      "crucial": 7951,
      "fréquence": 7952,
      "indeed": 7953,
      "outlined": 7954,
      "bénéficiaire": 7955,
      "temporaire": 7956,
      "reconnaît": 7957,
      "mack": 7958,
      "ceci": 7959,
      "submissions": 7960,
      "lc": 7961,
      "mouvement": 7962,
      "provenance": 7963,
      "sémin": 7964,
      "humain": 7965,
      "efficacement": 7966,
      "mesurer": 7967,
      "headquarters": 7968,
      "oppos": 7969,
      "appuie": 7970,
      "adopt": 7971,
      "oure": 7972,
      "duration": 7973,
      "excellent": 7974,
      "tically": 7975,
      "adoptée": 7976,
      "entièrement": 7977,
      "female": 7978,
      "clientèle": 7979,
      "trafic": 7980,
      "brus": 7981,
      "\")": 7982,
      "cere": 7983,
      "reflè": 7984,
      "soumettre": 7985,
      "luxembourg": 7986,
      "moving": 7987,
      "owner": 7988,
      "cta": 7989,
      "consentement": 7990,
      "réglementaire": 7991,
      "fat": 7992,
      "estimate": 7993,
      "carrier": 7994,
      "targeted": 7995,
      "terrorisme": 7996,
      "choisir": 7997,
      "ify": 7998,
      "notion": 7999,
      "tter": 8000,
      "vérific": 8001,
      "enza": 8002,
      "experiences": 8003,
      "concurrenti": 8004,
      "bourg": 8005,
      "heart": 8006,
      "tains": 8007,
      "evaluate": 8008,
      "composé": 8009,
      "compe": 8010,
      "ideas": 8011,
      "exposés": 8012,
      "opening": 8013,
      "ously": 8014,
      "tot": 8015,
      "loan": 8016,
      "parole": 8017,
      "ounded": 8018,
      "adic": 8019,
      "village": 8020,
      "directeurs": 8021,
      "multip": 8022,
      "mexico": 8023,
      "aer": 8024,
      "advoc": 8025,
      "climat": 8026,
      "accordé": 8027,
      "true": 8028,
      "dependent": 8029,
      "siège": 8030,
      "neté": 8031,
      "buildings": 8032,
      "significative": 8033,
      "remer": 8034,
      "devez": 8035,
      "italy": 8036,
      "considérablement": 8037,
      "1981": 8038,
      "endor": 8039,
      "uration": 8040,
      "privil": 8041,
      "else": 8042,
      "ètes": 8043,
      "igne": 8044,
      "bibliothèque": 8045,
      "repos": 8046,
      "ara": 8047,
      "interactions": 8048,
      "rare": 8049,
      "crisis": 8050,
      "maî": 8051,
      "rome": 8052,
      "democracy": 8053,
      "sd": 8054,
      "ores": 8055,
      "pilote": 8056,
      "loin": 8057,
      "ops": 8058,
      "cry": 8059,
      "pont": 8060,
      "ricu": 8061,
      "entremise": 8062,
      "detail": 8063,
      "ège": 8064,
      "inquiry": 8065,
      "naiss": 8066,
      "gir": 8067,
      "modernisation": 8068,
      "instances": 8069,
      "combination": 8070,
      "épo": 8071,
      "satisfaire": 8072,
      "speed": 8073,
      "harm": 8074,
      "résident": 8075,
      "ombudsman": 8076,
      "parvenir": 8077,
      "prennent": 8078,
      "cède": 8079,
      "possé": 8080,
      "away": 8081,
      "fresh": 8082,
      "dépar": 8083,
      "awards": 8084,
      "handicapées": 8085,
      "annivers": 8086,
      "conting": 8087,
      "consequent": 8088,
      "magaz": 8089,
      "mettant": 8090,
      "exhaus": 8091,
      "autorisé": 8092,
      "gg": 8093,
      "influen": 8094,
      "ential": 8095,
      "figurent": 8096,
      "engaged": 8097,
      "établit": 8098,
      "chargée": 8099,
      "médecine": 8100,
      "manuel": 8101,
      "équitable": 8102,
      "statutory": 8103,
      "owned": 8104,
      "calculated": 8105,
      "oro": 8106,
      "lating": 8107,
      "véhicule": 8108,
      "citizenship": 8109,
      "constaté": 8110,
      "middle": 8111,
      "patterns": 8112,
      "soumission": 8113,
      "graphiques": 8114,
      "existantes": 8115,
      "tivity": 8116,
      "aco": 8117,
      "prolong": 8118,
      "exposé": 8119,
      "séance": 8120,
      "instead": 8121,
      "ash": 8122,
      "emplacement": 8123,
      "modifiée": 8124,
      "frontières": 8125,
      "references": 8126,
      "élo": 8127,
      "concernés": 8128,
      "entity": 8129,
      "italie": 8130,
      "measured": 8131,
      "provinciale": 8132,
      "recommandé": 8133,
      "lam": 8134,
      "adjoint": 8135,
      "graves": 8136,
      "nommé": 8137,
      "prochaines": 8138,
      "informe": 8139,
      "discre": 8140,
      "iting": 8141,
      "porté": 8142,
      "race": 8143,
      "mémo": 8144,
      "savoirs": 8145,
      "faces": 8146,
      "closed": 8147,
      "administratif": 8148,
      "mère": 8149,
      "normally": 8150,
      "numerous": 8151,
      "conce": 8152,
      "insta": 8153,
      "phosph": 8154,
      "norma": 8155,
      "explained": 8156,
      "chaîne": 8157,
      "mettent": 8158,
      "vites": 8159,
      "servi": 8160,
      "russia": 8161,
      "axée": 8162,
      "fondamentaux": 8163,
      "adapter": 8164,
      "expliquer": 8165,
      "mené": 8166,
      "angle": 8167,
      "adult": 8168,
      "ping": 8169,
      "lose": 8170,
      "nine": 8171,
      "athle": 8172,
      "holding": 8173,
      "éventail": 8174,
      "michael": 8175,
      "impose": 8176,
      "limiter": 8177,
      "alcool": 8178,
      "composés": 8179,
      "showed": 8180,
      "experienced": 8181,
      "sés": 8182,
      "path": 8183,
      "énergétique": 8184,
      "brés": 8185,
      "stimul": 8186,
      "exhib": 8187,
      "tb": 8188,
      "receipt": 8189,
      "interval": 8190,
      "applying": 8191,
      "dele": 8192,
      "sight": 8193,
      "judge": 8194,
      "lists": 8195,
      "accept": 8196,
      "prun": 8197,
      "aliser": 8198,
      "eligibility": 8199,
      "circons": 8200,
      "ano": 8201,
      "preg": 8202,
      "decin": 8203,
      "télécopieur": 8204,
      "smaller": 8205,
      "compétitivité": 8206,
      "blé": 8207,
      "tâche": 8208,
      "lost": 8209,
      "koso": 8210,
      "hospit": 8211,
      "contaminants": 8212,
      "interim": 8213,
      "transferred": 8214,
      "mind": 8215,
      "stres": 8216,
      "collaborative": 8217,
      "semblent": 8218,
      "sage": 8219,
      "vendre": 8220,
      "influenza": 8221,
      "george": 8222,
      "aides": 8223,
      "oph": 8224,
      "sec": 8225,
      "cumula": 8226,
      "gui": 8227,
      "clai": 8228,
      "payé": 8229,
      "considerations": 8230,
      "discuter": 8231,
      "honorable": 8232,
      "initiated": 8233,
      "dal": 8234,
      "draf": 8235,
      "couverture": 8236,
      "voient": 8237,
      "falls": 8238,
      "assessing": 8239,
      "1983": 8240,
      "interviews": 8241,
      "ethni": 8242,
      "device": 8243,
      "médecin": 8244,
      "ption": 8245,
      "infraction": 8246,
      "démocratie": 8247,
      "australia": 8248,
      "aî": 8249,
      "ah": 8250,
      "technic": 8251,
      "fera": 8252,
      "appreci": 8253,
      "ulti": 8254,
      "mandatory": 8255,
      "honourable": 8256,
      "puiss": 8257,
      "claimed": 8258,
      "pétrole": 8259,
      "expiration": 8260,
      "température": 8261,
      "appareil": 8262,
      "decrease": 8263,
      "rated": 8264,
      "combusti": 8265,
      "graphic": 8266,
      "airport": 8267,
      "properly": 8268,
      "liability": 8269,
      "initiale": 8270,
      "biologiques": 8271,
      "apparent": 8272,
      "certainty": 8273,
      "démarche": 8274,
      "contribue": 8275,
      "semblables": 8276,
      "kit": 8277,
      "travaillent": 8278,
      "récla": 8279,
      "médicament": 8280,
      "noms": 8281,
      "soudre": 8282,
      "london": 8283,
      "reçus": 8284,
      "nether": 8285,
      "banc": 8286,
      "competitiveness": 8287,
      "ller": 8288,
      "books": 8289,
      "appelante": 8290,
      "erreur": 8291,
      "fiducie": 8292,
      "tarifaire": 8293,
      "methodology": 8294,
      "musique": 8295,
      "tvh": 8296,
      "passagers": 8297,
      "alone": 8298,
      "bce": 8299,
      "bic": 8300,
      "bacter": 8301,
      "edward": 8302,
      "teaching": 8303,
      "titulaires": 8304,
      "téléphon": 8305,
      "temperature": 8306,
      "eec": 8307,
      "domm": 8308,
      "tiend": 8309,
      "gives": 8310,
      "reconnaître": 8311,
      "wet": 8312,
      "peine": 8313,
      "envisag": 8314,
      "hope": 8315,
      "aims": 8316,
      "acdi": 8317,
      "(\"": 8318,
      "biologique": 8319,
      "naturels": 8320,
      "martin": 8321,
      "exercis": 8322,
      "mini": 8323,
      "wealth": 8324,
      "philip": 8325,
      "érir": 8326,
      "bad": 8327,
      "leav": 8328,
      "invited": 8329,
      "inclus": 8330,
      "menace": 8331,
      "attentes": 8332,
      "ateliers": 8333,
      "gly": 8334,
      "fores": 8335,
      "thro": 8336,
      "automne": 8337,
      "délin": 8338,
      "géographique": 8339,
      "empêcher": 8340,
      "crimes": 8341,
      "volont": 8342,
      "netherlands": 8343,
      "comparable": 8344,
      "revue": 8345,
      "arian": 8346,
      "rétablis": 8347,
      "requises": 8348,
      "derived": 8349,
      "utilisent": 8350,
      "bilateral": 8351,
      "helping": 8352,
      "seeking": 8353,
      "idic": 8354,
      "mex": 8355,
      "mété": 8356,
      "bear": 8357,
      "considérés": 8358,
      "rr": 8359,
      "salle": 8360,
      "literature": 8361,
      "sustainability": 8362,
      "exemplaires": 8363,
      "ech": 8364,
      "faudrait": 8365,
      "plani": 8366,
      "destinées": 8367,
      "chairman": 8368,
      "pie": 8369,
      "acquired": 8370,
      "scheme": 8371,
      "frequency": 8372,
      "doctor": 8373,
      "paras": 8374,
      "dimensions": 8375,
      "susceptible": 8376,
      "----------------": 8377,
      "armée": 8378,
      "technologique": 8379,
      "directrice": 8380,
      "essor": 8381,
      "preven": 8382,
      "customers": 8383,
      "bot": 8384,
      "gate": 8385,
      "diagno": 8386,
      "meilleurs": 8387,
      "auxquelles": 8388,
      "permanente": 8389,
      "teneur": 8390,
      "devons": 8391,
      "flexibility": 8392,
      "inno": 8393,
      "marie": 8394,
      "ecb": 8395,
      "événement": 8396,
      "lettres": 8397,
      "directs": 8398,
      "transfé": 8399,
      "dique": 8400,
      "éliminer": 8401,
      "cultur": 8402,
      "teachers": 8403,
      "communiqué": 8404,
      "possède": 8405,
      "industriels": 8406,
      "territoriaux": 8407,
      "phénom": 8408,
      "rétro": 8409,
      "inscrits": 8410,
      "yers": 8411,
      "résistance": 8412,
      "habilitation": 8413,
      "manufacturers": 8414,
      "autonum": 8415,
      "argued": 8416,
      "imparti": 8417,
      "spain": 8418,
      "kb": 8419,
      "enzy": 8420,
      "nons": 8421,
      "rencontre": 8422,
      "actually": 8423,
      "nato": 8424,
      "offres": 8425,
      "énu": 8426,
      "victims": 8427,
      "destiné": 8428,
      "sauv": 8429,
      "sûreté": 8430,
      "motif": 8431,
      "orientations": 8432,
      "donald": 8433,
      "birds": 8434,
      "definitions": 8435,
      "bassin": 8436,
      "autonomie": 8437,
      "fta": 8438,
      "historiques": 8439,
      "ferrovi": 8440,
      "films": 8441,
      "programmation": 8442,
      "fruits": 8443,
      "therap": 8444,
      "plaignant": 8445,
      "licensee": 8446,
      "conférences": 8447,
      "contribuent": 8448,
      "ende": 8449,
      "attached": 8450,
      "choses": 8451,
      "annoncé": 8452,
      "endroits": 8453,
      "dges": 8454,
      "inspections": 8455,
      "dedic": 8456,
      "situé": 8457,
      "devient": 8458,
      "capabilities": 8459,
      "juridic": 8460,
      "gies": 8461,
      "recording": 8462,
      "mérite": 8463,
      "pac": 8464,
      "dynamique": 8465,
      "contest": 8466,
      "validation": 8467,
      "réalisations": 8468,
      "ologique": 8469,
      "shares": 8470,
      "habitants": 8471,
      "manifes": 8472,
      "ois": 8473,
      "avocat": 8474,
      "constitute": 8475,
      "restricted": 8476,
      "fiable": 8477,
      "parlementaires": 8478,
      "extrême": 8479,
      "versement": 8480,
      "consequently": 8481,
      "attitudes": 8482,
      "007": 8483,
      "continuera": 8484,
      "manual": 8485,
      "autrement": 8486,
      "résoudre": 8487,
      "trend": 8488,
      "scolaire": 8489,
      "acide": 8490,
      "lancé": 8491,
      "attribution": 8492,
      "snow": 8493,
      "horizontal": 8494,
      "résul": 8495,
      "réussite": 8496,
      "englo": 8497,
      "failed": 8498,
      "alisme": 8499,
      "gt": 8500,
      "kosovo": 8501,
      "electr": 8502,
      "decla": 8503,
      "experi": 8504,
      "hall": 8505,
      "endo": 8506,
      "technologiques": 8507,
      "femme": 8508,
      "nul": 8509,
      "tribunaux": 8510,
      "benefici": 8511,
      "package": 8512,
      "considering": 8513,
      "emprun": 8514,
      "témoign": 8515,
      "puts": 8516,
      "recognize": 8517,
      "depending": 8518,
      "feedback": 8519,
      "servant": 8520,
      "inférieur": 8521,
      "modé": 8522,
      "définitions": 8523,
      "registry": 8524,
      "concert": 8525,
      "outs": 8526,
      "signat": 8527,
      "acier": 8528,
      "pressions": 8529,
      "ands": 8530,
      "fruit": 8531,
      "facilement": 8532,
      "bull": 8533,
      "participent": 8534,
      "removed": 8535,
      "traditionnelles": 8536,
      "101": 8537,
      "autorisée": 8538,
      "wind": 8539,
      "longtemps": 8540,
      "calendrier": 8541,
      "réel": 8542,
      "sexes": 8543,
      "soutient": 8544,
      "finale": 8545,
      "oe": 8546,
      "severe": 8547,
      "artistes": 8548,
      "américaine": 8549,
      "chasse": 8550,
      "adjustment": 8551,
      "rn": 8552,
      "néga": 8553,
      "memorandum": 8554,
      "récu": 8555,
      "burden": 8556,
      "105": 8557,
      "entité": 8558,
      "licens": 8559,
      "perç": 8560,
      "spread": 8561,
      "réalisé": 8562,
      "rie": 8563,
      "édu": 8564,
      "personnelles": 8565,
      "ecd": 8566,
      "describe": 8567,
      "réalité": 8568,
      "distributed": 8569,
      "cfp": 8570,
      "suitable": 8571,
      "démocratique": 8572,
      "portfoli": 8573,
      "agissant": 8574,
      "olympic": 8575,
      "pronon": 8576,
      "poursuite": 8577,
      "ressource": 8578,
      "rétablissement": 8579,
      "mdn": 8580,
      "acce": 8581,
      "mant": 8582,
      "teams": 8583,
      "entendu": 8584,
      "kore": 8585,
      "sour": 8586,
      "alph": 8587,
      "enseignants": 8588,
      "félic": 8589,
      "œuvres": 8590,
      "enjoy": 8591,
      "rats": 8592,
      "enregistré": 8593,
      "ev": 8594,
      "lots": 8595,
      "intens": 8596,
      "night": 8597,
      "accomplish": 8598,
      "ajouté": 8599,
      "marked": 8600,
      "started": 8601,
      "pling": 8602,
      "accommodation": 8603,
      "cultiv": 8604,
      "varie": 8605,
      "caution": 8606,
      "infections": 8607,
      "tissement": 8608,
      "imposed": 8609,
      "terra": 8610,
      "hydr": 8611,
      "richard": 8612,
      "neighbour": 8613,
      "chances": 8614,
      "diments": 8615,
      "responsabilisation": 8616,
      "prece": 8617,
      "cod": 8618,
      "entier": 8619,
      "étrangère": 8620,
      "chain": 8621,
      "accroissement": 8622,
      "nl": 8623,
      "encies": 8624,
      "thèmes": 8625,
      "define": 8626,
      "recense": 8627,
      "mortality": 8628,
      "séances": 8629,
      "reserves": 8630,
      "pus": 8631,
      "montrent": 8632,
      "externe": 8633,
      "contributed": 8634,
      "lacunes": 8635,
      "letters": 8636,
      "libér": 8637,
      "apportées": 8638,
      "wai": 8639,
      "navire": 8640,
      "rin": 8641,
      "savings": 8642,
      "accurate": 8643,
      "erson": 8644,
      "vocation": 8645,
      "sols": 8646,
      "sten": 8647,
      "accomplis": 8648,
      "propriétaire": 8649,
      "époque": 8650,
      "macro": 8651,
      "suggests": 8652,
      "indépendant": 8653,
      "obstacle": 8654,
      "intéressés": 8655,
      "espagne": 8656,
      "cele": 8657,
      "externes": 8658,
      "optimis": 8659,
      "échel": 8660,
      "maritimes": 8661,
      "encouraged": 8662,
      "mobility": 8663,
      "souhaite": 8664,
      "auditor": 8665,
      "décen": 8666,
      "descrip": 8667,
      "zil": 8668,
      "compagnies": 8669,
      "center": 8670,
      "emission": 8671,
      "volontaire": 8672,
      "requête": 8673,
      "india": 8674,
      "èdent": 8675,
      "sponsor": 8676,
      "los": 8677,
      "morph": 8678,
      "critère": 8679,
      "ato": 8680,
      "removal": 8681,
      "announce": 8682,
      "queen": 8683,
      "volonté": 8684,
      "citoyenneté": 8685,
      "qc": 8686,
      "ku": 8687,
      "façons": 8688,
      "consolid": 8689,
      "sought": 8690,
      "vols": 8691,
      "recommande": 8692,
      "onne": 8693,
      "renseignement": 8694,
      "climatiques": 8695,
      "fortement": 8696,
      "diverse": 8697,
      "refers": 8698,
      "starting": 8699,
      "penser": 8700,
      "arab": 8701,
      "vola": 8702,
      "formulation": 8703,
      "classement": 8704,
      "inscrire": 8705,
      "impu": 8706,
      "désignation": 8707,
      "accessibles": 8708,
      "difficulties": 8709,
      "dirigeants": 8710,
      "quants": 8711,
      "decide": 8712,
      "blanc": 8713,
      "thor": 8714,
      "restriction": 8715,
      "vérifications": 8716,
      "mortalité": 8717,
      "buts": 8718,
      "lages": 8719,
      "curricu": 8720,
      "intensi": 8721,
      "intéressées": 8722,
      "écart": 8723,
      "largely": 8724,
      "dommages": 8725,
      "coas": 8726,
      "désignés": 8727,
      "cident": 8728,
      "tera": 8729,
      "folk": 8730,
      "liberal": 8731,
      "mous": 8732,
      "vs": 8733,
      "soph": 8734,
      "génération": 8735,
      "gdp": 8736,
      "idea": 8737,
      "étendue": 8738,
      "favorable": 8739,
      "lap": 8740,
      "fondées": 8741,
      "mani": 8742,
      "retrait": 8743,
      "procédés": 8744,
      "chant": 8745,
      "vessels": 8746,
      "eston": 8747,
      "maxi": 8748,
      "longu": 8749,
      "otan": 8750,
      "stri": 8751,
      "listes": 8752,
      "qualit": 8753,
      "chent": 8754,
      "surveiller": 8755,
      "---": 8756,
      "slow": 8757,
      "concrete": 8758,
      "abu": 8759,
      "pense": 8760,
      "cibl": 8761,
      "army": 8762,
      "valuable": 8763,
      "diffus": 8764,
      "ocean": 8765,
      "quatri": 8766,
      "opa": 8767,
      "efflu": 8768,
      "vingt": 8769,
      "cbsa": 8770,
      "istic": 8771,
      "rouge": 8772,
      "standar": 8773,
      "bt": 8774,
      "chronic": 8775,
      "servent": 8776,
      "baie": 8777,
      "crise": 8778,
      "rurales": 8779,
      "electricity": 8780,
      "chen": 8781,
      "aise": 8782,
      "pib": 8783,
      "ots": 8784,
      "observé": 8785,
      "budgétaires": 8786,
      "composantes": 8787,
      "qualification": 8788,
      "seuls": 8789,
      "salary": 8790,
      "désor": 8791,
      "linguistique": 8792,
      "associé": 8793,
      "bab": 8794,
      "fm": 8795,
      "quatrième": 8796,
      "nitro": 8797,
      "considérer": 8798,
      "charged": 8799,
      "handling": 8800,
      "earth": 8801,
      "ball": 8802,
      "becoming": 8803,
      "visitors": 8804,
      "âgées": 8805,
      "benz": 8806,
      "prairies": 8807,
      "tures": 8808,
      "dry": 8809,
      "tête": 8810,
      "diment": 8811,
      "administered": 8812,
      "prévoy": 8813,
      "rejected": 8814,
      "conducting": 8815,
      "farmers": 8816,
      "cible": 8817,
      "arrivée": 8818,
      "passenger": 8819,
      "présidente": 8820,
      "undertake": 8821,
      "rév": 8822,
      "australie": 8823,
      "ote": 8824,
      "potentiels": 8825,
      "dons": 8826,
      "récol": 8827,
      "monétaire": 8828,
      "normalement": 8829,
      "discipline": 8830,
      "residential": 8831,
      "column": 8832,
      "proxim": 8833,
      "transparent": 8834,
      "royale": 8835,
      "reconstruction": 8836,
      "gosla": 8837,
      "audiences": 8838,
      "inspir": 8839,
      "salu": 8840,
      "bout": 8841,
      "dépis": 8842,
      "entendre": 8843,
      "réfugiés": 8844,
      "essentielles": 8845,
      "vig": 8846,
      "sang": 8847,
      "décider": 8848,
      "vitesse": 8849,
      "quickly": 8850,
      "recueillir": 8851,
      "radi": 8852,
      "retirement": 8853,
      "threats": 8854,
      "iors": 8855,
      "supplementary": 8856,
      "croati": 8857,
      "confusion": 8858,
      "workshops": 8859,
      "déplacement": 8860,
      "thème": 8861,
      "annonce": 8862,
      "connaissent": 8863,
      "blue": 8864,
      "broader": 8865,
      "superfic": 8866,
      "interdiction": 8867,
      "indemnité": 8868,
      "annuels": 8869,
      "frequently": 8870,
      "pesticides": 8871,
      "meurs": 8872,
      "activement": 8873,
      "collect": 8874,
      "wage": 8875,
      "asy": 8876,
      "organiser": 8877,
      "arctique": 8878,
      "déposant": 8879,
      "détaillée": 8880,
      "donnent": 8881,
      "evol": 8882,
      "fournissent": 8883,
      "testi": 8884,
      "département": 8885,
      "thought": 8886,
      "capability": 8887,
      "chur": 8888,
      "diversification": 8889,
      "shar": 8890,
      "éni": 8891,
      "practition": 8892,
      "acquérir": 8893,
      "signe": 8894,
      "licensing": 8895,
      "cfi": 8896,
      "probable": 8897,
      "ministériel": 8898,
      "émis": 8899,
      "allowing": 8900,
      "securities": 8901,
      "ains": 8902,
      "physiques": 8903,
      "agu": 8904,
      "nesses": 8905,
      "accéder": 8906,
      "fourth": 8907,
      "raise": 8908,
      "airlines": 8909,
      "nei": 8910,
      "intégré": 8911,
      "invité": 8912,
      "limitation": 8913,
      "administratifs": 8914,
      "forêts": 8915,
      "systématique": 8916,
      "guer": 8917,
      "lecture": 8918,
      "functional": 8919,
      "workforce": 8920,
      "conçu": 8921,
      "vessel": 8922,
      "audits": 8923,
      "infring": 8924,
      "budgetary": 8925,
      "gave": 8926,
      "incu": 8927,
      "génétiques": 8928,
      "cold": 8929,
      "margin": 8930,
      "menaces": 8931,
      "producer": 8932,
      "chev": 8933,
      "actively": 8934,
      "sugg": 8935,
      "garder": 8936,
      "procur": 8937,
      "évident": 8938,
      "autour": 8939,
      "confront": 8940,
      "fabricants": 8941,
      "correspondant": 8942,
      "mexique": 8943,
      "learned": 8944,
      "méthodolog": 8945,
      "credi": 8946,
      "invitation": 8947,
      "recogn": 8948,
      "epide": 8949,
      "réformes": 8950,
      "adults": 8951,
      "representing": 8952,
      "quantity": 8953,
      "turkey": 8954,
      "stay": 8955,
      "situés": 8956,
      "occident": 8957,
      "évidence": 8958,
      "gill": 8959,
      "indiquant": 8960,
      "chemicals": 8961,
      "summit": 8962,
      "manufacturer": 8963,
      "loyed": 8964,
      "hed": 8965,
      "acknowled": 8966,
      "familiar": 8967,
      "vivant": 8968,
      "broch": 8969,
      "asfc": 8970,
      "cton": 8971,
      "oecd": 8972,
      "grav": 8973,
      "vidéo": 8974,
      "hour": 8975,
      "drinking": 8976,
      "reading": 8977,
      "resistance": 8978,
      "requiring": 8979,
      "printemps": 8980,
      "bb": 8981,
      "scen": 8982,
      "ami": 8983,
      "mann": 8984,
      "émer": 8985,
      "paramètres": 8986,
      "alternatives": 8987,
      "k1a": 8988,
      "notices": 8989,
      "customer": 8990,
      "ket": 8991,
      "istique": 8992,
      "corrig": 8993,
      "thme": 8994,
      "appropriés": 8995,
      "720": 8996,
      "door": 8997,
      "larité": 8998,
      "valley": 8999,
      "énoncés": 9000,
      "portfolio": 9001,
      "métaux": 9002,
      "render": 9003,
      "fying": 9004,
      "incidences": 9005,
      "authorization": 9006,
      "thu": 9007,
      "asi": 9008,
      "nh": 9009,
      "êtements": 9010,
      "récep": 9011,
      "merit": 9012,
      "équival": 9013,
      "seg": 9014,
      "interdit": 9015,
      "suppliers": 9016,
      "willing": 9017,
      "madrid": 9018,
      "formulaires": 9019,
      "ea": 9020,
      "minorities": 9021,
      "breed": 9022,
      "mediation": 9023,
      "alleged": 9024,
      "présidence": 9025,
      "commencer": 9026,
      "dominant": 9027,
      "climatique": 9028,
      "mentionnés": 9029,
      "agences": 9030,
      "resi": 9031,
      "slight": 9032,
      "disciplinary": 9033,
      "pairs": 9034,
      "rp": 9035,
      "zé": 9036,
      "avenue": 9037,
      "maîtr": 9038,
      "lip": 9039,
      "alumin": 9040,
      "corresponding": 9041,
      "flexible": 9042,
      "succes": 9043,
      "gouverneur": 9044,
      "références": 9045,
      "indice": 9046,
      "livres": 9047,
      "sée": 9048,
      "solidar": 9049,
      "speaking": 9050,
      "ratification": 9051,
      "semi": 9052,
      "allant": 9053,
      "prioritaires": 9054,
      "clic": 9055,
      "lucra": 9056,
      "automobile": 9057,
      "informatique": 9058,
      "chés": 9059,
      "mps": 9060,
      "accepter": 9061,
      "permettront": 9062,
      "feuilles": 9063,
      "ministerial": 9064,
      "isol": 9065,
      "remained": 9066,
      "stade": 9067,
      "regulated": 9068,
      "familiale": 9069,
      "125": 9070,
      "protecting": 9071,
      "monthly": 9072,
      "operator": 9073,
      "facile": 9074,
      "serving": 9075,
      "utiques": 9076,
      "quite": 9077,
      "tension": 9078,
      "exiger": 9079,
      "mam": 9080,
      "properties": 9081,
      "incurred": 9082,
      "éries": 9083,
      "machine": 9084,
      "subparagraph": 9085,
      "ini": 9086,
      "divisions": 9087,
      "rages": 9088,
      "thereof": 9089,
      "fru": 9090,
      "indispens": 9091,
      "pare": 9092,
      "menée": 9093,
      "sives": 9094,
      "becomes": 9095,
      "gl": 9096,
      "séqu": 9097,
      "salaire": 9098,
      "1979": 9099,
      "flor": 9100,
      "thous": 9101,
      "moi": 9102,
      "nette": 9103,
      "considérable": 9104,
      "èques": 9105,
      "taxpayer": 9106,
      "annexes": 9107,
      "excessive": 9108,
      "solide": 9109,
      "worth": 9110,
      "regar": 9111,
      "onu": 9112,
      "déposée": 9113,
      "exists": 9114,
      "astrop": 9115,
      "plat": 9116,
      "moderni": 9117,
      "weap": 9118,
      "désormais": 9119,
      "sible": 9120,
      "récente": 9121,
      "surplus": 9122,
      "exposed": 9123,
      "spéciale": 9124,
      "fraser": 9125,
      "feas": 9126,
      "chimique": 9127,
      "awarded": 9128,
      "opérationnel": 9129,
      "bore": 9130,
      "nateur": 9131,
      "indirect": 9132,
      "matérie": 9133,
      "monit": 9134,
      "obtention": 9135,
      "chu": 9136,
      "104": 9137,
      "graphie": 9138,
      "privés": 9139,
      "bilatér": 9140,
      "occupation": 9141,
      "objets": 9142,
      "preparing": 9143,
      "certitude": 9144,
      "matur": 9145,
      "liques": 9146,
      "essentielle": 9147,
      "rechange": 9148,
      "attest": 9149,
[...]
