{
  "version": "1.0",
  "truncation": null,
  "padding": null,
  "added_tokens": [
    {
      "id": 0,
      "content": "<pad>",
      "single_word": false,
      "lstrip": false,
      "rstrip": false,
      "normalized": false,
      "special": true
    },
    {
      "id": 1,
      "content": "<bos>",
      "single_word": false,
      "lstrip": false,
      "rstrip": false,
      "normalized": false,
      "special": true
    },
    {
      "id": 2,
      "content": "<eos>",
      "single_word": false,
      "lstrip": false,
      "rstrip": false,
      "normalized": false,
      "special": true
    },
    {
      "id": 3,
      "content": "<unk>",
      "single_word": false,
      "lstrip": false,
      "rstrip": false,
      "normalized": false,
      "special": true
    }
  ],
  "normalizer": {
    "type": "Lowercase"
  },
  "pre_tokenizer": {
    "type": "Whitespace"
  },
  "post_processor": null,
  "decoder": null,
  "model": {
    "type": "BPE",
    "dropout": null,
    "unk_token": "<unk>",
    "continuing_subword_prefix": null,
    "end_of_word_suffix": null,
    "fuse_unk": false,
    "byte_fallback": false,
    "ignore_merges": false,
    "vocab": {
      "<pad>": 0,
      "<bos>": 1,
      "<eos>": 2,
      "<unk>": 3,
      "!": 4,
      "\"": 5,
      "#": 6,
      "$": 7,
      "%": 8,
      "&": 9,
      "'": 10,
      "(": 11,
      ")": 12,
      "*": 13,
      "+": 14,
      ",": 15,
      "-": 16,
      ".": 17,
      "/": 18,
      "0": 19,
      "1": 20,
      "2": 21,
      "3": 22,
      "4": 23,
      "5": 24,
      "6": 25,
      "7": 26,
      "8": 27,
      "9": 28,
      ":": 29,
      ";": 30,
      "<": 31,
      "=": 32,
      ">": 33,
      "?": 34,
      "@": 35,
      "[": 36,
      "\\": 37,
      "]": 38,
      "^": 39,
      "_": 40,
      "`": 41,
      "a": 42,
      "b": 43,
      "c": 44,
      "d": 45,
      "e": 46,
      "f": 47,
      "g": 48,
      "h": 49,
      "i": 50,
      "j": 51,
      "k": 52,
      "l": 53,
      "m": 54,
      "n": 55,
      "o": 56,
      "p": 57,
      "q": 58,
      "r": 59,
      "s": 60,
      "t": 61,
      "u": 62,
      "v": 63,
      "w": 64,
      "x": 65,
      "y": 66,
      "z": 67,
      "{": 68,
      "|": 69,
      "}": 70,
      "~": 71,
      "on": 72,
      "es": 73,
      "an": 74,
      "in": 75,
      "en": 76,
      "er": 77,
      "ti": 78,
      "th": 79,
      "or": 80,
      "re": 81,
      "al": 82,
      "tion": 83,
      "is": 84,
      "ar": 85,
      "de": 86,
      "ou": 87,
      "le": 88,
      "te": 89,
      "ent": 90,
      "the": 91,
      "ic": 92,
      "of": 93,
      "ro": 94,
      "ation": 95,
      "and": 96,
      "as": 97,
      "it": 98,
      "co": 99,
      "00": 100,
      "et": 101,
      "ch": 102,
      "at": 103,
      "il": 104,
      "tr": 105,
      "ur": 106,
      "la": 107,
      "ing": 108,
      "ment": 109,
      "to": 110,
      "__": 111,
      "se": 112,
      "ad": 113,
      "ac": 114,
      "qu": 115,
      "un": 116,
      "con": 117,
      "au": 118,
      "ce": 119,
      "for": 120,
      "si": 121,
      "el": 122,
      "pro": 123,
      "ag": 124,
      "com": 125,
      "les": 126,
      "st": 127,
      "am": 128,
      "200": 129,
      "du": 130,
      "ir": 131,
      "our": 132,
      "ve": 133,
      "ne": 134,
      "ol": 135,
      "ter": 136,
      "ap": 137,
      "su": 138,
      "can": 139,
      "des": 140,
      "me": 141,
      "res": 142,
      "di": 143,
      "ci": 144,
      "li": 145,
      "no": 146,
      "par": 147,
      "ts": 148,
      "pe": 149,
      "ab": 150,
      "____": 151,
      "ver": 152,
      "lo": 153,
      "us": 154,
      "canad": 155,
      "ri": 156,
      "gr": 157,
      "19": 158,
      "por": 159,
      "po": 160,
      "ate": 161,
      "ed": 162,
      "ers": 163,
      "ces": 164,
      "ma": 165,
      "ex": 166,
      "ul": 167,
      "pl": 168,
      "vi": 169,
      "pr": 170,
      "age": 171,
      "ser": 172,
      "ta": 173,
      "ww": 174,
      "que": 175,
      "ans": 176,
      "ec": 177,
      "comm": 178,
      "im": 179,
      "do": 180,
      "ant": 181,
      "canada": 182,
      "mb": 183,
      "man": 184,
      "est": 185,
      "so": 186,
      "be": 187,
      "ations": 188,
      "op": 189,
      "ht": 190,
      "ang": 191,
      "are": 192,
      "ig": 193,
      "mo": 194,
      "ont": 195,
      "tu": 196,
      "ction": 197,
      "av": 198,
      "sion": 199,
      "port": 200,
      "id": 201,
      "serv": 202,
      "form": 203,
      "sh": 204,
      "fic": 205,
      "tic": 206,
      "ity": 207,
      "ous": 208,
      ".,": 209,
      "lu": 210,
      "pu": 211,
      "ie": 212,
      "ay": 213,
      "min": 214,
      "sur": 215,
      "all": 216,
      "inc": 217,
      "--": 218,
      "oun": 219,
      "mar": 220,
      "ther": 221,
      "servic": 222,
      "________": 223,
      "ff": 224,
      "he": 225,
      "199": 226,
      "per": 227,
      "..": 228,
      "pour": 229,
      "ho": 230,
      "ca": 231,
      "ire": 232,
      "end": 233,
      "ted": 234,
      "dis": 235,
      "we": 236,
      "ins": 237,
      "ational": 238,
      "fr": 239,
      "tor": 240,
      "ments": 241,
      "cu": 242,
      "inter": 243,
      "wi": 244,
      "ine": 245,
      "ill": 246,
      "ati": 247,
      "able": 248,
      "10": 249,
      "str": 250,
      "this": 251,
      "ance": 252,
      "lt": 253,
      "ge": 254,
      "ly": 255,
      "bu": 256,
      "mp": 257,
      "int": 258,
      "eu": 259,
      "www": 260,
      "11": 261,
      "with": 262,
      "wh": 263,
      "ra": 264,
      "national": 265,
      "ion": 266,
      "der": 267,
      "wor": 268,
      "tp": 269,
      "ari": 270,
      "aux": 271,
      "ence": 272,
      "//": 273,
      "by": 274,
      "tre": 275,
      "lic": 276,
      "ard": 277,
      "contr": 278,
      "une": 279,
      "pub": 280,
      "ob": 281,
      "ph": 282,
      "air": 283,
      "formation": 284,
      "go": 285,
      "canadi": 286,
      "cor": 287,
      "that": 288,
      "://": 289,
      "che": 290,
      "bo": 291,
      "http": 292,
      "services": 293,
      "tions": 294,
      "ke": 295,
      "ques": 296,
      "20": 297,
      "ct": 298,
      ").": 299,
      "br": 300,
      "comp": 301,
      "ip": 302,
      "ble": 303,
      "mes": 304,
      "vo": 305,
      "out": 306,
      "ave": 307,
      "ni": 308,
      "ear": 309,
      "gram": 310,
      "vel": 311,
      "ven": 312,
      "ies": 313,
      "cent": 314,
      "program": 315,
      "ber": 316,
      "lang": 317,
      "vis": 318,
      "12": 319,
      "og": 320,
      "um": 321,
      "information": 322,
      "dans": 323,
      "ary": 324,
      "od": 325,
      "cont": 326,
      "pol": 327,
      "ue": 328,
      "ia": 329,
      "act": 330,
      "val": 331,
      "not": 332,
      "reg": 333,
      "rom": 334,
      "sa": 335,
      "ons": 336,
      "mi": 337,
      "fi": 338,
      "page": 339,
      "lis": 340,
      "fin": 341,
      "produ": 342,
      "ty": 343,
      "org": 344,
      "mon": 345,
      "soci": 346,
      "ld": 347,
      "jec": 348,
      "urs": 349,
      "uni": 350,
      "13": 351,
      "public": 352,
      "ants": 353,
      "its": 354,
      "pres": 355,
      "fa": 356,
      "from": 357,
      "work": 358,
      "),": 359,
      "fe": 360,
      "16": 361,
      "om": 362,
      "ass": 363,
      "cal": 364,
      "cer": 365,
      "ase": 366,
      "coun": 367,
      "col": 368,
      "mor": 369,
      "ren": 370,
      "ten": 371,
      "bi": 372,
      "new": 373,
      "grou": 374,
      "off": 375,
      "ves": 376,
      "2006": 377,
      "ission": 378,
      "nor": 379,
      "pers": 380,
      "tra": 381,
      "trans": 382,
      "2007": 383,
      "2005": 384,
      "15": 385,
      "gc": 386,
      "ste": 387,
      "tive": 388,
      "ite": 389,
      "pre": 390,
      "18": 391,
      "iti": 392,
      "ich": 393,
      "14": 394,
      "**": 395,
      "olog": 396,
      "ess": 397,
      "ille": 398,
      "plus": 399,
      "vir": 400,
      "09": 401,
      "one": 402,
      "cri": 403,
      "ens": 404,
      "date": 405,
      "nu": 406,
      "titu": 407,
      "ms": 408,
      "oc": 409,
      "ure": 410,
      "ture": 411,
      "part": 412,
      "sp": 413,
      "commun": 414,
      "23": 415,
      "ical": 416,
      "sible": 417,
      "cl": 418,
      "gu": 419,
      "low": 420,
      "________________": 421,
      "minis": 422,
      "ale": 423,
      "met": 424,
      "pas": 425,
      "canadian": 426,
      "000": 427,
      "nel": 428,
      "non": 429,
      "artic": 430,
      "17": 431,
      "sy": 432,
      "fer": 433,
      "25": 434,
      "rap": 435,
      "----": 436,
      "land": 437,
      "parti": 438,
      "docu": 439,
      "car": 440,
      "use": 441,
      "dire": 442,
      "offic": 443,
      "enti": 444,
      "ton": 445,
      "organ": 446,
      "gh": 447,
      "cip": 448,
      "=\"": 449,
      "ide": 450,
      "tech": 451,
      "cr": 452,
      "ds": 453,
      "mber": 454,
      "sub": 455,
      "asp": 456,
      "fau": 457,
      "gen": 458,
      "lement": 459,
      "cour": 460,
      "ava": 461,
      "fo": 462,
      "emp": 463,
      "iv": 464,
      "alth": 465,
      "30": 466,
      "ette": 467,
      "other": 468,
      "ere": 469,
      "envir": 470,
      "ding": 471,
      "acces": 472,
      "mil": 473,
      "vers": 474,
      "environ": 475,
      "person": 476,
      "earch": 477,
      "research": 478,
      "son": 479,
      "....": 480,
      "ater": 481,
      "04": 482,
      "ree": 483,
      "jo": 484,
      "will": 485,
      "ll": 486,
      "01": 487,
      "iz": 488,
      "acti": 489,
      "pri": 490,
      "ach": 491,
      "ould": 492,
      "pla": 493,
      "ist": 494,
      "cy": 495,
      "health": 496,
      "pa": 497,
      "consu": 498,
      "2004": 499,
      "you": 500,
      "ii": 501,
      "sont": 502,
      "international": 503,
      "qui": 504,
      "tal": 505,
      "hu": 506,
      "site": 507,
      "ot": 508,
      "wn": 509,
      "url": 510,
      "was": 511,
      "ks": 512,
      "ario": 513,
      "ame": 514,
      "24": 515,
      "plic": 516,
      "fac": 517,
      "vie": 518,
      "don": 519,
      "ures": 520,
      "commission": 521,
      "ut": 522,
      "group": 523,
      "ontario": 524,
      "prof": 525,
      "service": 526,
      "ils": 527,
      "ouver": 528,
      "mer": 529,
      "ative": 530,
      "03": 531,
      "ong": 532,
      "more": 533,
      "ell": 534,
      "article": 535,
      "euro": 536,
      "spe": 537,
      "fault": 538,
      "da": 539,
      "ise": 540,
      "default": 541,
      "na": 542,
      "eng": 543,
      "pon": 544,
      "cette": 545,
      "king": 546,
      "ates": 547,
      "techn": 548,
      "198": 549,
      "2002": 550,
      "chang": 551,
      "ents": 552,
      "06": 553,
      "sec": 554,
      "cul": 555,
      "pos": 556,
      "bri": 557,
      "inclu": 558,
      "have": 559,
      "ial": 560,
      "ric": 561,
      "nex": 562,
      "devel": 563,
      "amp": 564,
      "sup": 565,
      "fis": 566,
      "05": 567,
      "lin": 568,
      "ju": 569,
      "ats": 570,
      "eff": 571,
      "ain": 572,
      "dr": 573,
      "avail": 574,
      "ded": 575,
      "ck": 576,
      "report": 577,
      "ources": 578,
      "ated": 579,
      "28": 580,
      "cial": 581,
      "document": 582,
      "institu": 583,
      "cap": 584,
      "jet": 585,
      "26": 586,
      "cas": 587,
      "vous": 588,
      "ound": 589,
      "develop": 590,
      "wa": 591,
      "app": 592,
      "ese": 593,
      "sou": 594,
      "aff": 595,
      "pay": 596,
      "ss": 597,
      "wo": 598,
      "29": 599,
      "if": 600,
      "entre": 601,
      "dic": 602,
      "accessible": 603,
      "nement": 604,
      "his": 605,
      "applic": 606,
      "mu": 607,
      "indu": 608,
      "net": 609,
      "elle": 610,
      "27": 611,
      "nes": 612,
      "vol": 613,
      "rc": 614,
      "50": 615,
      "any": 616,
      "posi": 617,
      "agement": 618,
      "ors": 619,
      "prin": 620,
      "her": 621,
      "cher": 622,
      "under": 623,
      "ural": 624,
      "bor": 625,
      "web": 626,
      "tres": 627,
      "2008": 628,
      "ption": 629,
      "total": 630,
      "aires": 631,
      "vision": 632,
      "ris": 633,
      "tri": 634,
      "cho": 635,
      "gover": 636,
      "polic": 637,
      "ges": 638,
      "ages": 639,
      "view": 640,
      "projec": 641,
      "ress": 642,
      "plan": 643,
      "fol": 644,
      "tes": 645,
      "02": 646,
      "je": 647,
      "ask": 648,
      "direc": 649,
      "requ": 650,
      "may": 651,
      "oper": 652,
      "tain": 653,
      "sc": 654,
      "2003": 655,
      "lig": 656,
      "fon": 657,
      "htm": 658,
      "there": 659,
      "industr": 660,
      "govern": 661,
      "management": 662,
      "ef": 663,
      "fun": 664,
      "ession": 665,
      "vin": 666,
      "provi": 667,
      "import": 668,
      "ban": 669,
      "section": 670,
      "avec": 671,
      "environment": 672,
      "has": 673,
      "associ": 674,
      "ux": 675,
      "iss": 676,
      "21": 677,
      "bas": 678,
      "indi": 679,
      "nat": 680,
      "07": 681,
      "jour": 682,
      "technolog": 683,
      "fication": 684,
      "nous": 685,
      "ys": 686,
      "mr": 687,
      "@@": 688,
      "char": 689,
      "these": 690,
      "men": 691,
      "ata": 692,
      "emplo": 693,
      "08": 694,
      "sci": 695,
      "ack": 696,
      "dy": 697,
      "sig": 698,
      "centre": 699,
      "water": 700,
      "communic": 701,
      "cur": 702,
      "ory": 703,
      "table": 704,
      "22": 705,
      "annex": 706,
      "ties": 707,
      "stu": 708,
      "ild": 709,
      "dro": 710,
      "main": 711,
      "imp": 712,
      "sol": 713,
      "autres": 714,
      "ient": 715,
      "nal": 716,
      "99": 717,
      "ting": 718,
      "ally": 719,
      "mc": 720,
      "hi": 721,
      "seig": 722,
      "ministr": 723,
      "versity": 724,
      "mbre": 725,
      "development": 726,
      "appro": 727,
      "state": 728,
      "fir": 729,
      "100": 730,
      "33": 731,
      "effec": 732,
      "teur": 733,
      "ltd": 734,
      "their": 735,
      "let": 736,
      "2001": 737,
      "2000": 738,
      "ast": 739,
      "tru": 740,
      "way": 741,
      "point": 742,
      "nements": 743,
      "af": 744,
      "vent": 745,
      "prote": 746,
      ".)": 747,
      "ok": 748,
      "descri": 749,
      "mal": 750,
      "now": 751,
      "ice": 752,
      "follow": 753,
      "van": 754,
      "art": 755,
      "mark": 756,
      "alber": 757,
      "cess": 758,
      "see": 759,
      "bro": 760,
      "ital": 761,
      "mont": 762,
      "up": 763,
      "31": 764,
      "profession": 765,
      "change": 766,
      "bre": 767,
      "ak": 768,
      "hy": 769,
      "mun": 770,
      "lar": 771,
      "sel": 772,
      "type": 773,
      "ner": 774,
      "fs": 775,
      "gre": 776,
      "ports": 777,
      "provin": 778,
      "university": 779,
      "renseig": 780,
      "aire": 781,
      "--------": 782,
      "cep": 783,
      "35": 784,
      "europe": 785,
      "organis": 786,
      "meta": 787,
      "conse": 788,
      "ning": 789,
      "bar": 790,
      "</": 791,
      "princip": 792,
      "gi": 793,
      "lish": 794,
      "bal": 795,
      "which": 796,
      "government": 797,
      "acts": 798,
      "consult": 799,
      "syste": 800,
      "ises": 801,
      "ign": 802,
      "year": 803,
      "onto": 804,
      "lec": 805,
      "cation": 806,
      "programme": 807,
      "cons": 808,
      "tel": 809,
      "top": 810,
      "ry": 811,
      "day": 812,
      "over": 813,
      "40": 814,
      "45": 815,
      "rit": 816,
      "eral": 817,
      "renseignements": 818,
      "sal": 819,
      "va": 820,
      "ating": 821,
      "particip": 822,
      "ace": 823,
      "countr": 824,
      "1999": 825,
      "ha": 826,
      "they": 827,
      "toronto": 828,
      "36": 829,
      "voir": 830,
      "har": 831,
      "ulation": 832,
      "but": 833,
      "bet": 834,
      "suiv": 835,
      "****": 836,
      "rela": 837,
      "led": 838,
      "ali": 839,
      "pd": 840,
      "what": 841,
      "sk": 842,
      "stru": 843,
      "ough": 844,
      "grap": 845,
      "than": 846,
      "hn": 847,
      "ences": 848,
      "atis": 849,
      "nou": 850,
      "38": 851,
      "bil": 852,
      "project": 853,
      "uk": 854,
      "75": 855,
      "bus": 856,
      "=-": 857,
      "cle": 858,
      "ick": 859,
      "win": 860,
      "administr": 861,
      "respon": 862,
      "produc": 863,
      "histor": 864,
      "alberta": 865,
      "get": 866,
      "sit": 867,
      "langu": 868,
      "lan": 869,
      "also": 870,
      "employ": 871,
      "name": 872,
      "cus": 873,
      "clu": 874,
      "canadien": 875,
      "39": 876,
      "tis": 877,
      "description": 878,
      "data": 879,
      "chap": 880,
      "tawa": 881,
      "inf": 882,
      "tex": 883,
      "ger": 884,
      "fam": 885,
      "cli": 886,
      "ottawa": 887,
      "projet": 888,
      "some": 889,
      "37": 890,
      "groupe": 891,
      "hol": 892,
      "ety": 893,
      "yes": 894,
      "jan": 895,
      "ow": 896,
      "ource": 897,
      "about": 898,
      "corpor": 899,
      "policy": 900,
      "pi": 901,
      "cre": 902,
      "office": 903,
      "ires": 904,
      "four": 905,
      "rel": 906,
      "pop": 907,
      "ctions": 908,
      "memb": 909,
      "mis": 910,
      "tric": 911,
      "objec": 912,
      "cro": 913,
      "pat": 914,
      "uti": 915,
      "sed": 916,
      "arch": 917,
      "wan": 918,
      "mit": 919,
      "stand": 920,
      "bur": 921,
      "html": 922,
      "cil": 923,
      "your": 924,
      "ord": 925,
      "initi": 926,
      "aus": 927,
      "human": 928,
      "=-=-": 929,
      "47": 930,
      "<!": 931,
      "anal": 932,
      "\">": 933,
      "pec": 934,
      "recher": 935,
      "49": 936,
      "finan": 937,
      "application": 938,
      "available": 939,
      "sask": 940,
      "colu": 941,
      "doc": 942,
      "law": 943,
      "quar": 944,
      "north": 945,
      "leg": 946,
      "oui": 947,
      "sen": 948,
      "igh": 949,
      "adi": 950,
      "association": 951,
      "who": 952,
      "als": 953,
      "time": 954,
      "action": 955,
      "hab": 956,
      "........": 957,
      "level": 958,
      "john": 959,
      "48": 960,
      "first": 961,
      "econ": 962,
      "should": 963,
      "ley": 964,
      "require": 965,
      "ep": 966,
      "inde": 967,
      "mission": 968,
      "munic": 969,
      "deta": 970,
      "organiz": 971,
      "municip": 972,
      "tish": 973,
      "protection": 974,
      "gouver": 975,
      "ru": 976,
      "bel": 977,
      "milli": 978,
      "td": 979,
      "line": 980,
      "hel": 981,
      "issu": 982,
      "contin": 983,
      "os": 984,
      "child": 985,
      "my": 986,
      "british": 987,
      "1998": 988,
      "elles": 989,
      "sep": 990,
      "pdf": 991,
      "cla": 992,
      "mand": 993,
      "eur": 994,
      "place": 995,
      "ved": 996,
      "position": 997,
      "bour": 998,
      "lor": 999,
      "thor": 1000,
      "tern": 1001,
      "vil": 1002,
      "vention": 1003,
      "were": 1004,
      "ret": 1005,
      "stat": 1006,
      "med": 1007,
      "32": 1008,
      "annu": 1009,
      "pur": 1010,
      "train": 1011,
      "gestion": 1012,
      "guide": 1013,
      "hip": 1014,
      "concer": 1015,
      "municipal": 1016,
      "council": 1017,
      "sus": 1018,
      "ards": 1019,
      "quarter": 1020,
      "________________________________": 1021,
      "saskat": 1022,
      "jus": 1023,
      "sw": 1024,
      "46": 1025,
      "ben": 1026,
      "dition": 1027,
      "fu": 1028,
      "agric": 1029,
      "social": 1030,
      "ings": 1031,
      "community": 1032,
      "peop": 1033,
      "omen": 1034,
      "ple": 1035,
      "ais": 1036,
      "recomm": 1037,
      "region": 1038,
      "colle": 1039,
      "speci": 1040,
      "orig": 1041,
      "columb": 1042,
      "press": 1043,
      "den": 1044,
      "ight": 1045,
      "uation": 1046,
      "fait": 1047,
      "ici": 1048,
      "fiscal": 1049,
      "commit": 1050,
      "women": 1051,
      "econom": 1052,
      "rapport": 1053,
      "anti": 1054,
      "iness": 1055,
      "els": 1056,
      "support": 1057,
      "contact": 1058,
      "tout": 1059,
      "ps": 1060,
      "tle": 1061,
      "amer": 1062,
      "famil": 1063,
      "78": 1064,
      "number": 1065,
      "war": 1066,
      "pho": 1067,
      "bon": 1068,
      "very": 1069,
      "well": 1070,
      "following": 1071,
      "only": 1072,
      "ville": 1073,
      "columbia": 1074,
      "cc": 1075,
      "ght": 1076,
      "add": 1077,
      "commer": 1078,
      "34": 1079,
      "95": 1080,
      "pays": 1081,
      "would": 1082,
      "exp": 1083,
      "ods": 1084,
      "ga": 1085,
      "habit": 1086,
      "sure": 1087,
      "abil": 1088,
      "identi": 1089,
      "recherche": 1090,
      "annexe": 1091,
      "business": 1092,
      "65": 1093,
      "ina": 1094,
      "found": 1095,
      "dev": 1096,
      "98": 1097,
      "fore": 1098,
      "ances": 1099,
      "post": 1100,
      "territ": 1101,
      "ses": 1102,
      "tics": 1103,
      "statis": 1104,
      "west": 1105,
      "details": 1106,
      "mat": 1107,
      "tax": 1108,
      "tou": 1109,
      "contracts": 1110,
      "care": 1111,
      "):": 1112,
      "1997": 1113,
      "ween": 1114,
      "gro": 1115,
      "must": 1116,
      "cs": 1117,
      "dur": 1118,
      "gy": 1119,
      "resources": 1120,
      "lake": 1121,
      "come": 1122,
      "edu": 1123,
      "occu": 1124,
      "ouse": 1125,
      "regis": 1126,
      "ibu": 1127,
      "sous": 1128,
      "mic": 1129,
      "author": 1130,
      "between": 1131,
      "ency": 1132,
      "rent": 1133,
      "contrats": 1134,
      "people": 1135,
      "professionnel": 1136,
      "tical": 1137,
      "b9": 1138,
      "nom": 1139,
      "contribu": 1140,
      "ful": 1141,
      "colo": 1142,
      "mul": 1143,
      "two": 1144,
      "ities": 1145,
      "mac": 1146,
      "origin": 1147,
      "esti": 1148,
      "such": 1149,
      "world": 1150,
      "bc": 1151,
      "red": 1152,
      "xx": 1153,
      "ft": 1154,
      "44": 1155,
      "ko": 1156,
      "deux": 1157,
      "process": 1158,
      "transport": 1159,
      "bles": 1160,
      "168": 1161,
      "peri": 1162,
      "77": 1163,
      "travail": 1164,
      "corporation": 1165,
      "cop": 1166,
      "been": 1167,
      "training": 1168,
      "leur": 1169,
      "code": 1170,
      "environmental": 1171,
      "set": 1172,
      "55": 1173,
      "case": 1174,
      "communications": 1175,
      "review": 1176,
      "loi": 1177,
      "long": 1178,
      "chewan": 1179,
      "high": 1180,
      "ante": 1181,
      "ref": 1182,
      "home": 1183,
      "vic": 1184,
      "entrepr": 1185,
      "tin": 1186,
      "important": 1187,
      "tique": 1188,
      "mm": 1189,
      "how": 1190,
      "reas": 1191,
      "saskatchewan": 1192,
      "ghts": 1193,
      "60": 1194,
      "233": 1195,
      "personnel": 1196,
      "del": 1197,
      "manit": 1198,
      "indic": 1199,
      "question": 1200,
      "production": 1201,
      "gouvernement": 1202,
      "reven": 1203,
      "objecti": 1204,
      "fur": 1205,
      "dra": 1206,
      "ba": 1207,
      "pp": 1208,
      "cou": 1209,
      "politi": 1210,
      "need": 1211,
      "minister": 1212,
      "ica": 1213,
      "glo": 1214,
      "ult": 1215,
      "surve": 1216,
      "technology": 1217,
      "veau": 1218,
      "centr": 1219,
      "oba": 1220,
      "documents": 1221,
      "limi": 1222,
      "ish": 1223,
      "publications": 1224,
      "manitoba": 1225,
      "occup": 1226,
      "bec": 1227,
      "graph": 1228,
      "ile": 1229,
      "couver": 1230,
      "journal": 1231,
      "67": 1232,
      "depart": 1233,
      "qual": 1234,
      "wer": 1235,
      "faire": 1236,
      "tho": 1237,
      "nique": 1238,
      "==": 1239,
      "mail": 1240,
      "comment": 1241,
      "cn": 1242,
      "compr": 1243,
      "avo": 1244,
      "march": 1245,
      "note": 1246,
      "life": 1247,
      "labor": 1248,
      "tro": 1249,
      "ian": 1250,
      "utilis": 1251,
      "isse": 1252,
      "88": 1253,
      "nation": 1254,
      "eld": 1255,
      "population": 1256,
      "nature": 1257,
      ",%": 1258,
      "company": 1259,
      "pou": 1260,
      "general": 1261,
      "aussi": 1262,
      "cell": 1263,
      "b9233": 1264,
      "168b9233": 1265,
      "agree": 1266,
      "contracti": 1267,
      "sions": 1268,
      "tors": 1269,
      "ae": 1270,
      "ute": 1271,
      "ison": 1272,
      "cf": 1273,
      "ables": 1274,
      "teurs": 1275,
      "contrdate": 1276,
      "contractid": 1277,
      "mary": 1278,
      "products": 1279,
      "ham": 1280,
      "ril": 1281,
      "sch": 1282,
      "rol": 1283,
      "diff": 1284,
      "dou": 1285,
      "thr": 1286,
      "exemp": 1287,
      "tribu": 1288,
      "tee": 1289,
      "board": 1290,
      "sm": 1291,
      "66": 1292,
      "local": 1293,
      "peti": 1294,
      "tem": 1295,
      "vid": 1296,
      "most": 1297,
      "inte": 1298,
      "fran": 1299,
      "fil": 1300,
      "pen": 1301,
      "food": 1302,
      "ait": 1303,
      "ze": 1304,
      "justi": 1305,
      "ken": 1306,
      "pet": 1307,
      "ron": 1308,
      "1996": 1309,
      "cours": 1310,
      "economic": 1311,
      "index": 1312,
      "division": 1313,
      "ler": 1314,
      "comple": 1315,
      "saint": 1316,
      "97": 1317,
      "ship": 1318,
      "town": 1319,
      "vari": 1320,
      "fig": 1321,
      "into": 1322,
      "wil": 1323,
      "tous": 1324,
      "auto": 1325,
      "country": 1326,
      "resp": 1327,
      "stre": 1328,
      "bul": 1329,
      "know": 1330,
      "pc": 1331,
      "present": 1332,
      "market": 1333,
      "ply": 1334,
      "@@@@": 1335,
      "parag": 1336,
      "ox": 1337,
      "isation": 1338,
      "exam": 1339,
      "ues": 1340,
      "society": 1341,
      "roy": 1342,
      "peut": 1343,
      "institute": 1344,
      ");": 1345,
      "meas": 1346,
      "pap": 1347,
      "gar": 1348,
      "autre": 1349,
      "european": 1350,
      "related": 1351,
      "ulture": 1352,
      "clo": 1353,
      "cture": 1354,
      "mmes": 1355,
      "ore": 1356,
      "septe": 1357,
      "river": 1358,
      "department": 1359,
      "octo": 1360,
      "area": 1361,
      "relations": 1362,
      "accor": 1363,
      "avant": 1364,
      "ference": 1365,
      "trade": 1366,
      "ters": 1367,
      "paragrap": 1368,
      "far": 1369,
      "medi": 1370,
      "antes": 1371,
      "semb": 1372,
      "bio": 1373,
      "ines": 1374,
      "limited": 1375,
      "tour": 1376,
      "nombre": 1377,
      "inten": 1378,
      "fonction": 1379,
      "ique": 1380,
      "ier": 1381,
      "cat": 1382,
      "through": 1383,
      "nov": 1384,
      "lieu": 1385,
      "mus": 1386,
      "states": 1387,
      "cis": 1388,
      "united": 1389,
      "ible": 1390,
      "mande": 1391,
      "where": 1392,
      "cad": 1393,
      "sco": 1394,
      "questions": 1395,
      "ced": 1396,
      "kes": 1397,
      "class": 1398,
      "bay": 1399,
      "manu": 1400,
      "photo": 1401,
      "read": 1402,
      "location": 1403,
      "when": 1404,
      "42": 1405,
      "nove": 1406,
      "rights": 1407,
      "dc": 1408,
      "industry": 1409,
      "41": 1410,
      "ican": 1411,
      "scho": 1412,
      "partie": 1413,
      "brit": 1414,
      "sum": 1415,
      "system": 1416,
      "fort": 1417,
      "avoir": 1418,
      "aa": 1419,
      "tele": 1420,
      "many": 1421,
      "demande": 1422,
      "source": 1423,
      "promo": 1424,
      "study": 1425,
      "lon": 1426,
      "bure": 1427,
      "vancouver": 1428,
      "dies": 1429,
      "ology": 1430,
      "value": 1431,
      "less": 1432,
      "idrc": 1433,
      "lead": 1434,
      "85": 1435,
      "open": 1436,
      "version": 1437,
      "ka": 1438,
      "ns": 1439,
      "ints": 1440,
      "ales": 1441,
      "right": 1442,
      "include": 1443,
      "rece": 1444,
      "address": 1445,
      "ners": 1446,
      "house": 1447,
      "cir": 1448,
      "tur": 1449,
      "conseil": 1450,
      "file": 1451,
      "institution": 1452,
      "instru": 1453,
      "occupational": 1454,
      "ford": 1455,
      "197": 1456,
      "children": 1457,
      "migr": 1458,
      "seu": 1459,
      "ving": 1460,
      "rich": 1461,
      "each": 1462,
      "dg": 1463,
      "quer": 1464,
      "list": 1465,
      "produits": 1466,
      "ator": 1467,
      "partic": 1468,
      "school": 1469,
      "atory": 1470,
      "working": 1471,
      "articles": 1472,
      "control": 1473,
      "analys": 1474,
      "atives": 1475,
      "ane": 1476,
      "culture": 1477,
      "committee": 1478,
      "grand": 1479,
      "68": 1480,
      "programmes": 1481,
      "ward": 1482,
      "conclu": 1483,
      "iter": 1484,
      "pt": 1485,
      "ateurs": 1486,
      "bes": 1487,
      "pose": 1488,
      "original": 1489,
      "ism": 1490,
      "meth": 1491,
      "modi": 1492,
      "inves": 1493,
      "inv": 1494,
      "current": 1495,
      "shall": 1496,
      "endre": 1497,
      "enter": 1498,
      "ular": 1499,
      "cue": 1500,
      "ordin": 1501,
      "termin": 1502,
      "90": 1503,
      "rele": 1504,
      "ateur": 1505,
      "colomb": 1506,
      "fish": 1507,
      "ressources": 1508,
      "maj": 1509,
      "kg": 1510,
      "temp": 1511,
      "force": 1512,
      "ches": 1513,
      "comme": 1514,
      "43": 1515,
      "accoun": 1516,
      "addition": 1517,
      "ets": 1518,
      "1995": 1519,
      "quel": 1520,
      "element": 1521,
      "language": 1522,
      "communication": 1523,
      "votre": 1524,
      "howe": 1525,
      "----------------": 1526,
      "risk": 1527,
      "ability": 1528,
      "britan": 1529,
      "fourn": 1530,
      "consi": 1531,
      "strate": 1532,
      "practi": 1533,
      "ev": 1534,
      "programs": 1535,
      "thern": 1536,
      "eth": 1537,
      "ling": 1538,
      "back": 1539,
      "itre": 1540,
      "constitu": 1541,
      "assess": 1542,
      "had": 1543,
      "...": 1544,
      "member": 1545,
      "hor": 1546,
      "quo": 1547,
      "dge": 1548,
      "jur": 1549,
      "administration": 1550,
      "discus": 1551,
      "tempor": 1552,
      "key": 1553,
      "free": 1554,
      "itor": 1555,
      "members": 1556,
      "hr": 1557,
      "yl": 1558,
      "********": 1559,
      "ames": 1560,
      "order": 1561,
      "conserv": 1562,
      "58": 1563,
      "fact": 1564,
      "nouvel": 1565,
      "internet": 1566,
      "pend": 1567,
      "vidu": 1568,
      "ditions": 1569,
      "bureau": 1570,
      "recor": 1571,
      "individu": 1572,
      "dol": 1573,
      "att": 1574,
      "news": 1575,
      "eurs": 1576,
      "mais": 1577,
      "uary": 1578,
      "bien": 1579,
      "fied": 1580,
      "milit": 1581,
      ".\"": 1582,
      "ula": 1583,
      "years": 1584,
      "however": 1585,
      "britannique": 1586,
      "partners": 1587,
      "trav": 1588,
      "distribu": 1589,
      "possible": 1590,
      "publication": 1591,
      "wal": 1592,
      "examp": 1593,
      "consul": 1594,
      "education": 1595,
      "offer": 1596,
      "mme": 1597,
      "mich": 1598,
      "ade": 1599,
      "ned": 1600,
      "head": 1601,
      "three": 1602,
      "peu": 1603,
      "treat": 1604,
      "provide": 1605,
      "radi": 1606,
      "pect": 1607,
      "ids": 1608,
      "ai": 1609,
      "actu": 1610,
      "96": 1611,
      "cost": 1612,
      "ez": 1613,
      "hau": 1614,
      "007": 1615,
      "sector": 1616,
      "continu": 1617,
      "secon": 1618,
      "fed": 1619,
      "transfer": 1620,
      "she": 1621,
      "assist": 1622,
      "lage": 1623,
      "consider": 1624,
      "based": 1625,
      "brun": 1626,
      "intro": 1627,
      "colombie": 1628,
      "avis": 1629,
      "ws": 1630,
      "eval": 1631,
      "gl": 1632,
      "hal": 1633,
      "constru": 1634,
      "field": 1635,
      "analysis": 1636,
      "ug": 1637,
      "gary": 1638,
      "wood": 1639,
      "mas": 1640,
      "bud": 1641,
      "clas": 1642,
      "80": 1643,
      "xic": 1644,
      "rang": 1645,
      "iii": 1646,
      "cid": 1647,
      "mag": 1648,
      "57": 1649,
      "text": 1650,
      "please": 1651,
      "conditions": 1652,
      "does": 1653,
      "finance": 1654,
      "nos": 1655,
      "az": 1656,
      "((": 1657,
      "bert": 1658,
      "meet": 1659,
      "lais": 1660,
      "financial": 1661,
      "vr": 1662,
      "own": 1663,
      "agency": 1664,
      "moy": 1665,
      "56": 1666,
      "cult": 1667,
      "differ": 1668,
      "plu": 1669,
      "1994": 1670,
      "59": 1671,
      "cha": 1672,
      "xim": 1673,
      "certain": 1674,
      "impact": 1675,
      "made": 1676,
      "ix": 1677,
      "??": 1678,
      "dise": 1679,
      "neu": 1680,
      "dit": 1681,
      "issues": 1682,
      "family": 1683,
      "uit": 1684,
      "scienti": 1685,
      "ics": 1686,
      "systems": 1687,
      "countries": 1688,
      "further": 1689,
      "peg": 1690,
      "publi": 1691,
      "hous": 1692,
      "conf": 1693,
      "dispon": 1694,
      "communi": 1695,
      "tari": 1696,
      "used": 1697,
      "science": 1698,
      "expl": 1699,
      "fre": 1700,
      "them": 1701,
      "demand": 1702,
      "lines": 1703,
      "obten": 1704,
      "introdu": 1705,
      "distric": 1706,
      "history": 1707,
      "annual": 1708,
      "environnement": 1709,
      "inst": 1710,
      "activi": 1711,
      "organization": 1712,
      "respons": 1713,
      "nent": 1714,
      "park": 1715,
      "natural": 1716,
      "ster": 1717,
      "amend": 1718,
      "fax": 1719,
      "officer": 1720,
      "both": 1721,
      "south": 1722,
      "500": 1723,
      "small": 1724,
      "chapter": 1725,
      "ande": 1726,
      "bac": 1727,
      "ork": 1728,
      "sti": 1729,
      "fois": 1730,
      "during": 1731,
      "ause": 1732,
      "cel": 1733,
      "take": 1734,
      "cra": 1735,
      ".-": 1736,
      "ual": 1737,
      "tives": 1738,
      "solu": 1739,
      "facil": 1740,
      "agriculture": 1741,
      "help": 1742,
      "))": 1743,
      "provision": 1744,
      "bank": 1745,
      "compte": 1746,
      "87": 1747,
      "regional": 1748,
      "-->": 1749,
      "ind": 1750,
      "province": 1751,
      "69": 1752,
      "appe": 1753,
      "employment": 1754,
      "bat": 1755,
      "old": 1756,
      "activities": 1757,
      "inform": 1758,
      "pes": 1759,
      "within": 1760,
      "tt": 1761,
      "lear": 1762,
      "camp": 1763,
      "capital": 1764,
      "points": 1765,
      "ffic": 1766,
      "ington": 1767,
      "sto": 1768,
      "district": 1769,
      "direct": 1770,
      "bun": 1771,
      "director": 1772,
      "pan": 1773,
      "chan": 1774,
      "york": 1775,
      "adop": 1776,
      "propos": 1777,
      "benef": 1778,
      "acute": 1779,
      "sources": 1780,
      "provided": 1781,
      "porte": 1782,
      "effects": 1783,
      "archi": 1784,
      "agreement": 1785,
      "winni": 1786,
      "io": 1787,
      "quality": 1788,
      "bir": 1789,
      "staff": 1790,
      "required": 1791,
      "status": 1792,
      "tar": 1793,
      "enne": 1794,
      "md": 1795,
      "vre": 1796,
      "american": 1797,
      "sement": 1798,
      "nations": 1799,
      "dollar": 1800,
      "rou": 1801,
      "cam": 1802,
      "illez": 1803,
      "accue": 1804,
      "contre": 1805,
      "city": 1806,
      "winnipeg": 1807,
      "situation": 1808,
      "book": 1809,
      "including": 1810,
      "road": 1811,
      "sive": 1812,
      "veu": 1813,
      "explor": 1814,
      "tains": 1815,
      "=-=-=-=-": 1816,
      "budget": 1817,
      "cin": 1818,
      "ctmr": 1819,
      "conservation": 1820,
      "june": 1821,
      "depu": 1822,
      "atlan": 1823,
      "vez": 1824,
      "suivants": 1825,
      "recommend": 1826,
      "ories": 1827,
      "valeur": 1828,
      "innov": 1829,
      "equ": 1830,
      "premi": 1831,
      "sin": 1832,
      "parties": 1833,
      "perfor": 1834,
      "global": 1835,
      "lands": 1836,
      "projects": 1837,
      "publish": 1838,
      "special": 1839,
      "sex": 1840,
      "english": 1841,
      "bell": 1842,
      "muse": 1843,
      "nant": 1844,
      "swick": 1845,
      "mill": 1846,
      "among": 1847,
      "vac": 1848,
      "membres": 1849,
      "chem": 1850,
      "personnes": 1851,
      "grow": 1852,
      "signi": 1853,
      "toute": 1854,
      "housing": 1855,
      "brunswick": 1856,
      "major": 1857,
      "multi": 1858,
      "fc": 1859,
      "tte": 1860,
      "buil": 1861,
      "chapitre": 1862,
      "aw": 1863,
      "veuillez": 1864,
      "noti": 1865,
      "access": 1866,
      "70": 1867,
      "organisation": 1868,
      "final": 1869,
      "ministre": 1870,
      "parten": 1871,
      "actions": 1872,
      "1993": 1873,
      "show": 1874,
      "afr": 1875,
      "pac": 1876,
      "invest": 1877,
      "positions": 1878,
      "those": 1879,
      "try": 1880,
      "sans": 1881,
      "droits": 1882,
      "ele": 1883,
      "seulement": 1884,
      "ene": 1885,
      "ador": 1886,
      "ana": 1887,
      "bs": 1888,
      "micro": 1889,
      "official": 1890,
      "ato": 1891,
      "wes": 1892,
      "ators": 1893,
      "temps": 1894,
      "nord": 1895,
      "anglais": 1896,
      "lation": 1897,
      "lia": 1898,
      "1992": 1899,
      "ological": 1900,
      "convention": 1901,
      "assessment": 1902,
      "second": 1903,
      "real": 1904,
      "log": 1905,
      "museum": 1906,
      "hon": 1907,
      "nl": 1908,
      "role": 1909,
      "elec": 1910,
      "base": 1911,
      "commercial": 1912,
      "ath": 1913,
      "box": 1914,
      "forces": 1915,
      "tableau": 1916,
      "crimin": 1917,
      "ledge": 1918,
      "bla": 1919,
      "\",": 1920,
      "tien": 1921,
      "tiques": 1922,
      "rate": 1923,
      "calgary": 1924,
      "appli": 1925,
      "licence": 1926,
      "uses": 1927,
      "airs": 1928,
      "613": 1929,
      "ulations": 1930,
      "leurs": 1931,
      "village": 1932,
      "hand": 1933,
      "64": 1934,
      "common": 1935,
      "sites": 1936,
      "million": 1937,
      "91": 1938,
      "ults": 1939,
      "estim": 1940,
      "street": 1941,
      "union": 1942,
      "politique": 1943,
      "court": 1944,
      "moins": 1945,
      "cet": 1946,
      "ee": 1947,
      "month": 1948,
      "subst": 1949,
      "volu": 1950,
      "authority": 1951,
      "jul": 1952,
      "participation": 1953,
      "make": 1954,
      "ount": 1955,
      "52": 1956,
      "great": 1957,
      "provincial": 1958,
      "bin": 1959,
      "aboriginal": 1960,
      "clin": 1961,
      "ites": 1962,
      "cancer": 1963,
      "kgm": 1964,
      "canadiens": 1965,
      "topic": 1966,
      "implement": 1967,
      "tation": 1968,
      "power": 1969,
      "operative": 1970,
      "ek": 1971,
      "auc": 1972,
      "accueil": 1973,
      "call": 1974,
      "europa": 1975,
      "pass": 1976,
      "53": 1977,
      "network": 1978,
      "63": 1979,
      "secur": 1980,
      "mater": 1981,
      "vig": 1982,
      "doit": 1983,
      "surance": 1984,
      "initiative": 1985,
      "tional": 1986,
      "pil": 1987,
      "format": 1988,
      "good": 1989,
      "ls": 1990,
      "vant": 1991,
      "victor": 1992,
      "northern": 1993,
      "ener": 1994,
      "fras": 1995,
      "nouveau": 1996,
      "infec": 1997,
      "design": 1998,
      "performan": 1999,
      "cover": 2000,
      "unes": 2001,
      "ente": 2002,
      "exist": 2003,
      "participants": 2004,
      "beso": 2005,
      "gov": 2006,
      "mars": 2007,
      "dollars": 2008,
      "loc": 2009,
      "fy": 2010,
      "72": 2011,
      "gene": 2012,
      "statistics": 2013,
      "personal": 2014,
      "aide": 2015,
      "ming": 2016,
      "ness": 2017,
      "cd": 2018,
      "operation": 2019,
      "han": 2020,
      "legal": 2021,
      "92": 2022,
      "export": 2023,
      "dan": 2024,
      "ders": 2025,
      "drug": 2026,
      "beau": 2027,
      "central": 2028,
      "david": 2029,
      "super": 2030,
      "compar": 2031,
      "suite": 2032,
      "enf": 2033,
      "could": 2034,
      "accep": 2035,
      "dix": 2036,
      "cision": 2037,
      "proper": 2038,
      "pau": 2039,
      "trois": 2040,
      "then": 2041,
      "test": 2042,
      "wid": 2043,
      "personne": 2044,
      "ker": 2045,
      "joint": 2046,
      "54": 2047,
      "toxic": 2048,
      "areas": 2049,
      "april": 2050,
      "rait": 2051,
      "studies": 2052,
      "tig": 2053,
      "january": 2054,
      "ases": 2055,
      "sche": 2056,
      "<!-": 2057,
      "paper": 2058,
      "aver": 2059,
      "survey": 2060,
      "subjec": 2061,
      "anim": 2062,
      "approach": 2063,
      "phil": 2064,
      "evaluation": 2065,
      "coll": 2066,
      "frame": 2067,
      "exer": 2068,
      "millions": 2069,
      "competi": 2070,
      "construction": 2071,
      "prior": 2072,
      "traite": 2073,
      "61": 2074,
      "core": 2075,
      "iques": 2076,
      "eacute": 2077,
      "changes": 2078,
      "canadienne": 2079,
      "chi": 2080,
      "ones": 2081,
      "bou": 2082,
      "responsible": 2083,
      "september": 2084,
      "g0": 2085,
      "sau": 2086,
      "51": 2087,
      "title": 2088,
      "oblig": 2089,
      "appen": 2090,
      "gal": 2091,
      "october": 2092,
      "ization": 2093,
      "sing": 2094,
      "&&": 2095,
      "technical": 2096,
      "cing": 2097,
      "droit": 2098,
      "hier": 2099,
      "mainten": 2100,
      "again": 2101,
      "1991": 2102,
      "invol": 2103,
      "notre": 2104,
      "smo": 2105,
      "nam": 2106,
      "play": 2107,
      "arti": 2108,
      "analy": 2109,
      "cand": 2110,
      "hen": 2111,
      "funding": 2112,
      "green": 2113,
      "band": 2114,
      "wat": 2115,
      "performance": 2116,
      "ared": 2117,
      "increas": 2118,
      "building": 2119,
      "phy": 2120,
      "custo": 2121,
      "................": 2122,
      "eds": 2123,
      "alog": 2124,
      "ki": 2125,
      "1990": 2126,
      "after": 2127,
      "kel": 2128,
      "experi": 2129,
      "eux": 2130,
      "obtenir": 2131,
      "rural": 2132,
      "allow": 2133,
      "collabor": 2134,
      "ery": 2135,
      "mith": 2136,
      "just": 2137,
      "manag": 2138,
      "visit": 2139,
      "pati": 2140,
      "down": 2141,
      "avi": 2142,
      "chemical": 2143,
      "includes": 2144,
      "ground": 2145,
      "tenti": 2146,
      "initiatives": 2147,
      "maine": 2148,
      "willi": 2149,
      "san": 2150,
      "62": 2151,
      "89": 2152,
      "contain": 2153,
      "specific": 2154,
      "trou": 2155,
      "iste": 2156,
      "chlor": 2157,
      "lier": 2158,
      "november": 2159,
      "ium": 2160,
      "oks": 2161,
      "sor": 2162,
      "cela": 2163,
      "structure": 2164,
      "s0": 2165,
      "direction": 2166,
      "light": 2167,
      "em": 2168,
      "cit": 2169,
      "fri": 2170,
      "knowledge": 2171,
      "mise": 2172,
      "ston": 2173,
      "herit": 2174,
      "sea": 2175,
      "posed": 2176,
      "effic": 2177,
      "exemple": 2178,
      "tribun": 2179,
      "secteur": 2180,
      "cadre": 2181,
      "''": 2182,
      "offici": 2183,
      "lit": 2184,
      "mid": 2185,
      "ligne": 2186,
      "rus": 2187,
      "(#": 2188,
      "arts": 2189,
      "directive": 2190,
      "nd": 2191,
      "potenti": 2192,
      "aqu": 2193,
      "treatment": 2194,
      "femmes": 2195,
      "entreprises": 2196,
      "decision": 2197,
      "goods": 2198,
      "vement": 2199,
      "sciences": 2200,
      "example": 2201,
      "figure": 2202,
      "civil": 2203,
      "impro": 2204,
      "79": 2205,
      "william": 2206,
      "ily": 2207,
      "large": 2208,
      "heritage": 2209,
      "clear": 2210,
      "cultural": 2211,
      "ends": 2212,
      "dement": 2213,
      "monitor": 2214,
      "conna": 2215,
      "youth": 2216,
      "distribution": 2217,
      "mess": 2218,
      "simp": 2219,
      "professional": 2220,
      "self": 2221,
      "measures": 2222,
      "ann": 2223,
      "ald": 2224,
      "formula": 2225,
      "dos": 2226,
      "consulting": 2227,
      "aven": 2228,
      "mesures": 2229,
      "tif": 2230,
      "labr": 2231,
      "july": 2232,
      "ways": 2233,
      "84": 2234,
      "poli": 2235,
      "copy": 2236,
      "arc": 2237,
      "mt": 2238,
      "recommand": 2239,
      "municipalite": 2240,
      "oth": 2241,
      "future": 2242,
      "====": 2243,
      "voy": 2244,
      "claim": 2245,
      "using": 2246,
      "mel": 2247,
      "conference": 2248,
      "jours": 2249,
      "estab": 2250,
      "vity": 2251,
      "ellement": 2252,
      "_e": 2253,
      "savoir": 2254,
      "oft": 2255,
      "issance": 2256,
      "refer": 2257,
      "ours": 2258,
      "rail": 2259,
      "island": 2260,
      "resource": 2261,
      "broad": 2262,
      "width": 2263,
      "labrador": 2264,
      "cases": 2265,
      "side": 2266,
      "bridge": 2267,
      "sujet": 2268,
      "lac": 2269,
      "ices": 2270,
      "endro": 2271,
      "white": 2272,
      "emb": 2273,
      "yuk": 2274,
      "robert": 2275,
      "coordin": 2276,
      "800": 2277,
      "conseill": 2278,
      "youn": 2279,
      "ainsi": 2280,
      "opin": 2281,
      "respect": 2282,
      "link": 2283,
      "technologies": 2284,
      "medical": 2285,
      "peuvent": 2286,
      "signific": 2287,
      "observ": 2288,
      "being": 2289,
      "essenti": 2290,
      "ney": 2291,
      "gs": 2292,
      "establish": 2293,
      "edmont": 2294,
      "ino": 2295,
      "radio": 2296,
      "83": 2297,
      "projets": 2298,
      "tent": 2299,
      "opinion": 2300,
      "edmonton": 2301,
      "kb": 2302,
      "pm": 2303,
      "amples": 2304,
      "account": 2305,
      "framework": 2306,
      "reports": 2307,
      "condu": 2308,
      "cree": 2309,
      "bility": 2310,
      "erre": 2311,
      "range": 2312,
      "tran": 2313,
      "libr": 2314,
      "requirements": 2315,
      "%)": 2316,
      "ja": 2317,
      "disease": 2318,
      "ender": 2319,
      "candid": 2320,
      "img": 2321,
      "clean": 2322,
      "influ": 2323,
      "financement": 2324,
      "wild": 2325,
      "faut": 2326,
      "wash": 2327,
      "austr": 2328,
      "fichier": 2329,
      "proce": 2330,
      "vier": 2331,
      "medic": 2332,
      "active": 2333,
      "determin": 2334,
      "before": 2335,
      "western": 2336,
      "\".": 2337,
      "fall": 2338,
      "proces": 2339,
      "shop": 2340,
      "parlia": 2341,
      "paragraph": 2342,
      "ray": 2343,
      "tradi": 2344,
      "yukon": 2345,
      "classi": 2346,
      "issue": 2347,
      "94": 2348,
      "1985": 2349,
      "contribution": 2350,
      "86": 2351,
      "prati": 2352,
      "smith": 2353,
      "juin": 2354,
      "website": 2355,
      ")>": 2356,
      "paragraphe": 2357,
      "selon": 2358,
      "certi": 2359,
      "amount": 2360,
      "maxim": 2361,
      "affec": 2362,
      "semble": 2363,
      "dri": 2364,
      "nmb": 2365,
      "income": 2366,
      "affairs": 2367,
      "types": 2368,
      "ib": 2369,
      "hydro": 2370,
      "liste": 2371,
      "pal": 2372,
      "tribunal": 2373,
      "collection": 2374,
      "victoria": 2375,
      "notes": 2376,
      "maines": 2377,
      "haut": 2378,
      "every": 2379,
      "saf": 2380,
      "tant": 2381,
      "zone": 2382,
      "percent": 2383,
      "like": 2384,
      "syn": 2385,
      "groups": 2386,
      "east": 2387,
      "ouvr": 2388,
      "fonds": 2389,
      "london": 2390,
      "exper": 2391,
      "times": 2392,
      "lou": 2393,
      "trad": 2394,
      "ole": 2395,
      "function": 2396,
      "eas": 2397,
      "deli": 2398,
      "print": 2399,
      "supp": 2400,
      "introduction": 2401,
      "terre": 2402,
      "map": 2403,
      "immigr": 2404,
      "accord": 2405,
      "principal": 2406,
      "term": 2407,
      "93": 2408,
      "france": 2409,
      "niveau": 2410,
      "j0": 2411,
      "parliament": 2412,
      "content": 2413,
      "organizations": 2414,
      "conten": 2415,
      "stain": 2416,
      "emer": 2417,
      "rain": 2418,
      "image": 2419,
      "rence": 2420,
      "military": 2421,
      "berg": 2422,
      "royal": 2423,
      "justice": 2424,
      "strateg": 2425,
      "effective": 2426,
      "young": 2427,
      "nun": 2428,
      "mate": 2429,
      "ouest": 2430,
      "vely": 2431,
      "viol": 2432,
      "face": 2433,
      "gener": 2434,
      "ross": 2435,
      "sar": 2436,
      "exig": 2437,
      "concernant": 2438,
      "hun": 2439,
      "unit": 2440,
      "foundation": 2441,
      "eg": 2442,
      "effect": 2443,
      "toutes": 2444,
      "subject": 2445,
      "recei": 2446,
      "vue": 2447,
      "corre": 2448,
      "model": 2449,
      "wipo": 2450,
      "fund": 2451,
      "nic": 2452,
      "institutions": 2453,
      "labour": 2454,
      "hiv": 2455,
      "gif": 2456,
      "atre": 2457,
      "ibles": 2458,
      "archives": 2459,
      "redu": 2460,
      "habitation": 2461,
      "peter": 2462,
      "partnership": 2463,
      "particular": 2464,
      "ultural": 2465,
      "mental": 2466,
      "nit": 2467,
      "politiques": 2468,
      "mai": 2469,
      "premier": 2470,
      "mou": 2471,
      "minim": 2472,
      "ograph": 2473,
      "76": 2474,
      "sud": 2475,
      "planning": 2476,
      "sever": 2477,
      "exerc": 2478,
      "library": 2479,
      "reco": 2480,
      "eau": 2481,
      "integr": 2482,
      "era": 2483,
      "indian": 2484,
      "here": 2485,
      "affaires": 2486,
      "commerce": 2487,
      "74": 2488,
      "ink": 2489,
      "permet": 2490,
      "ado": 2491,
      "fab": 2492,
      "fisher": 2493,
      "idi": 2494,
      "thing": 2495,
      "donc": 2496,
      "product": 2497,
      "info": 2498,
      "aug": 2499,
      "exter": 2500,
      "standards": 2501,
      "enz": 2502,
      "plant": 2503,
      "lui": 2504,
      "tifs": 2505,
      "chaque": 2506,
      "appendix": 2507,
      "technologie": 2508,
      "ny": 2509,
      "gas": 2510,
      "itation": 2511,
      "guidelines": 2512,
      "quoi": 2513,
      "hill": 2514,
      "anne": 2515,
      "201": 2516,
      "manufact": 2517,
      "growth": 2518,
      "processus": 2519,
      "ort": 2520,
      "phar": 2521,
      "territo": 2522,
      "endroit": 2523,
      "consultation": 2524,
      "sera": 2525,
      "ael": 2526,
      "lors": 2527,
      "adv": 2528,
      "gin": 2529,
      "atten": 2530,
      "quebec": 2531,
      "wel": 2532,
      "mers": 2533,
      "paci": 2534,
      "promotion": 2535,
      "bran": 2536,
      "sustain": 2537,
      "atlantic": 2538,
      "aring": 2539,
      "responsable": 2540,
      "oil": 2541,
      "dd": 2542,
      "species": 2543,
      "coup": 2544,
      "search": 2545,
      "riel": 2546,
      "security": 2547,
      "bit": 2548,
      "apply": 2549,
      "@@@@@@@@": 2550,
      "ition": 2551,
      "hosp": 2552,
      "material": 2553,
      "legis": 2554,
      "blo": 2555,
      "period": 2556,
      "soft": 2557,
      "tron": 2558,
      "nw": 2559,
      "temporary": 2560,
      "def": 2561,
      "ventions": 2562,
      "objectifs": 2563,
      "works": 2564,
      "proble": 2565,
      "transportation": 2566,
      "opport": 2567,
      "media": 2568,
      "alogue": 2569,
      "trava": 2570,
      "center": 2571,
      "ivent": 2572,
      "incre": 2573,
      "administrative": 2574,
      "police": 2575,
      "texte": 2576,
      "collec": 2577,
      "examin": 2578,
      "pic": 2579,
      "innovation": 2580,
      "lat": 2581,
      "illet": 2582,
      "prog": 2583,
      "safety": 2584,
      "provinces": 2585,
      "spr": 2586,
      "colon": 2587,
      "tobac": 2588,
      "appr": 2589,
      "forms": 2590,
      "without": 2591,
      "canadians": 2592,
      "asc": 2593,
      "advis": 2594,
      "rue": 2595,
      "job": 2596,
      "michael": 2597,
      "investig": 2598,
      "informations": 2599,
      "marine": 2600,
      "paie": 2601,
      "gent": 2602,
      "height": 2603,
      "exclu": 2604,
      "course": 2605,
      "til": 2606,
      "phys": 2607,
      "retur": 2608,
      "africa": 2609,
      "tez": 2610,
      "erson": 2611,
      "languages": 2612,
      "taux": 2613,
      "ides": 2614,
      "montant": 2615,
      "sug": 2616,
      "surveill": 2617,
      "porter": 2618,
      "publique": 2619,
      "71": 2620,
      "benefits": 2621,
      "avril": 2622,
      "limit": 2623,
      "against": 2624,
      "82": 2625,
      "border": 2626,
      "clar": 2627,
      "doivent": 2628,
      "enfants": 2629,
      "room": 2630,
      "acter": 2631,
      "tobacco": 2632,
      "chie": 2633,
      "nie": 2634,
      "whe": 2635,
      "hospital": 2636,
      "septembre": 2637,
      "vit": 2638,
      "toc": 2639,
      "fications": 2640,
      "pcdata": 2641,
      "manufactur": 2642,
      "ennent": 2643,
      "six": 2644,
      "acqu": 2645,
      "jeunes": 2646,
      "learning": 2647,
      "tan": 2648,
      "industrial": 2649,
      "ah": 2650,
      "aur": 2651,
      "forme": 2652,
      "different": 2653,
      "incid": 2654,
      "summary": 2655,
      "resse": 2656,
      "results": 2657,
      "nr": 2658,
      "etc": 2659,
      "rejec": 2660,
      "lun": 2661,
      "federal": 2662,
      "phase": 2663,
      "assistance": 2664,
      "property": 2665,
      "implementation": 2666,
      "_f": 2667,
      "suivantes": 2668,
      "discussion": 2669,
      "flu": 2670,
      "iel": 2671,
      "pages": 2672,
      "mg": 2673,
      "objectives": 2674,
      "perspec": 2675,
      "respond": 2676,
      "octobre": 2677,
      "certains": 2678,
      "nav": 2679,
      "jean": 2680,
      "besoin": 2681,
      "james": 2682,
      "charge": 2683,
      "meeting": 2684,
      "dule": 2685,
      "regard": 2686,
      "amin": 2687,
      "did": 2688,
      "appropri": 2689,
      "altern": 2690,
      "practice": 2691,
      "phen": 2692,
      "washington": 2693,
      "autoch": 2694,
      "since": 2695,
      "explo": 2696,
      "sieurs": 2697,
      "command": 2698,
      "73": 2699,
      "reference": 2700,
      "registr": 2701,
      "ists": 2702,
      "rss": 2703,
      "ordon": 2704,
      "newfound": 2705,
      "ior": 2706,
      "equip": 2707,
      "mur": 2708,
      "amen": 2709,
      "put": 2710,
      "dossi": 2711,
      "produit": 2712,
      "nouvelle": 2713,
      "atte": 2714,
      "insurance": 2715,
      "next": 2716,
      "newfoundland": 2717,
      "ench": 2718,
      "industrie": 2719,
      "agent": 2720,
      "volume": 2721,
      "eter": 2722,
      "books": 2723,
      "concep": 2724,
      "nt": 2725,
      "emploi": 2726,
      "dom": 2727,
      "black": 2728,
      "represent": 2729,
      "anger": 2730,
      "factors": 2731,
      "engine": 2732,
      "last": 2733,
      "ars": 2734,
      "energy": 2735,
      "hc": 2736,
      "isme": 2737,
      "paul": 2738,
      "janvier": 2739,
      "titre": 2740,
      "online": 2741,
      "lakes": 2742,
      "ouvrir": 2743,
      "loy": 2744,
      "sun": 2745,
      "mach": 2746,
      "revenue": 2747,
      "kin": 2748,
      "space": 2749,
      "nels": 2750,
      "81": 2751,
      "appel": 2752,
      "provides": 2753,
      "novembre": 2754,
      "concentr": 2755,
      "dont": 2756,
      "psy": 2757,
      "additional": 2758,
      "examen": 2759,
      "moder": 2760,
      "tool": 2761,
      "best": 2762,
      "respec": 2763,
      "same": 2764,
      "making": 2765,
      "compon": 2766,
      "policies": 2767,
      "ately": 2768,
      "contributions": 2769,
      "increase": 2770,
      "monitoring": 2771,
      "justification": 2772,
      "infras": 2773,
      "laire": 2774,
      "carri": 2775,
      "male": 2776,
      "~~": 2777,
      "xxxx": 2778,
      "avut": 2779,
      "fire": 2780,
      "orge": 2781,
      "industries": 2782,
      "langues": 2783,
      "consultants": 2784,
      "evid": 2785,
      "disponible": 2786,
      "infrastru": 2787,
      "sell": 2788,
      "ose": 2789,
      "plusieurs": 2790,
      "defin": 2791,
      "zo": 2792,
      "basis": 2793,
      "som": 2794,
      "agen": 2795,
      "tariff": 2796,
      "suit": 2797,
      "kar": 2798,
      "tual": 2799,
      "las": 2800,
      "ported": 2801,
      "sph": 2802,
      "continue": 2803,
      "satis": 2804,
      "week": 2805,
      "contract": 2806,
      "rs": 2807,
      "included": 2808,
      "frais": 2809,
      "pct": 2810,
      "ature": 2811,
      "compan": 2812,
      "tc": 2813,
      "ministry": 2814,
      "thom": 2815,
      "needs": 2816,
      "mation": 2817,
      "missions": 2818,
      "compag": 2819,
      "color": 2820,
      "laur": 2821,
      "cross": 2822,
      "conseillers": 2823,
      "conclusions": 2824,
      "political": 2825,
      "sil": 2826,
      "amendment": 2827,
      "rejected": 2828,
      "endant": 2829,
      "nunavut": 2830,
      "depuis": 2831,
      "fier": 2832,
      "sta": 2833,
      "chris": 2834,
      "provisions": 2835,
      "dir": 2836,
      "compu": 2837,
      "leaders": 2838,
      "ano": 2839,
      "oral": 2840,
      "station": 2841,
      "prince": 2842,
      "simil": 2843,
      "gare": 2844,
      "ey": 2845,
      "standing": 2846,
      "crdi": 2847,
      "habitat": 2848,
      "****************": 2849,
      "aries": 2850,
      "sam": 2851,
      "phone": 2852,
      "richard": 2853,
      "niques": 2854,
      "lie": 2855,
      "objet": 2856,
      "tiz": 2857,
      "individual": 2858,
      "veaux": 2859,
      "sul": 2860,
      "while": 2861,
      "aliment": 2862,
      "primary": 2863,
      "sim": 2864,
      "bullet": 2865,
      "surveillance": 2866,
      "cm": 2867,
      "thir": 2868,
      "illeurs": 2869,
      "adresse": 2870,
      "fond": 2871,
      "discrimin": 2872,
      "why": 2873,
      "href": 2874,
      "voici": 2875,
      "investment": 2876,
      "bill": 2877,
      "cb": 2878,
      "vas": 2879,
      "rappor": 2880,
      "revenu": 2881,
      "prevention": 2882,
      "dam": 2883,
      "suc": 2884,
      "expo": 2885,
      "rapports": 2886,
      "audi": 2887,
      "malad": 2888,
      "standard": 2889,
      "clic": 2890,
      "vos": 2891,
      "french": 2892,
      "session": 2893,
      "potential": 2894,
      "cies": 2895,
      "nationaux": 2896,
      "toutefois": 2897,
      "comments": 2898,
      "monde": 2899,
      "financi": 2900,
      "prair": 2901,
      "courriel": 2902,
      "marque": 2903,
      "1989": 2904,
      "secret": 2905,
      "average": 2906,
      "territories": 2907,
      "regulation": 2908,
      "means": 2909,
      "enterpr": 2910,
      "aid": 2911,
      "naire": 2912,
      "cp": 2913,
      "cular": 2914,
      "collections": 2915,
      "consulter": 2916,
      "ffff": 2917,
      "utilisation": 2918,
      "ped": 2919,
      "visite": 2920,
      "centres": 2921,
      "recommendations": 2922,
      "mann": 2923,
      "canadiennes": 2924,
      "nouvelles": 2925,
      "lay": 2926,
      "ran": 2927,
      "scientific": 2928,
      "grande": 2929,
      "full": 2930,
      "sis": 2931,
      "soit": 2932,
      "utes": 2933,
      "--------------------------------": 2934,
      "aids": 2935,
      "late": 2936,
      "foc": 2937,
      "ception": 2938,
      "due": 2939,
      "gri": 2940,
      "miss": 2941,
      "workers": 2942,
      "relationship": 2943,
      "const": 2944,
      "bli": 2945,
      "conne": 2946,
      "harbour": 2947,
      "cab": 2948,
      "pot": 2949,
      "evidence": 2950,
      "ky": 2951,
      "istan": 2952,
      "install": 2953,
      "ero": 2954,
      "taken": 2955,
      "aient": 2956,
      "????": 2957,
      "significant": 2958,
      "ariat": 2959,
      "going": 2960,
      "organisations": 2961,
      "priv": 2962,
      "draft": 2963,
      "tier": 2964,
      "kno": 2965,
      "parent": 2966,
      "rep": 2967,
      "lot": 2968,
      "importance": 2969,
      "measure": 2970,
      "ering": 2971,
      "much": 2972,
      "pression": 2973,
      "forts": 2974,
      "ees": 2975,
      "equipment": 2976,
      "donald": 2977,
      "wildlife": 2978,
      "raison": 2979,
      "soutien": 2980,
      "conso": 2981,
      "tia": 2982,
      "pollu": 2983,
      "moun": 2984,
      "intel": 2985,
      "havi": 2986,
      "abo": 2987,
      "1a": 2988,
      "practices": 2989,
      "250": 2990,
      "alle": 2991,
      "necess": 2992,
      "request": 2993,
      "mond": 2994,
      "rates": 2995,
      "vious": 2996,
      "cham": 2997,
      "george": 2998,
      "classification": 2999,
      "clients": 3000,
      "behavi": 3001,
      "inscri": 3002,
      "body": 3003,
      "adap": 3004,
      "gt": 3005,
      "ensure": 3006,
      "!!": 3007,
      "municipality": 3008,
      "records": 3009,
      "row": 3010,
      "zip": 3011,
      "links": 3012,
      "exhi": 3013,
      "ik": 3014,
      "chez": 3015,
      "juillet": 3016,
      "alt": 3017,
      "pects": 3018,
      "terms": 3019,
      "bb": 3020,
      "mechan": 3021,
      "maximum": 3022,
      "normal": 3023,
      "scf": 3024,
      "qc": 3025,
      "divers": 3026,
      "complete": 3027,
      "rac": 3028,
      "mois": 3029,
      "pacific": 3030,
      "five": 3031,
      "medicine": 3032,
      "nova": 3033,
      "ski": 3034,
      "bt": 3035,
      "reser": 3036,
      "foreign": 3037,
      "suff": 3038,
      "disponibles": 3039,
      "liance": 3040,
      "cws": 3041,
      "alco": 3042,
      "parks": 3043,
      "].": 3044,
      "hali": 3045,
      "proto": 3046,
      "300": 3047,
      "applicable": 3048,
      "400": 3049,
      "sts": 3050,
      "collaboration": 3051,
      "quent": 3052,
      "gra": 3053,
      "workshop": 3054,
      "chief": 3055,
      "urban": 3056,
      "images": 3057,
      "aging": 3058,
      "letter": 3059,
      "dig": 3060,
      "trait": 3061,
      "1988": 3062,
      "because": 3063,
      "climate": 3064,
      "cted": 3065,
      "acy": 3066,
      "amment": 3067,
      "\"></": 3068,
      "aspects": 3069,
      "appu": 3070,
      "agricultural": 3071,
      "techniques": 3072,
      "therefore": 3073,
      "travel": 3074,
      "target": 3075,
      "ware": 3076,
      "organismes": 3077,
      "days": 3078,
      "statistique": 3079,
      "span": 3080,
      "mn": 3081,
      "applications": 3082,
      "ror": 3083,
      "fle": 3084,
      "levels": 3085,
      "solutions": 3086,
      "reason": 3087,
      "rapporteur": 3088,
      "branch": 3089,
      "others": 3090,
      "gall": 3091,
      "tones": 3092,
      "activity": 3093,
      "stud": 3094,
      "pilot": 3095,
      "________________________________________________________________": 3096,
      "ini": 3097,
      "strong": 3098,
      "sport": 3099,
      "tir": 3100,
      "complex": 3101,
      "___": 3102,
      "(.": 3103,
      "particu": 3104,
      "college": 3105,
      "forum": 3106,
      "></": 3107,
      "gni": 3108,
      "do_": 3109,
      "unique": 3110,
      "poste": 3111,
      "quez": 3112,
      "operations": 3113,
      "mesure": 3114,
      "circu": 3115,
      "via": 3116,
      "nis": 3117,
      "do_topic": 3118,
      "register": 3119,
      "entreprise": 3120,
      "patri": 3121,
      "franco": 3122,
      "poly": 3123,
      "{\\": 3124,
      "pouvez": 3125,
      "methods": 3126,
      "given": 3127,
      "restric": 3128,
      "autochtones": 3129,
      "communau": 3130,
      "rem": 3131,
      "several": 3132,
      "***": 3133,
      "liens": 3134,
      "purpose": 3135,
      ")(": 3136,
      "exec": 3137,
      "ml": 3138,
      ".:": 3139,
      "calcul": 3140,
      "consomm": 3141,
      "t0": 3142,
      "gender": 3143,
      "bis": 3144,
      "cause": 3145,
      "ensemble": 3146,
      "dist": 3147,
      "competition": 3148,
      "creek": 3149,
      "teach": 3150,
      "lies": 3151,
      "fla": 3152,
      "oeu": 3153,
      "andre": 3154,
      "citiz": 3155,
      "payments": 3156,
      "mitted": 3157,
      "encore": 3158,
      "sales": 3159,
      "proposed": 3160,
      "groupes": 3161,
      "matic": 3162,
      "((((": 3163,
      "below": 3164,
      "short": 3165,
      "marchand": 3166,
      "america": 3167,
      "notice": 3168,
      "formulaire": 3169,
      "ram": 3170,
      "autor": 3171,
      "ash": 3172,
      "registre": 3173,
      "directeur": 3174,
      "lace": 3175,
      "quelques": 3176,
      "1er": 3177,
      "moyen": 3178,
      "mobil": 3179,
      "efforts": 3180,
      "supply": 3181,
      "costs": 3182,
      "star": 3183,
      "bd": 3184,
      "ized": 3185,
      "devrait": 3186,
      "cleanair": 3187,
      "airpur": 3188,
      "1987": 3189,
      "another": 3190,
      "stor": 3191,
      "dre": 3192,
      "eco": 3193,
      "regulations": 3194,
      "persons": 3195,
      "diffic": 3196,
      "iser": 3197,
      "sui": 3198,
      "estival": 3199,
      "lied": 3200,
      "plans": 3201,
      "northwest": 3202,
      "lower": 3203,
      "raient": 3204,
      "communiquer": 3205,
      "prix": 3206,
      "domes": 3207,
      "experience": 3208,
      "champ": 3209,
      "price": 3210,
      "incor": 3211,
      "relevant": 3212,
      "forest": 3213,
      "fabric": 3214,
      "bra": 3215,
      "maire": 3216,
      "nan": 3217,
      "infrastructure": 3218,
      ".),": 3219,
      "oly": 3220,
      "blan": 3221,
      "sand": 3222,
      "compla": 3223,
      "thomas": 3224,
      "yer": 3225,
      "patent": 3226,
      "jap": 3227,
      "liv": 3228,
      "aucune": 3229,
      "codes": 3230,
      "sections": 3231,
      "fix": 3232,
      "travaux": 3233,
      "solution": 3234,
      "gol": 3235,
      "chef": 3236,
      "profit": 3237,
      "modification": 3238,
      "find": 3239,
      "keep": 3240,
      "itz": 3241,
      "sugges": 3242,
      ".).": 3243,
      "ei": 3244,
      "nutri": 3245,
      "bile": 3246,
      "src": 3247,
      "ellow": 3248,
      "festival": 3249,
      "pack": 3250,
      ".;": 3251,
      "companies": 3252,
      "naires": 3253,
      "mettre": 3254,
      "gil": 3255,
      "chr": 3256,
      "analyse": 3257,
      "blu": 3258,
      "hard": 3259,
      "agne": 3260,
      "cependant": 3261,
      "comprend": 3262,
      "esp": 3263,
      "strategy": 3264,
      "cau": 3265,
      "still": 3266,
      "broadcas": 3267,
      "nb": 3268,
      "r0": 3269,
      "historic": 3270,
      "ya": 3271,
      "previous": 3272,
      "ieux": 3273,
      "ident": 3274,
      "recr": 3275,
      "____________": 3276,
      "rad": 3277,
      "bibli": 3278,
      "sustainable": 3279,
      "wide": 3280,
      "click": 3281,
      "bg": 3282,
      "ieu": 3283,
      "achie": 3284,
      "tab": 3285,
      "tement": 3286,
      "according": 3287,
      "dispositions": 3288,
      "ueur": 3289,
      "tient": 3290,
      "capac": 3291,
      "var": 3292,
      "mention": 3293,
      "response": 3294,
      "look": 3295,
      "exchange": 3296,
      "ghan": 3297,
      "hs": 3298,
      "><": 3299,
      "dp": 3300,
      "traitement": 3301,
      "payment": 3302,
      "various": 3303,
      "beaucoup": 3304,
      "return": 3305,
      "rf": 3306,
      "wg": 3307,
      "yle": 3308,
      "=\"#": 3309,
      "exposure": 3310,
      "exten": 3311,
      "=\"/": 3312,
      "cen": 3313,
      "lect": 3314,
      "size": 3315,
      "marketing": 3316,
      "tend": 3317,
      "struct": 3318,
      "known": 3319,
      "above": 3320,
      "flo": 3321,
      "condition": 3322,
      "marie": 3323,
      "path": 3324,
      "v01": 3325,
      "discrimination": 3326,
      "parc": 3327,
      "cks": 3328,
      "bed": 3329,
      "communauta": 3330,
      "plants": 3331,
      "principaux": 3332,
      "trouver": 3333,
      "offset": 3334,
      "solid": 3335,
      "better": 3336,
      "sibles": 3337,
      "perman": 3338,
      "rais": 3339,
      "clinical": 3340,
      "feed": 3341,
      "chall": 3342,
      "bulletin": 3343,
      "say": 3344,
      "202008": 3345,
      "sign": 3346,
      "appeal": 3347,
      "outre": 3348,
      "electron": 3349,
      "adoption": 3350,
      "jam": 3351,
      "chron": 3352,
      "rock": 3353,
      "dings": 3354,
      "minimum": 3355,
      "atta": 3356,
      "ola": 3357,
      "martin": 3358,
      "tk": 3359,
      "investis": 3360,
      "feu": 3361,
      "augment": 3362,
      "halifax": 3363,
      "basic": 3364,
      "half": 3365,
      "dece": 3366,
      "occur": 3367,
      "font": 3368,
      "laires": 3369,
      "annuel": 3370,
      "assur": 3371,
      "avantage": 3372,
      "rand": 3373,
      "202007": 3374,
      "jou": 3375,
      "proposal": 3376,
      "word": 3377,
      "consumer": 3378,
      "wards": 3379,
      "mean": 3380,
      "commentaires": 3381,
      "mondi": 3382,
      "front": 3383,
      "facts": 3384,
      "mobile": 3385,
      "legislation": 3386,
      "dun": 3387,
      "release": 3388,
      "zation": 3389,
      "encour": 3390,
      "scotia": 3391,
      "recent": 3392,
      "avait": 3393,
      "sels": 3394,
      "seas": 3395,
      "result": 3396,
      "taking": 3397,
      "territoires": 3398,
      "assemb": 3399,
      ".(": 3400,
      "adver": 3401,
      "tv": 3402,
      "focus": 3403,
      "violence": 3404,
      "party": 3405,
      "grad": 3406,
      "tively": 3407,
      "guid": 3408,
      "valid": 3409,
      "mir": 3410,
      "105": 3411,
      "incorpor": 3412,
      "fav": 3413,
      "oon": 3414,
      "brown": 3415,
      "taur": 3416,
      "recommandations": 3417,
      "sr": 3418,
      "1986": 3419,
      "third": 3420,
      "align": 3421,
      "aaaa": 3422,
      "gens": 3423,
      "invent": 3424,
      "objectif": 3425,
      "scientifi": 3426,
      "salmon": 3427,
      "message": 3428,
      "necessary": 3429,
      "asia": 3430,
      "worth": 3431,
      "volun": 3432,
      "series": 3433,
      "quatre": 3434,
      "fair": 3435,
      "temporaire": 3436,
      "dor": 3437,
      "quels": 3438,
      "valley": 3439,
      "compris": 3440,
      "prendre": 3441,
      "aucun": 3442,
      "pourquoi": 3443,
      "asse": 3444,
      "follows": 3445,
      "rey": 3446,
      "streng": 3447,
      "prep": 3448,
      "nia": 3449,
      "correspond": 3450,
      "marchandises": 3451,
      "orient": 3452,
      "termes": 3453,
      "domin": 3454,
      "deputy": 3455,
      "avez": 3456,
      "ena": 3457,
      "display": 3458,
      "illus": 3459,
      "options": 3460,
      "jose": 3461,
      "appropriate": 3462,
      "vient": 3463,
      "excell": 3464,
      "substances": 3465,
      "rene": 3466,
      "120": 3467,
      "ara": 3468,
      "avons": 3469,
      "anes": 3470,
      "sent": 3471,
      "former": 3472,
      "pendant": 3473,
      "xi": 3474,
      "fisheries": 3475,
      "agit": 3476,
      "hours": 3477,
      "langue": 3478,
      "ku": 3479,
      "populations": 3480,
      "emergen": 3481,
      "agri": 3482,
      "voie": 3483,
      "stock": 3484,
      "connex": 3485,
      "fais": 3486,
      "capsu": 3487,
      "corp": 3488,
      "feder": 3489,
      "changement": 3490,
      "restaur": 3491,
      "yu": 3492,
      "prob": 3493,
      "cate": 3494,
      "programming": 3495,
      "pris": 3496,
      "lles": 3497,
      "domestic": 3498,
      "diag": 3499,
      "philip": 3500,
      "agence": 3501,
      "reporting": 3502,
      "craft": 3503,
      "comes": 3504,
      "remain": 3505,
      "minutes": 3506,
      "za": 3507,
      "existe": 3508,
      "acid": 3509,
      "steel": 3510,
      "obtain": 3511,
      "schedule": 3512,
      "execu": 3513,
      "music": 3514,
      "record": 3515,
      "kingdom": 3516,
      "character": 3517,
      "leadership": 3518,
      "oy": 3519,
      "remo": 3520,
      "202006": 3521,
      "signature": 3522,
      "graphy": 3523,
      "parl": 3524,
      "domaine": 3525,
      "portion": 3526,
      "examples": 3527,
      "rendement": 3528,
      "neuve": 3529,
      "rog": 3530,
      "ounds": 3531,
      "mine": 3532,
      "early": 3533,
      "registration": 3534,
      "nee": 3535,
      "roll": 3536,
      "farm": 3537,
      "greater": 3538,
      "months": 3539,
      "gon": 3540,
      "ented": 3541,
      "prairie": 3542,
      "external": 3543,
      "zed": 3544,
      "observations": 3545,
      "advance": 3546,
      "across": 3547,
      "atoire": 3548,
      "computer": 3549,
      "ather": 3550,
      ",\"": 3551,
      "shar": 3552,
      "senior": 3553,
      "vul": 3554,
      "writ": 3555,
      "principles": 3556,
      "success": 3557,
      "communities": 3558,
      "operating": 3559,
      "held": 3560,
      "factor": 3561,
      "partenaires": 3562,
      "grant": 3563,
      "quelle": 3564,
      "maintenant": 3565,
      "kit": 3566,
      "burg": 3567,
      "retour": 3568,
      "increased": 3569,
      "pul": 3570,
      "stein": 3571,
      "agreements": 3572,
      "arctic": 3573,
      "credit": 3574,
      "proceed": 3575,
      "pharmac": 3576,
      "kins": 3577,
      "dat": 3578,
      "esis": 3579,
      "aim": 3580,
      "haz": 3581,
      "existing": 3582,
      "))))": 3583,
      "inuit": 3584,
      "interest": 3585,
      "plications": 3586,
      "rati": 3587,
      "spec": 3588,
      "hold": 3589,
      "num": 3590,
      "want": 3591,
      "infor": 3592,
      "associated": 3593,
      "inspe": 3594,
      "method": 3595,
      "falls": 3596,
      "private": 3597,
      "identification": 3598,
      "peace": 3599,
      "virus": 3600,
      "benefit": 3601,
      "native": 3602,
      "hommes": 3603,
      "inking": 3604,
      "enda": 3605,
      "railway": 3606,
      "plupart": 3607,
      "recogni": 3608,
      "ita": 3609,
      "december": 3610,
      "relation": 3611,
      "hic": 3612,
      "cure": 3613,
      "juridi": 3614,
      "fal": 3615,
      "technique": 3616,
      "living": 3617,
      "acquis": 3618,
      "demandes": 3619,
      "lee": 3620,
      "pin": 3621,
      "ilton": 3622,
      "venir": 3623,
      "internal": 3624,
      "austral": 3625,
      "notamment": 3626,
      "historical": 3627,
      "anci": 3628,
      "patients": 3629,
      "parmi": 3630,
      "bate": 3631,
      "rempl": 3632,
      "saire": 3633,
      "transfert": 3634,
      "certific": 3635,
      "influence": 3636,
      "currently": 3637,
      "brand": 3638,
      "start": 3639,
      "even": 3640,
      "hav": 3641,
      "vou": 3642,
      "',": 3643,
      "context": 3644,
      "rh": 3645,
      "combin": 3646,
      "lignes": 3647,
      "professionnels": 3648,
      "toge": 3649,
      "item": 3650,
      "master": 3651,
      "ud": 3652,
      "gard": 3653,
      "destin": 3654,
      "pierre": 3655,
      "associates": 3656,
      "alex": 3657,
      "iso": 3658,
      "biological": 3659,
      "liqu": 3660,
      "afghan": 3661,
      "often": 3662,
      "db": 3663,
      "single": 3664,
      "moine": 3665,
      "film": 3666,
      "funds": 3667,
      "bull": 3668,
      "dia": 3669,
      "changements": 3670,
      "&&&&": 3671,
      "fournir": 3672,
      "rose": 3673,
      "together": 3674,
      "toujours": 3675,
      "eck": 3676,
      "alors": 3677,
      "relative": 3678,
      "nouveaux": 3679,
      "dossier": 3680,
      "bl": 3681,
      "ager": 3682,
      "extr": 3683,
      "instruments": 3684,
      "customs": 3685,
      "transi": 3686,
      "ond": 3687,
      "events": 3688,
      "mariti": 3689,
      "update": 3690,
      "moyenne": 3691,
      "certaines": 3692,
      "sie": 3693,
      "little": 3694,
      "infection": 3695,
      "parlement": 3696,
      "developing": 3697,
      "dynam": 3698,
      "=-=-=-=-=-=-=-=-": 3699,
      "pg": 3700,
      "normes": 3701,
      "mrs": 3702,
      "load": 3703,
      "tps": 3704,
      "chois": 3705,
      "belie": 3706,
      "ili": 3707,
      "oli": 3708,
      "nationale": 3709,
      "pouvoir": 3710,
      "cooperation": 3711,
      "paid": 3712,
      "trial": 3713,
      "territor": 3714,
      "institutional": 3715,
      "gest": 3716,
      "instructions": 3717,
      "regina": 3718,
      "officielles": 3719,
      "ude": 3720,
      "biling": 3721,
      "0a": 3722,
      "tables": 3723,
      "montreal": 3724,
      "dal": 3725,
      "die": 3726,
      "pratiques": 3727,
      "carbon": 3728,
      "eastern": 3729,
      "pension": 3730,
      "choice": 3731,
      "bale": 3732,
      "========": 3733,
      "arrange": 3734,
      "wmd": 3735,
      "tom": 3736,
      "bury": 3737,
      "mack": 3738,
      "patrimoine": 3739,
      "enh": 3740,
      "mad": 3741,
      "loo": 3742,
      "run": 3743,
      "asi": 3744,
      "waste": 3745,
      "smoking": 3746,
      "effet": 3747,
      "dgd": 3748,
      "avenue": 3749,
      "cigare": 3750,
      "ions": 3751,
      "derni": 3752,
      "ander": 3753,
      "copyright": 3754,
      "ppe": 3755,
      "connaiss": 3756,
      "oeuvre": 3757,
      "agents": 3758,
      "ury": 3759,
      "similar": 3760,
      "hall": 3761,
      "joseph": 3762,
      "demo": 3763,
      "utiliser": 3764,
      "vote": 3765,
      "approxim": 3766,
      "values": 3767,
      "manufacturing": 3768,
      "email": 3769,
      "stream": 3770,
      "_1": 3771,
      "hig": 3772,
      "rie": 3773,
      "vation": 3774,
      "reach": 3775,
      "exemples": 3776,
      "china": 3777,
      "emergency": 3778,
      "aud": 3779,
      "lected": 3780,
      "depend": 3781,
      "capacity": 3782,
      "rev": 3783,
      "left": 3784,
      "survi": 3785,
      "acade": 3786,
      "vigueur": 3787,
      "biens": 3788,
      "whether": 3789,
      "received": 3790,
      "hamilton": 3791,
      "contamin": 3792,
      "internationale": 3793,
      "commissioner": 3794,
      "rd": 3795,
      "historique": 3796,
      "programmation": 3797,
      "terres": 3798,
      "diction": 3799,
      "electronic": 3800,
      "paiements": 3801,
      "cational": 3802,
      "py": 3803,
      "bru": 3804,
      "explorer": 3805,
      "ball": 3806,
      "chair": 3807,
      "plas": 3808,
      "f3": 3809,
      "oce": 3810,
      "sais": 3811,
      "liers": 3812,
      "mode": 3813,
      "figur": 3814,
      "facilities": 3815,
      "tn": 3816,
      "parents": 3817,
      "permis": 3818,
      "vente": 3819,
      "brook": 3820,
      "alcohol": 3821,
      "plain": 3822,
      "rick": 3823,
      "maintain": 3824,
      "indre": 3825,
      "kers": 3826,
      "kr": 3827,
      "saskatoon": 3828,
      "jac": 3829,
      "anth": 3830,
      "trends": 3831,
      "150": 3832,
      "diseases": 3833,
      "greg": 3834,
      "gallery": 3835,
      "gam": 3836,
      "sibility": 3837,
      "documentation": 3838,
      "burn": 3839,
      "atric": 3840,
      "parts": 3841,
      "heures": 3842,
      "bow": 3843,
      "organic": 3844,
      "entes": 3845,
      "lien": 3846,
      "6e": 3847,
      "bn": 3848,
      "least": 3849,
      "famille": 3850,
      "cihr": 3851,
      "coordination": 3852,
      "arm": 3853,
      "publics": 3854,
      "gold": 3855,
      "cherche": 3856,
      "sibil": 3857,
      "hearing": 3858,
      "exigences": 3859,
      "remp": 3860,
      "surface": 3861,
      "homes": 3862,
      "ogen": 3863,
      "progress": 3864,
      "alement": 3865,
      "families": 3866,
      "600": 3867,
      "awar": 3868,
      "oct": 3869,
      "humaines": 3870,
      "therap": 3871,
      "sct": 3872,
      "tradu": 3873,
      "livres": 3874,
      "ecolo": 3875,
      "cooperative": 3876,
      "aria": 3877,
      "cannot": 3878,
      "resol": 3879,
      "1980": 3880,
      "poses": 3881,
      "oxy": 3882,
      "gel": 3883,
      "team": 3884,
      "dium": 3885,
      "simple": 3886,
      "delivery": 3887,
      "afghanistan": 3888,
      "ense": 3889,
      "subs": 3890,
      "supervis": 3891,
      "seront": 3892,
      "obligations": 3893,
      "consultations": 3894,
      "big": 3895,
      "catalogue": 3896,
      "likel": 3897,
      "rt": 3898,
      "manager": 3899,
      "pertin": 3900,
      "ago": 3901,
      "physi": 3902,
      "jack": 3903,
      "pse": 3904,
      "tun": 3905,
      "situ": 3906,
      "immigration": 3907,
      "county": 3908,
      "819": 3909,
      "winter": 3910,
      "inal": 3911,
      "nomin": 3912,
      "soc": 3913,
      "today": 3914,
      "memor": 3915,
      "balance": 3916,
      "agro": 3917,
      "trouve": 3918,
      "gan": 3919,
      "share": 3920,
      "think": 3921,
      "\"><": 3922,
      "dep": 3923,
      "intervention": 3924,
      "individuals": 3925,
      "dure": 3926,
      "chemin": 3927,
      "fee": 3928,
      "ral": 3929,
      "thy": 3930,
      "rules": 3931,
      "considered": 3932,
      "involved": 3933,
      "become": 3934,
      "institut": 3935,
      "governance": 3936,
      "occas": 3937,
      "route": 3938,
      "stone": 3939,
      "ills": 3940,
      "southern": 3941,
      "tourism": 3942,
      "aviation": 3943,
      "cali": 3944,
      "epide": 3945,
      "background": 3946,
      "toxicity": 3947,
      "histo": 3948,
      "published": 3949,
      "terror": 3950,
      "albert": 3951,
      "actuellement": 3952,
      "give": 3953,
      "flow": 3954,
      "mut": 3955,
      "gust": 3956,
      "tools": 3957,
      "%.": 3958,
      "comporte": 3959,
      "para": 3960,
      "capsule": 3961,
      "voyage": 3962,
      "sens": 3963,
      "waters": 3964,
      "gaz": 3965,
      "membre": 3966,
      "conseils": 3967,
      "cape": 3968,
      "later": 3969,
      "option": 3970,
      "f5": 3971,
      "extra": 3972,
      "lyn": 3973,
      "vehic": 3974,
      "mouse": 3975,
      "ira": 3976,
      "unities": 3977,
      "1982": 3978,
      "confir": 3979,
      "aume": 3980,
      "loss": 3981,
      "110": 3982,
      "cinq": 3983,
      "ged": 3984,
      "bot": 3985,
      "portu": 3986,
      "marks": 3987,
      "dar": 3988,
      "sey": 3989,
      "perspective": 3990,
      "grants": 3991,
      "souvent": 3992,
      "fl": 3993,
      "resh": 3994,
      "transmission": 3995,
      "donne": 3996,
      "sommaire": 3997,
      "sports": 3998,
      "excep": 3999,
      "ution": 4000,
      "assistant": 4001,
      "him": 4002,
      "mol": 4003,
      "illustr": 4004,
      "accid": 4005,
      "ging": 4006,
      "glas": 4007,
      "ification": 4008,
      "around": 4009,
      "pected": 4010,
      "recherches": 4011,
      "p0": 4012,
      "minor": 4013,
      "fees": 4014,
      "entrepren": 4015,
      "enregistre": 4016,
      "aged": 4017,
      "winds": 4018,
      "prepared": 4019,
      "afin": 4020,
      "belgi": 4021,
      "germany": 4022,
      "client": 4023,
      "flor": 4024,
      "hl": 4025,
      "banque": 4026,
      "cycle": 4027,
      "identify": 4028,
      "xy": 4029,
      "graphi": 4030,
      "incidence": 4031,
      "concur": 4032,
      "ida": 4033,
      "1984": 4034,
      "employees": 4035,
      "admis": 4036,
      "obser": 4037,
      "rr": 4038,
      "army": 4039,
      "pel": 4040,
      "ending": 4041,
      "permanent": 4042,
      "publishing": 4043,
      "suivant": 4044,
      "attention": 4045,
      "few": 4046,
      "physical": 4047,
      "trac": 4048,
      "dimen": 4049,
      "vide": 4050,
      "personnels": 4051,
      "software": 4052,
      "mains": 4053,
      "testing": 4054,
      "gla": 4055,
      "cipl": 4056,
      "matter": 4057,
      "($": 4058,
      "milieu": 4059,
      "opportunities": 4060,
      "ith": 4061,
      "mpson": 4062,
      "positive": 4063,
      "compos": 4064,
      "views": 4065,
      "wol": 4066,
      "iles": 4067,
      "jun": 4068,
      "lion": 4069,
      "confidenti": 4070,
      "priority": 4071,
      "squ": 4072,
      "users": 4073,
      "ops": 4074,
      "impacts": 4075,
      "remb": 4076,
      "categ": 4077,
      "executive": 4078,
      "iller": 4079,
      "chin": 4080,
      "fit": 4081,
      "plo": 4082,
      "processing": 4083,
      "traditional": 4084,
      "hum": 4085,
      "reen": 4086,
      "irsc": 4087,
      "corporate": 4088,
      "genetic": 4089,
      "nar": 4090,
      "ceux": 4091,
      "douanes": 4092,
      "fuel": 4093,
      "rat": 4094,
      "deal": 4095,
      "1983": 4096,
      "fores": 4097,
      "injur": 4098,
      "lam": 4099,
      "offre": 4100,
      "thompson": 4101,
      "''''": 4102,
      "materials": 4103,
      "foot": 4104,
      "charles": 4105,
      "modern": 4106,
      "discipl": 4107,
      "tie": 4108,
      "sements": 4109,
      "croissance": 4110,
      "reasons": 4111,
      "aquac": 4112,
      "done": 4113,
      "attribu": 4114,
      "quali": 4115,
      "indicators": 4116,
      "nelle": 4117,
      "stan": 4118,
      "royaume": 4119,
      "tg": 4120,
      "8000": 4121,
      "quanti": 4122,
      "user": 4123,
      "strategic": 4124,
      "blood": 4125,
      "reques": 4126,
      "trust": 4127,
      "horiz": 4128,
      "febr": 4129,
      "daily": 4130,
      "menu": 4131,
      "photograph": 4132,
      "assembly": 4133,
      "expected": 4134,
      "too": 4135,
      "navig": 4136,
      "midd": 4137,
      "guidance": 4138,
      "laboratory": 4139,
      "inspection": 4140,
      "aison": 4141,
      "davantage": 4142,
      "ize": 4143,
      "regarding": 4144,
      "kir": 4145,
      "suivi": 4146,
      "blue": 4147,
      "impri": 4148,
      "statut": 4149,
      "vacy": 4150,
      "cari": 4151,
      "km": 4152,
      "trices": 4153,
      "archite": 4154,
      "constitution": 4155,
      "semin": 4156,
      "privacy": 4157,
      "appare": 4158,
      "sound": 4159,
      "unity": 4160,
      "approximately": 4161,
      "concerning": 4162,
      "dow": 4163,
      "critical": 4164,
      "likely": 4165,
      "february": 4166,
      "spring": 4167,
      "uis": 4168,
      "fp": 4169,
      "puis": 4170,
      "meille": 4171,
      "birds": 4172,
      "olymp": 4173,
      "guar": 4174,
      "symb": 4175,
      "objective": 4176,
      "nwrc": 4177,
      "produced": 4178,
      "472": 4179,
      "cnrf": 4180,
      "++": 4181,
      "separ": 4182,
      "prest": 4183,
      "signal": 4184,
      "copies": 4185,
      "understanding": 4186,
      "alternative": 4187,
      "auteur": 4188,
      "202005": 4189,
      "applicant": 4190,
      "grtk": 4191,
      "jr": 4192,
      "else": 4193,
      "rober": 4194,
      "safe": 4195,
      "aquaculture": 4196,
      "lawrence": 4197,
      "\"\"": 4198,
      "proced": 4199,
      "students": 4200,
      "modifications": 4201,
      "grtkf": 4202,
      "vii": 4203,
      "broadcasting": 4204,
      "alu": 4205,
      "implied": 4206,
      "ious": 4207,
      "proceedings": 4208,
      "publiques": 4209,
      "governments": 4210,
      "sky": 4211,
      "danger": 4212,
      "anda": 4213,
      "agencies": 4214,
      "liter": 4215,
      "queen": 4216,
      "animal": 4217,
      "wart": 4218,
      "advisory": 4219,
      "quelles": 4220,
      "consultez": 4221,
      "kam": 4222,
      "scal": 4223,
      "choix": 4224,
      "consist": 4225,
      "mandat": 4226,
      "edi": 4227,
      "roman": 4228,
      "sia": 4229,
      "commis": 4230,
      "judic": 4231,
      "tw": 4232,
      "interven": 4233,
      "experts": 4234,
      "heure": 4235,
      "regul": 4236,
      "tours": 4237,
      "yellow": 4238,
      "ental": 4239,
      "frank": 4240,
      "continued": 4241,
      "compagnie": 4242,
      "poser": 4243,
      "maladies": 4244,
      "len": 4245,
      "mass": 4246,
      "abol": 4247,
      "mountain": 4248,
      "fournit": 4249,
      "magaz": 4250,
      "amendments": 4251,
      "purch": 4252,
      "gue": 4253,
      "offr": 4254,
      "johnson": 4255,
      "williams": 4256,
      "task": 4257,
      "implications": 4258,
      "president": 4259,
      "campbell": 4260,
      "republic": 4261,
      "erie": 4262,
      "territory": 4263,
      "fie": 4264,
      "alde": 4265,
      "mption": 4266,
      "behaviour": 4267,
      "wy": 4268,
      "adults": 4269,
      "presented": 4270,
      "tradition": 4271,
      "fraser": 4272,
      "diversity": 4273,
      "transformation": 4274,
      "bonne": 4275,
      "vertu": 4276,
      "a0": 4277,
      "dessus": 4278,
      "recommendation": 4279,
      "titude": 4280,
      "card": 4281,
      "ict": 4282,
      "parcs": 4283,
      "cfm": 4284,
      "psych": 4285,
      "interpre": 4286,
      "overview": 4287,
      "conflic": 4288,
      "stake": 4289,
      "oles": 4290,
      "ert": 4291,
      "prepar": 4292,
      "rob": 4293,
      "moment": 4294,
      "holders": 4295,
      "renou": 4296,
      "fut": 4297,
      "contexte": 4298,
      "dson": 4299,
      "!\"": 4300,
      "pourrait": 4301,
      "nelles": 4302,
      "commerci": 4303,
      "visual": 4304,
      "consideration": 4305,
      "mbers": 4306,
      "increasing": 4307,
      "problems": 4308,
      "lus": 4309,
      "importants": 4310,
      "ethyl": 4311,
      "atic": 4312,
      "wing": 4313,
      "foods": 4314,
      "ros": 4315,
      "check": 4316,
      "lorsque": 4317,
      "lc": 4318,
      "none": 4319,
      "appoint": 4320,
      "juge": 4321,
      "und": 4322,
      "elig": 4323,
      "amendement": 4324,
      "dk": 4325,
      "hat": 4326,
      "slo": 4327,
      "cole": 4328,
      "defence": 4329,
      "compens": 4330,
      "cru": 4331,
      "upon": 4332,
      "dialogue": 4333,
      "ably": 4334,
      "components": 4335,
      "diagnos": 4336,
      "territorial": 4337,
      "continuer": 4338,
      "pollution": 4339,
      "ased": 4340,
      "subsection": 4341,
      "avantages": 4342,
      "mam": 4343,
      "drinking": 4344,
      "close": 4345,
      "freder": 4346,
      "paris": 4347,
      "aircraft": 4348,
      "effets": 4349,
      "japan": 4350,
      "thre": 4351,
      "selected": 4352,
      "dessous": 4353,
      "tarif": 4354,
      "pratique": 4355,
      "thunder": 4356,
      "circul": 4357,
      "purposes": 4358,
      "explorateur": 4359,
      "borough": 4360,
      "vet": 4361,
      "strategies": 4362,
      "wis": 4363,
      "merci": 4364,
      "kind": 4365,
      "tenant": 4366,
      "estimates": 4367,
      "risque": 4368,
      "fully": 4369,
      "cut": 4370,
      "georg": 4371,
      "said": 4372,
      "essential": 4373,
      "windsor": 4374,
      "connaissance": 4375,
      "flight": 4376,
      "ella": 4377,
      "hur": 4378,
      "nrc": 4379,
      "ought": 4380,
      "maintenance": 4381,
      "veness": 4382,
      "diver": 4383,
      "words": 4384,
      "tonnes": 4385,
      "associations": 4386,
      "descrip": 4387,
      "established": 4388,
      "rats": 4389,
      "stephen": 4390,
      "facilit": 4391,
      "isms": 4392,
      "procedures": 4393,
      "1981": 4394,
      "summer": 4395,
      "seul": 4396,
      "popu": 4397,
      "cambridge": 4398,
      "gst": 4399,
      "nc": 4400,
      "argent": 4401,
      "hay": 4402,
      "nance": 4403,
      "august": 4404,
      "principales": 4405,
      "assurance": 4406,
      "los": 4407,
      "sures": 4408,
      "enses": 4409,
      "fresh": 4410,
      "001": 4411,
      "initial": 4412,
      "chen": 4413,
      "dio": 4414,
      "hyper": 4415,
      "conduct": 4416,
      "enterprises": 4417,
      "ailleurs": 4418,
      "applied": 4419,
      "engineering": 4420,
      "ora": 4421,
      "fec": 4422,
      "entente": 4423,
      "fail": 4424,
      "scott": 4425,
      "kingston": 4426,
      "attach": 4427,
      "ete": 4428,
      "limin": 4429,
      "101": 4430,
      "sainte": 4431,
      "cod": 4432,
      "ping": 4433,
      "coming": 4434,
      "financing": 4435,
      "soil": 4436,
      "independ": 4437,
      "cise": 4438,
      "univers": 4439,
      "usion": 4440,
      "resid": 4441,
      "sav": 4442,
      "thus": 4443,
      "bition": 4444,
      "component": 4445,
      "ax": 4446,
      "connu": 4447,
      "adult": 4448,
      "max": 4449,
      "facteurs": 4450,
      "assurer": 4451,
      "traffic": 4452,
      "directrices": 4453,
      "treaty": 4454,
      "v0": 4455,
      "europarl": 4456,
      "hp": 4457,
      "speak": 4458,
      "preg": 4459,
      "115": 4460,
      "mieux": 4461,
      "enseig": 4462,
      "mix": 4463,
      "transports": 4464,
      "ij": 4465,
      "substance": 4466,
      "a1": 4467,
      "111": 4468,
      "presse": 4469,
      "prime": 4470,
      "authorities": 4471,
      "containing": 4472,
      "epidemi": 4473,
      "financiers": 4474,
      "federation": 4475,
      "township": 4476,
      "chemicals": 4477,
      "revenus": 4478,
      "higher": 4479,
      "eness": 4480,
      "towards": 4481,
      "iers": 4482,
      "spons": 4483,
      "statement": 4484,
      "live": 4485,
      "conclusion": 4486,
      "ault": 4487,
      "proposition": 4488,
      "mines": 4489,
      "adopted": 4490,
      "edward": 4491,
      "125": 4492,
      "tim": 4493,
      "partner": 4494,
      "raine": 4495,
      "comptes": 4496,
      "wire": 4497,
      "agre": 4498,
      "chur": 4499,
      "collective": 4500,
      "items": 4501,
      "enhance": 4502,
      "rout": 4503,
      "lois": 4504,
      "numbers": 4505,
      "evalu": 4506,
      "tait": 4507,
      "presentation": 4508,
      "ige": 4509,
      "fournisse": 4510,
      "offerts": 4511,
      "argu": 4512,
      "syl": 4513,
      "classe": 4514,
      "zz": 4515,
      "manual": 4516,
      "grain": 4517,
      "3c": 4518,
      "mining": 4519,
      "faits": 4520,
      "sett": 4521,
      "autorisation": 4522,
      "perspectives": 4523,
      "caus": 4524,
      "fro": 4525,
      "adjust": 4526,
      "covered": 4527,
      "nancy": 4528,
      "specified": 4529,
      "haw": 4530,
      "devraient": 4531,
      "correction": 4532,
      "profile": 4533,
      "figures": 4534,
      "digital": 4535,
      "ecd": 4536,
      "photos": 4537,
      "intellec": 4538,
      "tail": 4539,
      "issent": 4540,
      "atures": 4541,
      "dispar": 4542,
      "providing": 4543,
      "recommandation": 4544,
      "replace": 4545,
      "histoire": 4546,
      "telephone": 4547,
      "mechanisms": 4548,
      "immun": 4549,
      "accounts": 4550,
      "aps": 4551,
      "carry": 4552,
      "louis": 4553,
      "ots": 4554,
      "eric": 4555,
      "forward": 4556,
      "brief": 4557,
      "economics": 4558,
      "fonctionnement": 4559,
      "scope": 4560,
      "equal": 4561,
      "revis": 4562,
      "sept": 4563,
      "besoins": 4564,
      "middle": 4565,
      "concerne": 4566,
      "iled": 4567,
      "subventions": 4568,
      "economy": 4569,
      "nutrition": 4570,
      "destination": 4571,
      "bass": 4572,
      "fm": 4573,
      "contrat": 4574,
      "organisme": 4575,
      "migration": 4576,
      "sheet": 4577,
      "tbs": 4578,
      "comb": 4579,
      "sha": 4580,
      "principes": 4581,
      "reten": 4582,
      "processes": 4583,
      "zen": 4584,
      "officers": 4585,
      "challeng": 4586,
      "chronic": 4587,
      "din": 4588,
      "gag": 4589,
      "ov": 4590,
      "bgcolor": 4591,
      "cipe": 4592,
      "mits": 4593,
      "either": 4594,
      "particulier": 4595,
      "biolog": 4596,
      "exports": 4597,
      "overall": 4598,
      "bibliograph": 4599,
      "sale": 4600,
      "claims": 4601,
      "chac": 4602,
      "tot": 4603,
      "prop": 4604,
      "compet": 4605,
      "lux": 4606,
      "f8": 4607,
      "arth": 4608,
      "abstr": 4609,
      "spir": 4610,
      "engagement": 4611,
      "hide": 4612,
      "rn": 4613,
      "round": 4614,
      "iving": 4615,
      "methyl": 4616,
      "quit": 4617,
      "oph": 4618,
      "dry": 4619,
      "questionnaire": 4620,
      "directly": 4621,
      "stress": 4622,
      "approval": 4623,
      "magne": 4624,
      "secondary": 4625,
      "protocol": 4626,
      "panel": 4627,
      "fel": 4628,
      "alimentaire": 4629,
      "bad": 4630,
      "atif": 4631,
      "incorporated": 4632,
      "abs": 4633,
      "rique": 4634,
      "ended": 4635,
      "hui": 4636,
      "matique": 4637,
      "bourg": 4638,
      "oxford": 4639,
      "outi": 4640,
      "opportunity": 4641,
      "occasion": 4642,
      "califor": 4643,
      "dres": 4644,
      "arri": 4645,
      "event": 4646,
      "agenda": 4647,
      "exploitation": 4648,
      "ien": 4649,
      "mortal": 4650,
      "reserve": 4651,
      "hes": 4652,
      "chim": 4653,
      "india": 4654,
      "serait": 4655,
      "offert": 4656,
      "c1": 4657,
      "weight": 4658,
      "ffffff": 4659,
      "commod": 4660,
      "bird": 4661,
      "comparison": 4662,
      "trop": 4663,
      "receive": 4664,
      "heart": 4665,
      "leave": 4666,
      "hood": 4667,
      "preu": 4668,
      "issement": 4669,
      "citizens": 4670,
      "tell": 4671,
      "diffusion": 4672,
      "located": 4673,
      "educational": 4674,
      "nombreux": 4675,
      "translation": 4676,
      "proven": 4677,
      "bern": 4678,
      "instrument": 4679,
      "rembour": 4680,
      "communautaire": 4681,
      "australia": 4682,
      "ote": 4683,
      "pip": 4684,
      "130": 4685,
      "istes": 4686,
      "pharmaceu": 4687,
      "douglas": 4688,
      "vra": 4689,
      "nf": 4690,
      "proportion": 4691,
      "oe": 4692,
      "alumin": 4693,
      "xl": 4694,
      "linguis": 4695,
      "datab": 4696,
      "always": 4697,
      "screen": 4698,
      "pattern": 4699,
      "neuro": 4700,
      "tiveness": 4701,
      "cold": 4702,
      "verbal": 4703,
      "gence": 4704,
      "gran": 4705,
      "findings": 4706,
      "passe": 4707,
      "bres": 4708,
      "near": 4709,
      "regi": 4710,
      "ships": 4711,
      "cabin": 4712,
      "cdata": 4713,
      "php": 4714,
      "submitted": 4715,
      "indicate": 4716,
      "concepts": 4717,
      "traduction": 4718,
      "rec": 4719,
      "mole": 4720,
      "103": 4721,
      "gical": 4722,
      "pit": 4723,
      "reported": 4724,
      "epp": 4725,
      "miller": 4726,
      "abuse": 4727,
      "principle": 4728,
      "deliver": 4729,
      "favor": 4730,
      "hou": 4731,
      "risques": 4732,
      "honor": 4733,
      "hart": 4734,
      "lights": 4735,
      "postes": 4736,
      "daniel": 4737,
      "improve": 4738,
      "biology": 4739,
      "phosph": 4740,
      "juris": 4741,
      "season": 4742,
      "atus": 4743,
      "discussions": 4744,
      "fas": 4745,
      "develo": 4746,
      "enni": 4747,
      "proposals": 4748,
      "istics": 4749,
      "quand": 4750,
      "awareness": 4751,
      "exercice": 4752,
      ":\\": 4753,
      "aer": 4754,
      "jeux": 4755,
      "nether": 4756,
      "tay": 4757,
      "forcement": 4758,
      "sher": 4759,
      "usu": 4760,
      "ung": 4761,
      "imports": 4762,
      "intes": 4763,
      "oecd": 4764,
      "carol": 4765,
      "bic": 4766,
      "having": 4767,
      "pine": 4768,
      "rest": 4769,
      "bois": 4770,
      "sein": 4771,
      "african": 4772,
      "ome": 4773,
      "alliance": 4774,
      "112": 4775,
      "204": 4776,
      "donner": 4777,
      "????????": 4778,
      "dale": 4779,
      "bak": 4780,
      "gree": 4781,
      "orale": 4782,
      "cription": 4783,
      "lieutenant": 4784,
      "wet": 4785,
      "freed": 4786,
      "eligible": 4787,
      "paro": 4788,
      "nol": 4789,
      "partnerships": 4790,
      "dates": 4791,
      "bag": 4792,
      "might": 4793,
      "brus": 4794,
      "engage": 4795,
      "italy": 4796,
      "criminal": 4797,
      "@@@@@@@@@@@@@@@@": 4798,
      "needed": 4799,
      "never": 4800,
      "%\"": 4801,
      "6d": 4802,
      "vs": 4803,
      "rier": 4804,
      "pra": 4805,
      "gos": 4806,
      "developed": 4807,
      "past": 4808,
      "ring": 4809,
      "dus": 4810,
      "grands": 4811,
      "militaire": 4812,
      "injec": 4813,
      "adoles": 4814,
      "frequ": 4815,
      "lutte": 4816,
      "relating": 4817,
      "etre": 4818,
      "pren": 4819,
      "effectu": 4820,
      "composition": 4821,
      "rig": 4822,
      "bab": 4823,
      "vu": 4824,
      "abilities": 4825,
      "identified": 4826,
      "explic": 4827,
      "skills": 4828,
      "pressure": 4829,
      "strengthen": 4830,
      "ready": 4831,
      "apo": 4832,
      "soins": 4833,
      "418": 4834,
      "gill": 4835,
      "jourd": 4836,
      "reading": 4837,
      "mpo": 4838,
      "netherlands": 4839,
      "zer": 4840,
      "aujourd": 4841,
      "once": 4842,
      "procedure": 4843,
      "uring": 4844,
      "deau": 4845,
      "suffic": 4846,
      "money": 4847,
      "nas": 4848,
      "b0": 4849,
      "dfo": 4850,
      "prises": 4851,
      "104": 4852,
      "maritime": 4853,
      "quin": 4854,
      "researchers": 4855,
      "lative": 4856,
      "ione": 4857,
      "suffis": 4858,
      "gg": 4859,
      "itaires": 4860,
      "eding": 4861,
      "cript": 4862,
      ".);": 4863,
      "106": 4864,
      "enterprise": 4865,
      "kan": 4866,
      "doing": 4867,
      "domaines": 4868,
      "1979": 4869,
      "#!": 4870,
      "glu": 4871,
      "nest": 4872,
      "audio": 4873,
      "harmon": 4874,
      "sate": 4875,
      "mortality": 4876,
      "relig": 4877,
      "entr": 4878,
      "takes": 4879,
      "earth": 4880,
      "patient": 4881,
      "night": 4882,
      "dec": 4883,
      "deme": 4884,
      "planification": 4885,
      "nurs": 4886,
      "thal": 4887,
      "usa": 4888,
      "bey": 4889,
      "inson": 4890,
      "counter": 4891,
      "gul": 4892,
      "wed": 4893,
      "disclo": 4894,
      "internationales": 4895,
      "dtd": 4896,
      "charges": 4897,
      "integrated": 4898,
      "church": 4899,
      "itaire": 4900,
      "affaire": 4901,
      "taxes": 4902,
      "sexual": 4903,
      "haus": 4904,
      "prestation": 4905,
      "installations": 4906,
      "rup": 4907,
      "outside": 4908,
      "importante": 4909,
      "spor": 4910,
      "wish": 4911,
      "morris": 4912,
      "aero": 4913,
      "television": 4914,
      "refu": 4915,
      "illes": 4916,
      "harris": 4917,
      "employer": 4918,
      "fare": 4919,
      "structures": 4920,
      "prac": 4921,
      "2a": 4922,
      "ji": 4923,
      "criter": 4924,
      "anderson": 4925,
      "issons": 4926,
      "comprendre": 4927,
      "lated": 4928,
      "volunte": 4929,
      "gau": 4930,
      "ony": 4931,
      "cris": 4932,
      "laws": 4933,
      "devez": 4934,
      "endit": 4935,
      "statistiques": 4936,
      "comprennent": 4937,
      "brian": 4938,
      "understand": 4939,
      "broch": 4940,
      "problem": 4941,
      "move": 4942,
      "faible": 4943,
      "answer": 4944,
      "prelimin": 4945,
      "secteurs": 4946,
      "charter": 4947,
      "acceptable": 4948,
      "transition": 4949,
      "intellectual": 4950,
      "verbale": 4951,
      "whole": 4952,
      "tise": 4953,
      "mst": 4954,
      "ule": 4955,
      "aves": 4956,
      "metal": 4957,
      "german": 4958,
      "assets": 4959,
      "promote": 4960,
      "remplir": 4961,
      "break": 4962,
      "aliments": 4963,
      "contenu": 4964,
      "atlantique": 4965,
      "ust": 4966,
      "stewart": 4967,
      "veter": 4968,
      "formes": 4969,
      "decre": 4970,
      "files": 4971,
      "tiers": 4972,
      "enregistrement": 4973,
      "vor": 4974,
      "exception": 4975,
      "gross": 4976,
      "cells": 4977,
      "apprenti": 4978,
      "horizont": 4979,
      "sir": 4980,
      "pursu": 4981,
      "xxxxxxxx": 4982,
      "arrangements": 4983,
      "espe": 4984,
      "things": 4985,
      "mart": 4986,
      "serve": 4987,
      "connexes": 4988,
      "livre": 4989,
      "gros": 4990,
      "pourcent": 4991,
      "aska": 4992,
      "macdonald": 4993,
      "theatre": 4994,
      "ely": 4995,
      "demander": 4996,
      "cry": 4997,
      "certification": 4998,
      "immigrants": 4999,
      "belle": 5000,
      "pq": 5001,
      "prend": 5002,
      "expendit": 5003,
      "governmental": 5004,
      "billion": 5005,
      "onmouse": 5006,
      "416": 5007,
      "grave": 5008,
      "shel": 5009,
      "lite": 5010,
      "sn": 5011,
      "lying": 5012,
      "170": 5013,
      "improvement": 5014,
      "m5": 5015,
      "oxide": 5016,
      "bacter": 5017,
      "ona": 5018,
      "gain": 5019,
      "etary": 5020,
      "auga": 5021,
      "tenir": 5022,
      "genre": 5023,
      "connaissances": 5024,
      "gb": 5025,
      "valign": 5026,
      "consumption": 5027,
      "ami": 5028,
      "perfec": 5029,
      "valeurs": 5030,
      "transit": 5031,
      "prevent": 5032,
      "naturelles": 5033,
      "advice": 5034,
      "epa": 5035,
      "audit": 5036,
      "lip": 5037,
      "tian": 5038,
      "behalf": 5039,
      "('": 5040,
      "ea": 5041,
      "lection": 5042,
      "learn": 5043,
      "vascular": 5044,
      "wall": 5045,
      "reli": 5046,
      "disposition": 5047,
      "ordre": 5048,
      "facility": 5049,
      "percentage": 5050,
      "completed": 5051,
      "cettes": 5052,
      "dernier": 5053,
      "michel": 5054,
      "multiple": 5055,
      "murray": 5056,
      "hors": 5057,
      "ront": 5058,
      "susp": 5059,
      "bibliographie": 5060,
      "partenariat": 5061,
      "christ": 5062,
      "o99": 5063,
      "infr": 5064,
      "contacts": 5065,
      "constitue": 5066,
      "concentration": 5067,
      "sponsor": 5068,
      "cine": 5069,
      "expli": 5070,
      "rapide": 5071,
      "entit": 5072,
      "mississ": 5073,
      "restaurant": 5074,
      "sac": 5075,
      "style": 5076,
      "celle": 5077,
      "guarante": 5078,
      "roberts": 5079,
      "700": 5080,
      "mck": 5081,
      "viii": 5082,
      "marques": 5083,
      "cove": 5084,
      "lait": 5085,
      "enzie": 5086,
      "concept": 5087,
      "preliminary": 5088,
      "mau": 5089,
      "recettes": 5090,
      "industri": 5091,
      "territoire": 5092,
      "geo": 5093,
      "gouvernementaux": 5094,
      "double": 5095,
      "sme": 5096,
      "corps": 5097,
      "female": 5098,
      "wilson": 5099,
      "exportations": 5100,
      "commissaire": 5101,
      "ongoing": 5102,
      "iro": 5103,
      "deur": 5104,
      "medium": 5105,
      "cultures": 5106,
      "efficace": 5107,
      "vc": 5108,
      "tire": 5109,
      "((((((((": 5110,
      "ech": 5111,
      "ians": 5112,
      "interes": 5113,
      "issued": 5114,
      "bxl": 5115,
      "ennes": 5116,
      "lets": 5117,
      "resist": 5118,
      "prices": 5119,
      "********************************": 5120,
      "inventory": 5121,
      "1c": 5122,
      "108": 5123,
      "actual": 5124,
      "birth": 5125,
      "magazine": 5126,
      "ams": 5127,
      "affic": 5128,
      "rogers": 5129,
      "contains": 5130,
      "900": 5131,
      "hed": 5132,
      "ama": 5133,
      "102": 5134,
      "examination": 5135,
      "richmond": 5136,
      "ttes": 5137,
      "moyens": 5138,
      "mexic": 5139,
      "gues": 5140,
      "glen": 5141,
      "approaches": 5142,
      "circulation": 5143,
      "drive": 5144,
      "uel": 5145,
      "celui": 5146,
      "approche": 5147,
      "until": 5148,
      "distinc": 5149,
      "matters": 5150,
      "snow": 5151,
      "creation": 5152,
      "paiement": 5153,
      "juridique": 5154,
      "advant": 5155,
      "sait": 5156,
      "metabol": 5157,
      "offered": 5158,
      "drugs": 5159,
      "guy": 5160,
      "faites": 5161,
      "longer": 5162,
      "sufficient": 5163,
      "lack": 5164,
      "shore": 5165,
      "bound": 5166,
      "1978": 5167,
      "bear": 5168,
      "113": 5169,
      "risks": 5170,
      "utili": 5171,
      "scientifique": 5172,
      "compliance": 5173,
      "orders": 5174,
      "papers": 5175,
      "consommateurs": 5176,
      "123": 5177,
      "dossiers": 5178,
      "iors": 5179,
      "demon": 5180,
      "independent": 5181,
      "wise": 5182,
      "productions": 5183,
      "stocks": 5184,
      "tivity": 5185,
      "109": 5186,
      "hong": 5187,
      "grass": 5188,
      "compre": 5189,
      "mented": 5190,
      "greatlakes": 5191,
      "molecular": 5192,
      "fat": 5193,
      "inary": 5194,
      "chro": 5195,
      "commitments": 5196,
      "lung": 5197,
      "compensation": 5198,
      "reform": 5199,
      "story": 5200,
      "restor": 5201,
      "changing": 5202,
      "tests": 5203,
      "employee": 5204,
      "connection": 5205,
      "2e": 5206,
      "conflict": 5207,
      "pover": 5208,
      "relatives": 5209,
      "augmentation": 5210,
      "cide": 5211,
      "514": 5212,
      "trim": 5213,
      "sectors": 5214,
      "raisons": 5215,
      "sommes": 5216,
      "although": 5217,
      "bau": 5218,
      "logici": 5219,
      "took": 5220,
      "fourni": 5221,
      "subsi": 5222,
      "conver": 5223,
      "combat": 5224,
      "cere": 5225,
      "respir": 5226,
      "ido": 5227,
      "desig": 5228,
      "peoples": 5229,
      "gouvernements": 5230,
      "acquisition": 5231,
      "gir": 5232,
      "abeth": 5233,
      "comprehen": 5234,
      "tl": 5235,
      "lives": 5236,
      "offices": 5237,
      "consumers": 5238,
      "finances": 5239,
      "concentrations": 5240,
      "vik": 5241,
      "107": 5242,
      "mississauga": 5243,
      "iency": 5244,
      "aneous": 5245,
      "hq": 5246,
      "duty": 5247,
      "lock": 5248,
      "frederic": 5249,
      "c6": 5250,
      "bruce": 5251,
      "refuge": 5252,
      "spect": 5253,
      "cnrc": 5254,
      "seed": 5255,
      "ferti": 5256,
      "postal": 5257,
      "chiff": 5258,
      "expertise": 5259,
      "horse": 5260,
      "coast": 5261,
      "diam": 5262,
      "liquid": 5263,
      "situations": 5264,
      "pad": 5265,
      "dete": 5266,
      "expres": 5267,
      "='": 5268,
      "ague": 5269,
      "directives": 5270,
      "fine": 5271,
      "requires": 5272,
      "ministers": 5273,
      "names": 5274,
      "ressource": 5275,
      "fonctions": 5276,
      "awards": 5277,
      "rab": 5278,
      "movement": 5279,
      "thank": 5280,
      "ever": 5281,
      "atifs": 5282,
      "fs18": 5283,
      "mexico": 5284,
      "omi": 5285,
      "certa": 5286,
      "advertis": 5287,
      "mot": 5288,
      "endor": 5289,
      "producers": 5290,
      "organizational": 5291,
      "119": 5292,
      "trend": 5293,
      "prohi": 5294,
      "intellig": 5295,
      "mises": 5296,
      "death": 5297,
      "quelque": 5298,
      "jones": 5299,
      "oh": 5300,
      "added": 5301,
      "feel": 5302,
      "................................": 5303,
      "wers": 5304,
      "begin": 5305,
      "140": 5306,
      "chart": 5307,
      "machines": 5308,
      "tcy": 5309,
      "maladie": 5310,
      "canal": 5311,
      "financier": 5312,
      "jeu": 5313,
      "along": 5314,
      "lau": 5315,
      "manus": 5316,
      "effort": 5317,
      "campa": 5318,
      "exercise": 5319,
      "poverty": 5320,
      "sida": 5321,
      "df": 5322,
      "explan": 5323,
      "citizen": 5324,
      "recruit": 5325,
      "leader": 5326,
      "paroisse": 5327,
      "importations": 5328,
      "registered": 5329,
      "nick": 5330,
      "sut": 5331,
      "prise": 5332,
      "places": 5333,
      "plat": 5334,
      "tuber": 5335,
      "orientation": 5336,
      "chercheurs": 5337,
      ";}": 5338,
      "allemagne": 5339,
      "kenne": 5340,
      "b6": 5341,
      "cia": 5342,
      "mari": 5343,
      "stage": 5344,
      "monthly": 5345,
      "alan": 5346,
      "assu": 5347,
      "souha": 5348,
      "channel": 5349,
      "mills": 5350,
      ")*": 5351,
      "fill": 5352,
      "agan": 5353,
      "cic": 5354,
      "tox": 5355,
      "principale": 5356,
      "directorate": 5357,
      "sat": 5358,
      "suis": 5359,
      "extension": 5360,
      "eaux": 5361,
      "ada": 5362,
      "regular": 5363,
      "crime": 5364,
      "bation": 5365,
      "rare": 5366,
      "bodies": 5367,
      "officials": 5368,
      "circumst": 5369,
      "facture": 5370,
      "operational": 5371,
      "fonda": 5372,
      "suivre": 5373,
      "yet": 5374,
      "tissu": 5375,
      "feuille": 5376,
      "506": 5377,
      "toral": 5378,
      "asing": 5379,
      "491": 5380,
      "supplement": 5381,
      "edition": 5382,
      "envi": 5383,
      "thu": 5384,
      "rid": 5385,
      "ired": 5386,
      "folk": 5387,
      "restrictions": 5388,
      "403": 5389,
      "gab": 5390,
      "goals": 5391,
      "colonel": 5392,
      "bia": 5393,
      "ias": 5394,
      "cting": 5395,
      "battle": 5396,
      "graphique": 5397,
      "resolution": 5398,
      "pto": 5399,
      "sole": 5400,
      "crit": 5401,
      "ctive": 5402,
      "semaine": 5403,
      "regulatory": 5404,
      "lev": 5405,
      "coe": 5406,
      "dose": 5407,
      "campaign": 5408,
      "jas": 5409,
      "preser": 5410,
      "particularly": 5411,
      "progres": 5412,
      "andrew": 5413,
      "dimension": 5414,
      "taylor": 5415,
      "usage": 5416,
      "lande": 5417,
      "draw": 5418,
      "cook": 5419,
      "mineral": 5420,
      "quant": 5421,
      "express": 5422,
      "hoc": 5423,
      "spain": 5424,
      "revenues": 5425,
      "challenges": 5426,
      "csc": 5427,
      "oise": 5428,
      "omy": 5429,
      "responsibility": 5430,
      "investigation": 5431,
      "secretariat": 5432,
      "adolescent": 5433,
      "imm": 5434,
      "ensis": 5435,
      "orti": 5436,
      "propose": 5437,
      "grade": 5438,
      "functions": 5439,
      "classes": 5440,
      "criteria": 5441,
      "tas": 5442,
      "seven": 5443,
      "immobil": 5444,
      "hope": 5445,
      "cton": 5446,
      "chic": 5447,
      "century": 5448,
      "transpar": 5449,
      "heading": 5450,
      "##": 5451,
      "b5": 5452,
      "oke": 5453,
      "reproduction": 5454,
      "banks": 5455,
      "0813": 5456,
      "copie": 5457,
      "isson": 5458,
      "statcan": 5459,
      "affect": 5460,
      "elli": 5461,
      "advertising": 5462,
      "cz": 5463,
      "lle": 5464,
      "iron": 5465,
      "intervenants": 5466,
      "pourcentage": 5467,
      "interview": 5468,
      "animals": 5469,
      "pharma": 5470,
      "tile": 5471,
      "phones": 5472,
      "1976": 5473,
      "threat": 5474,
      "pie": 5475,
      "carte": 5476,
      "append": 5477,
      "sold": 5478,
      "storage": 5479,
      "remboursement": 5480,
      "ayant": 5481,
      "messages": 5482,
      "pesti": 5483,
      "ani": 5484,
      "onia": 5485,
      "rien": 5486,
      "settlement": 5487,
      "selection": 5488,
      "grandes": 5489,
      "estimated": 5490,
      "contient": 5491,
      "auton": 5492,
      "roads": 5493,
      "ethylene": 5494,
      "ajou": 5495,
      "sout": 5496,
      "homme": 5497,
      "ireland": 5498,
      "obligation": 5499,
      "stakeholders": 5500,
      "luxemb": 5501,
      "reduction": 5502,
      "iner": 5503,
      "viennent": 5504,
      "volution": 5505,
      "comprehensive": 5506,
      "matiques": 5507,
      "tative": 5508,
      "publishers": 5509,
      "visitez": 5510,
      "preuve": 5511,
      "iling": 5512,
      "spati": 5513,
      "0472": 5514,
      "graphic": 5515,
      "investissement": 5516,
      "renewal": 5517,
      "injury": 5518,
      "california": 5519,
      "dead": 5520,
      "aller": 5521,
      "360": 5522,
      "mex": 5523,
      "appear": 5524,
      "neur": 5525,
      "explain": 5526,
      "igan": 5527,
      "integration": 5528,
      "dney": 5529,
      "jeff": 5530,
      "scr": 5531,
      "laun": 5532,
      "faction": 5533,
      "cabinet": 5534,
      "neil": 5535,
      "reste": 5536,
      "regions": 5537,
      "commitment": 5538,
      "schools": 5539,
      "excellence": 5540,
      "tha": 5541,
      "eline": 5542,
      "hear": 5543,
      "efficient": 5544,
      "hans": 5545,
      "radiation": 5546,
      "francis": 5547,
      "militaires": 5548,
      "census": 5549,
      "prestations": 5550,
      "dnd": 5551,
      "rof": 5552,
      "1977": 5553,
      "habitu": 5554,
      "issez": 5555,
      "revised": 5556,
      "---": 5557,
      "principe": 5558,
      "nationales": 5559,
      "255": 5560,
      "rule": 5561,
      "healthy": 5562,
      "telus": 5563,
      "circumstances": 5564,
      "cities": 5565,
      "fiel": 5566,
      "cliquez": 5567,
      "fusion": 5568,
      "agricoles": 5569,
      "aces": 5570,
      "afrique": 5571,
      "suivante": 5572,
      "luxembour": 5573,
      "128": 5574,
      "ratio": 5575,
      "ambi": 5576,
      "whit": 5577,
      "chose": 5578,
      "meetings": 5579,
      "video": 5580,
      "gun": 5581,
      "sl": 5582,
      "cgi": 5583,
      "vait": 5584,
      "emphas": 5585,
      "suggestions": 5586,
      "jamais": 5587,
      "coordon": 5588,
      "endanger": 5589,
      "indique": 5590,
      "throughout": 5591,
      "celles": 5592,
      "accordance": 5593,
      "fredericton": 5594,
      "spirit": 5595,
      "accept": 5596,
      "trip": 5597,
      "cais": 5598,
      "geograph": 5599,
      "send": 5600,
      "clari": 5601,
      "17e": 5602,
      "annexes": 5603,
      "tels": 5604,
      "managers": 5605,
      "supplies": 5606,
      "award": 5607,
      "taille": 5608,
      "sociale": 5609,
      "lettre": 5610,
      "honour": 5611,
      "believe": 5612,
      "zones": 5613,
      "seniors": 5614,
      "signed": 5615,
      "sujets": 5616,
      "----------------------------------------------------------------": 5617,
      "symbol": 5618,
      "ua": 5619,
      "2009": 5620,
      "wee": 5621,
      "emissions": 5622,
      "kim": 5623,
      "ett": 5624,
      "cler": 5625,
      "expan": 5626,
      "printing": 5627,
      "bilingual": 5628,
      "causes": 5629,
      "(<": 5630,
      "genous": 5631,
      "consolid": 5632,
      "iger": 5633,
      "nings": 5634,
      "londres": 5635,
      "quir": 5636,
      "makes": 5637,
      "club": 5638,
      "taxe": 5639,
      "marc": 5640,
      "114": 5641,
      "astro": 5642,
      "outils": 5643,
      "tam": 5644,
      "noted": 5645,
      "sodium": 5646,
      "dispos": 5647,
      "bid": 5648,
      "kni": 5649,
      "recovery": 5650,
      "satisfaction": 5651,
      "camer": 5652,
      "thous": 5653,
      "_en": 5654,
      "tap": 5655,
      "annon": 5656,
      "pih": 5657,
      "comparative": 5658,
      "elsewhere": 5659,
      "irs": 5660,
      "telecom": 5661,
      "kil": 5662,
      "race": 5663,
      "select": 5664,
      "touch": 5665,
      "limite": 5666,
      "kle": 5667,
      "cath": 5668,
      "setting": 5669,
      "secretary": 5670,
      "contenant": 5671,
      "abstract": 5672,
      "jer": 5673,
      "chine": 5674,
      "1e": 5675,
      "yy": 5676,
      "118": 5677,
      "160": 5678,
      "scale": 5679,
      "permit": 5680,
      "116": 5681,
      "mandate": 5682,
      "bol": 5683,
      "bone": 5684,
      "gly": 5685,
      "grat": 5686,
      "decisions": 5687,
      "2010": 5688,
      "atteindre": 5689,
      "visiteurs": 5690,
      "concurrence": 5691,
      "patrick": 5692,
      "database": 5693,
      "3a": 5694,
      "oj": 5695,
      "wit": 5696,
      "electric": 5697,
      "relationships": 5698,
      "measurement": 5699,
      "respective": 5700,
      "scientifiques": 5701,
      "pf": 5702,
      "ania": 5703,
      "dimin": 5704,
      "productive": 5705,
      "hazard": 5706,
      "luxembourg": 5707,
      "inger": 5708,
      "agreed": 5709,
      "moose": 5710,
      "bara": 5711,
      "statistical": 5712,
      "fox": 5713,
      "montants": 5714,
      "itions": 5715,
      "thesis": 5716,
      "bean": 5717,
      "appui": 5718,
      "endangered": 5719,
      "conn": 5720,
      "banff": 5721,
      "garanti": 5722,
      "citoy": 5723,
      "friend": 5724,
      "cpl": 5725,
      "shaw": 5726,
      "variation": 5727,
      "atmo": 5728,
      "mondiale": 5729,
      "equality": 5730,
      "jim": 5731,
      "endo": 5732,
      "appar": 5733,
      "nell": 5734,
      "supported": 5735,
      "350": 5736,
      "hsp": 5737,
      "ala": 5738,
      "isations": 5739,
      "duties": 5740,
      "gordon": 5741,
      "135": 5742,
      "atoires": 5743,
      "entrepreneur": 5744,
      "separate": 5745,
      "2c": 5746,
      "eller": 5747,
      "requirement": 5748,
      "fonctionnaires": 5749,
      "consommation": 5750,
      "neg": 5751,
      "salt": 5752,
      "bt_": 5753,
      "fabrication": 5754,
      "alo": 5755,
      "loge": 5756,
      "breast": 5757,
      "ldct": 5758,
      "petites": 5759,
      "pn": 5760,
      "thousand": 5761,
      "aks": 5762,
      "motor": 5763,
      "calcu": 5764,
      "models": 5765,
      "portugal": 5766,
      "cles": 5767,
      "simon": 5768,
      "joy": 5769,
      "largest": 5770,
      "lacement": 5771,
      "suggested": 5772,
      "libre": 5773,
      "commentaries": 5774,
      "determination": 5775,
      "etats": 5776,
      "porters": 5777,
      "called": 5778,
      "esse": 5779,
      "step": 5780,
      "harv": 5781,
      "951": 5782,
      "freedom": 5783,
      "nego": 5784,
      "managing": 5785,
      "aquatic": 5786,
      "sg": 5787,
      "confidential": 5788,
      "\\*": 5789,
      "adul": 5790,
      "announ": 5791,
      "probable": 5792,
      "renouvel": 5793,
      "ym": 5794,
      "extent": 5795,
      "weather": 5796,
      "interventions": 5797,
      "holds": 5798,
      "handbook": 5799,
      "accu": 5800,
      "therine": 5801,
      "symp": 5802,
      "susan": 5803,
      "internationaux": 5804,
      "____________________________": 5805,
      "asked": 5806,
      "temper": 5807,
      "physici": 5808,
      "117": 5809,
      "brad": 5810,
      "ssage": 5811,
      "lotte": 5812,
      "niag": 5813,
      "mono": 5814,
      "useful": 5815,
      "abe": 5816,
      "affir": 5817,
      "telle": 5818,
      "achieve": 5819,
      "souten": 5820,
      "spap": 5821,
      "provinci": 5822,
      "tz": 5823,
      "choses": 5824,
      "vaccin": 5825,
      "univer": 5826,
      "agricole": 5827,
      "yo": 5828,
      "ensuite": 5829,
      "deleg": 5830,
      "unies": 5831,
      "guerre": 5832,
      "nitro": 5833,
      "stra": 5834,
      "difficult": 5835,
      "encourage": 5836,
      "ras": 5837,
      "newspap": 5838,
      "inscription": 5839,
      "lv": 5840,
      "lez": 5841,
      "beach": 5842,
      "module": 5843,
      "submit": 5844,
      "approved": 5845,
      "installation": 5846,
      "cigarettes": 5847,
      "rot": 5848,
      "capt": 5849,
      "65e": 5850,
      "propre": 5851,
      "ariats": 5852,
      "calend": 5853,
      "rcmp": 5854,
      "fields": 5855,
      "stac": 5856,
      "trail": 5857,
      "practical": 5858,
      "tock": 5859,
      "ammon": 5860,
      "familles": 5861,
      "0491": 5862,
      "consequ": 5863,
      "networks": 5864,
      "))))))))": 5865,
      "already": 5866,
      "declar": 5867,
      "eliz": 5868,
      "famili": 5869,
      "hst": 5870,
      "bring": 5871,
      "graham": 5872,
      "vons": 5873,
      "estre": 5874,
      "consistent": 5875,
      "sd": 5876,
      "ila": 5877,
      "212": 5878,
      "allocation": 5879,
      "funda": 5880,
      "producteurs": 5881,
      "multic": 5882,
      "gate": 5883,
      "k1": 5884,
      "uits": 5885,
      "grains": 5886,
      "keeping": 5887,
      "mf": 5888,
      "math": 5889,
      "pher": 5890,
      "appell": 5891,
      "apr": 5892,
      "div": 5893,
      "902": 5894,
      "tit": 5895,
      "ciat": 5896,
      "illed": 5897,
      "alexander": 5898,
      "appointment": 5899,
      "brussels": 5900,
      "rendre": 5901,
      "isa": 5902,
      "coal": 5903,
      "markets": 5904,
      "gazette": 5905,
      "fertili": 5906,
      "dee": 5907,
      "procure": 5908,
      "ample": 5909,
      "leng": 5910,
      "exhibition": 5911,
      "m3": 5912,
      "liber": 5913,
      "references": 5914,
      "perform": 5915,
      "sym": 5916,
      "accommod": 5917,
      "supra": 5918,
      "formal": 5919,
      "steven": 5920,
      "businesses": 5921,
      "shell": 5922,
      "expenses": 5923,
      "davis": 5924,
      "instruction": 5925,
      "apprentissage": 5926,
      "k0": 5927,
      "lr": 5928,
      "turn": 5929,
      "buildings": 5930,
      "assi": 5931,
      "ibid": 5932,
      "titudes": 5933,
      "applique": 5934,
      "surtout": 5935,
      "________________________": 5936,
      "accountability": 5937,
      "jobs": 5938,
      "niagara": 5939,
      "vih": 5940,
      "barbara": 5941,
      "devons": 5942,
      "813": 5943,
      "fate": 5944,
      "scar": 5945,
      "cides": 5946,
      "host": 5947,
      "arian": 5948,
      "disclosure": 5949,
      "mount": 5950,
      "vey": 5951,
      "upper": 5952,
      "1975": 5953,
      "opti": 5954,
      "moi": 5955,
      "indigenous": 5956,
      "caisse": 5957,
      "ocean": 5958,
      "elizabeth": 5959,
      "nish": 5960,
      "transactions": 5961,
      "delta": 5962,
      "representative": 5963,
      "bob": 5964,
      "amoun": 5965,
      "formulaires": 5966,
      "&&&&&&&&": 5967,
      "cade": 5968,
      "illon": 5969,
      "fins": 5970,
      "chain": 5971,
      "compl": 5972,
      "culo": 5973,
      "rapid": 5974,
      "rice": 5975,
      "881": 5976,
      "floor": 5977,
      "therapy": 5978,
      "sli": 5979,
      "visitor": 5980,
      "candidats": 5981,
      "carried": 5982,
      "communautaires": 5983,
      "cially": 5984,
      "shi": 5985,
      "heim": 5986,
      "faudra": 5987,
      "cellu": 5988,
      "trent": 5989,
      "bd65e": 5990,
      "17ebd65e": 5991,
      "3b": 5992,
      "aly": 5993,
      "quick": 5994,
      "indiquer": 5995,
      "effectiveness": 5996,
      "garde": 5997,
      "220": 5998,
      "mouth": 5999,
      "isol": 6000,
      "units": 6001,
      "stro": 6002,
      "exposition": 6003,
      "sensi": 6004,
      "investments": 6005,
      "fluor": 6006,
      "saw": 6007,
      "fondament": 6008,
      "enforcement": 6009,
      "moncton": 6010,
      "foster": 6011,
      "306": 6012,
      "locations": 6013,
      "amt": 6014,
      "topics": 6015,
      "conseiller": 6016,
      "functional": 6017,
      "artis": 6018,
      "chemis": 6019,
      "norm": 6020,
      "141": 6021,
      "charlotte": 6022,
      "column": 6023,
      "petit": 6024,
      "knife": 6025,
      "fondation": 6026,
      "maur": 6027,
      "bry": 6028,
      "crip": 6029,
      "concerned": 6030,
      "artifacts": 6031,
      "tch": 6032,
      "ardi": 6033,
      "intention": 6034,
      "mammal": 6035,
      "especially": 6036,
      "19e": 6037,
      "mploy": 6038,
      "counsell": 6039,
      "selves": 6040,
      "tiles": 6041,
      "partenariats": 6042,
      "watch": 6043,
      "shared": 6044,
      "mondial": 6045,
      "academy": 6046,
      "animaux": 6047,
      "biblio": 6048,
      "requests": 6049,
      "nich": 6050,
      "advanced": 6051,
      "literature": 6052,
      "pont": 6053,
      "annuelle": 6054,
      "viet": 6055,
      "manif": 6056,
      "ipc": 6057,
      "nelson": 6058,
      "concern": 6059,
      "constituent": 6060,
      "exploration": 6061,
      "competitive": 6062,
      "student": 6063,
      "intelligence": 6064,
      "1000": 6065,
      "games": 6066,
      "wealth": 6067,
      "participant": 6068,
      "expect": 6069,
      "inhal": 6070,
      "poor": 6071,
      "pha": 6072,
      "responding": 6073,
      "manufacture": 6074,
      "artist": 6075,
      "examiner": 6076,
      "blanc": 6077,
      "vrai": 6078,
      "screening": 6079,
      "workplace": 6080,
      "england": 6081,
      "vais": 6082,
      "henry": 6083,
      "hot": 6084,
      "ctu": 6085,
      "grounds": 6086,
      "discussed": 6087,
      "australi": 6088,
      "obtained": 6089,
      "chel": 6090,
      "conception": 6091,
      "exce": 6092,
      "expression": 6093,
      "goal": 6094,
      "salle": 6095,
      "ukraine": 6096,
      "machin": 6097,
      "recue": 6098,
      "aldehy": 6099,
      "b2": 6100,
      "ca78": 6101,
      "approbation": 6102,
      "growing": 6103,
      "elements": 6104,
      "involvement": 6105,
      "observation": 6106,
      "6d19": 6107,
      "ange": 6108,
      "passer": 6109,
      "claire": 6110,
      "diplo": 6111,
      "produce": 6112,
      "ventes": 6113,
      "differences": 6114,
      "chus": 6115,
      "127": 6116,
      "attlist": 6117,
      "psychi": 6118,
      "fred": 6119,
      "chance": 6120,
      "acia": 6121,
      "ca786d19": 6122,
      "endable": 6123,
      "join": 6124,
      "protein": 6125,
      "cigarette": 6126,
      "features": 6127,
      "prec": 6128,
      "berry": 6129,
      "129": 6130,
      "spp": 6131,
      "nett": 6132,
      "candidates": 6133,
      "satel": 6134,
      "entry": 6135,
      "sian": 6136,
      "technici": 6137,
      "equity": 6138,
      "adaptation": 6139,
      "ctor": 6140,
      "enough": 6141,
      "holder": 6142,
      "fts": 6143,
      "true": 6144,
      "dissemin": 6145,
      "firms": 6146,
      "indicateurs": 6147,
      "structural": 6148,
      "dance": 6149,
      "tenu": 6150,
      "almost": 6151,
      "directement": 6152,
      "vehicles": 6153,
      "istic": 6154,
      "belgium": 6155,
      "chacun": 6156,
      "nursing": 6157,
      "ura": 6158,
      "planned": 6159,
      "604": 6160,
      "remerci": 6161,
      "attr": 6162,
      "attend": 6163,
      "lorsqu": 6164,
      "teachers": 6165,
      "certificate": 6166,
      "illi": 6167,
      "wind": 6168,
      "coas": 6169,
      "listed": 6170,
      "jacques": 6171,
      "agra": 6172,
      "shown": 6173,
      "mans": 6174,
      "amph": 6175,
      "commande": 6176,
      "obstac": 6177,
      "hydr": 6178,
      "definition": 6179,
      "tirer": 6180,
      "ius": 6181,
      "inspec": 6182,
      "macro": 6183,
      "bits": 6184,
      "commence": 6185,
      "cline": 6186,
      "intended": 6187,
      "anie": 6188,
      "nowrap": 6189,
      "pense": 6190,
      "satellite": 6191,
      "aco": 6192,
      "devant": 6193,
      "reduce": 6194,
      "agr": 6195,
      "epidemiology": 6196,
      "manuel": 6197,
      "complain": 6198,
      "tidi": 6199,
      "maison": 6200,
      "124": 6201,
      "accords": 6202,
      "atmosph": 6203,
      "negoti": 6204,
      "165": 6205,
      "tvh": 6206,
      "characteristics": 6207,
      "e17": 6208,
      "hus": 6209,
      "aro": 6210,
      "cium": 6211,
      "paras": 6212,
      "voice": 6213,
      "borne": 6214,
      "atteint": 6215,
      "_1_1": 6216,
      "encer": 6217,
      "elph": 6218,
      "aceae": 6219,
      "pwg": 6220,
      "notices": 6221,
      "jard": 6222,
      "combus": 6223,
      "letters": 6224,
      "31a": 6225,
      "royale": 6226,
      "extract": 6227,
      "engagements": 6228,
      "oak": 6229,
      "avenir": 6230,
      "expert": 6231,
      "v1": 6232,
      "wick": 6233,
      "f0": 6234,
      "unemploy": 6235,
      "06b": 6236,
      "shows": 6237,
      "patterns": 6238,
      "amine": 6239,
      "valent": 6240,
      "italie": 6241,
      "examine": 6242,
      "tard": 6243,
      "zy": 6244,
      "arms": 6245,
      "sier": 6246,
      "gray": 6247,
      "femme": 6248,
      "docs": 6249,
      "seule": 6250,
      "ecology": 6251,
      "usually": 6252,
      "219": 6253,
      "isbn": 6254,
      "deer": 6255,
      "terrain": 6256,
      "121": 6257,
      "sudbury": 6258,
      "fight": 6259,
      "vise": 6260,
      "================": 6261,
      "aj": 6262,
      "wr": 6263,
      "122": 6264,
      "respendable": 6265,
      "referred": 6266,
      "category": 6267,
      "tious": 6268,
      "compared": 6269,
      "253": 6270,
      "courses": 6271,
      "diverses": 6272,
      "distance": 6273,
      "ised": 6274,
      "francais": 6275,
      "conducted": 6276,
      "idae": 6277,
      "145": 6278,
      "pun": 6279,
      "stations": 6280,
      "126": 6281,
      "skin": 6282,
      "clearly": 6283,
      "uniquement": 6284,
      "mackenzie": 6285,
      "chinese": 6286,
      "ister": 6287,
      "facul": 6288,
      "n0": 6289,
      "origine": 6290,
      "obligatoire": 6291,
      "strat": 6292,
      "ichlor": 6293,
      "recommended": 6294,
      "taxon": 6295,
      "highway": 6296,
      "promoting": 6297,
      "innovative": 6298,
      "notification": 6299,
      "eb": 6300,
      "something": 6301,
      "1970": 6302,
      "nrcan": 6303,
      "angle": 6304,
      "supports": 6305,
      "chloride": 6306,
      "populaire": 6307,
      "dna": 6308,
      "absor": 6309,
      "venue": 6310,
      "ode": 6311,
      "budg": 6312,
      "tribal": 6313,
      "telles": 6314,
      "quotidi": 6315,
      "disparition": 6316,
      "enge": 6317,
      "assure": 6318,
      "fique": 6319,
      "ethnic": 6320,
      ">>": 6321,
      "guelph": 6322,
      "pregnancy": 6323,
      "chemistry": 6324,
      "grc": 6325,
      "serious": 6326,
      "mandatory": 6327,
      "1971": 6328,
      "allowed": 6329,
      "travailleurs": 6330,
      "launch": 6331,
      "213": 6332,
      "portent": 6333,
      "woods": 6334,
      "imple": 6335,
      "7a": 6336,
      "niveaux": 6337,
      "profon": 6338,
      "venture": 6339,
      "institutionnels": 6340,
      "failure": 6341,
      "bach": 6342,
      "tures": 6343,
      "strain": 6344,
      "offers": 6345,
      "izing": 6346,
      "mercur": 6347,
      "participating": 6348,
      "baie": 6349,
      "inscrire": 6350,
      "buff": 6351,
      "contrac": 6352,
      "cash": 6353,
      "approvision": 6354,
      "whereas": 6355,
      "navigation": 6356,
      "crisis": 6357,
      "t4": 6358,
      "governor": 6359,
      "fishing": 6360,
      "prefer": 6361,
      "establishment": 6362,
      "weekly": 6363,
      "cable": 6364,
      "accompl": 6365,
      "object": 6366,
      "kenya": 6367,
      "leading": 6368,
      "turkey": 6369,
      "artists": 6370,
      "enza": 6371,
      "itzer": 6372,
      "wireless": 6373,
      "oto": 6374,
      "pros": 6375,
      "poids": 6376,
      "marily": 6377,
      "outcome": 6378,
      "travailler": 6379,
      "tuberculo": 6380,
      "tary": 6381,
      "poisson": 6382,
      "geon": 6383,
      "except": 6384,
      "destru": 6385,
      "quarterly": 6386,
      "neuf": 6387,
      "rez": 6388,
      "recen": 6389,
      "colour": 6390,
      "hudson": 6391,
      "laurent": 6392,
      "accident": 6393,
      "crt": 6394,
      "=&": 6395,
      "door": 6396,
      "sharing": 6397,
      "supporting": 6398,
      "importantes": 6399,
      "demonstr": 6400,
      "pis": 6401,
      "sif": 6402,
      "voi": 6403,
      "carcin": 6404,
      "volunteer": 6405,
      "450": 6406,
      "changed": 6407,
      "gpt": 6408,
      "aster": 6409,
      "seg": 6410,
      "submission": 6411,
      "induced": 6412,
      "newsletter": 6413,
      "rend": 6414,
      "licences": 6415,
      "spa": 6416,
      "e1706b": 6417,
      "e1706b48": 6418,
      "iu": 6419,
      "sample": 6420,
      "served": 6421,
      "modes": 6422,
      "0001": 6423,
      "films": 6424,
      "coordinator": 6425,
      "mice": 6426,
      "fruit": 6427,
      "contac": 6428,
      "crop": 6429,
      "ccct": 6430,
      "tourisme": 6431,
      "parliamentary": 6432,
      "input": 6433,
      "icide": 6434,
      "asie": 6435,
      "permission": 6436,
      "dispu": 6437,
      "205": 6438,
      "230": 6439,
      "tees": 6440,
      "teen": 6441,
      "shap": 6442,
      "133": 6443,
      "apping": 6444,
      "born": 6445,
      "civilians": 6446,
      "./": 6447,
      "von": 6448,
      "resul": 6449,
      "instance": 6450,
      "survival": 6451,
      ">.": 6452,
      "awa": 6453,
      "trie": 6454,
      "servir": 6455,
      "interaction": 6456,
      "____________________": 6457,
      "totale": 6458,
      "oiseaux": 6459,
      "3d": 6460,
      "o98": 6461,
      "trice": 6462,
      "irie": 6463,
      "veget": 6464,
      "partly": 6465,
      "ull": 6466,
      "3931a": 6467,
      "19e3931a": 6468,
      "(-": 6469,
      "hour": 6470,
      "vau": 6471,
      "maria": 6472,
      "corner": 6473,
      "continues": 6474,
      "closed": 6475,
      "strength": 6476,
      "injection": 6477,
      "lewis": 6478,
      "capit": 6479,
      "surveys": 6480,
      "welcome": 6481,
      "ries": 6482,
      "dated": 6483,
      "mous": 6484,
      "tag": 6485,
      "mbh": 6486,
      "mping": 6487,
      "bai": 6488,
      "meaning": 6489,
      "kirk": 6490,
      "jp": 6491,
      "swed": 6492,
      "microf": 6493,
      "commander": 6494,
      "christo": 6495,
      "lf": 6496,
      "vice": 6497,
      "louise": 6498,
      "aldehyde": 6499,
      "sert": 6500,
      "seen": 6501,
      "accompag": 6502,
      "divul": 6503,
      "counsel": 6504,
      "215": 6505,
      "brain": 6506,
      "tiv": 6507,
      "225": 6508,
      "leon": 6509,
      "theory": 6510,
      "sho": 6511,
      "outcomes": 6512,
      "cker": 6513,
      "duration": 6514,
      "obtenu": 6515,
      "aura": 6516,
      "pwgsc": 6517,
      "omb": 6518,
      "disting": 6519,
      "baker": 6520,
      "zing": 6521,
      "sique": 6522,
      "prospec": 6523,
      "milliers": 6524,
      "applies": 6525,
      "entitled": 6526,
      "lire": 6527,
      "anton": 6528,
      "successful": 6529,
      "admissibles": 6530,
      "symposi": 6531,
      "arab": 6532,
      "waterloo": 6533,
      "juridiques": 6534,
      "arn": 6535,
      "atal": 6536,
      "adjoint": 6537,
      "meat": 6538,
      "cie": 6539,
      "larger": 6540,
      "dynamics": 6541,
      "equi": 6542,
      "swe": 6543,
      "oux": 6544,
      "olar": 6545,
      "peup": 6546,
      "!%": 6547,
      "b1": 6548,
      "complet": 6549,
      "ologie": 6550,
      "generation": 6551,
      "003": 6552,
      "prison": 6553,
      "concerns": 6554,
      "written": 6555,
      "gren": 6556,
      "consen": 6557,
      "contained": 6558,
      "damage": 6559,
      "kon": 6560,
      "leton": 6561,
      "propositions": 6562,
      "count": 6563,
      "politics": 6564,
      "nour": 6565,
      "wright": 6566,
      "fixed": 6567,
      "challenge": 6568,
      "yellowknife": 6569,
      "cw": 6570,
      "dent": 6571,
      "adm": 6572,
      "stras": 6573,
      "cida": 6574,
      "fron": 6575,
      "contents": 6576,
      "absence": 6577,
      "750": 6578,
      "dm": 6579,
      "meu": 6580,
      "importe": 6581,
      "modu": 6582,
      "fournisseurs": 6583,
      "inted": 6584,
      "olympic": 6585,
      "weeks": 6586,
      "renouvellement": 6587,
      "g1": 6588,
      "victi": 6589,
      "determine": 6590,
      "!!!!": 6591,
      "tone": 6592,
      "etes": 6593,
      "conven": 6594,
      "otherwise": 6595,
      "employed": 6596,
      "voluntary": 6597,
      "spo": 6598,
      "inhi": 6599,
      "acs": 6600,
      "profil": 6601,
      "pines": 6602,
      "calcium": 6603,
      "plate": 6604,
      "exceptions": 6605,
      "coastal": 6606,
      "aking": 6607,
      "gus": 6608,
      "../": 6609,
      "highlights": 6610,
      "customer": 6611,
      "clark": 6612,
      "hiver": 6613,
      "lessons": 6614,
      "fd": 6615,
      "won": 6616,
      "stay": 6617,
      "pied": 6618,
      "gains": 6619,
      "retraite": 6620,
      "devices": 6621,
      "infections": 6622,
      "ng": 6623,
      "pourraient": 6624,
      "kee": 6625,
      "lieux": 6626,
      "perfection": 6627,
      "amounts": 6628,
      "happ": 6629,
      "chau": 6630,
      "132": 6631,
      "household": 6632,
      "declaration": 6633,
      "mercury": 6634,
      "bons": 6635,
      "ket": 6636,
      "seeds": 6637,
      "geneva": 6638,
      "length": 6639,
      "exige": 6640,
      "investissements": 6641,
      "nac": 6642,
      "alaska": 6643,
      "valence": 6644,
      "jusqu": 6645,
      "fournis": 6646,
      "tabac": 6647,
      "riers": 6648,
      "indicated": 6649,
      "vert": 6650,
      "angel": 6651,
      "phon": 6652,
      "ferme": 6653,
      "premiers": 6654,
      "forestry": 6655,
      "fast": 6656,
      "insu": 6657,
      "males": 6658,
      "defined": 6659,
      "aluminum": 6660,
      "confi": 6661,
      "barry": 6662,
      "reasonable": 6663,
      "stop": 6664,
      "cooper": 6665,
      "cited": 6666,
      "limits": 6667,
      "cyto": 6668,
      "particuliers": 6669,
      "imprim": 6670,
      "happen": 6671,
      "o97": 6672,
      "oud": 6673,
      "convient": 6674,
      "finland": 6675,
      "protocole": 6676,
      "bout": 6677,
      "164": 6678,
      "gestionnaire": 6679,
      "nombreuses": 6680,
      "1972": 6681,
      "beyond": 6682,
      "hil": 6683,
      "cession": 6684,
      "democr": 6685,
      "academic": 6686,
      "nur": 6687,
      "pus": 6688,
      "berger": 6689,
      "deploy": 6690,
      "3e": 6691,
      "icts": 6692,
      "directions": 6693,
      "followed": 6694,
      "variety": 6695,
      "pens": 6696,
      "liaison": 6697,
      "soient": 6698,
      "providers": 6699,
      "gou": 6700,
      "jar": 6701,
      "nap": 6702,
      "ye": 6703,
      "minster": 6704,
      "180": 6705,
      "gouvernementales": 6706,
      "ltr": 6707,
      "owski": 6708,
      "ished": 6709,
      "secu": 6710,
      "mati": 6711,
      "ineau": 6712,
      "142": 6713,
      "responses": 6714,
      "teaching": 6715,
      "''''''''": 6716,
      "rp": 6717,
      "wage": 6718,
      "remains": 6719,
      "isent": 6720,
      "cotis": 6721,
      "uns": 6722,
      "taire": 6723,
      "consorti": 6724,
      "substanti": 6725,
      "],": 6726,
      "pement": 6727,
      "heav": 6728,
      "australian": 6729,
      "strasbourg": 6730,
      "consortium": 6731,
      "envis": 6732,
      "daw": 6733,
      "requis": 6734,
      "japon": 6735,
      "fundamental": 6736,
      "sexu": 6737,
      "complaints": 6738,
      "package": 6739,
      "symposium": 6740,
      "presents": 6741,
      "participate": 6742,
      "adequ": 6743,
      "fellow": 6744,
      "134": 6745,
      "descriptions": 6746,
      "resistance": 6747,
      "6a": 6748,
      "ott": 6749,
      "modified": 6750,
      "aware": 6751,
      "welfare": 6752,
      "hockey": 6753,
      "consensus": 6754,
      "210": 6755,
      "pert": 6756,
      "precises": 6757,
      "parad": 6758,
      "allen": 6759,
      "claude": 6760,
      "bureaux": 6761,
      "plaido": 6762,
      "constant": 6763,
      "arbit": 6764,
      "lind": 6765,
      "durant": 6766,
      "avaient": 6767,
      "juste": 6768,
      "completion": 6769,
      "schedu": 6770,
      "eight": 6771,
      "airport": 6772,
      "membership": 6773,
      "passeng": 6774,
      "hills": 6775,
      "designed": 6776,
      "inn": 6777,
      "brev": 6778,
      "became": 6779,
      "looking": 6780,
      "jc": 6781,
      "adow": 6782,
      "175": 6783,
      "purchase": 6784,
      "wag": 6785,
      "thes": 6786,
      "friends": 6787,
      "1st": 6788,
      "healthcare": 6789,
      "sulph": 6790,
      "chiffres": 6791,
      "oso": 6792,
      "coc": 6793,
      "sensibil": 6794,
      "physique": 6795,
      "agroalimentaire": 6796,
      "fet": 6797,
      "tac": 6798,
      "ressed": 6799,
      "applicants": 6800,
      "staffing": 6801,
      "stabil": 6802,
      "plantes": 6803,
      "prud": 6804,
      "147": 6805,
      "warning": 6806,
      "bever": 6807,
      "recevoir": 6808,
      "locaux": 6809,
      "garden": 6810,
      "%,": 6811,
      "(\"": 6812,
      "f1": 6813,
      "monograph": 6814,
      "partage": 6815,
      "actuelle": 6816,
      "gradu": 6817,
      "substitu": 6818,
      "sons": 6819,
      "auth": 6820,
      "cee": 6821,
      "=\"../": 6822,
      "musique": 6823,
      "habil": 6824,
      "clair": 6825,
      "ethics": 6826,
      "terrorism": 6827,
      "commune": 6828,
      "guer": 6829,
      "709": 6830,
      "rane": 6831,
      "aby": 6832,
      "immedi": 6833,
      "pread": 6834,
      "cepti": 6835,
      "smoke": 6836,
      "affected": 6837,
      "syndro": 6838,
      "travaille": 6839,
      "assign": 6840,
      "concours": 6841,
      "tera": 6842,
      "exposed": 6843,
      "compounds": 6844,
      "143": 6845,
      "implementing": 6846,
      "brevets": 6847,
      "agrand": 6848,
      "bourses": 6849,
      "analyses": 6850,
      "sibilities": 6851,
      "horizontal": 6852,
      "lable": 6853,
      "sault": 6854,
      "appareils": 6855,
      "jon": 6856,
      "older": 6857,
      "lif": 6858,
      "inty": 6859,
      "gulf": 6860,
      "parce": 6861,
      "155": 6862,
      "imag": 6863,
      "kent": 6864,
      "nette": 6865,
      "uer": 6866,
      "131": 6867,
      "priorities": 6868,
      "kat": 6869,
      "interactions": 6870,
      "202": 6871,
      "hop": 6872,
      "norme": 6873,
      "holm": 6874,
      "switzer": 6875,
      "freshwater": 6876,
      "xs": 6877,
      "ently": 6878,
      "forec": 6879,
      "finally": 6880,
      "tiennent": 6881,
      "hec": 6882,
      "~'": 6883,
      "lex": 6884,
      "aspect": 6885,
      "noms": 6886,
      "verse": 6887,
      "margin": 6888,
      "151": 6889,
      "continuous": 6890,
      "','": 6891,
      "$.": 6892,
      "gmbh": 6893,
      "pione": 6894,
      "track": 6895,
      "mative": 6896,
      "milk": 6897,
      "friday": 6898,
      "multicultural": 6899,
      "nichol": 6900,
      "revue": 6901,
      "ordonnance": 6902,
      "novel": 6903,
      "sense": 6904,
      "simply": 6905,
      "confiance": 6906,
      "(%": 6907,
      "dette": 6908,
      "citoyens": 6909,
      "203": 6910,
      "philippines": 6911,
      "choisir": 6912,
      "wto": 6913,
      "ically": 6914,
      "inement": 6915,
      "144": 6916,
      "evolution": 6917,
      "lab": 6918,
      "duc": 6919,
      "discu": 6920,
      "undertaking": 6921,
      "modifier": 6922,
      "communiquez": 6923,
      "correct": 6924,
      "expansion": 6925,
      "alter": 6926,
      "hepati": 6927,
      "////": 6928,
      "davi": 6929,
      "mainly": 6930,
      "telecommunications": 6931,
      "legislative": 6932,
      "estime": 6933,
      "lost": 6934,
      "moore": 6935,
      "consent": 6936,
      "architecture": 6937,
      "game": 6938,
      "urgence": 6939,
      "forcer": 6940,
      "voit": 6941,
      "issant": 6942,
      "bene": 6943,
      "identifier": 6944,
      "wen": 6945,
      "vois": 6946,
      "tableaux": 6947,
      "travaill": 6948,
      "grey": 6949,
      "detailed": 6950,
      "adjustment": 6951,
      "bernard": 6952,
      "gins": 6953,
      "sequ": 6954,
      "optional": 6955,
      "ruption": 6956,
      "dirige": 6957,
      "came": 6958,
      "gor": 6959,
      "hir": 6960,
      "pb": 6961,
      "uil": 6962,
      "itself": 6963,
      "unknown": 6964,
      "supervision": 6965,
      "preparation": 6966,
      "m1": 6967,
      "aaaaaaaa": 6968,
      "bottom": 6969,
      "diagnostic": 6970,
      "switzerland": 6971,
      "bing": 6972,
      "repe": 6973,
      "ising": 6974,
      "entire": 6975,
      "pouvons": 6976,
      "influenza": 6977,
      "essa": 6978,
      "revision": 6979,
      "acro": 6980,
      "machinery": 6981,
      ")/": 6982,
      "seal": 6983,
      "combien": 6984,
      "adobe": 6985,
      "laurier": 6986,
      "away": 6987,
      "label": 6988,
      "poissons": 6989,
      "pak": 6990,
      "employers": 6991,
      "generally": 6992,
      "prairies": 6993,
      "plaidoirie": 6994,
      "cott": 6995,
      "1974": 6996,
      "audience": 6997,
      "paint": 6998,
      "498": 6999,
      "ecological": 7000,
      "bers": 7001,
      "fers": 7002,
      "uc": 7003,
      "suscepti": 7004,
      "allowance": 7005,
      "shor": 7006,
      "breeding": 7007,
      "responsables": 7008,
      "personalities": 7009,
      "guides": 7010,
      "sometimes": 7011,
      "authorization": 7012,
      "envoy": 7013,
      "recours": 7014,
      "senti": 7015,
      "coli": 7016,
      "pear": 7017,
      "polog": 7018,
      "nuclear": 7019,
      "ocy": 7020,
      "hugh": 7021,
      "catch": 7022,
      "tpsgc": 7023,
      "destruction": 7024,
      "imprimable": 7025,
      "kas": 7026,
      "passage": 7027,
      "consequences": 7028,
      "dges": 7029,
      "wp": 7030,
      "stated": 7031,
      "difference": 7032,
      "brochure": 7033,
      "payer": 7034,
      "universal": 7035,
      "zil": 7036,
      "zim": 7037,
      "recip": 7038,
      "acron": 7039,
      "pubs": 7040,
      "faune": 7041,
      "courts": 7042,
      "suivent": 7043,
      "guarantee": 7044,
      "hepatitis": 7045,
      "pir": 7046,
      "vendor": 7047,
      "chell": 7048,
      "sociaux": 7049,
      "138": 7050,
      "139": 7051,
      "preci": 7052,
      "farmers": 7053,
      "biotechnology": 7054,
      "commerciaux": 7055,
      "lean": 7056,
      "create": 7057,
      "milliards": 7058,
      "guided": 7059,
      "7b": 7060,
      "peer": 7061,
      "pool": 7062,
      "candidate": 7063,
      "attached": 7064,
      "kal": 7065,
      "pick": 7066,
      "190": 7067,
      "ataire": 7068,
      "accounting": 7069,
      "exportation": 7070,
      "christian": 7071,
      "%!": 7072,
      "866": 7073,
      "nab": 7074,
      "sang": 7075,
      "portant": 7076,
      "papier": 7077,
      "adultes": 7078,
      "islands": 7079,
      "coali": 7080,
      "parfois": 7081,
      "tues": 7082,
      "ential": 7083,
      "enfant": 7084,
      "chamber": 7085,
      "finding": 7086,
      "culturel": 7087,
      "trouvent": 7088,
      "excellent": 7089,
      "agrave": 7090,
      "portfol": 7091,
      "technological": 7092,
      "departments": 7093,
      "mailto": 7094,
      "ied": 7095,
      "motion": 7096,
      "alimentaires": 7097,
      "dau": 7098,
      "rite": 7099,
      "syndrome": 7100,
      "fb": 7101,
      "tos": 7102,
      "nh": 7103,
      "sv": 7104,
      "pep": 7105,
      "illness": 7106,
      "232": 7107,
      "efficiency": 7108,
      "workshops": 7109,
      "perfectionnement": 7110,
      "inu": 7111,
      "inage": 7112,
      "reproductive": 7113,
      "005": 7114,
      "146": 7115,
      "difficile": 7116,
      "feeding": 7117,
      "margare": 7118,
      "okan": 7119,
      "addressed": 7120,
      "niture": 7121,
      "exercises": 7122,
      "contracting": 7123,
      "updated": 7124,
      "chimiques": 7125,
      "cock": 7126,
      "themselves": 7127,
      "designated": 7128,
      "russian": 7129,
      "commerciale": 7130,
      "wait": 7131,
      "glass": 7132,
      "exploit": 7133,
      "dil": 7134,
      "cumu": 7135,
      "rendu": 7136,
      "subvention": 7137,
      "diesel": 7138,
      "receip": 7139,
      "recrute": 7140,
      "9d": 7141,
      "kong": 7142,
      "endu": 7143,
      "dumping": 7144,
      "rouge": 7145,
      "nomination": 7146,
      "8a": 7147,
      "dl": 7148,
      "oire": 7149,
      "prescri": 7150,
      "metro": 7151,
      "directrice": 7152,
      ")-": 7153,
      "attitudes": 7154,
      "parler": 7155,
      "fif": 7156,
      "capita": 7157,
      "charged": 7158,
      "index_f": 7159,
      "ived": 7160,
      "cow": 7161,
      "elim": 7162,
      "moving": 7163,
      "rather": 7164,
      "villes": 7165,
      "evans": 7166,
      "appliquer": 7167,
      "advantage": 7168,
      "liver": 7169,
      "choose": 7170,
      "petite": 7171,
      "discuss": 7172,
      "improving": 7173,
      "silver": 7174,
      "inquir": 7175,
      "spac": 7176,
      "detail": 7177,
      "colonne": 7178,
      "ogenic": 7179,
      "really": 7180,
      "dele": 7181,
      "ceci": 7182,
      "crtc": 7183,
      "consists": 7184,
      "helic": 7185,
      "empl": 7186,
      "accidents": 7187,
      "christopher": 7188,
      "226": 7189,
      "dt": 7190,
      "registry": 7191,
      "election": 7192,
      "320": 7193,
      "kh": 7194,
      "relatively": 7195,
      "1973": 7196,
      "');": 7197,
      "bv": 7198,
      "toll": 7199,
      "avoc": 7200,
      "predic": 7201,
      "volon": 7202,
      "utilisateurs": 7203,
      "cv": 7204,
      "fum": 7205,
      "toward": 7206,
      "boy": 7207,
      "drum": 7208,
      "statu": 7209,
      "pensions": 7210,
      "build": 7211,
      "aines": 7212,
      "indicator": 7213,
      "espagne": 7214,
      "implemented": 7215,
      "victims": 7216,
      "enqu": 7217,
      "leaf": 7218,
      "contemporary": 7219,
      "catherine": 7220,
      "distin": 7221,
      "virgin": 7222,
      "240": 7223,
      "consultant": 7224,
      "introduced": 7225,
      "smokers": 7226,
      "russia": 7227,
      "espace": 7228,
      "recognition": 7229,
      "feld": 7230,
      "rejet": 7231,
      "gestionnaires": 7232,
      "***,": 7233,
      "complaint": 7234,
      "fen": 7235,
      "gation": 7236,
      "sten": 7237,
      "tremb": 7238,
      "breton": 7239,
      "robinson": 7240,
      "facilitate": 7241,
      "ui": 7242,
      "conversion": 7243,
      "neigh": 7244,
      "theast": 7245,
      "0000": 7246,
      "weap": 7247,
      "hunting": 7248,
      "pacifique": 7249,
      "favour": 7250,
      "etat": 7251,
      "tatif": 7252,
      "changer": 7253,
      "pursuant": 7254,
      "pme": 7255,
      "zi": 7256,
      "alone": 7257,
      "pedi": 7258,
      "bande": 7259,
      "furniture": 7260,
      "continuing": 7261,
      "carrier": 7262,
      "tb": 7263,
      "ciper": 7264,
      "matics": 7265,
      "signat": 7266,
      "miscell": 7267,
      "device": 7268,
      "jaco": 7269,
      "4e": 7270,
      "dez": 7271,
      "inclure": 7272,
      "walker": 7273,
      "reached": 7274,
      "gdp": 7275,
      "jord": 7276,
      "ridge": 7277,
      "interim": 7278,
      "mile": 7279,
      "171": 7280,
      "gloss": 7281,
      "poul": 7282,
      "cun": 7283,
      "rise": 7284,
      "xt": 7285,
      "136": 7286,
      "petits": 7287,
      "pilote": 7288,
      "contaminants": 7289,
      "gat": 7290,
      "thurs": 7291,
      "urer": 7292,
      "activ": 7293,
      "plaign": 7294,
      "merie": 7295,
      "chambre": 7296,
      "vehicle": 7297,
      "poland": 7298,
      "fishes": 7299,
      "limites": 7300,
      "limitations": 7301,
      "manufacturers": 7302,
      "requested": 7303,
      "dh": 7304,
      "err": 7305,
      "suicide": 7306,
      "usement": 7307,
      "jackson": 7308,
      "ozone": 7309,
      "lacs": 7310,
      "sydney": 7311,
      "copper": 7312,
      "jardins": 7313,
      "depos": 7314,
      "161": 7315,
      "soldi": 7316,
      "visitors": 7317,
      "jen": 7318,
      "kor": 7319,
      "rosen": 7320,
      "002": 7321,
      "attemp": 7322,
      "propres": 7323,
      "nota": 7324,
      "137": 7325,
      "153": 7326,
      "austria": 7327,
      "vendre": 7328,
      "sty": 7329,
      "soy": 7330,
      "lum": 7331,
      "mcs": 7332,
      "essentiel": 7333,
      "attendu": 7334,
      "recognized": 7335,
      "miscellaneous": 7336,
      "leth": 7337,
      "irc": 7338,
      "eca": 7339,
      "profess": 7340,
      "calls": 7341,
      "grav": 7342,
      "fra": 7343,
      "courant": 7344,
      "scheme": 7345,
      "jeunesse": 7346,
      "minority": 7347,
      "rational": 7348,
      "store": 7349,
      "emerging": 7350,
      "4b": 7351,
      "ministres": 7352,
      "landing": 7353,
      "numer": 7354,
      "cav": 7355,
      "wic": 7356,
      "det": 7357,
      "abord": 7358,
      "vendeur": 7359,
      "habitats": 7360,
      "campagne": 7361,
      "targets": 7362,
      "validation": 7363,
      "zes": 7364,
      "cong": 7365,
      "veut": 7366,
      "ffe": 7367,
      "rencontre": 7368,
      "participer": 7369,
      "das": 7370,
      "185": 7371,
      "crown": 7372,
      "contribute": 7373,
      "pms": 7374,
      "rm": 7375,
      "vital": 7376,
      "207": 7377,
      "brux": 7378,
      "elling": 7379,
      "developments": 7380,
      "997": 7381,
      "bonnes": 7382,
      "opening": 7383,
      "honourable": 7384,
      "9a": 7385,
      "aton": 7386,
      "149": 7387,
      "speed": 7388,
      "chester": 7389,
      "increases": 7390,
      "rl": 7391,
      "sick": 7392,
      "t1": 7393,
      "enable": 7394,
      "ettes": 7395,
      "loops": 7396,
      "jointe": 7397,
      "fn": 7398,
      "odi": 7399,
      "debt": 7400,
      "ilo": 7401,
      "206": 7402,
      "subse": 7403,
      "described": 7404,
      "coverage": 7405,
      "lhs": 7406,
      "retrie": 7407,
      "latin": 7408,
      "factory": 7409,
      "cass": 7410,
      "ancy": 7411,
      "asian": 7412,
      "aga": 7413,
      "mps": 7414,
      "154": 7415,
      "159": 7416,
      "cardio": 7417,
      "researcher": 7418,
      "idential": 7419,
      "photographs": 7420,
      "interpretation": 7421,
      "mj": 7422,
      "excise": 7423,
      "transaction": 7424,
      "burnaby": 7425,
      "_fr": 7426,
      "kore": 7427,
      "lance": 7428,
      "chu": 7429,
      "steps": 7430,
      "hypo": 7431,
      "architect": 7432,
      "habituellement": 7433,
      "bce": 7434,
      "intr": 7435,
      "marin": 7436,
      "curren": 7437,
      "firm": 7438,
      "reflect": 7439,
      "utilise": 7440,
      "constitutional": 7441,
      "customers": 7442,
      "russell": 7443,
      "entrepreneurs": 7444,
      "itch": 7445,
      "260": 7446,
      "2nd": 7447,
      "nj": 7448,
      "trout": 7449,
      "fera": 7450,
      "cartes": 7451,
      "gouvernance": 7452,
      "assessing": 7453,
      "golden": 7454,
      "logement": 7455,
      "csa": 7456,
      "157": 7457,
      "basin": 7458,
      "=-=": 7459,
      "caribou": 7460,
      "geographic": 7461,
      "sab": 7462,
      "conventions": 7463,
      "163": 7464,
      "303": 7465,
      "signifie": 7466,
      "recrutement": 7467,
      "pde": 7468,
      "rons": 7469,
      "inac": 7470,
      "omie": 7471,
      "assez": 7472,
      "406": 7473,
      "went": 7474,
      "co2": 7475,
      "unders": 7476,
      "lob": 7477,
      "mind": 7478,
      "officiel": 7479,
      "yr": 7480,
      "incen": 7481,
      "hotel": 7482,
      "301": 7483,
      "appears": 7484,
      "appareil": 7485,
      "subsequent": 7486,
      ".]": 7487,
      "pag": 7488,
      "decline": 7489,
      "andon": 7490,
      "cose": 7491,
      "polar": 7492,
      "162": 7493,
      "habitants": 7494,
      "index_e": 7495,
      "composantes": 7496,
      "rapidement": 7497,
      "%).": 7498,
      "5a": 7499,
      "ples": 7500,
      "roun": 7501,
      "acet": 7502,
      "simplement": 7503,
      "wolf": 7504,
      "portfolio": 7505,
      "margaret": 7506,
      "geral": 7507,
      "dements": 7508,
      "lists": 7509,
      "controlled": 7510,
      "machine": 7511,
      "belgique": 7512,
      "ajouter": 7513,
      "mia": 7514,
      "ination": 7515,
      "vola": 7516,
      "monday": 7517,
      "270": 7518,
      "palest": 7519,
      "trades": 7520,
      "tendances": 7521,
      "routes": 7522,
      "5e": 7523,
      "anna": 7524,
      "alta": 7525,
      "stable": 7526,
      "pointed": 7527,
      "ulum": 7528,
      "treated": 7529,
      "possibles": 7530,
      "terminal": 7531,
      "tuberculosis": 7532,
      "bruxelles": 7533,
      "224": 7534,
      "n1": 7535,
      "deci": 7536,
      "cot": 7537,
      "earlier": 7538,
      "primarily": 7539,
      "divisions": 7540,
      "actuel": 7541,
      "exhibit": 7542,
      "temperature": 7543,
      "223": 7544,
      "209": 7545,
      "significance": 7546,
      "defic": 7547,
      "chino": 7548,
      "laquelle": 7549,
      "monial": 7550,
      "presque": 7551,
      "beck": 7552,
      "flex": 7553,
      "appellant": 7554,
      "stories": 7555,
      "talk": 7556,
      "judge": 7557,
      "principalement": 7558,
      "majority": 7559,
      "asive": 7560,
      "lethbridge": 7561,
      "agir": 7562,
      "ays": 7563,
      "merge": 7564,
      "sight": 7565,
      "protected": 7566,
      "353": 7567,
      "rental": 7568,
      "petrole": 7569,
      "reader": 7570,
      "owners": 7571,
      "mentioned": 7572,
      "metabolism": 7573,
      "prov": 7574,
      "ext": 7575,
      "quarters": 7576,
      "acrobat": 7577,
      "och": 7578,
      "judg": 7579,
      "osis": 7580,
      "laboratoire": 7581,
      "elect": 7582,
      "offrir": 7583,
      "thursday": 7584,
      "405": 7585,
      "cement": 7586,
      "tree": 7587,
      "dick": 7588,
      "patents": 7589,
      "780": 7590,
      "vaccine": 7591,
      "karen": 7592,
      "petroleum": 7593,
      "cote": 7594,
      "server": 7595,
      "fiche": 7596,
      "euros": 7597,
      "circonst": 7598,
      "responsabil": 7599,
      "spanish": 7600,
      "cscn": 7601,
      "coalition": 7602,
      "404": 7603,
      "smes": 7604,
      "tead": 7605,
      "eland": 7606,
      "208": 7607,
      "mala": 7608,
      "window": 7609,
      "commonwealth": 7610,
      "voyages": 7611,
      "pipeline": 7612,
      "905": 7613,
      "chand": 7614,
      "pointe": 7615,
      "156": 7616,
      "ecosystem": 7617,
      "anciens": 7618,
      "fda": 7619,
      "tci": 7620,
      "zak": 7621,
      "devient": 7622,
      "angla": 7623,
      "valu": 7624,
      "curric": 7625,
      "centrale": 7626,
      "biodiversity": 7627,
      "reserves": 7628,
      "gerald": 7629,
      "n2": 7630,
      "acte": 7631,
      "pier": 7632,
      "autom": 7633,
      "logiciels": 7634,
      "1b": 7635,
      "sage": 7636,
      "intern": 7637,
      "bos": 7638,
      "=-=-=-=-=-=-=-=-=-=-=-=-=-=-=-=-": 7639,
      "dissemination": 7640,
      "degree": 7641,
      "batter": 7642,
      "respectively": 7643,
      "aider": 7644,
      "provenant": 7645,
      "tissue": 7646,
      "'\"": 7647,
      "kay": 7648,
      "ori": 7649,
      "provis": 7650,
      "paix": 7651,
      "barr": 7652,
      "representatives": 7653,
      "pesticides": 7654,
      "imper": 7655,
      "surrey": 7656,
      "farms": 7657,
      "yn": 7658,
      "lever": 7659,
      "semi": 7660,
      "agers": 7661,
      "zoom": 7662,
      "jaw": 7663,
      "sities": 7664,
      "imo": 7665,
      "renforcer": 7666,
      "sond": 7667,
      "mitchell": 7668,
      "navires": 7669,
      "procurement": 7670,
      "ache": 7671,
      "recy": 7672,
      "attor": 7673,
      "hyph": 7674,
      "341": 7675,
      "peterborough": 7676,
      "409": 7677,
      "lla": 7678,
      "v3": 7679,
      "ades": 7680,
      "estimation": 7681,
      "vary": 7682,
      "visible": 7683,
      "achieved": 7684,
      "therapeu": 7685,
      "veterans": 7686,
      "expenditure": 7687,
      "recruitment": 7688,
      "cards": 7689,
      "extrait": 7690,
      "portage": 7691,
      "148": 7692,
      "cardi": 7693,
      "clause": 7694,
      "wednes": 7695,
      "228": 7696,
      "recep": 7697,
      "nez": 7698,
      "avoid": 7699,
      "whitehorse": 7700,
      "faisant": 7701,
      "4a": 7702,
      "printer": 7703,
      "kings": 7704,
      "acknow": 7705,
      "sociales": 7706,
      "personnelle": 7707,
      "simpli": 7708,
      "provinciaux": 7709,
      "iq": 7710,
      "acacia": 7711,
      "mike": 7712,
      "faq": 7713,
      "getting": 7714,
      "xxx": 7715,
      "deadline": 7716,
      "buffalo": 7717,
      "(+": 7718,
      "mh": 7719,
      "formats": 7720,
      "s0g": 7721,
      "wheel": 7722,
      "kamloops": 7723,
      "respiratory": 7724,
      "thousands": 7725,
      "pch": 7726,
      "divi": 7727,
      "excel": 7728,
      "formule": 7729,
      "matthe": 7730,
      "controls": 7731,
      "futures": 7732,
      "wednesday": 7733,
      "(%)": 7734,
      "aq": 7735,
      "uv": 7736,
      "rein": 7737,
      "tral": 7738,
      "restru": 7739,
      "prevalence": 7740,
      "corporations": 7741,
      "career": 7742,
      "refus": 7743,
      "8740": 7744,
      "block": 7745,
      "229": 7746,
      "thc": 7747,
      "deven": 7748,
      "roger": 7749,
      "cio": 7750,
      "mots": 7751,
      "tum": 7752,
      "transform": 7753,
      "236": 7754,
      "humaine": 7755,
      "%&": 7756,
      "jsp": 7757,
      "esa": 7758,
      "prosecu": 7759,
      "mcmaster": 7760,
      "archive": 7761,
      "renew": 7762,
      "l5": 7763,
      "partout": 7764,
      "tainment": 7765,
      "denmark": 7766,
      "interests": 7767,
      "tons": 7768,
      "terra": 7769,
      "dial": 7770,
      "235": 7771,
      "patric": 7772,
      "existence": 7773,
      "nip": 7774,
      "remember": 7775,
      "meadow": 7776,
      "atelier": 7777,
      "allan": 7778,
      "produire": 7779,
      "llp": 7780,
      "plains": 7781,
      "improved": 7782,
      "egp": 7783,
      "gend": 7784,
      "inated": 7785,
      "alis": 7786,
      "loin": 7787,
      "manie": 7788,
      "shif": 7789,
      "emplois": 7790,
      "signs": 7791,
      "organiser": 7792,
      "estimate": 7793,
      "outreach": 7794,
      "correspondance": 7795,
      "contactez": 7796,
      "heavy": 7797,
      "lap": 7798,
      "adic": 7799,
      "transfers": 7800,
      "commissions": 7801,
      "woman": 7802,
      "placement": 7803,
      "releases": 7804,
      "craig": 7805,
      "memorial": 7806,
      "voyageurs": 7807,
      "retire": 7808,
      "disability": 7809,
      "stri": 7810,
      "amended": 7811,
      "fitness": 7812,
      "scrut": 7813,
      "499": 7814,
      "spread": 7815,
      "idence": 7816,
      "ousse": 7817,
      "receiving": 7818,
      "rank": 7819,
      "speakers": 7820,
      "2d": 7821,
      "rin": 7822,
      "alban": 7823,
      "dietary": 7824,
      "vile": 7825,
      "mother": 7826,
      "237": 7827,
      "participatory": 7828,
      "autochtone": 7829,
      "decrease": 7830,
      "leu": 7831,
      "astron": 7832,
      "195": 7833,
      "shire": 7834,
      "efflu": 7835,
      "created": 7836,
      "reviews": 7837,
      "involving": 7838,
      "loyd": 7839,
      "mechanism": 7840,
      "displaying": 7841,
      "glossary": 7842,
      "t5": 7843,
      "uf": 7844,
      "agnes": 7845,
      "treas": 7846,
      "listing": 7847,
      "=\"\"": 7848,
      "professionals": 7849,
      "commerciales": 7850,
      "ancien": 7851,
      "carib": 7852,
      "circonstances": 7853,
      "vak": 7854,
      "thi": 7855,
      "buy": 7856,
      "got": 7857,
      "158": 7858,
      "cyber": 7859,
      "kelly": 7860,
      "dwell": 7861,
      "eh": 7862,
      "suisse": 7863,
      "pure": 7864,
      "actif": 7865,
      "vaient": 7866,
      "opinions": 7867,
      "alternatives": 7868,
      "probablement": 7869,
      "lymp": 7870,
      "villa": 7871,
      "summit": 7872,
      "atories": 7873,
      "determined": 7874,
      "writing": 7875,
      "ogenesis": 7876,
      "appendice": 7877,
      "v8": 7878,
      "stur": 7879,
      "1945": 7880,
      "socio": 7881,
      "recording": 7882,
      "ield": 7883,
      "rome": 7884,
      "lips": 7885,
      "acting": 7886,
      "256": 7887,
      "payable": 7888,
      "credi": 7889,
      "nsf": 7890,
      "meilleure": 7891,
      "replacement": 7892,
      "ota": 7893,
      "enfin": 7894,
      "tory": 7895,
      "employeur": 7896,
      "externe": 7897,
      "repair": 7898,
      "strengthening": 7899,
      "obstacles": 7900,
      "lent": 7901,
      "ration": 7902,
      "reid": 7903,
      "1967": 7904,
      "disposi": 7905,
      "saison": 7906,
      "greenhouse": 7907,
      "contamination": 7908,
      "adolescents": 7909,
      "unemployment": 7910,
      "ico": 7911,
      "accent": 7912,
      "166": 7913,
      "460": 7914,
      "trading": 7915,
      "complainant": 7916,
      "l4": 7917,
      "entend": 7918,
      "soon": 7919,
      "weak": 7920,
      "plaintes": 7921,
      "commercialisation": 7922,
      "definitions": 7923,
      "sla": 7924,
      "importation": 7925,
      "bulg": 7926,
      "infectious": 7927,
      "paragraphes": 7928,
      "recensement": 7929,
      "t2": 7930,
      "deep": 7931,
      "chasse": 7932,
      "dawson": 7933,
      "sensibilisation": 7934,
      "abandon": 7935,
      "marri": 7936,
      "995": 7937,
      "cof": 7938,
      "enjeux": 7939,
      "vessels": 7940,
      "traiter": 7941,
      "245": 7942,
      "speech": 7943,
      "iana": 7944,
      "francophones": 7945,
      "scarborough": 7946,
      "mergeformat": 7947,
      "211": 7948,
      "wang": 7949,
      "chat": 7950,
      "lamb": 7951,
      "editor": 7952,
      "corn": 7953,
      "267": 7954,
      "mcgill": 7955,
      "historiques": 7956,
      "taxable": 7957,
      "remaining": 7958,
      "enhanced": 7959,
      "????????????????": 7960,
      "alb": 7961,
      "quot": 7962,
      "directors": 7963,
      "protect": 7964,
      "permettre": 7965,
      "augmenter": 7966,
      "relativement": 7967,
      "6b": 7968,
      "gli": 7969,
      "reconnaissance": 7970,
      "parole": 7971,
      "brooks": 7972,
      "utiles": 7973,
      "collaborative": 7974,
      "combined": 7975,
      "c3": 7976,
      "sq": 7977,
      "croati": 7978,
      "incident": 7979,
      "teacher": 7980,
      "connexion": 7981,
      "suspen": 7982,
      "hoff": 7983,
      "v5": 7984,
      "michigan": 7985,
      "trimestre": 7986,
      "inhalation": 7987,
      "bf": 7988,
      "rehabil": 7989,
      "diab": 7990,
      "frag": 7991,
      "593": 7992,
      "vietnam": 7993,
      "gie": 7994,
      "thur": 7995,
      "canton": 7996,
      "powers": 7997,
      "exact": 7998,
      "280": 7999,
      "networking": 8000,
      "brock": 8001,
      "victimes": 8002,
      "ordinateurs": 8003,
      "aurait": 8004,
      "dangerous": 8005,
      "pharmaceutical": 8006,
      "emphasis": 8007,
      "ac1": 8008,
      "prod": 8009,
      "impossible": 8010,
      "dispose": 8011,
      "pain": 8012,
      "linda": 8013,
      "taxation": 8014,
      "professionnelle": 8015,
      "furthermore": 8016,
      "syndic": 8017,
      "kap": 8018,
      "pav": 8019,
      "sma": 8020,
      "comite": 8021,
      "169": 8022,
      "profiles": 8023,
      "entretien": 8024,
      "bars": 8025,
      "accepted": 8026,
      "investigators": 8027,
      "gis": 8028,
      "k1a": 8029,
      "calculation": 8030,
      "tuesday": 8031,
      "~,": 8032,
      "elder": 8033,
      "procha": 8034,
      "stag": 8035,
      "residential": 8036,
      "endra": 8037,
      "accessed": 8038,
      "actifs": 8039,
      "430": 8040,
      "jenni": 8041,
      "nul": 8042,
      "pelle": 8043,
      "microbi": 8044,
      "defense": 8045,
      "jennifer": 8046,
      "oney": 8047,
      "landscape": 8048,
      "handling": 8049,
      "anthony": 8050,
      "mts": 8051,
      "pseu": 8052,
      "ententes": 8053,
      "advo": 8054,
      "uler": 8055,
      "boo": 8056,
      "feb": 8057,
      "cartier": 8058,
      "0492": 8059,
      "variations": 8060,
      "l0": 8061,
      "sante": 8062,
      "vd": 8063,
      "thers": 8064,
      "semaines": 8065,
      "mutual": 8066,
      "whose": 8067,
      "perte": 8068,
      "cliquer": 8069,
      "holdings": 8070,
      "utile": 8071,
      "picture": 8072,
      "dame": 8073,
      "arsen": 8074,
      "dem": 8075,
      "terme": 8076,
      "frances": 8077,
      "feature": 8078,
      "communes": 8079,
      "hang": 8080,
      "incu": 8081,
      "intend": 8082,
      "241": 8083,
      "facteur": 8084,
      "indians": 8085,
      "montre": 8086,
      "vitamin": 8087,
      "correspondence": 8088,
      "supervisor": 8089,
      "kennedy": 8090,
      "transparency": 8091,
      "bata": 8092,
      "c5": 8093,
      "d6": 8094,
      "hend": 8095,
      "refin": 8096,
      "autant": 8097,
      "188": 8098,
      "naturel": 8099,
      "claimant": 8100,
      "frequently": 8101,
      "227": 8102,
      "519": 8103,
      "essais": 8104,
      "interne": 8105,
      "departmental": 8106,
      "confidence": 8107,
      "chicago": 8108,
      "burl": 8109,
      "mapping": 8110,
      "disorders": 8111,
      "compati": 8112,
      "conting": 8113,
      "178": 8114,
      "residents": 8115,
      "charlottetown": 8116,
      "distinction": 8117,
      "morgan": 8118,
      "imco": 8119,
      "velop": 8120,
      "rencontr": 8121,
      "355": 8122,
      "brandon": 8123,
      "observer": 8124,
      "detection": 8125,
      "explanation": 8126,
      "bp": 8127,
      "lord": 8128,
      "debate": 8129,
      "chy": 8130,
      "chal": 8131,
      "bots": 8132,
      "morph": 8133,
      "247": 8134,
      "chercheur": 8135,
      "bain": 8136,
      "ipr": 8137,
      "accur": 8138,
      "kevin": 8139,
      "176": 8140,
      "externes": 8141,
      "figurent": 8142,
      "edited": 8143,
      "spacing": 8144,
      "5f5": 8145,
      "pling": 8146,
      "167": 8147,
      "mounted": 8148,
      "quantitative": 8149,
      "dair": 8150,
      "zers": 8151,
      "257": 8152,
      "243": 8153,
      "jane": 8154,
      "mailing": 8155,
      "collins": 8156,
      "nine": 8157,
      "biograph": 8158,
      "smaller": 8159,
      "elections": 8160,
      "fried": 8161,
      "reduced": 8162,
      "ensing": 8163,
      "378": 8164,
      "couverture": 8165,
      "scot": 8166,
      "mdn": 8167,
      "g0r": 8168,
      "++++": 8169,
      "argument": 8170,
      "expenditures": 8171,
      "967": 8172,
      "cohor": 8173,
      "ultr": 8174,
      "177": 8175,
      "302": 8176,
      "plainte": 8177,
      "butter": 8178,
      "howard": 8179,
      "smx": 8180,
      "automatic": 8181,
      "patricia": 8182,
      "aluit": 8183,
      "formaldehyde": 8184,
      "coron": 8185,
      "187": 8186,
      "983": 8187,
      "addresses": 8188,
      "invasive": 8189,
      "gilles": 8190,
      "accommodation": 8191,
      "neighbour": 8192,
      "souff": 8193,
      "burden": 8194,
      "admissible": 8195,
      "retain": 8196,
      "tec": 8197,
      "civ": 8198,
      "illants": 8199,
      "tenay": 8200,
      "vraiment": 8201,
      "aille": 8202,
      "pent": 8203,
      "uts": 8204,
      "invention": 8205,
      "sedi": 8206,
      "impos": 8207,
      "ocar": 8208,
      "couvre": 8209,
      "globe": 8210,
      "qualifications": 8211,
      "residence": 8212,
      "enseignement": 8213,
      "diabetes": 8214,
      "%%": 8215,
      "%),": 8216,
      "kid": 8217,
      "impression": 8218,
      "corri": 8219,
      "kinson": 8220,
      "granted": 8221,
      "aig": 8222,
      "alli": 8223,
      "rideau": 8224,
      "ctures": 8225,
      "80000": 8226,
      "enquire": 8227,
      "motifs": 8228,
      "entity": 8229,
      "primer": 8230,
      "suppl": 8231,
      "occurrence": 8232,
      "subsidi": 8233,
      "pioneer": 8234,
      "professor": 8235,
      "?,": 8236,
      "eec": 8237,
      "ln": 8238,
      "root": 8239,
      "etown": 8240,
      "compose": 8241,
      "taient": 8242,
      "empty": 8243,
      "responsibilities": 8244,
      "drawn": 8245,
      "experimental": 8246,
      "sorte": 8247,
      "champion": 8248,
      "f5ac1": 8249,
      "5f5f5ac1": 8250,
      "kur": 8251,
      "brought": 8252,
      "qualit": 8253,
      "respecter": 8254,
      "hazards": 8255,
      "meilleur": 8256,
      "(!": 8257,
      "b3": 8258,
      "sap": 8259,
      "vinc": 8260,
      "adam": 8261,
      "172": 8262,
      "governing": 8263,
      "harm": 8264,
      "singap": 8265,
      "chairman": 8266,
      "jpg": 8267,
      "tants": 8268,
      "cible": 8269,
      "boston": 8270,
      "152": 8271,
      "virtu": 8272,
      "inclusion": 8273,
      "funded": 8274,
      "measuring": 8275,
      "dimensions": 8276,
      "currency": 8277,
      "vap": 8278,
      "remarque": 8279,
      "kath": 8280,
      "respectivement": 8281,
      "kra": 8282,
      "till": 8283,
      "dell": 8284,
      "heard": 8285,
      "visiter": 8286,
      "pib": 8287,
      "childhood": 8288,
      "informal": 8289,
      "lynn": 8290,
      "rho": 8291,
      "sour": 8292,
      "wong": 8293,
      "secure": 8294,
      "unless": 8295,
      "ider": 8296,
      "norway": 8297,
      "179": 8298,
      "carleton": 8299,
      "toxicology": 8300,
      "maple": 8301,
      "oceans": 8302,
      "weapons": 8303,
      "giving": 8304,
      "synon": 8305,
      "plays": 8306,
      "scit": 8307,
      "banking": 8308,
      "harper": 8309,
      "campus": 8310,
      "mutagen": 8311,
      "sequence": 8312,
      "niger": 8313,
      "though": 8314,
      "administrations": 8315,
      "satur": 8316,
      "confer": 8317,
      "mak": 8318,
      "249": 8319,
      "drogues": 8320,
      "ecosystems": 8321,
      "australie": 8322,
      "forests": 8323,
      "attorney": 8324,
      "rows": 8325,
      "visant": 8326,
      "easy": 8327,
      "010": 8328,
      "?)": 8329,
      "dens": 8330,
      "nons": 8331,
      "roles": 8332,
      "lav": 8333,
      "quie": 8334,
      "desjardins": 8335,
      "persist": 8336,
      "fern": 8337,
      "statements": 8338,
      "bench": 8339,
      "allows": 8340,
      "hydroxy": 8341,
      "cameron": 8342,
      "gp": 8343,
      "gap": 8344,
      "lloyd": 8345,
      "pard": 8346,
      "marshall": 8347,
      "bited": 8348,
      "arthur": 8349,
      "='/": 8350,
      "chant": 8351,
      "unis": 8352,
      "comply": 8353,
      "noter": 8354,
      "193": 8355,
      "ffer": 8356,
      "producer": 8357,
      "feminis": 8358,
      "181": 8359,
      "salary": 8360,
      "relatifs": 8361,
      "sheets": 8362,
      "ethan": 8363,
      "rant": 8364,
      "wl": 8365,
      "trum": 8366,
      "proof": 8367,
      "directeurs": 8368,
      "barriers": 8369,
      "johnston": 8370,
      "partenaire": 8371,
      "derniers": 8372,
      "effectuer": 8373,
      "divulgation": 8374,
      "authors": 8375,
      "bson": 8376,
      "dues": 8377,
      "nei": 8378,
      "suz": 8379,
      "indication": 8380,
      "/.": 8381,
      "swi": 8382,
      "manque": 8383,
      "faite": 8384,
      "westminster": 8385,
      "s0a": 8386,
      "civilian": 8387,
      "408": 8388,
      "foun": 8389,
      "oni": 8390,
      "amy": 8391,
      "commiss": 8392,
      "wear": 8393,
      "ampton": 8394,
      "264": 8395,
      "arrangement": 8396,
      "regiment": 8397,
      "kab": 8398,
      "administer": 8399,
      "comte": 8400,
      "usd": 8401,
      "marqu": 8402,
      "bomb": 8403,
      "fibres": 8404,
      "tension": 8405,
      "automobile": 8406,
      "gift": 8407,
      "infrastructures": 8408,
      "democracy": 8409,
      "restruct": 8410,
      "scrutin": 8411,
      "drap": 8412,
      "ska": 8413,
      "407": 8414,
      "fly": 8415,
      "contacter": 8416,
      "appels": 8417,
      "trouverez": 8418,
      "graphiques": 8419,
      "216": 8420,
      "440": 8421,
      "nad": 8422,
      "sgt": 8423,
      "promou": 8424,
      "apol": 8425,
      "plen": 8426,
      "oxid": 8427,
      "alternate": 8428,
      "murphy": 8429,
      "rocky": 8430,
      "maritimes": 8431,
      "atmospheric": 8432,
      "egrave": 8433,
      "m2": 8434,
      "tein": 8435,
      "amor": 8436,
      "provider": 8437,
      "entement": 8438,
      "fying": 8439,
      "subjects": 8440,
      "occurred": 8441,
      "adel": 8442,
      "constat": 8443,
      "irrig": 8444,
      "extre": 8445,
      "normale": 8446,
      "222": 8447,
      "aft": 8448,
      "kota": 8449,
      "adverse": 8450,
      "425": 8451,
      "ark": 8452,
      "dock": 8453,
      "cum": 8454,
      "built": 8455,
      "phyto": 8456,
      "determinants": 8457,
      "alcool": 8458,
      "injuries": 8459,
      "romania": 8460,
      "okanagan": 8461,
      "promouvoir": 8462,
      "dn": 8463,
      "vues": 8464,
      "191": 8465,
      "iaire": 8466,
      "costa": 8467,
      "officielle": 8468,
      "probably": 8469,
      "modernisation": 8470,
      "rod": 8471,
      "diet": 8472,
      "licensing": 8473,
      "phin": 8474,
      "bitions": 8475,
      "189": 8476,
      "nut": 8477,
      "huit": 8478,
      "institutes": 8479,
      "effectively": 8480,
      "culturelles": 8481,
      "s0k": 8482,
      "simpson": 8483,
      "appuyer": 8484,
      "sweet": 8485,
      "vres": 8486,
      "wd": 8487,
      "ria": 8488,
      "173": 8489,
      "cars": 8490,
      "275": 8491,
      "operate": 8492,
      "filing": 8493,
      "tarifaire": 8494,
      "disciplinary": 8495,
      "garantie": 8496,
      "bly": 8497,
      "uds": 8498,
      "ophy": 8499,
      "guard": 8500,
      "283": 8501,
      "tissement": 8502,
      "relief": 8503,
      "dave": 8504,
      "hair": 8505,
      "como": 8506,
      "183": 8507,
      "((((((((((((((((": 8508,
      "bibliography": 8509,
      "9f": 8510,
      "flying": 8511,
      "hex": 8512,
      "kn": 8513,
      "xml": 8514,
      "aland": 8515,
      "devenir": 8516,
      "outs": 8517,
      "icing": 8518,
      "239": 8519,
      "cran": 8520,
      "vances": 8521,
      "rolling": 8522,
      "enlarge": 8523,
      "ingen": 8524,
      "interviews": 8525,
      "titulaire": 8526,
      "brow": 8527,
      "ccc": 8528,
      "maz": 8529,
      "typh": 8530,
      "maintien": 8531,
      "italian": 8532,
      "characterization": 8533,
      "robertson": 8534,
      "preservation": 8535,
      "burlington": 8536,
      "sic": 8537,
      "alert": 8538,
      "agu": 8539,
      "stam": 8540,
      "spending": 8541,
      "denis": 8542,
      "threaten": 8543,
      "$)": 8544,
      "214": 8545,
      "yme": 8546,
      "deb": 8547,
      "cos": 8548,
      "chard": 8549,
      "370": 8550,
      "collected": 8551,
      "hazardous": 8552,
      "sb": 8553,
      "onclick": 8554,
      "resi": 8555,
      "verte": 8556,
      "380": 8557,
      "linked": 8558,
      "chromo": 8559,
      "helicop": 8560,
      "7e": 8561,
      "sri": 8562,
      "enty": 8563,
      "indiennes": 8564,
      "match": 8565,
      "fishery": 8566,
      "esc": 8567,
      "aca": 8568,
      "mins": 8569,
      "lisez": 8570,
      "availability": 8571,
      "374": 8572,
      "remercie": 8573,
      "313": 8574,
      "550": 8575,
      "spot": 8576,
      "tm": 8577,
      "covers": 8578,
      "crits": 8579,
      "mule": 8580,
      "sulfate": 8581,
      "assignment": 8582,
      "curs": 8583,
      "aling": 8584,
      "saillants": 8585,
      "haute": 8586,
      "explication": 8587,
      "dairy": 8588,
      "steph": 8589,
      "penal": 8590,
      "binding": 8591,
      "download": 8592,
      "methodology": 8593,
      "jurisdiction": 8594,
      "onmouseover": 8595,
      "amphi": 8596,
      "rehabilitation": 8597,
      "h2": 8598,
      "rer": 8599,
      "nuit": 8600,
      "357": 8601,
      "exclusive": 8602,
      "removal": 8603,
      "certificat": 8604,
      "entrer": 8605,
      "demeure": 8606,
      "utilization": 8607,
      "375": 8608,
      "tang": 8609,
      "wad": 8610,
      "remarks": 8611,
      "interconnection": 8612,
      "administratif": 8613,
      "occupation": 8614,
      "disposal": 8615,
      "pei": 8616,
      "moreover": 8617,
      "possession": 8618,
      "indeed": 8619,
      "postale": 8620,
      "cellular": 8621,
      "cellspacing": 8622,
      "cfp": 8623,
      "maps": 8624,
      "commandant": 8625,
      "lant": 8626,
      "leod": 8627,
      "eure": 8628,
      "placed": 8629,
      "diversi": 8630,
      "hind": 8631,
      "concil": 8632,
      "nothing": 8633,
      "rael": 8634,
      "biom": 8635,
      "achat": 8636,
      "mutu": 8637,
      "glaci": 8638,
      "hyperlink": 8639,
      "caribbean": 8640,
      "kine": 8641,
      "v02": 8642,
      "eri": 8643,
      "conjoint": 8644,
      "faces": 8645,
      "committed": 8646,
      "sauf": 8647,
      "experiences": 8648,
      "curriculum": 8649,
      "wt": 8650,
      "chip": 8651,
      "305": 8652,
      "millan": 8653,
      "candidat": 8654,
      "moderni": 8655,
      "restriction": 8656,
      "gang": 8657,
      "ensur": 8658,
      "thres": 8659,
      "prit": 8660,
      "endic": 8661,
      "crew": 8662,
      "expir": 8663,
      "raymond": 8664,
      "pv": 8665,
      "roch": 8666,
      "asth": 8667,
      "amis": 8668,
      "infan": 8669,
      "............": 8670,
      "variable": 8671,
      "phillips": 8672,
      "removed": 8673,
      "dang": 8674,
      "hmcs": 8675,
      "sle": 8676,
      "zinc": 8677,
      "insec": 8678,
      "ofor": 8679,
      "cox": 8680,
      "trace": 8681,
      "puts": 8682,
      "marsh": 8683,
      "productivity": 8684,
      "highest": 8685,
      "learned": 8686,
      "everyone": 8687,
      "fan": 8688,
      "anglo": 8689,
      "ignor": 8690,
      "enson": 8691,
      "msg": 8692,
      "ferro": 8693,
      "overseas": 8694,
      "utilisez": 8695,
      "identifying": 8696,
      "manner": 8697,
      "brant": 8698,
      "voix": 8699,
      "doute": 8700,
      "households": 8701,
      "platform": 8702,
      "acdi": 8703,
      "critique": 8704,
      "mente": 8705,
      "bateaux": 8706,
      "padding": 8707,
      "zar": 8708,
      "ligh": 8709,
      "steve": 8710,
      "344": 8711,
      "koo": 8712,
      "reviewed": 8713,
      "glos": 8714,
      "entertainment": 8715,
      "freight": 8716,
      "archival": 8717,
      "saumon": 8718,
      "morrison": 8719,
      "psychiat": 8720,
      "330": 8721,
      "mulation": 8722,
      "zu": 8723,
      "enrich": 8724,
      "376": 8725,
      "crops": 8726,
      "laboratories": 8727,
      "mobiles": 8728,
      "kitch": 8729,
      "onmouseout": 8730,
      "nag": 8731,
      "andum": 8732,
      "huile": 8733,
      "295": 8734,
      "combination": 8735,
      "humans": 8736,
      "refugees": 8737,
      "a2": 8738,
      "fies": 8739,
      "rebate": 8740,
      "atlas": 8741,
      "sters": 8742,
      "ecb": 8743,
      "intest": 8744,
      "genic": 8745,
      "mcdonald": 8746,
      "owna": 8747,
      "kelowna": 8748,
      "carriers": 8749,
      "physicians": 8750,
      "poultry": 8751,
      "4c": 8752,
      "lithu": 8753,
      "ulent": 8754,
      "fruits": 8755,
      "operators": 8756,
      "objects": 8757,
      "doctor": 8758,
      "clinique": 8759,
      "memorandum": 8760,
      "agrandir": 8761,
      "iaires": 8762,
      "nn": 8763,
      "vance": 8764,
      "retail": 8765,
      "ito": 8766,
      "1939": 8767,
      "ticals": 8768,
      "1228": 8769,
      "ryan": 8770,
      "959": 8771,
      "concluded": 8772,
      "securite": 8773,
      "comportement": 8774,
      "kis": 8775,
      "una": 8776,
      "gris": 8777,
      "aveur": 8778,
      "printemps": 8779,
      "fourth": 8780,
      "faudrait": 8781,
      "bam": 8782,
      "epr": 8783,
      "nants": 8784,
      "px": 8785,
      "itors": 8786,
      "buck": 8787,
      "stem": 8788,
      "speaking": 8789,
      "rupert": 8790,
      "touche": 8791,
      "highly": 8792,
      "888": 8793,
      "manufacturer": 8794,
      "dynamic": 8795,
      "ombuds": 8796,
      "hm": 8797,
      "rw": 8798,
      "airlines": 8799,
      "bases": 8800,
      "organized": 8801,
      "demandeur": 8802,
      "innovations": 8803,
      "revendic": 8804,
      "\")": 8805,
      "cj": 8806,
      "cci": 8807,
      "yue": 8808,
      "lag": 8809,
      "1968": 8810,
      "manage": 8811,
      "volet": 8812,
      "055": 8813,
      "identity": 8814,
      "tranet": 8815,
      "eye": 8816,
      "raisonn": 8817,
      "pulmon": 8818,
      "judicial": 8819,
      "jasper": 8820,
      "minerals": 8821,
      "sweden": 8822,
      "cdc": 8823,
      "184": 8824,
      "ify": 8825,
      "variables": 8826,
      "mely": 8827,
      "scul": 8828,
      "rell": 8829,
      "alain": 8830,
      "isted": 8831,
      "cope": 8832,
      "quite": 8833,
      "auteurs": 8834,
      "boats": 8835,
      "soumis": 8836,
      "388": 8837,
      "wells": 8838,
      "954": 8839,
      "clothing": 8840,
      "flag": 8841,
      "salmonella": 8842,
      "stanley": 8843,
      "cardiovascular": 8844,
      "dw": 8845,
      "thier": 8846,
      "chrom": 8847,
      "disco": 8848,
      "metals": 8849,
      "casual": 8850,
      "crois": 8851,
      "<!--": 8852,
      "watson": 8853,
      "trials": 8854,
      "cca": 8855,
      "jj": 8856,
      "tat": 8857,
      "istique": 8858,
      "194": 8859,
      "tai": 8860,
      "johan": 8861,
      "exemplaires": 8862,
      "phenyl": 8863,
      "lm": 8864,
      "adri": 8865,
      "sid": 8866,
      "inton": 8867,
      "occid": 8868,
      "exemption": 8869,
      "displayed": 8870,
      "pertinents": 8871,
      "mexique": 8872,
      "nitrogen": 8873,
      "calendrier": 8874,
      "electro": 8875,
      "imperial": 8876,
      "delay": 8877,
      "seur": 8878,
      "adams": 8879,
      "acks": 8880,
      "opposition": 8881,
      "trees": 8882,
      "worked": 8883,
      "365": 8884,
      "holding": 8885,
      "budgets": 8886,
      "establishing": 8887,
      "affecting": 8888,
      "aimer": 8889,
      "offrent": 8890,
      "normally": 8891,
      "tremblay": 8892,
      "310": 8893,
      "nz": 8894,
      "stages": 8895,
      "terry": 8896,
      "1941": 8897,
      "prc": 8898,
      "monte": 8899,
      "182": 8900,
      "creating": 8901,
      "committees": 8902,
      "channels": 8903,
      "elev": 8904,
      "properties": 8905,
      "dependent": 8906,
      "adequate": 8907,
      "output": 8908,
      "nik": 8909,
      "adapt": 8910,
      "chrane": 8911,
      "pregnant": 8912,
      "8n": 8913,
      "epi": 8914,
      "scan": 8915,
      "esqu": 8916,
      "cht": 8917,
      "simul": 8918,
      "absol": 8919,
      "botan": 8920,
      "viral": 8921,
      "journ": 8922,
      "pipe": 8923,
      "comparaison": 8924,
      "difficul": 8925,
      "newspaper": 8926,
      "absorption": 8927,
      "v6": 8928,
      "itable": 8929,
      "lib": 8930,
      "ppt": 8931,
      "vitro": 8932,
      "fertilizers": 8933,
      "fitz": 8934,
      "anders": 8935,
      "cochrane": 8936,
      "trus": 8937,
      "heb": 8938,
      "brevet": 8939,
      "737": 8940,
      "etait": 8941,
      "accr": 8942,
      "lton": 8943,
      "whale": 8944,
      "presence": 8945,
      "capture": 8946,
      "whom": 8947,
      "musical": 8948,
      "immigrant": 8949,
      "pictures": 8950,
      "missing": 8951,
      "potassi": 8952,
      "anthro": 8953,
      "l3": 8954,
      "wend": 8955,
      "chs": 8956,
      "aut": 8957,
      "poursuivre": 8958,
      "calling": 8959,
      "reducing": 8960,
      "francophone": 8961,
      "dealing": 8962,
      "resulting": 8963,
      "bulgaria": 8964,
      "dental": 8965,
      "008": 8966,
      "mobility": 8967,
      "bald": 8968,
      "textile": 8969,
      "isseau": 8970,
      "clinic": 8971,
      "behavior": 8972,
      "categories": 8973,
      "pakistan": 8974,
      "eag": 8975,
      "faveur": 8976,
      "psc": 8977,
      "heat": 8978,
      "231": 8979,
      "applicables": 8980,
      "drop": 8981,
      "lane": 8982,
      "recorded": 8983,
      "diagnosis": 8984,
      "movements": 8985,
      "heimer": 8986,
      "4v": 8987,
      "nana": 8988,
      "enjoy": 8989,
      "contraire": 8990,
      "279": 8991,
      "tissus": 8992,
      "cellpadding": 8993,
      "greenwood": 8994,
      "efficaces": 8995,
      "sustainability": 8996,
      "wheat": 8997,
      "expliquer": 8998,
      "lease": 8999,
      "admission": 9000,
      "conforme": 9001,
      "diane": 9002,
      "abc": 9003,
      "moral": 9004,
      "informed": 9005,
      "plastic": 9006,
      "dane": 9007,
      "reim": 9008,
      "mos": 9009,
      "sain": 9010,
      "courtes": 9011,
      "999": 9012,
      "indicates": 9013,
      "conduite": 9014,
      "tunis": 9015,
      ")?": 9016,
      "zon": 9017,
      "recreation": 9018,
      "seat": 9019,
      "dum": 9020,
      "lique": 9021,
      "plication": 9022,
      "seek": 9023,
      "significantly": 9024,
      "phosphate": 9025,
      "congress": 9026,
      "swift": 9027,
      "encing": 9028,
      "299": 9029,
      "griff": 9030,
      "remplacement": 9031,
      "interested": 9032,
      "ive": 9033,
      "kill": 9034,
      "swan": 9035,
      "oul": 9036,
      "serge": 9037,
      "somme": 9038,
      "faibles": 9039,
      "industriel": 9040,
      "wayne": 9041,
      "rub": 9042,
      "champs": 9043,
      "aims": 9044,
      "souhaite": 9045,
      "ao": 9046,
      "error": 9047,
      "atom": 9048,
      "lamp": 9049,
      "pow": 9050,
      "beaver": 9051,
      "weigh": 9052,
      "activation": 9053,
      "gather": 9054,
      "ronald": 9055,
      "azz": 9056,
      "faciliter": 9057,
      "electoral": 9058,
      "varie": 9059,
      "observed": 9060,
      "felt": 9061,
      "save": 9062,
      "propri": 9063,
      "abund": 9064,
      "love": 9065,
      "238": 9066,
      "accessibles": 9067,
      "texts": 9068,
      "walter": 9069,
      "cratic": 9070,
      "appliquent": 9071,
      "passport": 9072,
      "everything": 9073,
      "maintained": 9074,
      "dispute": 9075,
      "potassium": 9076,
      "()": 9077,
      "a5": 9078,
      "este": 9079,
      "indirect": 9080,
      "reve": 9081,
      "formed": 9082,
      "maires": 9083,
      "commons": 9084,
      "visits": 9085,
      "worker": 9086,
      "174": 9087,
      "carr": 9088,
      "song": 9089,
      "263": 9090,
      "appelle": 9091,
      "herb": 9092,
      "charte": 9093,
      "rooms": 9094,
      "manifest": 9095,
      "4105": 9096,
      "tham": 9097,
      "quet": 9098,
      "inclus": 9099,
      "counc": 9100,
      "bord": 9101,
      "scen": 9102,
      "clay": 9103,
      "familial": 9104,
      "muscle": 9105,
      "exhibits": 9106,
      "fetal": 9107,
      "l1": 9108,
      "inity": 9109,
      "tips": 9110,
      "monetary": 9111,
      "guay": 9112,
      "banques": 9113,
      "seems": 9114,
      "beta": 9115,
      "chlorinated": 9116,
      "embry": 9117,
      "distinct": 9118,
      "harvest": 9119,
      "ensuring": 9120,
      "laine": 9121,
      "sect": 9122,
      "ciob": 9123,
      "interior": 9124,
      "2969": 9125,
      "g0l": 9126,
      "involve": 9127,
      "avion": 9128,
      "erreur": 9129,
      "peuples": 9130,
      "retrieved": 9131,
      "icus": 9132,
      "interdit": 9133,
      "nies": 9134,
      "234": 9135,
      "ouvert": 9136,
      "scientists": 9137,
      "artific": 9138,
      "radiodiffusion": 9139,
      "combustion": 9140,
      "gatineau": 9141,
      "np": 9142,
      "pk": 9143,
      "remedi": 9144,
      "alpha": 9145,
      "lions": 9146,
      "265": 9147,
      "regionale": 9148,
      "garder": 9149,
      "actuels": 9150,
      "idium": 9151,
      "acce": 9152,
      "concre": 9153,
      "importer": 9154,
      "joe": 9155,
      "nets": 9156,
      "bassa": 9157,
      "citizenship": 9158,
      "jk": 9159,
      "kans": 9160,
      "nm": 9161,
      "ambassa": 9162,
      "______": 9163,
      "virtual": 9164,
      "idea": 9165,
      "captain": 9166,
      "arrive": 9167,
      "deposit": 9168,
      "cbc": 9169,
      "nage": 9170,
      "wine": 9171,
      "chari": 9172,
      "locomo": 9173,
      "mini": 9174,
      "houses": 9175,
      "logiciel": 9176,
      "laugh": 9177,
      "coordonn": 9178,
      "distingu": 9179,
      "passenger": 9180,
      "prudence": 9181,
      "bie": 9182,
      "hin": 9183,
      "ienne": 9184,
      "sz": 9185,
      "parle": 9186,
      "imaging": 9187,
      "pudu": 9188,
      "monu": 9189,
      "peters": 9190,
      "volumes": 9191,
      "complexe": 9192,
      ";}{\\": 9193,
      "immobilisations": 9194,
      "familiar": 9195,
      "counselling": 9196,
      "jordan": 9197,
      "lympho": 9198,
      "suspension": 9199,
      "andis": 9200,
      "cool": 9201,
      "taine": 9202,
      "joindre": 9203,
      "331": 9204,
      "benz": 9205,
      "vacc": 9206,
      "::": 9207,
      "phe": 9208,
      "cohen": 9209,
      "inge": 9210,
      "riez": 9211,
      "192": 9212,
      "volets": 9213,
      "scp": 9214,
      "indiens": 9215,
      "covering": 9216,
      "chacune": 9217,
      "xxxxxxxxxxxxxxxx": 9218,
      "treasury": 9219,
      ".</": 9220,
      "represents": 9221,
      "lim": 9222,
      "param": 9223,
      "god": 9224,
      "corruption": 9225,
      "petro": 9226,
      "pilotage": 9227,
      "nickel": 9228,
      "446": 9229,
      "mx": 9230,
      "rating": 9231,
      "onne": 9232,
      "inian": 9233,
      "oline": 9234,
      "pepudu": 9235,
      "string": 9236,
      "berlin": 9237,
      "entier": 9238,
      "emplacement": 9239,
      "borden": 9240,
      "hybri": 9241,
      "38b9": 9242,
      "47f8": 9243,
      "indications": 9244,
      "rsquo": 9245,
      "sensitive": 9246,
      "kitchener": 9247,
      "d1": 9248,
      "slow": 9249,
      "yan": 9250,
      "roth": 9251,
      "assoc": 9252,
      "atum": 9253,
      "succ": 9254,
      "usda": 9255,
      "commencer": 9256,
      "vocational": 9257,
      "traditions": 9258,
      "sommet": 9259,
      "caution": 9260,
      "pulp": 9261,
      "rempla": 9262,
      "520": 9263,
      "ules": 9264,
      "wap": 9265,
      "yers": 9266,
      "leban": 9267,
      "entendu": 9268,
      "hom": 9269,
      "carl": 9270,
      "afford": 9271,
      "compren": 9272,
      "similaires": 9273,
      "6e2969": 9274,
      "47f838b9": 9275,
      "6e296978": 9276,
      "rif": 9277,
      "metric": 9278,
      "248": 9279,
      "hiers": 9280,
      "summar": 9281,
      "maintenir": 9282,
      "alimentation": 9283,
      "harvard": 9284,
      "nanaimo": 9285,
      "2b": 9286,
      "402": 9287,
      "dred": 9288,
      "chor": 9289,
      "versions": 9290,
      "bris": 9291,
      "directed": 9292,
      "996": 9293,
      "lette": 9294,
      "microsoft": 9295,
      "unions": 9296,
      "lequel": 9297,
      "strath": 9298,
      "isses": 9299,
      "explore": 9300,
      "hungary": 9301,
      "sondage": 9302,
      "-,": 9303,
      "4th": 9304,
      "867": 9305,
[...]
